<unk>	0
<s>	0
</s>	0
<pad>	0
;B:0	0
;B:1	0
;B:2	0
;B:3	0
;B:4	0
;B:5	0
;B:6	0
;B:7	0
;M:0	0
;M:1	0
;M:2	0
;M:3	0
;M:4	0
;M:5	0
;M:6	0
;M:7	0
;L:1	0
;L:2	0
;L:3	0
;L:4	0
;L:5	0
;L:6	0
;L:7	0
;L:8	0
;L:9	0
;L:10	0
;L:11	0
;L:12	0
;L:13	0
;L:14	0
;L:15	0
;L:16	0
;L:17	0
;L:18	0
;L:19	0
;L:20	0
;L:21	0
;L:22	0
;L:23	0
;L:24	0
;L:25	0
;L:26	0
;L:27	0
;L:28	0
;L:29	0
;L:30	0
;L:31	0
;L:32	0
;L:33	0
;L:34	0
;L:35	0
;L:36	0
;L:37	0
;L:38	0
;L:39	0
;L:40	0
;L:41	0
;L:42	0
;L:43	0
;L:44	0
;L:45	0
;L:46	0
;L:47	0
;L:48	0
;L:49	0
;L:50	0
;L:51	0
;L:52	0
;L:53	0
;L:54	0
;L:55	0
;L:56	0
;L:57	0
;L:58	0
;L:59	0
;L:60	0
;L:61	0
;L:62	0
;L:63	0
;L:64	0
;L:65	0
;L:66	0
;L:67	0
;L:68	0
;L:69	0
;L:70	0
;L:71	0
;L:72	0
;L:73	0
;L:74	0
;L:75	0
;L:76	0
;L:77	0
;L:78	0
;L:79	0
;L:80	0
;L:81	0
;L:82	0
;L:83	0
;L:84	0
;L:85	0
;L:86	0
;L:87	0
;L:88	0
;L:89	0
;L:90	0
;L:91	0
;L:92	0
;L:93	0
;L:94	0
;L:95	0
;L:96	0
;L:97	0
;L:98	0
;L:99	0
;L:100	0
;L:101	0
;L:102	0
;L:103	0
;L:104	0
;L:105	0
;L:106	0
;L:107	0
;L:108	0
;L:109	0
;L:110	0
;L:111	0
;L:112	0
;L:113	0
;L:114	0
;L:115	0
;L:116	0
;L:117	0
;L:118	0
;L:119	0
;L:120	0
;L:121	0
;L:122	0
;L:123	0
;L:124	0
;L:125	0
;L:126	0
;L:127	0
;L:128	0
;L:129	0
;L:130	0
;L:131	0
;L:132	0
;L:133	0
;L:134	0
;L:135	0
;L:136	0
;L:137	0
;L:138	0
;L:139	0
;L:140	0
;L:141	0
;L:142	0
;L:143	0
;L:144	0
;L:145	0
;L:146	0
;L:147	0
;L:148	0
;L:149	0
;L:150	0
;L:151	0
;L:152	0
;L:153	0
;L:154	0
;L:155	0
;L:156	0
;L:157	0
;L:158	0
;L:159	0
;L:160	0
;L:161	0
;L:162	0
;L:163	0
;L:164	0
;L:165	0
;L:166	0
;L:167	0
;L:168	0
;L:169	0
;L:170	0
;L:171	0
;L:172	0
;L:173	0
;L:174	0
;L:175	0
;L:176	0
;L:177	0
;L:178	0
;L:179	0
;L:180	0
;L:181	0
;L:182	0
;L:183	0
;L:184	0
;L:185	0
;L:186	0
;L:187	0
;L:188	0
;L:189	0
;L:190	0
;L:191	0
;L:192	0
;I:0	0
;I:1	0
;I:2	0
;I:3	0
;I:4	0
;I:5	0
;I:6	0
;I:7	0
;I:8	0
;I:9	0
;I:10	0
;I:11	0
;I:12	0
;I:13	0
;I:14	0
;I:15	0
;I:16	0
;I:17	0
;I:18	0
;I:19	0
;I:20	0
;I:21	0
;I:22	0
;I:23	0
;I:24	0
;I:25	0
;I:26	0
;I:27	0
;I:28	0
;I:29	0
;I:30	0
;I:31	0
;I:32	0
;I:33	0
;I:34	0
;I:35	0
;I:36	0
;I:37	0
;I:38	0
;I:39	0
;I:40	0
;I:41	0
;I:42	0
;I:43	0
;I:44	0
;I:45	0
;I:46	0
;I:47	0
;I:48	0
;I:49	0
;I:50	0
;I:51	0
;I:52	0
;I:53	0
;I:54	0
;I:55	0
;I:56	0
;I:57	0
;I:58	0
;I:59	0
;I:60	0
;I:61	0
;I:62	0
;I:63	0
;I:64	0
;I:65	0
;I:66	0
;I:67	0
;I:68	0
;I:69	0
;I:70	0
;I:71	0
;I:72	0
;I:73	0
;I:74	0
;I:75	0
;I:76	0
;I:77	0
;I:78	0
;I:79	0
;I:80	0
;I:81	0
;I:82	0
;I:83	0
;I:84	0
;I:85	0
;I:86	0
;I:87	0
;I:88	0
;I:89	0
;I:90	0
;I:91	0
;I:92	0
;I:93	0
;I:94	0
;I:95	0
;I:96	0
;I:97	0
;I:98	0
;I:99	0
;I:100	0
;I:101	0
;I:102	0
;I:103	0
;I:104	0
;I:105	0
;I:106	0
;I:107	0
;I:108	0
;I:109	0
;I:110	0
;I:111	0
;I:112	0
;I:113	0
;I:114	0
;I:115	0
;I:116	0
;I:117	0
;I:118	0
;I:119	0
;I:120	0
;I:121	0
;I:122	0
;I:123	0
;I:124	0
;I:125	0
;I:126	0
;I:127	0
;I:128	0
;I:129	0
;I:130	0
;I:131	0
;I:132	0
;I:133	0
;I:134	0
;I:135	0
;I:136	0
;I:137	0
;I:138	0
;I:139	0
;I:140	0
;I:141	0
;I:142	0
;I:143	0
;I:144	0
;I:145	0
;I:146	0
;I:147	0
;I:148	0
;I:149	0
;I:150	0
;I:151	0
;I:152	0
;I:153	0
;I:154	0
;I:155	0
;I:156	0
;I:157	0
;I:158	0
;I:159	0
;I:160	0
;I:161	0
;I:162	0
;I:163	0
;I:164	0
;I:165	0
;I:166	0
;I:167	0
;I:168	0
;I:169	0
;I:170	0
;I:171	0
;I:172	0
;I:173	0
;I:174	0
;I:175	0
;I:176	0
;I:177	0
;I:178	0
;I:179	0
;I:180	0
;I:181	0
;I:182	0
;I:183	0
;I:184	0
;I:185	0
;I:186	0
;I:187	0
;I:188	0
;I:189	0
;I:190	0
;I:191	0
;I:192	0
;I:193	0
;I:194	0
;I:195	0
;I:196	0
;I:197	0
;I:198	0
;I:199	0
;I:200	0
;I:201	0
;I:202	0
;I:203	0
;I:204	0
;I:205	0
;I:206	0
;I:207	0
;I:208	0
;I:209	0
;I:210	0
;I:211	0
;I:212	0
;I:213	0
;I:214	0
;I:215	0
;I:216	0
;I:217	0
;I:218	0
;I:219	0
;I:220	0
;I:221	0
;I:222	0
;I:223	0
;I:224	0
;I:225	0
;I:226	0
;I:227	0
;I:228	0
;I:229	0
;I:230	0
;I:231	0
;I:232	0
;I:233	0
;I:234	0
;I:235	0
;I:236	0
;I:237	0
;I:238	0
;I:239	0
;I:240	0
;I:241	0
;I:242	0
;I:243	0
;I:244	0
;I:245	0
;I:246	0
;I:247	0
;I:248	0
;I:249	0
;I:250	0
;I:251	0
;I:252	0
;I:253	0
;I:254	0
;I:255	0
;I:256	0
;I:257	0
;R:1	0
;R:2	0
;R:3	0
;R:4	0
;R:5	0
;R:6	0
;R:7	0
;R:8	0
;R:9	0
;R:10	0
;R:11	0
;R:12	0
;R:13	0
;R:14	0
;R:15	0
;R:16	0
;R:17	0
;R:18	0
;R:19	0
;R:20	0
;R:21	0
;R:22	0
;R:23	0
;R:24	0
;R:25	0
;R:26	0
;R:27	0
;R:28	0
;R:29	0
;R:30	0
;R:31	0
;R:32	0
;R:33	0
;R:34	0
;R:35	0
;R:36	0
;R:37	0
;R:38	0
;R:39	0
;R:40	0
;R:41	0
;R:42	0
;R:43	0
;R:44	0
;R:45	0
;R:46	0
;R:47	0
;R:48	0
;R:49	0
;R:50	0
;R:51	0
;R:52	0
;R:53	0
;R:54	0
;R:55	0
;R:56	0
;R:57	0
;R:58	0
;R:59	0
;R:60	0
;R:61	0
;R:62	0
;R:63	0
;<extra_id_0>	0
;<extra_id_1>	0
;<extra_id_2>	0
;<extra_id_3>	0
;<extra_id_4>	0
;<extra_id_5>	0
;<extra_id_6>	0
;<extra_id_7>	0
;<extra_id_8>	0
;<extra_id_9>	0
;<extra_id_10>	0
;<extra_id_11>	0
;<extra_id_12>	0
;<extra_id_13>	0
;<extra_id_14>	0
;<extra_id_15>	0
;<extra_id_16>	0
;<extra_id_17>	0
;<extra_id_18>	0
;<extra_id_19>	0
;<extra_id_20>	0
;<extra_id_21>	0
;<extra_id_22>	0
;<extra_id_23>	0
;<extra_id_24>	0
;<extra_id_25>	0
;<extra_id_26>	0
;<extra_id_27>	0
;<extra_id_28>	0
;<extra_id_29>	0
;<extra_id_30>	0
;<extra_id_31>	0
;<extra_id_32>	0
;<extra_id_33>	0
;<extra_id_34>	0
;<extra_id_35>	0
;<extra_id_36>	0
;<extra_id_37>	0
;<extra_id_38>	0
;<extra_id_39>	0
;<extra_id_40>	0
;<extra_id_41>	0
;<extra_id_42>	0
;<extra_id_43>	0
;<extra_id_44>	0
;<extra_id_45>	0
;<extra_id_46>	0
;<extra_id_47>	0
;<extra_id_48>	0
;<extra_id_49>	0
;<extra_id_50>	0
;<extra_id_51>	0
;<extra_id_52>	0
;<extra_id_53>	0
;<extra_id_54>	0
;<extra_id_55>	0
;<extra_id_56>	0
;<extra_id_57>	0
;<extra_id_58>	0
;<extra_id_59>	0
;<extra_id_60>	0
;<extra_id_61>	0
;<extra_id_62>	0
;<extra_id_63>	0
;<extra_id_64>	0
;<extra_id_65>	0
;<extra_id_66>	0
;<extra_id_67>	0
;<extra_id_68>	0
;<extra_id_69>	0
;<extra_id_70>	0
;<extra_id_71>	0
;<extra_id_72>	0
;<extra_id_73>	0
;<extra_id_74>	0
;<extra_id_75>	0
;<extra_id_76>	0
;<extra_id_77>	0
;<extra_id_78>	0
;<extra_id_79>	0
;<extra_id_80>	0
;<extra_id_81>	0
;<extra_id_82>	0
;<extra_id_83>	0
;<extra_id_84>	0
;<extra_id_85>	0
;<extra_id_86>	0
;<extra_id_87>	0
;<extra_id_88>	0
;<extra_id_89>	0
;<extra_id_90>	0
;<extra_id_91>	0
;<extra_id_92>	0
;<extra_id_93>	0
;<extra_id_94>	0
;<extra_id_95>	0
;<extra_id_96>	0
;<extra_id_97>	0
;<extra_id_98>	0
;<extra_id_99>	0
;<extra_id_100>	0
;<extra_id_101>	0
;<extra_id_102>	0
;<extra_id_103>	0
;<extra_id_104>	0
;<extra_id_105>	0
;<extra_id_106>	0
;<extra_id_107>	0
;<extra_id_108>	0
;<extra_id_109>	0
;<extra_id_110>	0
;<extra_id_111>	0
;<extra_id_112>	0
;<extra_id_113>	0
;<extra_id_114>	0
;<extra_id_115>	0
;<extra_id_116>	0
;<extra_id_117>	0
;<extra_id_118>	0
;<extra_id_119>	0
;<extra_id_120>	0
;<extra_id_121>	0
;<extra_id_122>	0
;<extra_id_123>	0
;<extra_id_124>	0
;<extra_id_125>	0
;<extra_id_126>	0
;<extra_id_127>	0
;<extra_id_128>	0
;<extra_id_129>	0
;<extra_id_130>	0
;<extra_id_131>	0
;<extra_id_132>	0
;<extra_id_133>	0
;<extra_id_134>	0
;<extra_id_135>	0
;<extra_id_136>	0
;<extra_id_137>	0
;<extra_id_138>	0
;<extra_id_139>	0
;<extra_id_140>	0
;<extra_id_141>	0
;<extra_id_142>	0
;<extra_id_143>	0
;<extra_id_144>	0
;<extra_id_145>	0
;<extra_id_146>	0
;<extra_id_147>	0
;<extra_id_148>	0
;<extra_id_149>	0
;<extra_id_150>	0
;<extra_id_151>	0
;<extra_id_152>	0
;<extra_id_153>	0
;<extra_id_154>	0
;<extra_id_155>	0
;<extra_id_156>	0
;<extra_id_157>	0
;<extra_id_158>	0
;<extra_id_159>	0
;<extra_id_160>	0
;<extra_id_161>	0
;<extra_id_162>	0
;<extra_id_163>	0
;<extra_id_164>	0
;<extra_id_165>	0
;<extra_id_166>	0
;<extra_id_167>	0
;<extra_id_168>	0
;<extra_id_169>	0
;<extra_id_170>	0
;<extra_id_171>	0
;<extra_id_172>	0
;<extra_id_173>	0
;<extra_id_174>	0
;<extra_id_175>	0
;<extra_id_176>	0
;<extra_id_177>	0
;<extra_id_178>	0
;<extra_id_179>	0
;<extra_id_180>	0
;<extra_id_181>	0
;<extra_id_182>	0
;<extra_id_183>	0
;<extra_id_184>	0
;<extra_id_185>	0
;<extra_id_186>	0
;<extra_id_187>	0
;<extra_id_188>	0
;<extra_id_189>	0
;<extra_id_190>	0
;<extra_id_191>	0
;<extra_id_192>	0
;<extra_id_193>	0
;<extra_id_194>	0
;<extra_id_195>	0
;<extra_id_196>	0
;<extra_id_197>	0
;<extra_id_198>	0
;<extra_id_199>	0
;<extra_id_200>	0
;<extra_id_201>	0
;<extra_id_202>	0
;<extra_id_203>	0
;<extra_id_204>	0
;<extra_id_205>	0
;<extra_id_206>	0
;<extra_id_207>	0
;<extra_id_208>	0
;<extra_id_209>	0
;<extra_id_210>	0
;<extra_id_211>	0
;<extra_id_212>	0
;<extra_id_213>	0
;<extra_id_214>	0
;<extra_id_215>	0
;<extra_id_216>	0
;<extra_id_217>	0
;<extra_id_218>	0
;<extra_id_219>	0
;<extra_id_220>	0
;<extra_id_221>	0
;<extra_id_222>	0
;<extra_id_223>	0
;<extra_id_224>	0
;<extra_id_225>	0
;<extra_id_226>	0
;<extra_id_227>	0
;<extra_id_228>	0
;<extra_id_229>	0
;<extra_id_230>	0
;<extra_id_231>	0
;<extra_id_232>	0
;<extra_id_233>	0
;<extra_id_234>	0
;<extra_id_235>	0
;<extra_id_236>	0
;<extra_id_237>	0
;<extra_id_238>	0
;<extra_id_239>	0
;<extra_id_240>	0
;<extra_id_241>	0
;<extra_id_242>	0
;<extra_id_243>	0
;<extra_id_244>	0
;<extra_id_245>	0
;<extra_id_246>	0
;<extra_id_247>	0
;<extra_id_248>	0
;<extra_id_249>	0
;<extra_id_250>	0
;<extra_id_251>	0
;<extra_id_252>	0
;<extra_id_253>	0
;<extra_id_254>	0
;<extra_id_255>	0
;<mono>	0
;<poly>	0
;<instruction_0>	0
;<instruction_1>	0
;<instruction_2>	0
;<instruction_3>	0
;<instruction_4>	0
;<instruction_5>	0
;<instruction_6>	0
;<instruction_7>	0
;<instruction_8>	0
;<instruction_9>	0
;<instruction_10>	0
;<instruction_11>	0
;<instruction_12>	0
;<instruction_13>	0
;<instruction_14>	0
;<instruction_15>	0
;<instruction_16>	0
;<instruction_17>	0
;<instruction_18>	0
;<instruction_19>	0
;<instruction_20>	0
;<instruction_21>	0
;<instruction_22>	0
;<instruction_23>	0
;<instruction_24>	0
;<instruction_25>	0
;<instruction_26>	0
;<instruction_27>	0
;<instruction_28>	0
;<instruction_29>	0
;<instruction_30>	0
;<instruction_31>	0
;<instruction_32>	0
;<instruction_33>	0
;<instruction_34>	0
;<instruction_35>	0
;<instruction_36>	0
;<instruction_37>	0
;<instruction_38>	0
;<instruction_39>	0
;<instruction_40>	0
;<instruction_41>	0
;<instruction_42>	0
;<instruction_43>	0
;<instruction_44>	0
;<instruction_45>	0
;<instruction_46>	0
;<instruction_47>	0
;<instruction_48>	0
;<instruction_49>	0
;<instruction_50>	0
;<instruction_51>	0
;<instruction_52>	0
;<instruction_53>	0
;<instruction_54>	0
;<instruction_55>	0
;<instruction_56>	0
;<instruction_57>	0
;<instruction_58>	0
;<instruction_59>	0
;<instruction_60>	0
;<instruction_61>	0
;<instruction_62>	0
;<instruction_63>	0
;<instruction_64>	0
;<instruction_65>	0
;<instruction_66>	0
;<instruction_67>	0
;<instruction_68>	0
;<instruction_69>	0
;<instruction_70>	0
;<instruction_71>	0
;<instruction_72>	0
;<instruction_73>	0
;<instruction_74>	0
;<instruction_75>	0
;<instruction_76>	0
;<instruction_77>	0
;<instruction_78>	0
;<instruction_79>	0
;<instruction_80>	0
;<instruction_81>	0
;<instruction_82>	0
;<instruction_83>	0
;<instruction_84>	0
;<instruction_85>	0
;<instruction_86>	0
;<instruction_87>	0
;<instruction_88>	0
;<instruction_89>	0
;<instruction_90>	0
;<instruction_91>	0
;<instruction_92>	0
;<instruction_93>	0
;<instruction_94>	0
;<instruction_95>	0
;<instruction_96>	0
;<instruction_97>	0
;<instruction_98>	0
;<instruction_99>	0
;<instruction_100>	0
;<instruction_101>	0
;<instruction_102>	0
;<instruction_103>	0
;<instruction_104>	0
;<instruction_105>	0
;<instruction_106>	0
;<instruction_107>	0
;<instruction_108>	0
;<instruction_109>	0
;<instruction_110>	0
;<instruction_111>	0
;<instruction_112>	0
;<instruction_113>	0
;<instruction_114>	0
;<instruction_115>	0
;<instruction_116>	0
;<instruction_117>	0
;<instruction_118>	0
;<instruction_119>	0
;<instruction_120>	0
;<instruction_121>	0
;<instruction_122>	0
;<instruction_123>	0
;<instruction_124>	0
;<instruction_125>	0
;<instruction_126>	0
;<instruction_127>	0
;<instruction_128>	0
;<instruction_129>	0
;<instruction_130>	0
;<instruction_131>	0
;<instruction_132>	0
;<instruction_133>	0
;<instruction_134>	0
;<instruction_135>	0
;<instruction_136>	0
;<instruction_137>	0
;<instruction_138>	0
;<instruction_139>	0
;<instruction_140>	0
;<instruction_141>	0
;<instruction_142>	0
;<instruction_143>	0
;<instruction_144>	0
;<instruction_145>	0
;<instruction_146>	0
;<instruction_147>	0
;<instruction_148>	0
;<instruction_149>	0
;<instruction_150>	0
;<instruction_151>	0
;<instruction_152>	0
;<instruction_153>	0
;<instruction_154>	0
;<instruction_155>	0
;<instruction_156>	0
;<instruction_157>	0
;<instruction_158>	0
;<instruction_159>	0
;<instruction_160>	0
;<instruction_161>	0
;<instruction_162>	0
;<instruction_163>	0
;<instruction_164>	0
;<instruction_165>	0
;<instruction_166>	0
;<instruction_167>	0
;<instruction_168>	0
;<instruction_169>	0
;<instruction_170>	0
;<instruction_171>	0
;<instruction_172>	0
;<instruction_173>	0
;<instruction_174>	0
;<instruction_175>	0
;<instruction_176>	0
;<instruction_177>	0
;<instruction_178>	0
;<instruction_179>	0
;<instruction_180>	0
;<instruction_181>	0
;<instruction_182>	0
;<instruction_183>	0
;<instruction_184>	0
;<instruction_185>	0
;<instruction_186>	0
;<instruction_187>	0
;<instruction_188>	0
;<instruction_189>	0
;<instruction_190>	0
;<instruction_191>	0
;<instruction_192>	0
;<instruction_193>	0
;<instruction_194>	0
;<instruction_195>	0
;<instruction_196>	0
;<instruction_197>	0
;<instruction_198>	0
;<instruction_199>	0
;<instruction_200>	0
;<instruction_201>	0
;<instruction_202>	0
;<instruction_203>	0
;<instruction_204>	0
;<instruction_205>	0
;<instruction_206>	0
;<instruction_207>	0
;<instruction_208>	0
;<instruction_209>	0
;<instruction_210>	0
;<instruction_211>	0
;<instruction_212>	0
;<instruction_213>	0
;<instruction_214>	0
;<instruction_215>	0
;<instruction_216>	0
;<instruction_217>	0
;<instruction_218>	0
;<instruction_219>	0
;<instruction_220>	0
;<instruction_221>	0
;<instruction_222>	0
;<instruction_223>	0
;<instruction_224>	0
;<instruction_225>	0
;<instruction_226>	0
;<instruction_227>	0
;<instruction_228>	0
;<instruction_229>	0
;<instruction_230>	0
;<instruction_231>	0
;<instruction_232>	0
;<instruction_233>	0
;<instruction_234>	0
;<instruction_235>	0
;<instruction_236>	0
;<instruction_237>	0
;<instruction_238>	0
;<instruction_239>	0
;<instruction_240>	0
;<instruction_241>	0
;<instruction_242>	0
;<instruction_243>	0
;<instruction_244>	0
;<instruction_245>	0
;<instruction_246>	0
;<instruction_247>	0
;<instruction_248>	0
;<instruction_249>	0
;<instruction_250>	0
;<instruction_251>	0
;<instruction_252>	0
;<instruction_253>	0
;<instruction_254>	0
;<instruction_255>	0
;<instruction_256>	0
;<instruction_257>	0
;<instruction_258>	0
;<instruction_259>	0
;<instruction_260>	0
;<instruction_261>	0
;<instruction_262>	0
;<instruction_263>	0
;<instruction_264>	0
;<instruction_265>	0
;<instruction_266>	0
;<instruction_267>	0
;<instruction_268>	0
;<instruction_269>	0
;<instruction_270>	0
;<instruction_271>	0
;<instruction_272>	0
;<instruction_273>	0
;<instruction_274>	0
;<instruction_275>	0
;<instruction_276>	0
;<instruction_277>	0
;<instruction_278>	0
;<instruction_279>	0
;<instruction_280>	0
;<instruction_281>	0
;<instruction_282>	0
;<instruction_283>	0
;<instruction_284>	0
;<instruction_285>	0
;<instruction_286>	0
;<instruction_287>	0
;<instruction_288>	0
;<instruction_289>	0
;<instruction_290>	0
;<instruction_291>	0
;<instruction_292>	0
;<instruction_293>	0
;<instruction_294>	0
;<instruction_295>	0
;<instruction_296>	0
;<instruction_297>	0
;<instruction_298>	0
;<instruction_299>	0
;<instruction_300>	0
;<instruction_301>	0
;<instruction_302>	0
;<instruction_303>	0
;<instruction_304>	0
;<instruction_305>	0
;<instruction_306>	0
;<instruction_307>	0
;<instruction_308>	0
;<instruction_309>	0
;<instruction_310>	0
;<instruction_311>	0
;<instruction_312>	0
;<instruction_313>	0
;<instruction_314>	0
;<instruction_315>	0
;<instruction_316>	0
;<instruction_317>	0
;<instruction_318>	0
;<instruction_319>	0
;<instruction_320>	0
;<instruction_321>	0
;<instruction_322>	0
;<instruction_323>	0
;<instruction_324>	0
;<instruction_325>	0
;<instruction_326>	0
;<instruction_327>	0
;<instruction_328>	0
;<instruction_329>	0
;<instruction_330>	0
;<instruction_331>	0
;<instruction_332>	0
;<instruction_333>	0
;<instruction_334>	0
;<instruction_335>	0
;<instruction_336>	0
;<instruction_337>	0
;<instruction_338>	0
;<instruction_339>	0
;<instruction_340>	0
;<instruction_341>	0
;<instruction_342>	0
;<instruction_343>	0
;<instruction_344>	0
;<instruction_345>	0
;<instruction_346>	0
;<instruction_347>	0
;<instruction_348>	0
;<instruction_349>	0
;<instruction_350>	0
;<instruction_351>	0
;<instruction_352>	0
;<instruction_353>	0
;<instruction_354>	0
;<instruction_355>	0
;<instruction_356>	0
;<instruction_357>	0
;<instruction_358>	0
;<instruction_359>	0
;<instruction_360>	0
;<instruction_361>	0
;<instruction_362>	0
;<instruction_363>	0
;<instruction_364>	0
;<instruction_365>	0
;<instruction_366>	0
;<instruction_367>	0
;<instruction_368>	0
;<instruction_369>	0
;<instruction_370>	0
;<instruction_371>	0
;<instruction_372>	0
;<instruction_373>	0
;<instruction_374>	0
;<instruction_375>	0
;<instruction_376>	0
;<instruction_377>	0
;<instruction_378>	0
;<instruction_379>	0
;<instruction_380>	0
;<instruction_381>	0
;<instruction_382>	0
;<instruction_383>	0
;<instruction_384>	0
;<instruction_385>	0
;<instruction_386>	0
;<instruction_387>	0
;<instruction_388>	0
;<instruction_389>	0
;<instruction_390>	0
;<instruction_391>	0
;<instruction_392>	0
;<instruction_393>	0
;<instruction_394>	0
;<instruction_395>	0
;<instruction_396>	0
;<instruction_397>	0
;<instruction_398>	0
;<instruction_399>	0
;<instruction_400>	0
;<instruction_401>	0
;<instruction_402>	0
;<instruction_403>	0
;<instruction_404>	0
;<instruction_405>	0
;<instruction_406>	0
;<instruction_407>	0
;<instruction_408>	0
;<instruction_409>	0
;<instruction_410>	0
;<instruction_411>	0
;<instruction_412>	0
;<instruction_413>	0
;<instruction_414>	0
;<instruction_415>	0
;<instruction_416>	0
;<instruction_417>	0
;<instruction_418>	0
;<instruction_419>	0
;<instruction_420>	0
;<instruction_421>	0
;<instruction_422>	0
;<instruction_423>	0
;<instruction_424>	0
;<instruction_425>	0
;<instruction_426>	0
;<instruction_427>	0
;<instruction_428>	0
;<instruction_429>	0
;<instruction_430>	0
;<instruction_431>	0
;<instruction_432>	0
;<instruction_433>	0
;<instruction_434>	0
;<instruction_435>	0
;<instruction_436>	0
;<instruction_437>	0
;<instruction_438>	0
;<instruction_439>	0
;<instruction_440>	0
;<instruction_441>	0
;<instruction_442>	0
;<instruction_443>	0
;<instruction_444>	0
;<instruction_445>	0
;<instruction_446>	0
;<instruction_447>	0
;<instruction_448>	0
;<instruction_449>	0
;<instruction_450>	0
;<instruction_451>	0
;<instruction_452>	0
;<instruction_453>	0
;<instruction_454>	0
;<instruction_455>	0
;<instruction_456>	0
;<instruction_457>	0
;<instruction_458>	0
;<instruction_459>	0
;<instruction_460>	0
;<instruction_461>	0
;<instruction_462>	0
;<instruction_463>	0
;<instruction_464>	0
;<instruction_465>	0
;<instruction_466>	0
;<instruction_467>	0
;<instruction_468>	0
;<instruction_469>	0
;<instruction_470>	0
;<instruction_471>	0
;<instruction_472>	0
;<instruction_473>	0
;<instruction_474>	0
;<instruction_475>	0
;<instruction_476>	0
;<instruction_477>	0
;<instruction_478>	0
;<instruction_479>	0
;<instruction_480>	0
;<instruction_481>	0
;<instruction_482>	0
;<instruction_483>	0
;<instruction_484>	0
;<instruction_485>	0
;<instruction_486>	0
;<instruction_487>	0
;<instruction_488>	0
;<instruction_489>	0
;<instruction_490>	0
;<instruction_491>	0
;<instruction_492>	0
;<instruction_493>	0
;<instruction_494>	0
;<instruction_495>	0
;<instruction_496>	0
;<instruction_497>	0
;<instruction_498>	0
;<instruction_499>	0
;<instruction_500>	0
;<instruction_501>	0
;<instruction_502>	0
;<instruction_503>	0
;<instruction_504>	0
;<instruction_505>	0
;<instruction_506>	0
;<instruction_507>	0
;<instruction_508>	0
;<instruction_509>	0
;<instruction_510>	0
;<instruction_511>	0
;w:12	-3.38643
;w:6	-4.01462
;w:3	-4.77026
6	-4.905
2	-4.9823
8	-4.98321
4	-4.99541
0	-5.03387
3	-5.06924
5	-5.16049
7	-5.19276
1	-5.2253
9	-5.39779
;d:6	-5.43638
;w:8	-5.44436
;w:4	-5.69532
;w:12;d:6	-5.73703
;w:9	-5.7903
;N:67	-5.82387
;N:70	-5.83146
;N:69	-5.83242
;N:68	-5.83297
;N:66	-5.83442
;N:71	-5.85803
;w:16	-5.88781
;N:72	-5.89189
;N:65	-5.90827
;N:64	-5.93183
;N:73	-5.94576
;N:74	-5.97536
;N:63	-5.98696
;N:62	-6.02645
;d:12	-6.07293
;N:75	-6.11197
;N:61	-6.11696
;w:24;d:12	-6.13337
;N:76	-6.15662
;N:60	-6.16186
;d:9	-6.17248
;N:77	-6.20595
;N:59	-6.21233
;d:4	-6.23254
;d:3	-6.23826
;N:58	-6.26084
;w:15	-6.26916
;w:12;d:3	-6.27575
;w:2	-6.30014
;N:78	-6.32507
;N:57	-6.34022
;N:79	-6.41808
;d:8	-6.43237
;N:56	-6.43449
;w:6;d:3	-6.48274
;w:24;d:6	-6.49053
;N:80	-6.51338
;w:12;d:4	-6.52347
;N:55	-6.53223
;w:24;d:4	-6.53467
;w:24;d:3	-6.54038
;N:81	-6.59293
;N:54	-6.60839
;w:18;d:6	-6.61763
;N:82	-6.65583
;d:18	-6.67485
;N:53	-6.68081
;N:52	-6.68566
;w:6;d:2	-6.71603
;w:18;d:3	-6.75475
;N:51	-6.76072
;N:50	-6.7657
;N:83	-6.79795
;N:84	-6.90611
;w:12;d:12	-6.91827
;N:49	-6.92981
;N:48	-6.95167
;w:16;d:5	-6.96052
;w:6;d:4	-6.97962
;N:85	-6.98227
;w:5	-6.99238
;w:6;d:6	-7.02417
;N:47	-7.03155
;N:46	-7.0419
;N:45	-7.09794
;w:24;d:9	-7.11173
;w:1	-7.11648
;N:44	-7.12211
;w:12;N:61	-7.12904
;w:12;N:63	-7.14741
;w:12;N:62	-7.15417
;w:12;N:65	-7.15601
;w:12;N:59	-7.17256
;w:12;N:60	-7.17358
;N:86	-7.17527
;w:12;N:64	-7.177
;N:43	-7.17966
;w:24;d:8	-7.17997
;N:41	-7.18527
;w:12;N:66	-7.18539
;w:12;N:58	-7.20197
;N:40	-7.21216
;w:36;d:6	-7.21411
;w:8;d:4	-7.21562
;w:12;N:57	-7.21856
;N:42	-7.21939
;N:87	-7.22625
;w:12;N:55	-7.2333
;w:8;d:7	-7.23386
;D:36	-7.23824
;w:12;N:67	-7.2526
;w:12;N:56	-7.26896
;N:88	-7.2697
;d:12;N:65	-7.27961
;d:12;N:66	-7.28373
;w:12;N:51	-7.28612
;w:12;N:68	-7.28983
;D:36;D:42	-7.2906
;d:12;N:63	-7.29619
;w:16;d:8	-7.29965
;w:12;N:53	-7.30039
;w:12;N:54	-7.30117
;d:12;N:68	-7.30478
;w:36;d:9	-7.3068
;w:12;d:8	-7.30701
;w:12;N:50	-7.31242
;w:7	-7.31449
;N:90	-7.31734
;d:12;N:70	-7.31903
;w:6;d:12	-7.31954
;d:12;N:61	-7.32028
;d:12;N:69	-7.32234
;w:12;d:9	-7.3237
;N:91	-7.32982
;w:12;N:52	-7.34049
;w:36;d:12	-7.34626
;w:3;d:1	-7.35855
;w:18;d:2	-7.36257
;w:12;N:69	-7.36402
;w:36;d:3	-7.36573
;d:12;N:60	-7.36951
;w:48;d:6	-7.37382
;w:12;N:49	-7.37488
;w:36;d:4	-7.37645
;w:12;N:70	-7.38848
;N:37	-7.38914
;d:12;N:72	-7.40785
;N:39	-7.40828
;d:12;N:62	-7.40953
;d:12;N:64	-7.41103
;N:89	-7.42842
;d:12;N:59	-7.43495
;d:12;N:67	-7.43854
;d:7	-7.43894
;w:12;N:48	-7.44424
;N:38	-7.44862
;w:24;N:61	-7.45337
;w:12;N:47	-7.45526
;N:36	-7.45848
;d:12;N:58	-7.46148
;w:12;N:46	-7.46276
;d:12;N:73	-7.46316
;w:24;N:60	-7.46369
;d:2	-7.46403
;w:24;N:62	-7.47242
;w:18;d:9	-7.47477
;w:48;d:12	-7.48131
;w:12;N:71	-7.48198
;w:24;N:63	-7.48556
;d:12;N:57	-7.48845
;w:12;N:45	-7.4896
;w:12;N:72	-7.48979
;w:18;d:12	-7.50381
;w:24;N:65	-7.50834
;w:24;N:64	-7.51331
;w:24;d:16	-7.51393
;w:12;N:44	-7.52612
;w:24;N:59	-7.52767
;w:24;N:67	-7.52987
;d:12;N:56	-7.53745
;w:12;N:73	-7.54444
;N:35	-7.54546
;w:3;d:2	-7.5523
;w:8;d:5	-7.55573
;w:24;N:68	-7.55716
;N:34	-7.56003
;w:24;N:58	-7.56315
;w:24;N:66	-7.56672
;d:12;N:71	-7.56687
;w:12;N:43	-7.57159
;d:12;N:55	-7.57666
;w:24;N:57	-7.58196
;N:92	-7.58302
;d:12;N:75	-7.58303
;w:24;N:69	-7.58309
;d:5	-7.5875
;w:72;d:12	-7.59003
;w:6;d:10	-7.59145
;d:24;N:64	-7.59809
;d:24;N:66	-7.60191
;d:16	-7.60413
;d:12;N:54	-7.60953
;d:24;N:65	-7.61498
;w:16;d:4	-7.621
;w:24;N:56	-7.63118
;d:24;N:63	-7.63151
;d:24;N:62	-7.63237
;w:30;d:6	-7.63368
;d:24;N:61	-7.63771
;w:18;d:4	-7.64123
;w:24;N:55	-7.64236
;w:8;d:1	-7.64253
;d:24;N:68	-7.64796
;N:33	-7.65923
;w:24;N:70	-7.65952
;d:24;N:67	-7.65985
;w:24;N:54	-7.66494
;w:12;N:42	-7.6657
;w:24;d:15	-7.67222
;d:24;N:60	-7.67255
;w:12;N:74	-7.67618
;w:12;N:40	-7.67869
;w:60;d:12	-7.67878
;w:24;N:52	-7.68679
;w:24;N:53	-7.69147
;w:12;N:41	-7.69988
;w:15;d:6	-7.7001
;w:2;d:1	-7.70092
;w:24;N:71	-7.70176
;d:6;N:67	-7.70386
;d:6;N:66	-7.70577
;d:12;N:53	-7.70713
;d:15	-7.70986
;d:24;N:59	-7.70987
;N:32	-7.712
;w:24;N:51	-7.71325
;d:6;N:65	-7.72165
;N:31	-7.72237
;d:6;N:68	-7.72629
;w:4;d:2	-7.72717
;w:3;d:3	-7.72718
;d:12;N:52	-7.72783
;w:48;d:3	-7.72922
;w:12;N:75	-7.7307
;d:24;N:69	-7.73199
;d:6;N:69	-7.73222
;d:24;N:70	-7.73572
;w:24;N:50	-7.74003
;N:93	-7.75316
;d:6;N:64	-7.75898
;w:42;d:6	-7.76137
;d:24;N:58	-7.76168
;w:24;N:49	-7.7625
;d:6;N:70	-7.7672
;d:6;N:63	-7.77915
;d:24;N:57	-7.78052
;d:12;N:51	-7.78211
;N:65;N:68	-7.78354
;w:3;d:9	-7.7915
;w:24;N:72	-7.7934
;w:48;d:4	-7.79651
;d:24;N:71	-7.79723
;w:24;d:18	-7.79948
;w:9;d:3	-7.80115
;w:4;d:5	-7.80275
;d:12;N:74	-7.80339
;d:6;N:71	-7.80521
;N:29	-7.80551
;d:14	-7.81906
;w:18;d:18	-7.81959
;d:12;N:49	-7.82073
;d:6;N:61	-7.82108
;d:6;N:62	-7.82526
;d:12;N:50	-7.8262
;d:6;N:72	-7.829
;d:24;N:56	-7.82951
;w:12;N:39	-7.83178
;w:36;d:8	-7.83837
;d:12;N:78	-7.84045
;d:12;N:48	-7.84476
;w:15;d:9	-7.84904
;N:64;N:67	-7.85008
;N:62;N:65	-7.85325
;d:24;N:55	-7.85749
;N:66;N:69	-7.85872
;d:10	-7.85912
;N:61;N:64	-7.86038
;w:12;N:76	-7.86188
;w:24;N:47	-7.86379
;D:51	-7.87108
;w:24;N:48	-7.87123
;D:54	-7.87253
;w:24;N:73	-7.87615
;N:94	-7.87641
;d:24;N:72	-7.88033
;w:3;d:5	-7.88381
;d:6;N:73	-7.88419
;d:12;N:47	-7.88494
;d:12;N:76	-7.89647
;N:30	-7.89682
;w:24;N:74	-7.89736
;w:12;N:38	-7.91062
;w:12;N:77	-7.91495
;D:36;D:49	-7.91627
;N:65;N:69	-7.91754
;w:4;d:8	-7.91953
;N:60;N:63	-7.9231
;N:63;N:66	-7.92408
;d:6;N:74	-7.92795
;d:11	-7.92867
;N:95	-7.93058
;N:68;N:71	-7.9307
;d:24;N:73	-7.93146
;w:1;d:2	-7.93827
;d:6;N:59	-7.94096
;d:6;N:58	-7.94455
;w:6;D:38	-7.94625
;d:12;N:79	-7.94699
;N:69;N:72	-7.94989
;N:59;N:62	-7.95237
;N:28	-7.9527
;w:24;N:75	-7.95518
;d:24;N:53	-7.95559
;D:49	-7.95581
;d:24;N:54	-7.95619
;d:12;N:45	-7.96207
;d:6;N:75	-7.96214
;N:67;N:70	-7.96351
;w:12;d:2	-7.96375
;N:64;N:68	-7.96577
;d:6;N:60	-7.96659
;d:12;N:46	-7.96728
;w:7;d:5	-7.96878
;w:6;d:9	-7.97423
;N:27	-7.97475
;w:24;N:46	-7.97697
;N:63;N:67	-7.97729
;w:12;d:12;N:61	-7.97742
;N:66;N:70	-7.97933
;N:63;N:68	-7.98244
;w:12;d:24;N:62	-7.98277
;d:12;N:77	-7.98449
;N:61;N:66	-7.99273
;w:16;d:2	-7.99653
;N:62;N:66	-7.99741
;w:12;d:24;N:61	-7.99805
;w:2;d:4	-7.9987
;w:12;N:37	-8.00377
;w:12;d:12;N:59	-8.0058
;N:70;N:73	-8.00621
;N:67;N:71	-8.00712
;D:46	-8.00722
;d:6;N:57	-8.0105
;w:12;d:12;N:60	-8.01064
;w:12;d:24;N:63	-8.012
;d:12;N:80	-8.01509
;w:12;d:24;N:60	-8.01521
;d:24;N:52	-8.01524
;N:65;N:70	-8.01677
;N:61;N:65	-8.0175
;N:62;N:67	-8.01867
;w:24;N:45	-8.02473
;d:24;N:74	-8.0267
;w:3;d:6	-8.03184
;d:24;N:75	-8.03254
;w:12;d:12;N:58	-8.03631
;N:66;N:71	-8.03778
;N:64;N:69	-8.03899
;w:12;d:24;N:59	-8.04187
;w:12;d:12;N:62	-8.04204
;d:12;N:44	-8.04294
;N:60;N:64	-8.04454
;d:6;N:76	-8.04649
;N:59;N:63	-8.04661
;d:6;N:56	-8.04723
;w:12;d:12;N:57	-8.04739
;N:58;N:61	-8.05
;w:21;d:3	-8.05336
;N:59;N:64	-8.05535
;N:26	-8.05763
;w:24;d:	-8.06106
;d:24;N:49	-8.06128
;w:12;d:24;N:65	-8.06299
;w:12;d:24;N:64	-8.06354
;d:24;N:50	-8.06493
;d:24;N:51	-8.06632
;N:99	-8.06659
;d:24;N:48	-8.06692
;w:24;N:76	-8.0684
;d:12;N:43	-8.06984
;w:12;d:18	-8.07144
;w:12;d:12;N:56	-8.07463
;d:6;N:55	-8.07573
;w:12;d:24;N:66	-8.07764
;w:48;d:9	-8.07768
;N:58;N:62	-8.07779
;w:12;N:36	-8.07929
;w:12;d:12;N:63	-8.08247
;N:97	-8.08673
;N:96	-8.08927
;w:4;d:4	-8.1057
;N:57;N:62	-8.10856
;w:12;d:12;N:55	-8.11265
;d:24;N:47	-8.11321
;w:12;d:24;N:58	-8.11433
;w:24;N:44	-8.11644
;N:67;N:72	-8.11876
;N:60;N:65	-8.12099
;N:69;N:73	-8.1219
;N:71;N:74	-8.12293
;w:12;d:24;N:67	-8.12296
;w:6;D:36	-8.12477
;d:12;N:42	-8.12883
;d:24;N:76	-8.13271
;w:12;d:24;N:68	-8.13428
;N:72;N:75	-8.13481
;w:12;d:24;N:57	-8.13581
;w:12;N:78	-8.13668
;N:57;N:61	-8.14428
;N:68;N:72	-8.14461
;N:58;N:63	-8.14549
;N:57;N:60	-8.14821
;w:12;d:12;N:64	-8.14959
;d:12;N:81	-8.14972
;w:24;d:5	-8.14998
;D:53	-8.15274
;w:12;d:12;N:65	-8.15641
;d:6;N:77	-8.15657
;w:24;N:43	-8.15709
;d:24;N:46	-8.15806
;N:56;N:61	-8.15983
;w:24;N:77	-8.16179
;d:6;N:54	-8.16221
;w:6;D:42	-8.16521
;w:12;d:12;N:54	-8.17692
;w:24;d:2	-8.1783
;d:12;N:82	-8.18067
;w:12;N:35	-8.18361
;N:73;N:76	-8.18569
;w:40;d:8	-8.18741
;w:12;d:12;N:66	-8.18899
;d:13	-8.19379
;d:12;N:41	-8.19647
;N:98	-8.20093
;N:55;N:59	-8.20195
;D:76	-8.20916
;w:12;d:24;N:56	-8.20975
;d:12;N:40	-8.21217
;d:17	-8.21588
;N:25	-8.21604
;w:10	-8.217
;N:24	-8.21754
;w:15;d:5	-8.21832
;w:6;D:38;D:42	-8.22129
;d:24;N:45	-8.22221
;w:12;d:12;N:53	-8.22253
;D:42	-8.22278
;N:55;N:60	-8.22434
;w:12;d:24;N:55	-8.22683
;D:69	-8.22794
;w:12;d:24;N:69	-8.22858
;w:48;d:18	-8.23009
;d:24;N:78	-8.23124
;N:56;N:59	-8.23235
;w:18;d:15	-8.23657
;d:6;N:53	-8.23703
;w:4;d:1	-8.23841
;D:70	-8.24139
;w:24;N:42	-8.24334
;w:24;N:41	-8.24736
;w:12;N:79	-8.24862
;w:24;N:78	-8.25179
;w:5;d:7	-8.25388
;w:8;d:16	-8.25593
;w:9;d:7	-8.25751
;d:6;N:78	-8.25983
;D:52	-8.26446
;w:11	-8.26493
;w:48;d:8	-8.27029
;w:12;d:24;N:53	-8.2709
;w:12;d:24;N:54	-8.27197
;w:12;d:12;N:67	-8.27246
;N:75;N:78	-8.2726
;N:70;N:74	-8.27319
;w:24;d:12;N:63	-8.27403
;d:6;N:52	-8.2772
;d:24;N:77	-8.27898
;w:12;d:12;N:52	-8.27948
;N:74;N:77	-8.28074
;w:24;d:12;N:62	-8.28133
;w:24;N:40	-8.28206
;w:	-8.28266
;w:20;d:4	-8.28419
;d:24;N:43	-8.2884
;w:6;d:8	-8.29011
;N:100	-8.29105
;w:24;d:12;N:65	-8.29195
;N:69;N:74	-8.29357
;w:9;d:15	-8.2962
;w:12;d:12;N:68	-8.29874
;w:72;d:6	-8.30044
;N:54;N:59	-8.30213
;N:56;N:60	-8.30315
;d:24;N:44	-8.30339
;w:24;d:12;N:66	-8.30343
;w:24;d:12;N:64	-8.30847
;N:71;N:75	-8.30871
;w:24;N:79	-8.31164
;w:4;d:3	-8.31691
;w:12;d:24;N:70	-8.31717
;w:12;D:38;D:42	-8.32001
;N:68;N:73	-8.32098
;d:6;N:51	-8.33215
;d:12;N:39	-8.33504
;w:6;N:56	-8.34231
;w:8;d:8	-8.34503
;d:6;N:50	-8.34574
;w:12;d:12;N:51	-8.34639
;w:60;d:6	-8.3484
;w:6;N:60	-8.35031
;w:8;d:2	-8.35207
;w:12;D:38	-8.35224
;N:55;N:58	-8.35608
;w:12;d:24;N:52	-8.35638
;d:24;N:42	-8.35865
;d:6;N:79	-8.36369
;w:12;N:34	-8.36525
;w:24;N:39	-8.36592
;w:12;d:24;N:71	-8.36644
;w:12;d:12;N:69	-8.36674
;w:12;D:42	-8.37065
;w:5;d:4	-8.37149
;w:12;N:33	-8.37274
;w:12;d:15	-8.37279
;w:24;d:12;N:60	-8.37298
;d:9;N:67	-8.37808
;D:38	-8.37871
;w:12;d:12;N:70	-8.38159
;w:24;d:12;N:67	-8.38218
;N:70;N:75	-8.38494
;d:12;N:83	-8.39117
;w:24;d:12;N:61	-8.39252
;w:12;N:80	-8.39287
;d:12;N:38	-8.39719
;d:24;N:79	-8.39743
;d:9;N:66	-8.40176
;w:15;d:3	-8.40264
;w:12;d:12;N:50	-8.41444
;w:6;N:53	-8.4171
;w:6;N:54	-8.41738
;N:102	-8.41756
;N:23	-8.41871
;d:9;N:68	-8.42179
;N:54;N:58	-8.42201
;N:72;N:76	-8.4244
;w:48;d:16	-8.4247
;d:9;N:64	-8.42497
;w:6;D:36;D:42	-8.42521
;w:6;N:62	-8.4263
;w:6;N:55	-8.42656
;d:24;N:41	-8.43116
;N:101	-8.43723
;w:24;N:38	-8.44052
;D:73	-8.44098
;D:36;D:38	-8.44253
;N:54;N:57	-8.44306
;w:24;d:12;N:68	-8.4476
;d:6;N:49	-8.44968
;d:8;N:63	-8.45292
;d:12;N:37	-8.45311
;w:6;N:58	-8.45321
;w:12;d:24;N:72	-8.45418
;w:6;N:64	-8.45424
;N:71;N:76	-8.45438
;w:6;N:63	-8.45445
;N:53;N:58	-8.45539
;N:73;N:77	-8.45552
;w:12;d:24;N:51	-8.459
;d:24;N:40	-8.45936
;w:6;N:61	-8.46096
;D:47	-8.46124
;w:6;N:57	-8.46128
;w:1;d:3	-8.46267
;w:6;d:18	-8.46348
;d:6;N:80	-8.46542
;w:24;d:12;N:69	-8.46668
;w:18;d:10	-8.46729
;d:6;N:48	-8.47255
;N:72;N:77	-8.47399
;w:21;d:12	-8.4779
;w:12;d:16	-8.47885
;d:24;N:80	-8.47966
;d:48;N:64	-8.48074
;D:36;D:42;D:49	-8.48525
;d:9;N:65	-8.48569
;d:9;N:70	-8.48633
;w:6;N:48	-8.48705
;d:9;N:63	-8.48983
;d:9;N:62	-8.49144
;d:	-8.49538
;w:6;N:52	-8.49785
;w:12;d:24;N:50	-8.49952
;d:48;N:58	-8.50029
;w:6;D:36;D:38;D:42	-8.50206
;w:6;N:59	-8.50408
;w:13	-8.50745
;w:6;N:51	-8.50937
;d:48;N:59	-8.50951
;d:8;N:67	-8.51003
;w:12;d:24;N:75	-8.51236
;D:43	-8.51492
;N:53;N:57	-8.51557
;N:60;N:64;N:67	-8.51892
;D:48	-8.52165
;w:12;d:12;N:48	-8.52264
;w:12;d:12;N:49	-8.5234
;w:12;d:12;N:71	-8.52429
;d:9;N:69	-8.52459
;w:6;N:65	-8.52464
;d:8;N:64	-8.52562
;w:24;d:12;N:59	-8.52697
;D:50	-8.52861
;w:9;d:6	-8.52898
;d:48;N:62	-8.52914
;w:18;d:8	-8.52987
;w:24;d:12;N:57	-8.53111
;d:48;N:56	-8.53341
;d:8;N:65	-8.53464
;w:24;d:12;N:70	-8.5357
;d:48;N:60	-8.53581
;d:8;N:71	-8.53673
;w:12;d:10	-8.54201
;d:1	-8.54275
;d:48;N:67	-8.54312
;d:48;N:70	-8.5449
;d:8;N:69	-8.54565
;w:6;d:14	-8.54734
;w:6;N:49	-8.54735
;w:21;d:2	-8.54744
;d:48;N:61	-8.54751
;N:53;N:56	-8.54871
;N:57;N:61;N:64	-8.54881
;d:48;N:68	-8.55055
;w:12;d:6;N:61	-8.55207
;w:12;d:24;N:73	-8.55288
;N:61;N:65;N:68	-8.55316
;d:48;N:63	-8.55361
;d:48;N:65	-8.55382
;w:24;N:80	-8.55524
;N:76;N:79	-8.55653
;d:6;N:81	-8.55717
;d:48;N:69	-8.55772
;w:12;d:6;N:60	-8.55913
;N:59;N:63;N:66	-8.56078
;d:6;N:47	-8.56153
;w:6;D:42;w:6;D:42	-8.56294
;w:24;D:38	-8.56347
;d:12;N:36	-8.56365
;d:48;N:66	-8.56422
;w:6;N:66	-8.56527
;N:77;N:80	-8.56529
;d:48;N:54	-8.56615
;w:24;d:12;N:71	-8.56628
;w:6;N:50	-8.56884
;w:24;d:12;N:58	-8.56938
;N:58;N:62;N:65	-8.56993
;w:12;D:36	-8.57202
;w:16;d:11	-8.57511
;N:52;N:57	-8.57518
;d:48;N:57	-8.57562
;d:8;N:66	-8.57618
;d:24;N:39	-8.57643
;w:24;d:12;N:54	-8.58032
;d:9;N:59	-8.58114
;w:24;N:37	-8.58162
;d:8;N:70	-8.58201
;w:8;d:10	-8.58496
;d:9;N:60	-8.58596
;d:12;N:84	-8.58624
;w:12;d:24;N:49	-8.5926
;w:24;d:12;N:56	-8.59299
;w:12;d:6;N:62	-8.59332
;d:6;N:45	-8.59623
;d:8;N:72	-8.59879
;D:56	-8.5994
;d:9;N:71	-8.60037
;d:36;N:63	-8.60253
;d:24;N:38	-8.60375
;w:12;d:24;N:74	-8.60412
;D:36;D:46	-8.60705
;d:48;N:55	-8.60734
;w:6;N:68	-8.60858
;w:12;d:24;N:48	-8.61187
;w:6;N:47	-8.61456
;D:36;D:51	-8.61585
;w:12;d:5	-8.6179
;w:12;d:12;N:47	-8.61962
;d:9;N:61	-8.62082
;d:6;N:46	-8.62247
;w:6;N:43	-8.62382
;d:36;N:62	-8.6242
;D:36;D:42;w:12;D:42	-8.62486
;d:8;N:68	-8.62563
;w:12;d:24;N:47	-8.62604
;w:24;d:12;N:55	-8.62605
;N:70;N:82	-8.62692
;N:52;N:55	-8.62746
;w:12;d:6;N:54	-8.62767
;N:52;N:56	-8.62999
;d:48;N:53	-8.63158
;w:24;d:12;N:53	-8.63177
;N:73;N:78	-8.63378
;w:36;d:15	-8.63399
;w:12;d:6;N:63	-8.63793
;w:6;N:69	-8.63962
;w:12;d:6;N:59	-8.64068
;d:36;N:66	-8.64176
;N:56;N:60;N:63	-8.64378
;d:36;N:64	-8.645
;w:12;d:6;N:55	-8.64516
;N:51;N:56	-8.64785
;D:45	-8.64791
;w:36;d:18	-8.64867
;w:12;D:46	-8.65031
;w:12;N:32	-8.65063
;d:6;N:43	-8.65119
;w:24;d:12;N:73	-8.65139
;w:12;d:12;N:72	-8.65144
;w:6;N:46	-8.65191
;w:12;d:6;N:65	-8.65204
;N:75;N:79	-8.65208
;N:74;N:78	-8.65293
;w:6;N:67	-8.65437
;d:6;N:82	-8.65444
;w:21;d:6	-8.65494
;d:9;N:72	-8.65678
;N:72;N:84	-8.6579
;d:3;N:69	-8.65946
;d:3;N:72	-8.66262
;w:24;N:36	-8.66414
;d:192;N:4	-8.6647
;w:12;d:6;N:64	-8.6652
;N:62;N:66;N:69	-8.66541
;w:12;D:38;D:46	-8.6683
;d:48;N:52	-8.66865
;w:6;d:12;N:61	-8.66868
;w:6;D:36;D:38	-8.66871
;d:36;N:61	-8.66885
;d:3;N:73	-8.66889
;N:103	-8.66913
;d:36;N:60	-8.66979
;w:24;N:81	-8.66999
;N:72;w:8	-8.67023
;d:12;N:35	-8.67293
;N:71;N:83	-8.67521
;N:63;N:67;N:70	-8.6774
;w:6;N:44	-8.6795
;w:12;d:6;N:58	-8.67979
;w:12;d:6;N:57	-8.68005
;d:48;N:71	-8.68122
;N:55;N:59;N:62	-8.68262
;N:69;N:81	-8.6829
;d:18;N:66	-8.68505
;w:12;d:6;N:56	-8.6852
;w:6;d:12;N:59	-8.68655
;d:51;N:6	-8.68718
;w:24;d:12;N:72	-8.6882
;d:3;N:71	-8.68879
;w:12;d:6;N:53	-8.68984
;w:12;D:36;D:38	-8.69214
;d:18;N:64	-8.69219
;d:4;N:74	-8.69303
;d:6;N:44	-8.6933
;w:12;d:12;N:73	-8.69361
;N:68;N:80	-8.69368
;d:36;N:65	-8.69637
;w:42;d:3	-8.69686
;w:24;D:36	-8.69848
;w:24;d:21;N:4	-8.69944
;d:12;N:34	-8.70004
;N:50;N:55	-8.70057
;d:48;N:51	-8.70424
;w:6;N:45	-8.70469
;w:12;N:81	-8.70655
;w:12;d:6;N:67	-8.70751
;d:4;N:58	-8.70753
;d:18;N:68	-8.70828
;d:48;N:50	-8.71335
;d:9;N:58	-8.71448
;d:8;N:73	-8.71616
;d:3;N:66	-8.71674
;w:6;N:64;w:6	-8.71711
;d:18;N:65	-8.7176
;w:6;d:12;N:60	-8.72251
;d:36;N:59	-8.72262
;w:12;d:24;N:77	-8.72422
;N:71;w:8	-8.72463
;d:9;N:73	-8.72503
;w:6;d:6;N:60	-8.72782
;d:18;N:67	-8.72786
;d:24;N:37	-8.72874
;d:12;N:85	-8.72885
;w:12;d:6;N:66	-8.72889
;w:12;d:12;N:46	-8.72934
;d:48;N:72	-8.72957
;w:12;N:82	-8.73064
;d:3;N:67	-8.73173
;N:57;N:62;N:66	-8.73197
;w:12;d:24;N:45	-8.73303
;d:4;N:68	-8.73593
;w:6;N:72	-8.73616
;d:6;N:83	-8.7367
;d:36;N:68	-8.73833
;d:18;N:70	-8.73873
;d:4;N:73	-8.74075
;w:12;d:6;N:68	-8.74226
;N:11	-8.74275
;N:74;N:86	-8.74387
;d:36;N:67	-8.74409
;w:12;d:12;N:45	-8.74446
;d:18;N:63	-8.7447
;d:8;N:62	-8.74493
;d:3;N:70	-8.74543
;d:3;N:74	-8.74596
;w:6;N:71	-8.74607
;d:9;N:57	-8.74695
;d:18;N:62	-8.74758
;d:24;N:36	-8.74767
;d:18;N:69	-8.74857
;w:6;d:12;N:62	-8.74949
;d:24;N:81	-8.74969
;N:74;N:79	-8.75244
;N:73;N:85	-8.75282
;w:6;d:12;N:58	-8.75411
;w:24;d:12;N:74	-8.75501
;w:6;d:12;N:63	-8.75637
;d:36;N:58	-8.7644
;w:12;d:6;N:51	-8.76581
;d:8;N:61	-8.76708
;N:59;N:64;N:68	-8.76762
;d:4;N:67	-8.76783
;N:66;N:78	-8.76898
;w:12;d:7	-8.76949
;N:42;N:54	-8.7713
;N:64;N:68;N:71	-8.77137
;d:8;N:59	-8.77149
;w:30;d:3	-8.77196
;w:24;N:35	-8.77257
;w:24;d:12;N:52	-8.77348
;d:3;N:68	-8.77512
;d:48;N:49	-8.77613
;w:12;d:6;N:52	-8.77685
;w:36;d:5	-8.77696
;d:19	-8.77814
;w:12;d:6;N:50	-8.7783
;w:8;d:3	-8.77983
;d:36;N:70	-8.78107
;d:15;N:64	-8.78247
;d:15;N:63	-8.78333
;w:6;D:38;D:46	-8.78341
;d:8;N:60	-8.78349
;w:6;N:70	-8.78387
;w:6;N:42	-8.784
;N:65;N:69;N:72	-8.78553
;N:49;N:54	-8.78667
;N:65;w:8	-8.78683
;w:24;d:12;N:51	-8.78779
;w:6;D:46	-8.7879
;d:15;N:66	-8.78827
;d:9;N:74	-8.78895
;w:6;d:12;N:64	-8.78983
;w:7;d:8	-8.7901
;N:53;N:57;N:60	-8.79012
;w:12;d:24;N:46	-8.7907
;N:33;N:45	-8.79199
;w:12;N:31	-8.79296
;w:12;N:83	-8.79409
;N:54;N:58;N:61	-8.79515
;d:36;N:57	-8.79527
;w:14	-8.79623
;d:48;N:48	-8.79741
;w:12;d:24;N:76	-8.79919
;d:36;N:69	-8.79976
;d:48;N:47	-8.80051
;N:73;w:8	-8.80061
;d:18;N:61	-8.80192
;N:78;N:81	-8.80276
;N:61;N:66;N:70	-8.80312
;N:60;N:65;N:69	-8.80323
;N:40;N:52	-8.80338
;N:58;N:63;N:67	-8.80371
;d:3;N:75	-8.80452
;N:34;N:46	-8.80467
;N:67;N:79	-8.8051
;d:15;N:62	-8.80533
;N:36;N:48	-8.80621
;N:76;N:80	-8.80722
;d:18;N:60	-8.80759
;d:8;N:74	-8.80787
;w:9;d:9	-8.80821
;w:24;d:12;N:50	-8.80937
;w:6;d:12;N:65	-8.80943
;d:3;N:60	-8.81017
;w:12;d:6;N:69	-8.81279
;w:24;d:21;N:3	-8.81286
;N:39;N:51	-8.81299
;N:51;N:55	-8.81307
;N:51;N:54	-8.81327
;d:48;N:73	-8.81416
;d:3;N:62	-8.81469
;d:6;N:41	-8.81617
;w:12;D:36;D:42	-8.81718
;d:3;N:64	-8.81821
;d:8;N:57	-8.81962
;N:70;w:8	-8.81999
;d:4;N:65	-8.82019
;w:24;d:12;N:49	-8.82073
;w:20;d:1	-8.82161
;N:66;N:70;N:73	-8.82351
;d:15;N:65	-8.82454
;w:6;N:63;w:6	-8.8246
;w:24;d:20;N:4	-8.82664
;N:65;N:77	-8.82863
;d:4;N:69	-8.82871
;w:6;d:12;N:56	-8.82936
;w:6;N:65;w:6	-8.83044
;d:6;N:42	-8.83104
;w:12;d:24;N:44	-8.83167
;d:48;N:46	-8.83241
;w:6;d:5	-8.83265
;d:3;N:61	-8.8327
;N:22	-8.83467
;d:0;N:63	-8.83561
;d:15;N:67	-8.83576
;N:63;w:8	-8.83884
;w:12;d:24;N:43	-8.84048
;N:79;N:82	-8.8409
;d:4;N:57	-8.84122
;d:24;N:82	-8.84135
;w:6;N:62;w:6	-8.84286
;d:3;N:63	-8.84301
;d:4;N:75	-8.84326
;N:56;N:61;N:65	-8.84389
;d:0;N:65	-8.84454
;d:4;N:76	-8.84562
;d:0;N:64	-8.84602
;N:37;N:49	-8.84648
;D:38;D:42	-8.84732
;w:16;d:16	-8.84868
;w:6;d:12;N:68	-8.84882
;w:6;d:12;N:55	-8.84883
;w:6;N:41	-8.84993
;d:4;N:64	-8.85004
;w:6;N:67;w:6	-8.85031
;d:15;N:68	-8.85092
;w:6;D:38;w:6;D:38	-8.85099
;d:12;N:33	-8.85111
;w:6;d:12;N:57	-8.8529
;d:4;N:66	-8.85362
;N:80;N:83	-8.85378
;w:6;d:12;N:66	-8.85419
;w:6;d:12;N:54	-8.85502
;d:3;N:76	-8.85575
;w:48;d:15	-8.85593
;N:57;N:60;N:65	-8.8592
;d:8;N:58	-8.86028
;d:36;N:56	-8.86161
;N:41;N:53	-8.86261
;N:55;N:60;N:64	-8.86286
;d:3;N:65	-8.8631
;d:4;N:77	-8.8646
;d:36;N:71	-8.86558
;d:21;N:65	-8.86698
;N:59;N:62;N:67	-8.869
;d:21;N:63	-8.86944
;d:21;N:69	-8.87008
;d:21;N:66	-8.87048
;N:104	-8.87127
;w:6;N:72;w:6	-8.87134
;d:15;N:61	-8.8718
;d:28;N:4	-8.87202
;d:8;N:75	-8.87206
;w:12;d:12;N:43	-8.87493
;d:9;N:56	-8.87559
;d:0;N:61	-8.87565
;d:21;N:64	-8.87568
;w:6;D:42;w:6;D:36;D:42	-8.87651
;w:12;d:12;N:44	-8.87671
;d:48;N:45	-8.87727
;D:36;D:38;D:49	-8.87812
;d:0;N:62	-8.87855
;d:18;N:71	-8.88108
;d:4;N:70	-8.88112
;N:54;N:59;N:63	-8.88323
;N:75;w:8	-8.88534
;d:3;N:77	-8.88665
;w:9;d:11	-8.88696
;d:6;N:40	-8.88715
;w:6;N:75;w:6	-8.88731
;d:0;N:60	-8.88763
;w:18;N:58	-8.88771
;N:69;w:8	-8.889
;w:6;N:70;w:6	-8.8909
;w:12;d:6;N:49	-8.89287
;w:18;d:14	-8.89289
;w:6;N:68;w:6	-8.89363
;d:21;N:62	-8.89637
;d:0;N:66	-8.89643
;w:24;N:82	-8.89779
;w:12;d:6;N:70	-8.89809
;d:15;N:60	-8.89827
;N:64;w:8	-8.89897
;d:3;N:57	-8.90034
;N:74;w:8	-8.90042
;N:77;N:81	-8.90047
;d:4;N:72	-8.90051
;d:8;N:55	-8.90095
;w:30;d:12	-8.90132
;N:75;N:80	-8.90168
;w:18;N:62	-8.90279
;w:6;N:66;w:6	-8.90409
;d:3;N:58	-8.9041
;w:12;N:30	-8.90451
;d:18;N:72	-8.90474
;d:24;N:35	-8.90535
;N:66;w:8	-8.90562
;d:0;N:67	-8.90686
;d:36;N:55	-8.90689
;N:61;N:64;N:69	-8.909
;N:38;N:50	-8.90901
;d:15;N:59	-8.90977
;d:21;N:61	-8.91018
;d:18;N:59	-8.91023
;d:24;N:83	-8.91231
;w:24;D:42	-8.91241
;w:6;d:15	-8.91326
;w:6;N:59;w:6	-8.91392
;w:6;d:12;N:52	-8.91396
;w:6;N:73;w:6	-8.91407
;d:48;N:74	-8.91437
;w:12;D:37	-8.91469
;d:39;N:4	-8.91621
;d:21;N:59	-8.91726
;w:6;N:61;w:6	-8.91785
;d:3;N:59	-8.91974
;d:12;N:32	-8.92016
;w:24;d:12;N:48	-8.92021
;d:4;N:63	-8.92031
;d:21;N:70	-8.92177
;w:12;d:12;N:74	-8.92185
;w:18;N:57	-8.92252
;w:12;d:6;N:48	-8.92335
;d:21;N:67	-8.92351
;w:12;d:6;N:71	-8.924
;d:4;N:78	-8.92494
;N:75;N:87	-8.92529
;d:6;N:84	-8.92581
;D:41	-8.92587
;d:9;N:55	-8.92637
;N:53;N:58;N:62	-8.92649
;w:6;N:40	-8.92728
;d:28;N:3	-8.92833
;N:60;N:63;N:68	-8.92882
;d:12;N:86	-8.92893
;d:15;N:70	-8.93121
;d:4;N:59	-8.93378
;w:21;d:15	-8.93422
;w:6;d:12;N:50	-8.93545
;d:15;N:69	-8.93559
;w:6;d:12;N:69	-8.93652
;w:6;N:39	-8.93774
;w:6;D:42;w:6;D:46	-8.93775
;N:62;N:67;N:71	-8.94026
;N:43;N:55	-8.9403
;d:8;N:56	-8.94096
;w:6;N:73	-8.94098
;N:50;N:54	-8.94347
;d:4;N:62	-8.94623
;d:9;N:75	-8.94664
;w:12;d:12;N:75	-8.94672
;d:21;N:68	-8.94757
;d:12;N:87	-8.94781
;w:6;d:12;N:67	-8.94921
;N:53;N:60	-8.95071
;d:4;N:56	-8.95168
;d:0;N:68	-8.95216
;w:6;N:74	-8.95218
;N:32;N:44	-8.95355
;d:3;N:78	-8.95358
;w:18;N:59	-8.95451
;w:21;d:9	-8.95534
;d:21;N:58	-8.95588
;w:6;N:76;w:6	-8.95719
;w:6;d:12;N:53	-8.9578
;w:12;d:6;N:72	-8.95832
;w:12;d:24;N:78	-8.95838
;N:56;N:59;N:64	-8.95909
;N:76;N:81	-8.95944
;N:44;N:56	-8.95989
;N:63;N:66;N:71	-8.96027
;w:24;N:34	-8.9619
;w:6;N:69;w:6	-8.96247
;w:24;d:12;N:76	-8.96313
;w:18;N:56	-8.96333
;N:59;N:71	-8.96403
;N:64;N:76	-8.96501
;N:62;N:65;N:70	-8.96644
;w:1;d:4	-8.96771
;d:48;N:44	-8.968
;d:18;N:58	-8.96866
;w:12;N:85	-8.96882
;w:18;N:55	-8.96893
;N:58;N:61;N:66	-8.96899
;N:55;N:62	-8.96912
;N:47;N:52	-8.97194
;w:18;N:61	-8.97227
;d:4;N:71	-8.97245
;d:4;N:60	-8.97392
;N:48;N:53	-8.97432
;w:6;D:37	-8.97461
;N:78;N:82	-8.97463
;N:35;N:47	-8.97579
;d:36;N:72	-8.97667
;w:6;d:6;N:70	-8.97686
;N:63;N:75	-8.97706
;d:6;N:85	-8.97845
;w:6;d:12;N:51	-8.97855
;d:21;N:60	-8.97915
;w:6;d:12;N:70	-8.97943
;N:50;N:53	-8.98127
;w:6;N:60;w:6	-8.98205
;D:36;D:38;D:42	-8.98267
;N:19	-8.98344
;d:9;N:76	-8.98434
;w:18;N:60	-8.98464
;w:6;N:74;w:6	-8.98506
;d:36;N:54	-8.98746
;d:96;N:3	-8.98809
;w:24;d:36;N:4	-8.99023
;w:12;d:12;N:42	-8.99172
;d:48;N:43	-8.99249
;D:48;D:50	-8.99308
;N:58;N:61;N:65	-8.99327
;d:0;N:69	-8.99406
;N:74;w:3	-8.99418
;w:24;d:12;N:77	-8.99464
;d:15;N:58	-8.99681
;N:56;N:63	-8.99748
;N:76;w:8	-8.99855
;w:40;d:5	-8.99988
;d:15;N:71	-9.00019
;w:12;D:36;D:46	-9.00138
;w:54;d:6	-9.00143
;w:6;N:71;w:6	-9.00202
;N:67;N:71;N:74	-9.00215
;d:18;N:73	-9.00292
;d:8;N:76	-9.00326
;w:12;D:37;D:42	-9.00366
;d:21;N:71	-9.0037
;w:6;d:12;N:72	-9.00448
;d:6;N:39	-9.0048
;N:76;N:88	-9.00569
;d:20;N:65	-9.00621
;d:0;N:58	-9.00919
;w:12;D:36;D:38;D:42	-9.00977
;d:36;N:53	-9.01166
;d:0;N:70	-9.01217
;w:6;N:38	-9.01253
;N:55;N:58;N:63	-9.01263
;d:4;N:55	-9.01282
;d:21;N:57	-9.0135
;N:21	-9.01485
;N:81;N:84	-9.01489
;N:79;w:8	-9.01509
;N:69;N:73;N:76	-9.01525
;N:105	-9.01925
;w:24;d:12;N:75	-9.01991
;w:6;D:37;D:42	-9.02
;w:12;N:84	-9.02001
;d:20;N:62	-9.02016
;w:12;d:24;N:42	-9.0212
;N:52;N:56;N:59	-9.02176
;d:20;N:66	-9.02181
;N:82;N:85	-9.02247
;d:20;N:64	-9.02285
;N:62;N:74	-9.02316
;w:6;N:57;w:6	-9.02502
;w:18;N:65	-9.0255
;d:20;N:63	-9.02567
;d:6;N:38	-9.02655
;d:48;N:75	-9.02744
;N:54;N:57;N:62	-9.02852
;d:12;N:74;w:12	-9.0291
;w:39;d:9	-9.03001
;w:6;d:12;N:49	-9.03015
;w:18;N:64	-9.03041
;w:24;N:33	-9.03046
;w:12;d:24;N:79	-9.03107
;N:64;N:69;N:73	-9.03131
;d:192;N:7	-9.03198
;d:4;N:61	-9.03251
;d:12;N:31	-9.0328
;w:12;d:12;N:41	-9.03323
;w:6;D:36;w:6;D:36	-9.03367
;d:18;N:57	-9.03372
;N:77;N:89	-9.03504
;N:53;N:56;N:61	-9.03585
;d:51;N:7	-9.03651
;N:77;N:82	-9.03672
;N:52;N:55;N:60	-9.03843
;w:18;N:54	-9.03898
;N:80;N:84	-9.03956
;w:32;d:8	-9.04364
;w:24;d:12;N:43	-9.04368
;d:0;N:59	-9.04409
;d:9;N:54	-9.04467
;N:52;N:57;N:61	-9.0462
;w:24;d:12;N:45	-9.04648
;d:15;N:57	-9.04664
;w:6;N:77;w:6	-9.04711
;w:18;N:66	-9.04941
;w:24;d:12;N:47	-9.05043
;d:0;N:71	-9.0512
;w:18;d:5	-9.05251
;N:63;N:68;N:72	-9.05397
;d:24;N:34	-9.05456
;N:61;N:73	-9.05749
;N:73;w:3	-9.05772
;N:48;N:55	-9.05781
;d:8;N:77	-9.0581
;d:3;N:54	-9.05849
;d:72;N:8	-9.05852
;w:18;N:67	-9.05886
;N:64;N:67;N:72	-9.05949
;w:18;N:68	-9.05999
;d:36;N:73	-9.06022
;N:58;N:70	-9.06105
;d:0;N:9	-9.06378
;N:60;N:72	-9.06442
;d:3;N:79	-9.06484
;w:72;d:3	-9.06664
;d:3;N:55	-9.06704
;N:45;N:57	-9.06742
;w:6;d:12;N:47	-9.06844
;d:16;N:66	-9.06898
;N:59;N:62;N:66	-9.06976
;w:12;d:12;N:40	-9.07075
;d:36;N:52	-9.072
;N:61;N:64;N:68	-9.07233
;d:16;N:64	-9.07373
;w:24;d:24;N:59	-9.07473
;w:6;d:12;N:71	-9.0757
;d:20;N:61	-9.07639
;w:24;d:24;N:60	-9.07688
;d:20;N:68	-9.07808
;w:12;d:6;N:43	-9.0783
;N:68;N:72;N:75	-9.07876
;w:18;N:63	-9.07889
;w:24;d:24;N:62	-9.07936
;d:36;N:51	-9.0797
;w:6;N:75	-9.07996
;d:20;N:67	-9.08102
;d:6;N:87	-9.08125
;w:6;d:12;N:48	-9.08127
;w:6;d:6;N:63	-9.08179
;d:21;N:56	-9.08211
;D:37	-9.08221
;w:12;N:29	-9.08429
;N:77;w:8	-9.08469
;w:3;d:4	-9.08492
;d:48;N:42	-9.08499
;w:16;d:14	-9.08702
;w:24;d:20;N:7	-9.08722
;D:38;D:49	-9.08753
;d:20;N:60	-9.0893
;d:9;N:53	-9.09001
;d:3;N:56	-9.0904
;w:24;N:83	-9.0906
;d:12;N:71;w:12	-9.09116
;N:46;N:51	-9.09173
;N:49;N:56	-9.09175
;d:4;N:54	-9.09212
;w:24;d:20;N:3	-9.09213
;w:12;d:24;N:80	-9.09261
;N:76;w:3	-9.09342
;N:47;N:54	-9.09363
;d:8;N:54	-9.09365
;w:24;d:24;N:61	-9.09396
;N:79;N:83	-9.09396
;N:60;w:8	-9.09398
;N:52;N:59	-9.09405
;w:24;d:12;N:46	-9.09481
;N:80;w:3	-9.09535
;d:36;N:50	-9.09609
;w:6;d:6;N:65	-9.0964
;d:21;N:72	-9.09742
;w:24;d:24;N:63	-9.09766
;w:12;d:6;N:73	-9.098
;w:6;N:53;w:6	-9.09836
;N:62;w:8	-9.09902
;w:72;d:8	-9.09973
;D:53;D:54	-9.09983
;w:12;d:6;N:42	-9.09993
;d:0;N:56	-9.10005
;d:24;N:84	-9.10048
;d:15;N:72	-9.10188
;N:57;N:64	-9.1024
;d:8;N:79	-9.10268
;N:75;w:3	-9.10318
;N:71;w:3	-9.10384
;w:12;d:6;N:47	-9.10538
;w:24;d:24;N:57	-9.1059
;N:70;w:3	-9.10616
;N:68;w:8	-9.10802
;w:18;N:53	-9.10995
;w:24;d:21;N:7	-9.11076
;w:24;d:12;N:44	-9.11327
;w:24;d:24;N:58	-9.11575
;N:57;N:69	-9.11613
;w:24;N:10	-9.11629
;w:6;d:12;N:45	-9.117
;w:6;d:6;N:62	-9.11714
;w:12;N:86	-9.11724
;d:15;N:74	-9.11754
;d:16;N:63	-9.11758
;D:36;D:42;D:51	-9.11811
;w:12;d:24;N:41	-9.11878
;w:12;d:11	-9.11885
;N:45;N:52	-9.11978
;d:20;N:59	-9.12096
;d:12;N:77;w:12	-9.12311
;N:67;w:3	-9.12437
;w:6;d:6;N:64	-9.12453
;w:6;N:58;w:6	-9.12465
;d:16;N:67	-9.12488
;d:16;N:65	-9.12549
;w:24;d:12;N:42	-9.12593
;d:54;N:6	-9.12628
;N:60;N:63;N:67	-9.12669
;D:51;D:54	-9.12716
;N:61;w:8	-9.12785
;N:66;N:69;N:74	-9.12856
;N:57;N:60;N:64	-9.12885
;w:36;d:24;N:3	-9.12987
;w:6;d:6;N:61	-9.13021
;N:59;w:8	-9.13042
;w:18;N:2	-9.13165
;d:15;N:56	-9.13191
;w:6;N:54;w:6	-9.13325
;N:77;w:3	-9.13452
;N:50;N:57	-9.13548
;N:67;w:8	-9.1359
;w:18;N:52	-9.13621
;w:24;d:72;N:6	-9.13779
;w:24;d:24;N:64	-9.13848
;N:79;w:6	-9.1396
;w:24;d:12;N:41	-9.13969
;D:39	-9.13997
;N:31;N:43	-9.14047
;w:12;d:6;N:46	-9.14177
;d:48;N:41	-9.14227
;w:6;N:55;w:6	-9.14303
;d:18;N:56	-9.14376
;d:9;N:77	-9.14447
;w:6;d:12;N:73	-9.14463
;d:18;N:74	-9.14464
;d:16;N:62	-9.14544
;N:51;N:58	-9.14598
;N:78;w:6	-9.14609
;d:6;N:36	-9.1466
;w:6;D:36;D:46	-9.14702
;N:51;N:55;N:58	-9.14741
;w:60;d:9	-9.14791
;d:3;N:53	-9.14845
;w:36;d:12;N:68	-9.14877
;N:81;w:3	-9.14884
;w:24;d:15;N:3	-9.14966
;d:9;N:52	-9.14981
;N:65;N:70;N:74	-9.14994
;w:12;d:6;N:39	-9.15076
;d:12;N:76;w:12	-9.15099
;d:15;N:73	-9.15185
;d:12;N:89	-9.15195
;N:69;w:3	-9.15448
;d:21;N:73	-9.15476
;w:12;d:12;N:76	-9.15623
;w:6;d:6;N:50	-9.15673
;w:6;d:6;N:59	-9.15697
;w:6;D:42;w:6;D:42;w:6;D:42	-9.15704
;d:36;N:74	-9.15729
;N:56;N:68	-9.15739
;d:36;N:49	-9.1578
;w:24;d:10	-9.16152
;N:80;w:12	-9.16245
;w:24;d:15;N:4	-9.16251
;w:12;d:6;N:40	-9.16272
;w:12;d:6;N:74	-9.16276
;d:72;N:3	-9.16312
;d:20;N:69	-9.16343
;d:6;N:86	-9.16437
;N:78;w:3	-9.16444
;d:24;N:33	-9.16449
;w:18;N:69	-9.165
;w:48;d:24;N:8	-9.1651
;d:16;N:69	-9.16527
;N:45;N:50	-9.16557
;w:24;d:20;N:5	-9.1669
;d:0;N:72	-9.16762
;w:6;D:42;w:6;D:38;D:42	-9.16785
;d:4;N:80	-9.16843
;N:68;w:3	-9.16845
;N:27;N:39	-9.16851
;d:4;N:79	-9.16875
;w:36;d:12;N:67	-9.17034
;N:77;w:6	-9.17209
;w:24;d:24;N:56	-9.17325
;d:51;N:5	-9.17349
;N:78;w:8	-9.17414
;d:21;N:55	-9.17415
;N:57;w:8	-9.17448
;d:16;N:68	-9.17475
;d:9;N:78	-9.17485
;w:36;d:12;N:70	-9.17651
;N:63;N:66;N:70	-9.17701
;N:106	-9.17707
;N:65;N:68;N:73	-9.17835
;w:12;d:9;N:62	-9.1789
;d:48;N:78	-9.17972
;d:8;N:78	-9.17978
;N:66;w:3	-9.18022
;w:24;d:24;N:65	-9.18051
;w:8;N:67;w:8	-9.181
;D:51;D:53	-9.18101
;w:6;d:6;N:67	-9.18115
;w:36;d:12;N:66	-9.18135
;w:6;N:78;w:6	-9.18137
;N:49;N:52	-9.18186
;w:6;D:36;w:6;D:38	-9.18224
;w:6;N:56;w:6	-9.18247
;N:46;N:53	-9.18262
;w:24;d:24;N:55	-9.18429
;N:79;w:12	-9.18462
;d:8;N:53	-9.18473
;d:36;N:75	-9.18534
;w:6;D:43	-9.18627
;d:48;N:77	-9.18643
;d:32;N:3	-9.18713
;N:58;N:65	-9.18763
;w:36;d:12;N:69	-9.18841
;N:59;N:66	-9.1886
;N:72;w:3	-9.18899
;N:79;w:3	-9.1903
;N:54;N:61	-9.19071
;w:48;d:24;N:3	-9.19102
;N:78;w:12	-9.19124
;d:18;N:75	-9.19191
;d:0;N:73	-9.19277
;d:48;N:76	-9.19346
;D:42;w:12;D:42	-9.19378
;d:3;N:81	-9.19427
;w:18;N:51	-9.1949
;d:15;N:55	-9.19518
;d:15;N:75	-9.1954
;N:47;N:59	-9.1954
;N:51;N:56;N:60	-9.19542
;w:6;d:6;N:57	-9.19552
;N:66;N:71;N:75	-9.19806
;d:36;N:48	-9.19881
;N:55;N:67	-9.19927
;w:12;d:9;N:59	-9.19976
;d:6;N:37	-9.20129
;d:20;N:70	-9.20298
;N:78;N:90	-9.20531
;d:8;N:50	-9.20589
;w:5;d:3	-9.20744
;N:75;w:12	-9.20761
;N:107	-9.20791
;w:36;d:12;N:64	-9.2083
;w:1;d:8	-9.20865
;w:12;d:9;N:60	-9.20934
;w:6;d:6;N:58	-9.21013
;d:4;N:53	-9.21062
;d:0;N:57	-9.21073
;N:49;N:61	-9.21087
;d:0;N:54	-9.21151
;N:83;N:86	-9.21278
;N:79;N:84	-9.21355
;w:24;d:24;N:66	-9.21397
;w:12;d:6;N:45	-9.2141
;N:81;w:6	-9.21523
;w:36;d:12;N:71	-9.21605
;N:67;N:70;N:75	-9.21644
;d:84;N:5	-9.21655
;w:36;d:16	-9.21666
;w:36;d:12;N:62	-9.21771
;w:18;N:50	-9.21793
;N:83;w:6	-9.21795
;w:12;d:12;N:77	-9.21862
;w:3;D:38	-9.21919
;d:24;N:85	-9.22046
;w:12;d:9;N:63	-9.22107
;w:24;d:24;N:67	-9.22154
;w:24;d:12;N:40	-9.2226
;d:3;N:80	-9.22309
;w:12;d:9;N:58	-9.22408
;w:6;D:45	-9.22426
;N:29;N:41	-9.2246
;w:24;d:24;N:54	-9.22521
;d:45;N:8	-9.22526
;w:12;d:24;N:40	-9.22569
;N:73;w:6	-9.22687
;N:58;w:8	-9.22776
;D:54;w:12;D:42	-9.22839
;w:6;d:6;N:56	-9.22846
;N:20	-9.22973
;w:12;d:9;N:64	-9.22974
;w:12;d:12;N:39	-9.23059
;N:71;w:6	-9.23077
;w:6;d:12;N:46	-9.23153
;N:46;N:58	-9.23321
;N:62;N:65;N:69	-9.23381
;w:36;d:12;N:65	-9.23425
;w:36;d:12;N:63	-9.23465
;w:12;d:9;N:61	-9.23542
;w:6;d:12;N:40	-9.23594
;w:6;N:35	-9.23606
;w:24;d:12;N:78	-9.237
;N:83;w:12	-9.23743
;d:48;N:40	-9.23924
;w:12;d:12;N:38	-9.24017
;w:12;d:14	-9.24059
;w:18;d:6;N:60	-9.24063
;d:16;N:61	-9.24066
;d:16;N:59	-9.24172
;w:6;d:12;N:44	-9.24182
;w:12;d:36;N:63	-9.24232
;w:12;d:36;N:62	-9.24307
;w:24;d:24;N:68	-9.24307
;w:24;N:32	-9.24423
;w:6;N:47;w:6	-9.24481
;w:5;d:1	-9.24493
;w:60;d:3	-9.24586
;w:6;d:12;N:43	-9.24597
;N:52;N:64	-9.24618
;N:54;N:66	-9.24721
;d:8;N:52	-9.24778
;d:4;N:82	-9.24896
;N:72;w:6	-9.25017
;d:4;N:52	-9.25068
;d:20;N:58	-9.25128
;w:12;d:6;N:38	-9.25178
;d:0;N:74	-9.25186
;d:16;N:70	-9.25219
;w:12;N:87	-9.2525
;w:24;d:24;N:53	-9.2545
;w:12;d:6;N:44	-9.25615
;d:36;N:47	-9.25625
;w:12;d:9;N:57	-9.25652
;w:6;N:76	-9.25656
;d:18;N:55	-9.2578
;w:40;d:4	-9.25791
;w:18;D:36	-9.25934
;N:80;w:6	-9.26102
;N:82;w:3	-9.26184
;w:24;d:12;N:39	-9.2619
;w:36;N:3	-9.26501
;d:12;N:88	-9.26536
;w:36;d:12;N:61	-9.26538
;d:16;N:60	-9.2664
;N:75;w:6	-9.26678
;D:51;D:69	-9.26879
;N:51;N:63	-9.26953
;N:81;w:12	-9.27071
;w:6;N:37	-9.2711
;N:89;w:6	-9.27115
;w:12;d:36;N:61	-9.27127
;N:86;w:6	-9.27143
;D:48;D:51	-9.27162
;w:18;D:38	-9.2718
;w:6;N:51;w:6	-9.27348
;w:18;N:70	-9.27355
;w:12;d:9;N:66	-9.27399
;w:6;d:6;N:55	-9.27483
;w:18;d:24;N:6	-9.27623
;D:46;D:54	-9.27657
;d:12;N:30	-9.27691
;d:9;N:51	-9.27743
;d:3;N:82	-9.27794
;N:65;w:3	-9.27833
;w:36;d:9;N:3	-9.27904
;d:20;N:57	-9.27956
;N:60;N:67	-9.27968
;d:15;N:54	-9.28091
;d:0;N:55	-9.28161
;D:48;D:69	-9.28178
;d:6;N:35	-9.28194
;d:20;N:71	-9.28205
;N:50;N:62	-9.28311
;N:64;N:67;N:71	-9.28321
;w:6;N:78	-9.28332
;d:21;N:54	-9.28338
;N:83;w:3	-9.28351
;w:48;d:	-9.28365
;w:6;d:6;N:66	-9.28434
;w:30;d:18	-9.2849
;w:12;d:36;N:60	-9.2855
;w:12;d:36;N:58	-9.28665
;d:57;N:6	-9.28706
;d:8;N:48	-9.28751
;D:54;D:69	-9.28754
;d:8;N:49	-9.2876
;w:36;d:12;N:60	-9.28783
;d:16;N:71	-9.28793
;N:64;w:3	-9.28863
;d:44;N:7	-9.28969
;w:8;d:6	-9.29021
;d:39;N:3	-9.29098
;d:8;N:51	-9.29197
;N:80;w:8	-9.29292
;w:18;d:6;N:61	-9.29357
;w:18;N:48	-9.29435
;N:50;N:54;N:57	-9.29458
;N:63;w:3	-9.29498
;w:12;d:9;N:65	-9.295
;w:12;d:36;N:64	-9.29554
;w:12;d:9;N:67	-9.29638
;N:64;N:71	-9.29657
;N:1	-9.29696
;w:6;N:77	-9.29713
;d:0;N:75	-9.29742
;w:12;d:36;N:59	-9.29767
;w:18;N:49	-9.29802
;w:12;D:42;w:6;D:42	-9.29956
;N:48;N:51	-9.29987
;w:12;d:9;N:56	-9.30117
;w:8;N:68;w:8	-9.3012
;N:55;N:58;N:62	-9.30209
;N:70;N:74;N:77	-9.30389
;w:1;d:5	-9.30409
;N:84;w:6	-9.30503
;w:36;d:12;N:72	-9.30531
;N:55;w:8	-9.30547
;w:6;N:48;w:6	-9.30605
;N:76;w:12	-9.30706
;N:44;N:51	-9.30797
;N:72;w:4	-9.3095
;w:6;d:12;N:74	-9.30958
;d:36;N:46	-9.30987
;w:18;N:47	-9.31012
;N:85;w:6	-9.31074
;N:82;w:12	-9.31143
;w:21;d:4	-9.31159
;D:42;D:51	-9.31213
;d:12;N:67;w:12	-9.31274
;N:61;N:68	-9.31277
;w:24;d:27;N:6	-9.31336
;w:12;d:9;N:68	-9.31347
;d:0;N:53	-9.31523
;w:12;d:12;N:78	-9.31638
;D:69;w:6;D:69	-9.31639
;w:24;d:72;N:5	-9.31723
;w:24;d:24;N:52	-9.31732
;d:36;N:76	-9.31835
;D:69;D:70	-9.31837
;w:6;N:79;w:6	-9.31851
;w:24;d:48;N:8	-9.31917
;w:12;d:36;N:65	-9.31937
;w:3;d:13	-9.31949
;N:69;w:6	-9.32002
;w:6;D:38;w:6;D:36	-9.32003
;w:12;d:36;N:57	-9.32087
;w:6;d:6;N:68	-9.32087
;N:30;N:42	-9.32125
;N:84;N:87	-9.32268
;w:24;N:84	-9.32337
;w:24;d:48;N:3	-9.32394
;N:56;N:59;N:63	-9.32419
;d:28;N:7	-9.3253
;w:6;d:6;N:54	-9.32568
;d:16;N:72	-9.32571
;d:8;N:80	-9.32644
;w:24;D:36;D:38	-9.3269
;w:6;N:36	-9.32723
;N:82;w:6	-9.32756
;d:0;N:52	-9.32774
;d:36;N:45	-9.3284
;d:93;N:6	-9.32861
;d:9;N:50	-9.32905
;d:21;N:74	-9.32914
;N:50;N:55;N:59	-9.32946
;d:15;N:76	-9.33024
;N:81;N:85	-9.33049
;w:12;d:36;N:66	-9.33057
;d:48;N:9	-9.33111
;w:48;N:4	-9.33196
;N:62;w:3	-9.33209
;d:84;N:7	-9.33224
;N:48;N:60	-9.33232
;N:70;w:4	-9.33308
;N:62;N:69	-9.33403
;w:36;d:12;N:59	-9.3341
;d:3;N:52	-9.33501
;N:48;N:55;N:60	-9.33503
;d:9;N:79	-9.33678
;w:2;d:2	-9.33746
;w:24;N:29	-9.3377
;w:12;d:6;N:75	-9.33809
;N:74;w:6	-9.33833
;d:18;N:54	-9.33924
;d:144;N:6	-9.34059
;w:8;D:42	-9.34093
;w:6;D:48	-9.34106
;w:12;d:9;N:55	-9.34106
;N:56;w:8	-9.34136
;w:12;N:88	-9.34195
;w:4;d:6	-9.34271
;w:12;D:43	-9.34293
;d:4;N:81	-9.34373
;w:6;N:45;w:6	-9.34421
;w:2;d:3	-9.34447
;w:72;d:24;N:6	-9.34499
;N:84;w:12	-9.34567
;w:6;D:41	-9.34658
;w:24;d:24;N:69	-9.34716
;d:72;N:66	-9.34723
;w:6;D:39	-9.34738
;N:80;N:85	-9.34743
;w:6;N:49;w:6	-9.34752
;N:67;w:6	-9.34794
;N:81;N:86	-9.34798
;d:36;N:44	-9.34896
;N:65;N:72	-9.349
;w:24;N:31	-9.3491
;d:72;N:64	-9.3492
;N:43;N:50	-9.34931
;N:78;N:83	-9.35076
;d:12;N:90	-9.35116
;d:192;N:3	-9.35124
;w:18;N:72	-9.3515
;d:16;N:76	-9.35242
;d:18;N:76	-9.35294
;w:12;d:12;N:37	-9.35299
;w:6;N:33	-9.35331
;w:18;N:71	-9.35569
;N:84;w:3	-9.35664
;N:73;w:4	-9.35692
;w:12;d:6;N:41	-9.35909
;d:48;N:79	-9.36009
;w:24;D:38;D:42	-9.3604
;N:76;w:6	-9.3611
;w:6;d:3;N:62	-9.36246
;w:6;d:12;N:41	-9.36283
;d:20;N:72	-9.36292
;d:12;N:29	-9.36369
;d:16;N:58	-9.36382
;w:24;N:30	-9.36451
;w:12;D:36;w:12;D:36	-9.3646
;N:67;w:4	-9.36481
;w:12;d:12;N:79	-9.3649
;w:24;d:12;N:38	-9.36522
;w:3;N:69;w:3	-9.36529
;N:46;N:53;N:58	-9.36668
;d:72;N:65	-9.36719
;w:9;d:12	-9.36771
;d:3;N:83	-9.36919
;w:6;d:6;N:53	-9.36938
;N:42;N:49;N:54	-9.36953
;N:66;w:9	-9.36965
;N:82;N:87	-9.37006
;w:24;D:37	-9.37066
;w:18;N:46	-9.3716
;N:77;w:12	-9.37319
;d:78;N:6	-9.37342
;d:72;N:61	-9.37362
;d:36;N:77	-9.37391
;d:40;N:5	-9.37488
;w:6;N:52;w:6	-9.37538
;w:24;d:24;N:51	-9.37745
;d:21;N:53	-9.3775
;d:42;N:3	-9.37799
;w:6;d:12;N:75	-9.37893
;d:8;N:81	-9.37919
;d:6;N:88	-9.38045
;N:65;N:68;N:72	-9.38142
;w:24;d:24;N:70	-9.38148
;w:12;d:36;N:68	-9.382
;w:6;d:12;N:42	-9.38202
;D:70;w:6;D:70	-9.38234
;N:53;N:65	-9.38273
;N:79;N:91	-9.38326
;d:45;N:3	-9.38362
;w:12;N:28	-9.38393
;N:71;N:75;N:78	-9.38395
;w:6;N:81;w:6	-9.38544
;d:36;N:43	-9.38551
;d:48;N:81	-9.38641
;w:12;D:45	-9.3869
;N:45;N:52;N:57	-9.38747
;d:72;N:67	-9.38749
;N:67;w:9	-9.38779
;D:38;D:46	-9.38812
;d:0;N:76	-9.3888
;w:6;d:3;N:57	-9.38957
;w:6;d:6;N:69	-9.38963
;w:12;d:36;N:67	-9.38971
;N:63;N:70	-9.39005
;d:72;N:60	-9.39021
;N:73;N:77;N:80	-9.39051
;d:72;N:59	-9.39153
;N:49;N:53	-9.39209
;w:12;d:9;N:54	-9.39262
;w:12;d:9;N:69	-9.39403
;N:74;w:4	-9.39497
;w:36;d:12;N:73	-9.39533
;w:24;d:14	-9.39697
;d:15;N:53	-9.39774
;d:4;N:51	-9.39821
;D:46;D:51	-9.39931
;w:12;d:36;N:56	-9.39937
;d:20;N:56	-9.39988
;d:48;N:39	-9.40014
;N:60;w:3	-9.40182
;d:4;N:83	-9.40193
;w:6;N:80;w:6	-9.40193
;w:6;N:64;w:6;N:64	-9.40282
;D:51;w:12;D:51	-9.40302
;w:24;d:24;N:50	-9.40344
;N:71;w:4	-9.40345
;N:46;w:8	-9.40384
;N:68;w:9	-9.4046
;w:24;d:16;N:4	-9.40475
0;N:57	-9.40501
;D:45;D:47	-9.4054
;w:72;d:4	-9.40574
;w:6;d:7	-9.40575
;w:6;d:6;N:52	-9.40662
;d:21;N:75	-9.40688
;N:65;w:6	-9.40709
;w:12;d:24;N:39	-9.40716
;D:54;D:70	-9.40727
;N:66;w:4	-9.40739
;d:72;N:68	-9.40785
;N:61;w:3	-9.40806
;w:12;d:9;N:70	-9.40928
;d:48;N:80	-9.40984
;d:33;N:8	-9.41117
;N:68;w:4	-9.41161
;d:16;N:57	-9.41168
;N:47;N:50	-9.41189
;N:70;w:9	-9.41213
;d:20;N:73	-9.41237
;w:12;D:42;w:12;D:42	-9.41293
;w:4;D:42	-9.41395
;d:18;N:53	-9.41395
;w:24;N:28	-9.414
;d:0;N:51	-9.41475
;d:20;N:55	-9.41478
;d:9;N:49	-9.4151
;w:6;d:6;N:46	-9.41572
;d:36;N:9	-9.41581
;w:4;N:69;w:4	-9.41584
;N:69;w:4	-9.41608
;w:27;d:1	-9.41693
;N:82;N:94	-9.4174
;N:	-9.41765
;w:6;N:82;w:6	-9.4183
;d:8;N:46	-9.41867
;w:24;d:24;N:71	-9.41868
;w:6;D:38;D:39;D:42	-9.41943
;d:9;N:80	-9.41952
;N:68;w:6	-9.41965
;w:36;d:12;N:58	-9.4198
;d:24;N:32	-9.42076
;w:6;D:36;D:38;D:39;D:42	-9.42177
;w:12;d:13	-9.42244
;N:67;N:72;N:76	-9.42293
;w:12;d:36;N:55	-9.42451
;N:75;w:4	-9.42509
;d:9;N:48	-9.42575
;w:6;d:6;N:47	-9.42614
;w:18;N:45	-9.4263
;w:12;d:12;N:36	-9.42713
;N:85;w:3	-9.42912
;d:16;N:77	-9.42956
;w:12;d:24;N:81	-9.43007
;d:0;N:50	-9.43016
;w:12;d:	-9.43075
;w:12;D:38;w:12;D:38	-9.43168
;w:6;N:63;w:6;N:63	-9.43183
;w:6;N:62;w:6;N:62	-9.43229
;d:0;N:77	-9.43289
;w:32;d:4	-9.43466
;w:8;d:15	-9.43489
;w:6;d:3;N:55	-9.43499
;N:42;N:49	-9.43573
;d:39;N:7	-9.43589
;d:27;N:8	-9.43621
;N:76;w:4	-9.43692
;N:68;N:71;N:75	-9.43779
;N:71;w:9	-9.43935
0;N:52	-9.43938
;d:16;N:73	-9.44181
;N:67;N:70;N:74	-9.44199
;D:54;w:6;D:42	-9.44205
;D:69;w:6;D:42	-9.44269
;d:24;N:31	-9.44376
;w:6;N:68;w:6;N:68	-9.44462
;N:70;w:6	-9.44534
;w:24;d:16;N:3	-9.44561
;w:24;N:85	-9.44665
;w:12;N:89	-9.4468
;d:48;N:38	-9.44794
;w:6;N:44;w:6	-9.44858
;w:6;d:3;N:64	-9.44925
;d:21;N:52	-9.44983
;N:43;w:8	-9.45038
;N:81;N:93	-9.45085
;d:48;N:82	-9.45109
;N:63;w:6	-9.45206
;d:9;N:47	-9.45245
;w:12;d:9;N:53	-9.45414
;w:12;d:6;N:76	-9.45431
;d:18;N:77	-9.45495
;d:6;N:89	-9.45588
;w:12;d:12;N:80	-9.4582
;N:42;w:8	-9.45822
;d:8;N:45	-9.45833
;N:66;N:73	-9.45851
;N:66;N:69;N:73	-9.4586
;w:24;d:6;N:68	-9.45873
;w:24;d:6;N:67	-9.45877
;d:3;N:51	-9.45899
;w:36;d:12;N:57	-9.45912
;d:93;N:5	-9.45915
;w:8;D:38;D:42	-9.45972
;D:36;D:41	-9.46034
;N:65;w:4	-9.46039
;d:15;N:77	-9.46056
;w:6;d:3;N:66	-9.46165
;N:40;w:8	-9.46174
;d:36;N:42	-9.46197
;w:24;d:27;N:5	-9.46304
;N:51;N:58;N:63	-9.4634
;d:18;N:78	-9.46384
;N:45;w:8	-9.46414
;w:12;d:24;N:38	-9.46432
0;N:63	-9.46447
;N:43;N:48	-9.46465
;w:8;d:13	-9.46522
;N:41;N:48	-9.46529
;N:82;N:86	-9.46553
;d:72;N:69	-9.46576
;d:48;N:37	-9.46612
;D:47;D:48	-9.46741
;N:44;N:49	-9.46745
;w:11;d:1	-9.46794
;d:6;N:34	-9.46802
;d:72;N:70	-9.46823
0;N:67	-9.46829
;N:50;N:57;N:62	-9.47095
;d:36;N:41	-9.47195
;d:33;N:3	-9.47231
;N:85;w:12	-9.47276
;w:18;N:43	-9.47285
;w:6;D:47	-9.47292
;N:64;w:9	-9.47378
;d:72;N:58	-9.4741
;D:69;D:73	-9.4745
;w:12;N:67;w:12;N:69	-9.47525
;N:52;N:55;N:59	-9.47526
;d:84;N:4	-9.47594
;w:12;d:6;N:77	-9.47682
;w:24;N:90	-9.47712
;d:15;N:79	-9.47719
;w:18;N:44	-9.47763
;w:12;d:84;N:5	-9.47772
;d:42;N:4	-9.47781
;w:6;d:6;N:49	-9.47876
;d:20;N:54	-9.47945
;w:6;N:34	-9.4799
;N:64;N:66	-9.48027
;D:45;D:48	-9.48083
;w:24;d:12;N:79	-9.48151
;D:43;D:45	-9.48176
;d:4;N:50	-9.48212
;w:6;D:42;D:45	-9.48261
;w:6;d:6;N:64;w:6	-9.48269
;d:18;N:52	-9.48293
;d:15;N:52	-9.48367
;N:68;N:73;N:77	-9.48372
;d:8;N:82	-9.48399
;N:81;w:8	-9.48454
;N:53;N:56;N:60	-9.48543
;d:72;N:57	-9.4869
;d:30;N:64	-9.48818
;w:6;d:6;N:45	-9.4882
;w:12;N:63;w:12;N:65	-9.48872
;N:44;N:51;N:56	-9.48927
0;N:64	-9.48989
;w:12;d:9;N:71	-9.48994
;w:12;N:68;w:12;N:70	-9.49042
;N:54;N:57;N:61	-9.49079
;w:4;D:36	-9.49089
;N:67;N:74	-9.4915
;w:12;N:69;w:12;N:71	-9.49159
;N:53;w:8	-9.49162
;N:41;N:48;N:53	-9.4924
;w:72;d:9	-9.49288
;D:36;D:37	-9.49387
0;N:55	-9.49405
;w:18;d:	-9.49416
;d:8;N:47	-9.49471
;d:36;N:40	-9.4948
;d:18;N:80	-9.49576
;w:24;N:27	-9.49596
;w:36;d:24;N:8	-9.49612
;D:46;D:53	-9.49625
;w:6;d:6;N:63;w:6	-9.4965
;d:21;N:78	-9.49657
;w:21;d:18	-9.49665
;w:6;N:79	-9.49668
;D:38;D:51	-9.49702
0;N:69	-9.49766
;w:12;d:9;N:52	-9.49937
;N:59;w:3	-9.5002
;N:72;w:9	-9.50029
;d:192;N:8	-9.50036
;D:50;D:51	-9.50266
;N:73;w:12	-9.50268
;d:0;N:49	-9.503
;w:24;d:24;N:8	-9.50312
;w:6;N:70;w:6;N:70	-9.50482
;w:12;D:36;w:12;D:38	-9.50496
;w:4;D:38	-9.50502
;N:26;N:38	-9.50517
;w:12;d:36;N:54	-9.50533
;N:61;N:65;N:70	-9.50548
;N:47;N:54;N:59	-9.50609
;N:88;w:3	-9.50629
;D:36;D:43	-9.50657
;N:86;w:12	-9.5066
;w:6;d:6;N:51	-9.50668
;N:77;w:4	-9.50693
;w:12;d:4;N:63	-9.50716
;w:24;d:11	-9.50731
;w:60;d:4	-9.50757
;N:64;w:6	-9.50821
;d:12;N:92	-9.50864
;d:3;N:75;w:3	-9.50958
;d:48;N:36	-9.50971
;w:20;d:2	-9.50974
;D:51;D:70	-9.50987
;w:27;d:2	-9.51008
;N:61;N:63	-9.51062
;w:6;d:3;N:58	-9.5108
;w:12;d:36;N:70	-9.51083
;w:24;d:24;N:49	-9.51084
;N:66;w:6	-9.51107
;N:68;N:71;N:76	-9.51155
;d:3;N:84	-9.51171
;w:36;N:64	-9.51201
0;N:62	-9.51268
;d:24;N:86	-9.51289
;D:37;D:42	-9.51387
;N:85;N:88	-9.51394
;d:0;N:3	-9.51439
;w:48;N:3	-9.51509
;w:36;d:12;N:74	-9.51589
;w:6;d:3;N:43	-9.51636
;d:30;N:61	-9.51679
;N:58;w:3	-9.51684
;N:73;w:9	-9.51746
;N:88;w:12	-9.51759
;d:8;N:44	-9.51928
;N:48;w:8	-9.51937
;N:80;N:92	-9.52003
;N:72;N:76;N:79	-9.52014
;N:49;N:53;N:56	-9.52053
;N:50;w:8	-9.52055
;w:21;d:7	-9.52061
;D:49;D:51	-9.52085
;d:15;N:78	-9.52097
;w:12;N:70;w:12;N:72	-9.52207
;w:12;d:4;N:65	-9.52243
;N:69;N:74;N:78	-9.52249
;N:62;N:64	-9.52274
;d:12;N:64;w:12	-9.52332
;w:24;d:6;N:69	-9.5239
;d:9;N:83	-9.52404
;D:43;D:47	-9.52414
;w:6;D:38;D:39	-9.52472
;w:6;N:50;w:6	-9.52491
;D:69;w:12;D:69	-9.52565
0;N:65	-9.52573
;w:12;D:42;D:45	-9.52582
;d:18;N:51	-9.52606
;N:49;N:56;N:61	-9.52643
;D:48;D:54	-9.5265
;d:93;N:4	-9.52656
;N:28;N:40	-9.52663
;w:12;d:12;N:35	-9.52686
;w:3;N:76;w:3	-9.52688
;D:70;w:6;D:42	-9.52689
;N:48;N:52	-9.52702
;D:47;D:54	-9.52741
;N:87;w:6	-9.52744
;d:72;N:56	-9.52762
;d:18;N:50	-9.52778
;d:12;N:28	-9.52866
;w:24;d:12;N:37	-9.52892
0;N:66	-9.5296
;N:83;N:87	-9.5303
;d:30;N:62	-9.53038
;w:12;d:4;N:59	-9.53051
;w:12;d:4;N:61	-9.53051
;w:12;d:24;N:37	-9.53072
;D:36;D:53	-9.53129
;w:12;N:66;w:12;N:68	-9.53178
;w:6;d:12;N:39	-9.53237
;w:36;N:65	-9.5338
;d:6;N:33	-9.53381
;w:12;N:71;w:12;N:73	-9.53388
;N:86;w:3	-9.534
;w:72;d:24;N:5	-9.53402
;d:72;N:62	-9.53438
;d:27;N:3	-9.53476
;N:81;w:4	-9.53494
0;N:68	-9.53645
;d:16;N:56	-9.53757
;N:63;w:9	-9.53819
;N:85;N:89	-9.53819
;w:32;d:16	-9.53852
;w:24;d:6;N:60	-9.53902
;w:24;d:6;N:66	-9.53919
;d:51;N:4	-9.5395
;w:12;d:4;N:62	-9.53984
;D:54;D:56	-9.54023
;d:144;N:5	-9.54034
;w:45;d:3	-9.54067
;w:12;N:67;w:12;N:67	-9.54091
;N:44;w:8	-9.54114
;d:30;N:65	-9.54132
;w:42;d:2	-9.5419
;w:12;d:4;N:64	-9.54202
;d:9;N:46	-9.54257
;w:6;d:6;N:65;w:6	-9.54292
;w:12;D:39	-9.5431
;d:3;N:72;w:3	-9.54343
;w:36;d:12;N:75	-9.54354
;N:87;w:12	-9.54362
;N:46;N:50	-9.54406
;d:30;N:63	-9.54426
;d:16;N:74	-9.54462
;w:6;d:3;N:54	-9.54494
;N:43;N:50;N:55	-9.54627
;w:6;N:59;w:6;N:59	-9.54636
;w:24;d:24;N:72	-9.54669
;w:6;d:6;N:43	-9.54675
;D:46;D:49	-9.54681
;N:108	-9.54726
;d:96;N:8	-9.5474
;w:12;d:9;N:51	-9.54746
;w:36;N:63	-9.54748
;w:16;d:17	-9.54763
;w:7;d:9	-9.5478
;d:4;N:84	-9.54786
;N:90;w:6	-9.54789
;d:3;N:85	-9.54807
;w:12;N:65;w:12;N:67	-9.54819
;w:6;N:46;w:6	-9.54829
;d:3;N:67;w:3	-9.54839
;d:52;N:6	-9.54917
;N:63;N:65	-9.54922
;d:0;N:8	-9.5496
;w:18;N:42	-9.54967
;D:50;D:54	-9.54984
;w:17;d:1	-9.55005
;w:6;N:39;w:6	-9.55007
;d:30;N:66	-9.55023
;d:15;N:51	-9.5503
;N:64;w:4	-9.55057
;d:90;N:6	-9.55059
;w:12;d:36;N:53	-9.55106
;w:24;d:6;N:65	-9.55133
;w:6;N:56;w:6;N:56	-9.55159
;w:36;N:62	-9.55203
;w:12;d:4;N:60	-9.55209
;d:21;N:76	-9.55212
;w:6;D:38;w:6;D:38;w:6;D:38	-9.55261
;d:6;N:70;w:6	-9.55329
;N:88;w:6	-9.5541
;N:60;N:64;N:69	-9.55434
;d:3;N:50	-9.55449
;d:3;N:76;w:3	-9.55463
;d:44;N:4	-9.55472
;w:12;N:64;w:12;N:66	-9.55504
;N:62;w:9	-9.55533
;N:49;w:8	-9.55569
;w:12;d:36;N:52	-9.55597
;w:12;N:71;w:12;N:69	-9.55617
;d:20;N:74	-9.55659
;w:24;d:19	-9.55692
;d:72;N:55	-9.55713
;w:6;N:71;w:6;N:71	-9.55723
;d:0;N:78	-9.55729
;N:87;w:3	-9.55765
;w:24;d:6;N:70	-9.5577
;w:12;d:6;N:78	-9.55833
;w:4;N:67;w:4	-9.5585
;w:6;d:6;N:71	-9.55885
;w:24;d:24;N:48	-9.55927
;w:12;N:72;w:12;N:74	-9.5593
;w:8;D:38	-9.5594
;w:7;d:4	-9.55948
;N:74;w:9	-9.5597
;w:12;N:61;w:12;N:63	-9.56029
;w:12;d:9;N:72	-9.56059
;d:6;N:32	-9.56126
;w:24;N:91	-9.56175
;D:47;D:51	-9.5618
;w:24;d:6;N:59	-9.56243
;D:54;w:6;D:54	-9.56263
;D:42;D:69	-9.56285
;d:6;N:90	-9.56288
;d:8;N:43	-9.5639
;w:6;d:12;N:76	-9.56415
;N:68;N:75	-9.56514
;d:72;N:63	-9.56524
;w:6;d:12;N:38	-9.56538
;w:12;N:64;w:12;N:64	-9.56599
;w:3;D:36	-9.56601
;N:69;w:9	-9.56662
;w:12;N:27	-9.5669
;w:12;N:66;w:12;N:66	-9.56696
;w:3;d:17	-9.5671
;w:12;d:36;N:71	-9.56754
;d:0;N:48	-9.56865
;w:24;d:6;N:64	-9.5688
;w:48;d:48;N:5	-9.56906
;w:4;D:38;D:42	-9.56927
;w:18;N:73	-9.56929
;N:37;N:44;N:49	-9.56938
;w:15;d:1	-9.56976
;w:4;N:72;w:4	-9.56983
;w:36;N:61	-9.56993
;d:9;N:44	-9.57025
;w:12;N:65;w:12;N:65	-9.57045
;w:6;D:42;D:43	-9.57165
;w:18;d:24;N:5	-9.57311
;w:36;N:60	-9.5736
;w:6;d:6;N:66;w:6	-9.57391
;d:9;N:81	-9.57428
;d:72;N:71	-9.57513
;w:3;N:60;w:3	-9.57543
;N:83;N:95	-9.57573
;d:75;N:6	-9.57588
;d:21;N:51	-9.57596
;w:12;d:36;N:69	-9.57625
;N:38;w:8	-9.57654
;w:36;N:66	-9.57679
;d:9;N:45	-9.5771
;N:65;N:67	-9.57718
;w:36;d:12;N:56	-9.57759
;d:24;N:29	-9.57761
;w:24;d:6;N:63	-9.57801
;w:3;d:18	-9.57811
;w:7;d:3	-9.57921
;D:36;D:42;D:54	-9.57936
;w:36;N:67	-9.57943
;d:9;N:84	-9.58027
;N:57;w:3	-9.58141
;w:3;N:75;w:3	-9.58201
;d:12;N:91	-9.58229
;d:4;N:49	-9.5826
;d:30;N:67	-9.5828
;N:83;N:88	-9.58326
;d:36;N:78	-9.58426
;d:16;N:55	-9.58428
;w:12;N:69;w:12;N:67	-9.58449
;w:3;N:70;w:3	-9.5845
;w:12;N:70;w:12;N:68	-9.58466
;d:27;N:65	-9.58622
;D:56;D:70	-9.5863
;d:21;N:50	-9.58653
;N:62;N:66;N:71	-9.58682
;w:24;d:24;N:73	-9.58687
;w:6;d:12;N:77	-9.5871
;N:78;w:4	-9.58716
;w:12;N:73;w:12;N:71	-9.58717
;N:40;N:47	-9.58757
;w:36;N:59	-9.5877
;D:69;D:76	-9.58861
0;N:54	-9.5894
;d:72;N:54	-9.5896
0;N:56	-9.58989
;d:27;N:63	-9.59011
;d:40;N:7	-9.59067
;w:12;N:68;w:12;N:68	-9.59086
;d:30;N:60	-9.59107
;w:48;d:36;N:6	-9.59139
0;N:59	-9.59153
;w:12;N:68;w:12;N:66	-9.59161
;D:50;D:69	-9.5923
;d:27;N:64	-9.59246
;w:27;d:9	-9.59287
;d:27;N:62	-9.59335
;w:12;d:6;N:37	-9.59344
;d:54;N:7	-9.59404
;w:12;d:4;N:57	-9.59431
;w:3;N:71;w:3	-9.59447
;N:59;N:61	-9.59526
;N:58;N:62;N:67	-9.5953
;w:18;d:16	-9.59585
;N:84;N:88	-9.59593
;N:82;w:8	-9.59597
0;N:58	-9.59605
;d:20;N:53	-9.59631
;w:3;N:58;w:3	-9.59661
;N:69;N:72;N:76	-9.59763
;w:18;N:40	-9.59876
;w:72;d:18	-9.59991
;d:15;N:80	-9.59992
;N:66;N:68	-9.60042
;d:16;N:49	-9.60088
;w:12;D:41	-9.60114
;w:18;N:41	-9.60127
;N:24;N:36	-9.60136
;w:12;N:67;w:12;N:65	-9.60194
;d:6;N:75;w:6	-9.60197
;d:4;N:48	-9.60221
;w:24;d:6;N:61	-9.60236
;w:12;N:63;w:12;N:63	-9.60282
;w:6;N:43;w:6	-9.60287
;w:3;N:67;w:3	-9.60313
;w:12;d:4;N:67	-9.60374
;w:12;d:12;N:34	-9.60389
;d:27;N:61	-9.60406
;w:24;D:36;D:42	-9.60407
4;N:69	-9.60458
;N:37;w:8	-9.60473
;w:6;d:6;N:72	-9.60473
;d:15;N:50	-9.60541
;w:12;d:3;N:64	-9.60587
;d:72;N:53	-9.60593
;w:12;d:24;N:36	-9.60599
;N:89;w:12	-9.60599
;d:42;N:63	-9.60656
;d:24;N:87	-9.60716
;N:56;w:3	-9.60748
;N:47;w:8	-9.60764
;d:8;N:41	-9.6077
;w:24;d:12;N:80	-9.60842
;d:16;N:75	-9.60846
;w:12;d:4;N:58	-9.60878
;d:36;N:39	-9.60957
;w:24;d:6;N:62	-9.60982
;d:96;N:62	-9.61
;w:12;N:69;w:12;N:69	-9.61028
0;N:72	-9.6103
;w:12;N:73;w:12;N:75	-9.61036
;w:12;d:6;N:35	-9.61041
;w:3;d:7	-9.6108
;w:12;d:3;N:59	-9.61129
;w:24;d:6;N:71	-9.61162
;w:12;N:72;w:12;N:70	-9.612
;w:36;N:68	-9.6123
;d:8;N:42	-9.61284
;N:51;N:54;N:59	-9.61297
;w:12;N:70;w:12;N:70	-9.61309
;d:12;N:62;w:12	-9.61404
;d:27;N:66	-9.61406
;d:24;N:10	-9.6143
;w:12;D:47	-9.61487
;w:6;d:6;N:67;w:6	-9.61527
;N:49;N:54;N:58	-9.61538
;d:96;N:61	-9.61544
;w:12;d:3;N:57	-9.61548
;d:18;N:49	-9.61575
;w:24;d:6;N:58	-9.61609
;w:36;d:12;N:55	-9.61609
;D:53;D:69	-9.61678
;d:30;N:68	-9.61679
;w:6;d:6;N:44	-9.61713
;d:30;N:59	-9.61748
;D:56;D:69	-9.61761
;w:12;d:48;N:59	-9.61852
;w:12;D:38;w:6;D:38	-9.61894
5;w:8	-9.6194
;w:12;d:3;N:61	-9.62059
;w:12;d:4;N:55	-9.62066
;w:12;d:9;N:50	-9.62081
;N:63;w:4	-9.6235
;w:12;d:48;N:58	-9.62356
;w:24;N:87	-9.62416
;d:40;N:4	-9.62422
;N:69;N:72;N:77	-9.62586
;w:18;d:24;N:7	-9.62682
;N:41;w:8	-9.62683
;N:48;N:53;N:57	-9.62752
;d:42;N:8	-9.62769
;N:71;N:78	-9.62831
;w:12;d:24;N:82	-9.62935
;w:6;N:80	-9.62948
;w:6;d:6;N:61;w:6	-9.63002
;d:20;N:52	-9.63051
;N:70;N:75;N:79	-9.63057
;d:78;N:5	-9.63166
;w:12;d:48;N:60	-9.63175
;N:65;w:9	-9.6324
;d:54;N:5	-9.63268
;w:12;d:9;N:73	-9.63293
;d:8;N:83	-9.63298
;w:18;N:9	-9.63299
;w:12;N:62;w:12;N:62	-9.63312
;w:12;d:18;N:62	-9.63414
;w:2;d:7	-9.63414
;d:45;N:62	-9.63422
;w:6;N:58;w:6;N:58	-9.63469
;w:48;d:48;N:6	-9.63471
;d:42;N:62	-9.63476
;d:42;N:61	-9.63549
;w:12;d:48;N:61	-9.6357
;d:4;N:39	-9.63746
;d:96;N:60	-9.63763
;N:58;N:60	-9.63796
;N:87;N:90	-9.63831
;w:12;N:74;w:12;N:76	-9.63905
;w:36;d:12;N:49	-9.63923
;d:0;N:79	-9.64014
;d:42;N:60	-9.64088
;w:16;D:36	-9.64119
;d:45;N:64	-9.64158
;D:36;D:42;D:43	-9.64169
;w:24;d:24;N:47	-9.64181
;N:62;w:6	-9.64209
;d:42;N:64	-9.64312
;w:12;N:64;N:76	-9.64383
;d:96;N:63	-9.64389
;w:6;d:3;N:59	-9.64409
;w:12;d:3;N:55	-9.64441
;w:6;d:6;N:62;w:6	-9.64444
;d:16;N:78	-9.64461
;d:18;N:48	-9.64519
;d:144;N:7	-9.64528
;w:36;d:12;N:50	-9.64591
;D:42;D:54	-9.64605
;w:12;d:18;N:61	-9.64609
;d:20;N:75	-9.64627
;d:21;N:38	-9.64636
;d:57;N:7	-9.64651
;w:12;d:48;N:62	-9.64696
;d:3;N:49	-9.64718
;w:12;N:62;w:12;N:64	-9.64796
;w:12;d:18;N:60	-9.64884
;d:18;N:79	-9.64913
;w:24;N:64;N:67	-9.64918
;d:21;N:77	-9.64934
;d:3;N:48	-9.64955
;w:18;N:39	-9.64967
;w:12;D:42;D:48	-9.64984
;w:36;N:58	-9.65013
;D:36;D:38;D:51	-9.65024
;d:72;N:52	-9.65039
;w:24;d:12;N:36	-9.65108
;w:12;N:66;w:12;N:64	-9.6521
;w:3;N:77;w:3	-9.65278
;d:6;N:76;w:6	-9.65303
;d:42;N:65	-9.65314
;w:12;N:61;w:12;N:61	-9.65318
;w:12;d:3;N:54	-9.65318
;w:36;d:9;N:4	-9.65329
;d:36;N:38	-9.65332
;w:8;D:36	-9.65343
;w:24;d:36;N:8	-9.65355
;w:12;N:74;w:12;N:72	-9.6537
;N:80;w:4	-9.65389
;d:72;N:72	-9.65399
;d:33;N:64	-9.65403
;w:18;N:75	-9.65408
;w:36;N:57	-9.65417
;N:54;w:8	-9.65418
;d:9;N:43	-9.65467
;w:12;d:4;N:66	-9.65555
;d:6;N:71;w:6	-9.65568
;N:40;N:47;N:52	-9.65569
;w:33;d:3	-9.65615
;N:63;N:67;N:72	-9.65624
;w:27;d:3	-9.65638
;w:12;d:48;N:63	-9.65644
;d:16;N:54	-9.65757
;w:12;d:36;N:72	-9.65776
;w:12;D:48	-9.65778
;N:60;N:62	-9.6578
;d:21;N:79	-9.65805
;d:33;N:65	-9.65862
;d:18;N:83	-9.65874
;w:36;N:69	-9.65911
;N:51;w:8	-9.65945
;N:57;N:62;N:65	-9.6595
;w:12;d:3;N:63	-9.65952
;w:12;D:36;D:49	-9.6599
;N:67;N:69	-9.65997
;w:3;N:61;w:3	-9.66029
;w:12;d:12;N:81	-9.66048
;d:45;N:63	-9.66061
;w:42;d:12	-9.66097
;d:45;N:65	-9.66102
;w:12;N:71;w:12;N:71	-9.66214
;w:16;d:13	-9.66225
;d:72;N:51	-9.66313
;d:92;N:6	-9.66349
0;N:53	-9.66442
;w:16;d:7	-9.66461
;d:32;N:8	-9.66509
;d:48;N:83	-9.66523
;N:59;N:63;N:68	-9.66524
;w:24;d:24;N:46	-9.66557
;w:6;N:65;w:6;N:65	-9.66559
;w:3;N:56;w:3	-9.66567
;N:74;N:78;N:81	-9.6659
;w:24;N:26	-9.66612
;d:96;N:58	-9.6665
;d:96;N:64	-9.66753
;w:6;d:12;N:79	-9.66789
;w:12;d:18;N:64	-9.66808
;w:32;d:1	-9.66835
;d:21;N:49	-9.66912
;d:96;N:59	-9.66955
;N:79;w:4	-9.67074
;N:23;N:35	-9.67088
;w:36;d:12;N:48	-9.67134
;d:36;N:35	-9.67138
;d:72;N:73	-9.6714
;N:50;N:53;N:58	-9.67165
;w:6;d:6;N:68;w:6	-9.67217
;d:96;N:57	-9.67236
;d:21;N:48	-9.67254
;w:4;N:66;w:4	-9.67274
;N:55;N:59;N:64	-9.67376
;d:0;N:46	-9.67412
;d:96;N:65	-9.67455
;w:24;N:61;N:64	-9.67479
;w:6;N:61;w:6;N:61	-9.67538
;D:51;w:12;D:36	-9.67541
;D:43;D:54	-9.67579
;w:12;d:3;N:62	-9.67598
;d:30;N:58	-9.67624
0;N:73	-9.67642
;N:25;N:37	-9.67662
;N:71;N:76;N:80	-9.67715
;N:62;w:4	-9.67723
;d:3;N:78;w:3	-9.67863
;w:12;d:4;N:68	-9.67867
;w:6;N:66;w:6;N:66	-9.6787
;d:0;N:45	-9.67908
;d:9;N:41	-9.67925
;w:12;N:62;N:74	-9.67946
;w:12;N:60;w:12;N:62	-9.67966
;N:36;N:43	-9.67971
;d:33;N:62	-9.67979
;d:33;N:63	-9.67997
;w:24;d:24;N:74	-9.68013
;d:42;N:66	-9.6803
;N:60;w:4	-9.68074
;D:36;D:37;D:42	-9.68132
;w:6;N:81	-9.68173
;w:12;d:3;N:65	-9.68178
;d:8;N:40	-9.6823
;d:3;N:79;w:3	-9.68257
;d:30;N:69	-9.68297
;w:12;d:18;N:65	-9.68298
;w:12;d:3;N:58	-9.683
;w:12;D:42;D:43	-9.68321
;d:0;N:47	-9.68354
;w:6;d:6;N:69;w:6	-9.68356
;d:57;N:5	-9.68402
;w:12;d:3;N:60	-9.68429
0;N:70	-9.68452
;N:48;N:52;N:55	-9.68474
;w:12;d:48;N:64	-9.68488
;w:12;d:36;N:51	-9.68517
;d:4;N:47	-9.6853
;N:70;N:73;N:77	-9.68538
;w:24;d:24;N:45	-9.6854
;w:6;N:42;w:6	-9.68577
;w:6;N:41;w:6	-9.68593
;N:53;N:60;N:65	-9.68607
;w:6;D:42;D:48	-9.68619
;d:3;N:69;w:3	-9.68629
;d:27;N:67	-9.68637
;w:18;N:38	-9.6867
;N:91;w:6	-9.68672
;d:48;N:35	-9.68694
;w:36;d:12;N:51	-9.68786
;w:24;N:63;N:66	-9.6879
;N:109	-9.68852
;d:16;N:48	-9.68914
;N:61;w:6	-9.68934
;N:18	-9.68939
;d:15;N:49	-9.68965
;w:8;d:11	-9.68982
;N:68;N:70	-9.68995
;w:12;d:18;N:63	-9.69001
;d:96;N:54	-9.69002
;w:45;d:4	-9.69115
;w:24;d:27;N:4	-9.69133
;w:6;D:42;w:6;D:38;D:46	-9.69143
;w:18;N:81	-9.69185
;w:18;d:6;N:69;w:6	-9.69215
;d:72;N:50	-9.69218
;N:78;w:9	-9.69222
;w:12;d:48;N:57	-9.69229
;d:27;N:60	-9.69231
;N:69;N:76	-9.69231
;d:45;N:59	-9.69262
;d:33;N:61	-9.69278
;w:12;d:9;N:48	-9.69363
;w:12;d:4;N:56	-9.69381
;d:21;N:80	-9.69397
;w:12;d:9;N:49	-9.69411
;w:12;d:4;N:54	-9.69413
;d:15;N:81	-9.69486
;w:3;d:15	-9.69491
;w:12;d:6;N:36	-9.69562
0;N:71	-9.69581
;w:12;N:63;N:75	-9.69582
;w:12;d:18;N:66	-9.69603
;w:12;N:66;N:78	-9.69696
;d:20;N:39	-9.69738
;d:27;N:68	-9.69764
;d:30;N:8	-9.69771
;w:12;N:75;w:12;N:77	-9.6978
;w:48;d:20;N:6	-9.69801
;w:12;d:36;N:73	-9.69807
;w:84;d:6	-9.69865
;w:12;d:6;N:68;w:6	-9.69872
;N:70;N:77	-9.69897
;w:6;d:12;N:36	-9.69988
;w:12;d:48;N:65	-9.70043
;d:24;N:28	-9.70051
;N:51;w:3	-9.7021
;w:6;d:6;N:59;w:6	-9.70277
;d:32;N:63	-9.70292
;N:52;w:8	-9.70303
;w:12;D:42;w:12;D:36;D:42	-9.70357
;N:56;N:61;N:64	-9.70418
;d:32;N:65	-9.70433
;w:12;d:3;N:53	-9.70478
;w:12;d:6;N:34	-9.7051
6;N:80	-9.7061
;w:6;d:6;N:58;w:6	-9.70611
;w:36;N:55	-9.70652
;d:9;N:82	-9.70675
0;N:42	-9.70677
;d:0;N:80	-9.70687
;d:45;N:60	-9.70695
;w:12;d:18;N:59	-9.70713
;N:76;w:9	-9.70729
;d:9;N:40	-9.70737
;w:24;d:12;N:35	-9.70762
;w:12;N:65;N:77	-9.7078
;w:18;D:4	-9.70799
;N:85;N:90	-9.7082
;w:12;d:18;N:58	-9.70834
;w:6;N:69;w:6;N:69	-9.70845
;w:6;N:60;w:6;N:60	-9.70886
;w:6;d:12;N:37	-9.70898
;D:36;D:42;D:45	-9.70946
;w:16;d:3	-9.70998
;D:69;w:6;D:36	-9.71064
;d:18;N:37	-9.7108
;d:3;N:77;w:3	-9.71085
;w:12;N:60;w:12;N:60	-9.71097
;d:96;N:56	-9.71128
;d:45;N:61	-9.71167
;d:45;N:66	-9.71176
;w:4;N:68;w:4	-9.71179
;D:47;D:69	-9.71188
;N:42;N:47	-9.71189
;d:20;N:41	-9.71272
;d:3;N:73;w:3	-9.7129
;w:60;d:8	-9.71304
;w:36;N:56	-9.71319
;w:5;d:6	-9.71335
;w:36;N:70	-9.71337
;D:43;D:51	-9.7135
;w:24;d:72;N:7	-9.71365
;w:18;d:6;N:70;w:6	-9.7139
;w:12;d:24;N:84	-9.7142
;w:24;d:45;N:6	-9.71429
;D:36;D:45	-9.71446
;D:70;D:73	-9.71453
;d:33;N:67	-9.71483
;N:61;w:4	-9.71552
;w:12;N:71;N:83	-9.71571
;d:16;N:47	-9.71741
;D:42;D:70	-9.71745
;w:4;d:11	-9.71756
;d:12;N:93	-9.71787
;w:36;d:12;N:54	-9.71836
;w:3;D:42	-9.71887
;d:20;N:51	-9.71898
;w:12;N:67;N:79	-9.71898
;w:12;d:9;N:42	-9.71903
;d:18;N:47	-9.71905
;d:8;N:68;w:8	-9.71929
;d:30;N:70	-9.72073
;d:27;N:59	-9.72075
;w:12;N:75;w:12;N:73	-9.72088
;w:33;d:12	-9.7209
;w:12;N:72;w:12;N:72	-9.721
;w:6;d:18;N:62	-9.72153
;w:6;d:6;N:73	-9.72184
;w:36;d:12;N:52	-9.72239
;w:6;d:12;N:78	-9.72322
;w:12;d:18;N:68	-9.72359
;w:18;d:6;N:59	-9.72398
0;N:60	-9.72431
;w:12;d:24;N:83	-9.72433
;N:38;N:45	-9.72447
;w:12;d:48;N:55	-9.72469
;d:9;N:42	-9.72504
;d:18;N:41	-9.72625
;d:42;N:68	-9.72657
;d:36;N:79	-9.72674
;w:20;d:7	-9.72682
;w:12;d:9;N:47	-9.72721
;w:36;d:12;N:76	-9.72723
;d:9;N:85	-9.72805
0;N:61	-9.72809
;w:12;d:36;N:50	-9.72867
;d:72;N:49	-9.72906
;w:48;N:61	-9.72919
;d:16;N:46	-9.7294
;w:12;d:48;N:56	-9.72942
;d:27;N:69	-9.73
;w:36;N:71	-9.73011
;w:6;N:85;w:6	-9.73054
;w:6;d:18;N:63	-9.73067
;d:20;N:40	-9.73116
;D:76;w:6	-9.73118
;N:60;w:9	-9.73119
;w:3;N:59;w:3	-9.73135
;d:96;N:55	-9.73159
;d:87;N:5	-9.73189
;w:4;N:65;w:4	-9.73226
;d:4;N:85	-9.73234
;N:70;N:73;N:78	-9.73236
;w:12;d:18;N:67	-9.73239
;N:67;N:79;w:6	-9.73258
;d:32;N:67	-9.73261
;w:3;N:73;w:3	-9.73267
;w:48;N:57	-9.7327
;d:33;N:66	-9.73284
;w:12;d:9;N:46	-9.73295
;d:6;N:77;w:6	-9.73306
;D:54;w:6;D:38;D:54	-9.73324
;d:3;N:71;w:3	-9.73348
;d:3;N:70;w:3	-9.73379
;d:32;N:66	-9.73403
;w:12;N:64;w:12;N:62	-9.73491
;d:6;N:73;w:6	-9.73501
;d:15;N:48	-9.73575
;D:46;w:12;D:42	-9.73578
;d:69;N:6	-9.73619
;w:12;d:6;N:33	-9.7365
;N:57;N:61;N:66	-9.73705
;w:12;d:8;N:62	-9.7374
;w:6;D:36;w:6;D:42	-9.73747
;w:3;N:63;w:3	-9.73754
;N:32;w:8	-9.73763
;w:12;d:12;N:82	-9.73775
;d:96;N:52	-9.73806
;N:39;N:46;N:51	-9.7387
;D:48;D:49	-9.73899
;w:6;N:67;w:6;N:67	-9.739
;w:36;d:12;N:47	-9.73916
;d:96;N:51	-9.73957
;w:30;d:2	-9.74008
;w:6;N:83;w:6	-9.74012
;d:32;N:62	-9.74028
;w:24;N:65;N:68	-9.74092
;d:32;N:61	-9.74092
;w:6;d:3;N:60	-9.741
;N:55;N:60;N:63	-9.74125
;N:47;N:51	-9.74153
;w:6;d:6;N:74	-9.74157
;w:18;N:74	-9.74194
;d:21;N:47	-9.74208
;d:32;N:64	-9.74217
;d:30;N:57	-9.74224
;w:6;N:82	-9.74236
;w:48;d:21;N:6	-9.74248
;d:21;N:36	-9.74257
;d:18;N:36	-9.74293
;D:47;D:50	-9.74296
;w:48;N:59	-9.74315
;d:45;N:67	-9.74318
;d:8;N:74;w:8	-9.74324
;w:12;d:48;N:66	-9.74371
;w:36;d:12;N:53	-9.7438
;N:90;w:3	-9.74409
;d:21;N:37	-9.74481
;d:44;N:5	-9.74484
;D:45;D:54	-9.74502
;w:12;d:4;N:69	-9.74525
;d:6;N:31	-9.74546
;w:18;N:80	-9.74571
;w:18;d:6;N:71;w:6	-9.74626
;w:12;N:59;w:12;N:59	-9.74649
;d:96;N:66	-9.74666
;d:90;N:5	-9.74675
;N:54;w:3	-9.74675
;d:45;N:68	-9.7476
;d:15;N:35	-9.7479
;w:12;d:4;N:53	-9.74869
;w:18;d:6;N:68;w:6	-9.74902
;w:48;N:60	-9.74903
;w:3;N:65;w:3	-9.7492
;w:18;d:6;N:69	-9.74933
;d:18;N:46	-9.75007
;w:18;N:78	-9.75027
;d:27;N:58	-9.75036
;w:12;d:48;N:67	-9.75068
;N:60;w:6	-9.75072
;D:36;D:42;D:69	-9.75075
;d:96;N:50	-9.7508
;d:87;N:6	-9.75098
;N:83;w:8	-9.75111
;N:89;w:3	-9.7512
;w:12;d:24;N:35	-9.75141
;w:12;d:9;N:74	-9.7515
;d:18;N:44	-9.75185
;w:13;d:8	-9.75187
;d:3;N:65;w:3	-9.75265
;w:24;d:24;N:75	-9.75272
;w:4;N:70;w:4	-9.75293
;w:12;N:59;w:12;N:61	-9.75306
;d:20;N:76	-9.7536
;N:36;w:8	-9.7536
;d:96;N:53	-9.75403
;w:6;d:6;N:48	-9.75409
;w:6;d:3;N:65	-9.75484
;d:12;N:27	-9.75486
;w:12;d:8;N:60	-9.7549
;w:24;d:6;N:73	-9.75491
;d:9;N:39	-9.75528
;d:33;N:68	-9.75535
;w:12;d:9;N:45	-9.75587
;w:4;N:71;w:4	-9.75613
;w:6;d:12;N:80	-9.75625
;w:12;d:4;N:70	-9.75628
;w:36;d:12;N:77	-9.75657
;d:20;N:38	-9.75672
;D:45;D:51	-9.75676
;N:66;N:78;w:6	-9.75709
;w:36;d:12;N:43	-9.7571
6;N:79	-9.75712
;d:36;N:37	-9.75776
;d:8;N:73;w:8	-9.75786
;D:69;w:12;D:42	-9.75902
;w:4;d:7	-9.75908
;D:70;w:12;D:42	-9.75917
;w:18;d:6;N:66;w:6	-9.75935
;w:12;d:15;N:60	-9.75949
;w:24;d:48;N:61	-9.75959
;w:6;d:6;N:56;w:6	-9.7597
;w:40;d:2	-9.76011
;N:39;N:46	-9.76084
;w:12;N:65;w:12;N:63	-9.76103
;w:36;d:12;N:44	-9.76114
;d:32;N:60	-9.76124
;N:65;N:69;N:74	-9.76206
;d:42;N:59	-9.76212
;N:33;w:8	-9.76249
;w:12;d:8;N:64	-9.76267
;d:96;N:45	-9.76317
;w:12;d:12;N:33	-9.7633
;d:15;N:47	-9.76352
;d:8;N:64;w:8	-9.76394
;d:27;N:57	-9.76403
;N:55;w:4	-9.76408
;d:6;N:74;w:6	-9.76453
;w:12;N:73;w:12;N:73	-9.76501
;w:12;d:9;N:43	-9.76527
;d:6;N:69;w:6	-9.76535
;w:36;N:54	-9.76597
;d:0;N:44	-9.76598
;w:18;D:42	-9.766
;w:12;d:3;N:56	-9.76601
;w:12;d:8;N:63	-9.76606
;d:42;N:58	-9.76636
;d:18;N:45	-9.76636
;d:6;N:72;w:6	-9.76669
;d:4;N:46	-9.76694
;d:96;N:49	-9.76756
;w:48;N:58	-9.76784
;w:12;N:43;N:55	-9.76797
;d:15;N:82	-9.76814
;N:73;N:80	-9.76844
;d:48;N:2	-9.76866
;d:32;N:68	-9.76871
;w:36;N:50	-9.76873
;w:3;N:74;w:3	-9.76932
;d:33;N:60	-9.77057
;d:16;N:44	-9.77087
;w:12;d:6;N:71;w:6	-9.77111
;w:12;d:15;N:61	-9.7717
;d:21;N:46	-9.77181
;d:48;N:84	-9.77204
;w:24;d:27;N:7	-9.77211
;w:48;N:56	-9.77274
;w:12;d:6;N:80	-9.77276
;w:12;d:4;N:71	-9.77283
;w:12;d:18;N:69	-9.77315
;D:49;w:3;D:49;w:3;D:49;w:	-9.77325
;d:3;N:80;w:3	-9.77337
;d:18;N:35	-9.77357
;w:12;d:8;N:61	-9.77493
;w:12;d:8;N:57	-9.77495
;D:70;D:76	-9.77515
;N:75;N:79;N:82	-9.77561
;w:36;d:	-9.77593
;w:36;d:12;N:45	-9.77598
;d:96;N:67	-9.77651
;d:96;N:46	-9.77675
;d:96;N:47	-9.77683
;D:54;w:12;D:36	-9.77691
;w:12;d:15;N:59	-9.77737
;w:12;d:9;N:41	-9.77741
;w:36;N:51	-9.77821
;D:45;D:69	-9.77869
;w:6;D:36;D:42;D:43	-9.77883
;d:92;N:5	-9.77892
;d:33;N:59	-9.7792
;w:9;d:5	-9.77929
;w:12;d:48;N:68	-9.77946
;N:39;w:8	-9.77953
;w:12;N:61;N:73	-9.77968
;N:31;w:8	-9.77984
;N:74;N:81	-9.77998
;N:86;N:89	-9.78021
;D:45;D:50	-9.78056
;w:18;d:6;N:65;w:6	-9.78072
;w:12;d:6;N:79	-9.78099
;w:6;d:3;N:63	-9.78134
;w:12;d:3;N:67	-9.7816
;w:24;d:48;N:63	-9.78184
;N:59;N:64;N:67	-9.7821
;d:72;N:74	-9.78242
6;N:81	-9.78249
;w:18;d:6;N:67;w:6	-9.78284
;D:36;D:46;D:49	-9.78319
;d:18;N:40	-9.78321
;d:18;N:43	-9.7835
;w:36;N:49	-9.78403
;d:20;N:50	-9.78419
;d:6;N:91	-9.78423
;w:12;N:44;N:56	-9.78487
;w:24;d:42;N:6	-9.78493
;w:6;N:49;w:6;N:49	-9.78536
;d:96;N:48	-9.78581
;w:24;d:32;N:6	-9.78584
;w:6;d:12;N:35	-9.78602
;w:12;d:4;N:52	-9.78611
;w:3;N:62;w:3	-9.7862
;d:0;N:81	-9.78665
;d:16;N:53	-9.78676
;w:12;N:77;w:12;N:75	-9.78689
0;N:82	-9.78689
;w:12;d:48;N:54	-9.78701
;w:12;D:38;D:39;D:42	-9.78712
;w:24;d:6;N:57	-9.78741
;w:36;d:12;N:46	-9.78748
;D:46;D:47	-9.78777
;w:12;d:8;N:59	-9.78797
;w:48;N:63	-9.78872
;N:35;w:8	-9.78903
;w:12;d:18;N:70	-9.78934
;d:4;N:35	-9.78953
;w:12;N:42;N:54	-9.7897
;w:12;N:76;w:12;N:74	-9.7898
;w:12;d:15;N:57	-9.79042
;D:70;w:6;D:36	-9.79058
;w:12;N:59;N:71	-9.79068
;w:12;d:6;N:69;w:6	-9.79104
;w:12;d:18;N:57	-9.79106
;d:18;N:42	-9.79129
;w:48;d:36;N:5	-9.79141
;w:12;N:60;N:72	-9.79161
;w:12;d:6;N:65;w:6	-9.79197
;w:24;d:48;N:60	-9.79203
;D:46;D:48	-9.7921
;w:6;N:76;w:6;N:76	-9.79233
;w:24;d:6;N:56	-9.79266
;N:59;w:9	-9.79268
;d:6;N:68;w:6	-9.79323
;w:6;N:35;w:6	-9.7933
;w:6;D:36;D:42;D:45	-9.79355
;w:24;d:12;N:81	-9.79395
;w:6;D:36;D:42;w:6;D:42	-9.79395
;d:9;N:38	-9.79437
;d:30;N:71	-9.79445
;d:8;N:67;w:8	-9.79491
;w:12;N:68;N:80	-9.79495
;w:15;d:13	-9.79505
;w:6;d:3;N:49	-9.79552
;w:3;N:68;w:3	-9.79563
;w:44;d:4	-9.79584
;N:55;N:62;N:67	-9.79598
;d:72;N:75	-9.79615
;w:36;N:72	-9.79621
;d:21;N:35	-9.79624
;w:12;d:15;N:62	-9.79636
;w:6;d:3;N:56	-9.79642
;w:12;d:15;N:63	-9.79656
;w:12;N:78;w:12;N:80	-9.79698
;d:33;N:70	-9.79706
;N:61;N:66;N:69	-9.79742
;w:6;d:18;N:66	-9.79743
;N:84;N:89	-9.79804
;d:21;N:8	-9.79845
;w:66;d:6	-9.79853
;N:38;N:45;N:50	-9.7987
;w:12;N:69;N:81	-9.7991
;N:75;w:9	-9.79922
;d:16;N:45	-9.7995
;d:33;N:69	-9.79959
;w:18;d:24;N:4	-9.79974
;w:6;d:6;N:71;w:6	-9.79991
0;N:74	-9.80045
;w:12;d:9;N:44	-9.80075
;N:12	-9.80098
;w:24;d:48;N:57	-9.80147
;N:64;N:68;N:73	-9.80159
;w:12;d:6;N:61;w:6	-9.80173
;w:6;N:72;w:6;N:72	-9.80208
;d:42;N:67	-9.80221
;d:72;N:48	-9.80249
;w:24;d:48;N:62	-9.8027
;w:12;D:39;D:42	-9.80276
;w:6;d:18;N:61	-9.80364
;w:36;d:12;N:42	-9.80386
;d:12;N:71;w:12;N:69	-9.80389
;w:6;d:12;N:34	-9.80423
;D:43;D:69	-9.80423
;d:15;N:42	-9.80425
;w:8;D:36;D:42	-9.80429
;d:8;N:84	-9.80434
;d:4;N:45	-9.80436
;w:12;N:45;N:57	-9.80443
;w:36;N:53	-9.80458
;d:42;N:57	-9.80467
;d:45;N:57	-9.80495
;d:15;N:46	-9.80501
;N:60;N:65;N:68	-9.80519
;w:12;d:36;N:49	-9.80524
;d:20;N:49	-9.80558
;w:12;d:18;N:56	-9.8057
;w:6;D:36;w:6;D:36;D:42	-9.80571
;d:32;N:69	-9.80571
;N:57;N:63	-9.80618
;w:20;d:12	-9.8062
;w:36;d:12;N:78	-9.80626
;w:12;d:15;N:64	-9.80655
;d:0;N:42	-9.80663
;N:72;N:79	-9.80681
;w:12;d:8;N:65	-9.80733
;d:24;N:30	-9.80769
;d:4;N:86	-9.8079
;N:45;N:49	-9.8081
;d:45;N:58	-9.8089
;d:42;N:69	-9.81004
;w:12;d:8;N:66	-9.81011
;w:24;N:86	-9.81015
;D:76;w:6;D:42	-9.81031
;w:6;D:42;w:6;D:36;D:46	-9.81056
;w:48;N:62	-9.81065
;w:3;N:78;w:3	-9.8109
;w:18;N:37	-9.81103
;d:27;N:70	-9.81118
;d:20;N:37	-9.81126
;d:8;N:69;w:8	-9.81158
;w:6;d:6;N:74;w:6	-9.81169
;N:84;w:8	-9.81177
;N:52;w:3	-9.81179
;d:8;N:70;w:8	-9.81212
;w:6;d:6;N:72;w:6	-9.81222
;d:15;N:44	-9.81284
;w:18;N:82	-9.8139
;N:57;N:59	-9.81398
;w:12;N:46;N:58	-9.81424
;d:3;N:86	-9.81454
;N:62;N:67;N:70	-9.81506
;d:45;N:4	-9.81508
;w:18;d:6;N:50	-9.81522
;w:18;d:6;N:58	-9.81547
;d:45;N:70	-9.81602
;d:45;N:69	-9.81602
;D:69;w:6;D:38	-9.8163
;w:12;d:4;N:51	-9.81637
0;N:81	-9.81675
;w:12;N:90	-9.8168
;w:24;d:24;N:43	-9.81717
;w:36;N:52	-9.81728
;w:6;d:3;N:70	-9.8181
;d:21;N:45	-9.81852
;N:61;w:9	-9.81856
;w:39;d:3	-9.81866
;N:60;w:2	-9.81957
;w:6;d:6;N:57;w:6	-9.81969
;w:18;d:6;N:57	-9.82021
0;N:47	-9.82037
;w:12;d:18;N:71	-9.82111
;N:56;N:60;N:65	-9.82123
;w:18;N:79	-9.82145
;w:6;D:50	-9.82166
;N:75;N:82	-9.82179
;d:20;N:79	-9.82186
;d:16;N:42	-9.82263
;d:96;N:68	-9.82265
;w:12;N:40;N:52	-9.82273
;w:6;d:6;N:73;w:6	-9.82277
;w:12;d:9;N:75	-9.82281
;w:18;N:77	-9.82301
;w:4;D:36;D:42	-9.82336
;w:12;N:58;w:12;N:60	-9.82393
;w:48;N:55	-9.82412
;w:6;N:84	-9.82427
;N:55;w:3	-9.82445
;w:6;D:42;w:6;D:36;D:38;D:42	-9.82459
;w:24;d:48;N:59	-9.82491
;d:32;N:59	-9.82493
;w:3;N:57;w:3	-9.82496
;d:3;N:47	-9.82508
;w:12;N:76;w:12;N:78	-9.82551
;w:6;d:18;N:60	-9.82556
;w:12;N:58;N:70	-9.82683
;w:1;d:11	-9.82716
;w:24;d:24;N:44	-9.82724
;w:12;N:64;w:12;N:67	-9.82741
;d:16;N:43	-9.82779
;N:67;w:2	-9.8285
;w:12;d:6;N:72;w:6	-9.82866
;N:59;w:4	-9.82871
;d:16;N:39	-9.82918
;w:24;d:48;N:64	-9.82919
;w:36;d:12;N:39	-9.82933
;d:0;N:41	-9.8295
;w:12;N:59;w:12;N:62	-9.82955
;w:36;d:8;N:3	-9.83001
;d:4;N:74;w:4	-9.83035
;w:12;d:48;N:53	-9.83047
;d:3;N:63;w:3	-9.83218
;d:96;N:44	-9.83257
;d:72;N:46	-9.83268
;w:36;N:48	-9.83296
;d:15;N:45	-9.83349
;w:24;N:67;N:70	-9.83354
;D:54;D:76	-9.83358
;w:6;D:39;D:42	-9.83404
;w:8;N:74;w:8;N:7	-9.8343
;w:24;N:88	-9.83444
;w:12;N:39;N:51	-9.83446
;w:12;d:8;N:58	-9.83455
;d:3;N:46	-9.83476
;N:84;N:96	-9.83477
;d:3;N:81;w:3	-9.83486
;w:24;d:13	-9.83517
;w:24;D:46	-9.83532
;w:12;N:57;w:12;N:57	-9.83537
;w:12;N:62;w:12;N:65	-9.83602
;w:6;d:3;N:61	-9.83636
8;N:40	-9.83683
;w:12;d:21;N:61	-9.83696
;d:15;N:41	-9.83843
0;N:75	-9.83845
;D:48;D:53	-9.83916
;d:16;N:52	-9.83938
;d:72;N:45	-9.83939
;d:52;N:5	-9.83942
;d:4;N:44	-9.83958
;D:36;D:42;w:6;D:42;w:6;D:42	-9.83961
;w:6;d:18;N:59	-9.84112
0;N:45	-9.84131
;w:12;N:38;N:50	-9.84177
;w:12;d:3;N:68	-9.8418
;w:12;D:38;D:42;w:12;D:42	-9.84222
;d:8;N:75;w:8	-9.84229
;w:36;N:47	-9.84297
;N:54;N:59;N:62	-9.84315
;d:27;N:56	-9.8436
;w:48;N:64	-9.844
;d:45;N:56	-9.84432
;w:8;N:61;w:8;N:6	-9.84442
;w:24;N:89	-9.8446
;d:36;N:80	-9.84462
;w:7;d:2	-9.84476
;d:3;N:45	-9.84484
;d:96;N:69	-9.84554
;w:6;N:86;w:6	-9.84556
;w:24;d:6;N:55	-9.84562
;w:12;d:36;N:48	-9.84586
;w:12;N:48;N:60	-9.84596
;w:6;N:73;w:6;N:73	-9.84609
;N:54;N:61;N:66	-9.84657
;w:36;N:46	-9.84687
;D:43;D:48	-9.84703
;N:54;N:58;N:63	-9.84703
;d:8;N:76;w:8	-9.84741
;N:40;N:45	-9.84744
;D:36;w:24;D:38	-9.84827
;w:12;d:21;N:62	-9.84829
;w:12;D:38;D:39	-9.8483
;N:66;w:1	-9.84833
;N:58;N:63;N:66	-9.84834
;w:12;d:3;N:66	-9.84885
;w:36;d:12;N:41	-9.8489
;N:30;w:8	-9.84896
;d:3;N:62;w:3	-9.84945
;w:12;d:15;N:65	-9.85036
;N:94;w:6	-9.8504
;w:12;d:15;N:58	-9.8505
;d:8;N:39	-9.85066
;w:12;d:108;N:6	-9.85083
;w:6;N:40;w:6	-9.85087
;w:18;d:6;N:62	-9.85092
;w:12;d:48;N:52	-9.85092
;w:6;d:3;N:69	-9.85094
;d:12;N:26	-9.85144
;w:24;N:93	-9.85181
;w:6;N:38;w:6	-9.85183
;d:33;N:57	-9.8519
;d:0;N:43	-9.85212
;d:20;N:48	-9.85233
;d:0;N:40	-9.85268
;N:36;N:43;N:48	-9.85296
;w:6;D:36;D:37	-9.85335
;d:15;N:40	-9.85359
;w:6;d:18;N:64	-9.85361
;d:72;N:47	-9.85368
;N:58;w:4	-9.85404
;w:6;d:6;N:75;w:6	-9.85493
;N:92;w:12	-9.85506
;w:6;N:32	-9.85525
;w:6;d:3;N:74	-9.85527
;w:72;d:24;N:7	-9.85605
;d:6;N:66;w:6	-9.85637
;d:8;N:37	-9.85637
;w:3;N:66;w:3	-9.85656
;d:12;N:68;w:12;N:68	-9.85704
;d:15;N:43	-9.85711
;d:12;N:70;w:12;N:68	-9.85735
;N:59;w:2	-9.8575
;w:12;d:6;N:64;w:6	-9.85762
;w:18;d:6;N:64;w:6	-9.85786
;d:18;N:39	-9.85833
;d:48;N:85	-9.85912
;w:12;D:36;D:37	-9.85924
;w:6;d:18;N:65	-9.85926
;w:8;N:75;w:8;N:7	-9.8593
;w:12;d:48;N:69	-9.85931
;w:24;d:48;N:65	-9.85946
;d:12;N:72;w:12;N:70	-9.85986
;w:24;d:6;N:54	-9.86016
;N:58;w:9	-9.86069
;w:12;D:42;w:12;D:38;D:42	-9.86114
;w:12;N:66;w:12;N:69	-9.86131
;w:6;N:83	-9.86164
;w:36;d:12;N:38	-9.86168
;d:32;N:70	-9.86185
;w:21;d:24;N:5	-9.86226
;w:6;d:3;N:67	-9.86275
;d:8;N:66;w:8	-9.86275
;d:12;N:65;w:12;N:65	-9.86281
;w:24;d:48;N:58	-9.86283
;d:18;N:38	-9.86287
;w:12;N:47;N:59	-9.86308
;N:50;w:3	-9.86313
;d:20;N:36	-9.86315
;w:24;d:24;N:76	-9.86354
;w:24;d:24;N:42	-9.8637
;w:36;N:45	-9.86373
;d:21;N:44	-9.86378
;d:0;N:2	-9.86406
;D:36;D:54	-9.8641
;d:24;N:93	-9.86438
;d:3;N:68;w:3	-9.86459
;w:18;d:6;N:72;w:6	-9.86479
;w:12;d:48;N:70	-9.86492
;w:12;N:67;w:12;N:64	-9.86503
;w:12;N:70;N:82	-9.86505
;w:9;D:36	-9.86519
;d:16;N:41	-9.86537
;d:18;N:31	-9.86566
;w:12;d:8;N:55	-9.86619
;w:12;d:8;N:56	-9.86637
;N:79;w:9	-9.86648
;D:54;w:8;D:54	-9.86676
;N:86;N:90	-9.86688
;d:24;N:88	-9.86707
;w:36;N:73	-9.86774
;d:15;N:34	-9.86779
;w:12;N:46;w:12;N:46	-9.86801
;d:16;N:40	-9.86824
;N:66;N:70;N:75	-9.8683
;w:6;d:6;N:55;w:6	-9.86847
;w:6;N:36;w:6	-9.86865
;d:21;N:42	-9.86895
;w:12;d:8;N:54	-9.86905
;w:18;N:36	-9.86915
;w:12;N:65;w:12;N:68	-9.86944
;w:20;d:16	-9.87004
;w:6;d:12;N:33	-9.8701
;w:21;d:24;N:6	-9.87022
;w:24;N:62;N:65	-9.87039
;N:61;N:67	-9.87067
;D:48;D:70	-9.87112
;w:6;D:38;w:6;D:36;D:42	-9.87131
;w:18;d:6;N:65	-9.87244
;w:12;N:75;w:12;N:75	-9.8727
;D:51;w:12;D:42	-9.87285
;w:12;N:77;w:12;N:79	-9.87293
;d:18;N:81	-9.87298
;D:54;w:6;D:54;w:6	-9.87305
;w:6;D:51	-9.87344
;w:6;N:74;w:6;N:74	-9.87384
;w:36;d:10	-9.87394
3;w:8	-9.87416
;w:12;N:57;w:12;N:59	-9.87432
;w:10;d:6	-9.87457
;w:6;d:18;N:68	-9.87486
;D:42;D:45	-9.87501
;w:24;d:6;N:74	-9.87509
;d:12;N:75;w:12;N:73	-9.87535
;w:12;d:3;N:52	-9.87583
;d:3;N:74;w:3	-9.87597
6;N:78	-9.87659
;N:71;N:74;N:79	-9.87725
;w:18;d:6;N:67	-9.87729
;D:50;D:70	-9.87733
;w:6;D:42;D:51	-9.87734
;w:3;d:8	-9.87765
;d:12;N:73;w:12;N:71	-9.87768
;d:33;N:58	-9.87778
;d:3;N:37	-9.87808
;d:4;N:43	-9.87833
;N:63;N:68;N:71	-9.87847
;d:30;N:72	-9.87848
;d:20;N:77	-9.87863
;w:21;d:11	-9.87907
;w:12;N:62;w:12;N:67	-9.87909
;N:57;N:69;w:6	-9.87922
;d:6;N:92	-9.87929
;w:12;d:8;N:68	-9.87939
;w:36;D:36	-9.8795
;w:24;d:24;N:2	-9.87984
;d:24;N:89	-9.87993
;d:30;N:56	-9.87999
;w:24;d:48;N:56	-9.88006
;w:12;D:38;D:49	-9.88021
;d:8;N:62;w:8	-9.88088
;D:36;D:42;w:12;D:36;D:42	-9.88089
;w:12;N:55;w:12;N:57	-9.88103
;d:42;N:70	-9.88133
;d:75;N:5	-9.88163
;w:12;d:6;N:67;w:6	-9.88185
;w:12;d:12;N:32	-9.88192
;w:12;N:55;w:12;N:55	-9.88195
;N:43;w:12;N:43	-9.88198
;D:36;D:42;w:12;D:42;w:12;D:38;D:42	-9.88233
;d:9;N:37	-9.88239
;w:12;N:58;w:12;N:58	-9.88336
;w:12;N:53;w:12;N:55	-9.88429
;w:12;N:69;w:12;N:66	-9.88434
;N:82;w:4	-9.88488
;w:12;d:15;N:66	-9.88519
6;N:59	-9.88523
;w:12;d:36;N:74	-9.88526
;w:12;d:4;N:72	-9.88532
;N:58;w:2	-9.88535
;w:6;N:87;w:6	-9.88551
;w:24;d:48;N:55	-9.88569
;w:12;N:66;w:12;N:63	-9.88605
;w:6;d:18;N:58	-9.88654
;w:24;d:12;N:34	-9.88665
;d:45;N:71	-9.88687
;w:12;N:49;N:61	-9.88736
;d:6;N:64;w:6	-9.88752
;w:24;d:48;N:66	-9.8876
;N:53;N:57;N:62	-9.88771
;w:24;N:68;N:71	-9.88785
;w:12;D:51	-9.88792
;N:26;w:6	-9.88814
;w:18;d:6;N:64	-9.88839
;d:15;N:39	-9.88849
;w:24;N:58;N:62	-9.88859
;w:12;N:59;N:62	-9.88871
;N:90;w:8	-9.88932
;w:40;d:1	-9.88978
;d:12;N:74;w:12;N:72	-9.88987
;w:12;N:41;N:53	-9.88998
;d:4;N:87	-9.89007
;w:16;D:42	-9.8903
;d:8;N:38	-9.89051
;w:6;N:48;w:6;N:48	-9.89061
;w:3;N:81;w:3	-9.89062
;w:78;d:6	-9.89069
;w:48;N:54	-9.89086
;w:6;d:18;N:69	-9.89087
;w:6;N:37;w:6	-9.89102
;d:54;N:4	-9.89118
;D:69;w:12;D:36	-9.89163
;d:9;N:36	-9.89181
;w:12;N:68;w:12;N:71	-9.89215
;w:12;N:56;w:12;N:56	-9.89224
;w:12;N:56;N:68	-9.89237
;d:36;N:2	-9.89243
;w:12;N:71;w:12;N:68	-9.8925
;w:4;N:61;w:4	-9.8926
;d:18;N:84	-9.89276
;w:12;N:63;w:12;N:61	-9.89278
;d:48;N:34	-9.8931
;w:24;N:25	-9.89319
;w:12;N:65;w:12;N:62	-9.89321
;d:18;N:32	-9.89368
;w:12;N:50;w:12;N:50	-9.89387
;w:24;N:61;N:65	-9.8941
;d:20;N:47	-9.89456
;N:56;N:58	-9.89482
;D:53;w:12;D:36	-9.89526
;d:27;N:2	-9.89537
;w:16;D:38	-9.89562
;w:12;N:55;N:67	-9.89598
;w:12;d:8;N:67	-9.89602
;w:12;d:21;N:60	-9.89604
;w:36;d:12;N:40	-9.89626
;w:12;N:73;w:12;N:70	-9.89626
;D:54;w:6;D:38	-9.8966
;w:12;N:64;w:12;N:69	-9.89667
;d:32;N:71	-9.89671
;d:12;N:64;w:12;N:64	-9.89716
;w:12;d:21;N:63	-9.8977
;N:37;N:44	-9.8979
;w:36;N:44	-9.89807
0;N:50	-9.89821
;d:33;N:71	-9.89845
;N:76;N:83	-9.89887
;d:20;N:80	-9.89897
;N:65;w:1	-9.899
;d:3;N:87	-9.89923
;d:8;N:61;w:8	-9.89929
0;N:51	-9.89959
;w:48;d:24;N:58	-9.8997
;w:24;d:48;N:67	-9.90002
;w:18;d:6;N:63;w:6	-9.90037
;w:6;d:6;N:75	-9.90043
;w:12;N:61;w:12;N:64	-9.90087
;w:12;d:6;N:70;w:6	-9.90123
;w:6;d:3;N:68	-9.90129
;w:12;d:4;N:50	-9.9016
;w:12;d:24;N:34	-9.90164
;w:18;d:6;N:56	-9.90174
;w:12;D:42;w:12;D:38;D:42;w:12;D:42	-9.90194
;w:18;d:6;N:63	-9.90232
;N:67;w:1	-9.90237
;w:36;N:43	-9.90256
;d:32;N:58	-9.90264
;w:12;N:70;w:12;N:67	-9.9027
;w:12;N:47;w:12;N:47	-9.90279
;w:12;N:62;w:12;N:60	-9.9028
;N:66;w:2	-9.90285
;d:36;N:36	-9.90292
;w:12;N:60;w:12;N:65	-9.90312
;N:46;N:49	-9.90332
;N:85;N:97	-9.90347
;d:18;N:82	-9.90358
;N:86;w:8	-9.90388
;w:6;d:12;N:82	-9.90396
;N:62;N:74;w:6	-9.90397
;d:12;N:24	-9.90397
6;N:48	-9.90407
;d:27;N:71	-9.90421
;w:12;d:15;N:56	-9.90431
;d:16;N:79	-9.90445
;d:3;N:44	-9.90523
;w:12;N:94;w:12;N:9	-9.90524
;d:30;N:55	-9.90532
;d:8;N:86	-9.90534
;d:72;N:44	-9.90565
;w:12;N:78;w:12;N:76	-9.9058
;D:48;w:6;D:48	-9.90643
;N:52;N:56;N:61	-9.90651
;N:74;w:12;N:74	-9.90654
;N:62;N:68	-9.90659
;N:64;N:69;N:72	-9.90681
;d:12;N:66;w:12;N:66	-9.90685
;w:12;N:48;w:12;N:48	-9.90688
;w:12;N:74;w:12;N:74	-9.9069
;N:80;w:9	-9.90694
;w:24;d:6;N:51	-9.90733
;w:24;N:64;N:68	-9.90753
;w:18;d:6;N:68	-9.90779
;w:12;d:21;N:59	-9.90807
;w:24;d:6;N:72	-9.90809
;w:8;N:65;w:8;N:6	-9.90816
;w:6;d:18;N:67	-9.90882
;w:12;N:59;w:12;N:64	-9.90883
;D:51;w:6;D:42	-9.90894
;N:68;w:2	-9.90898
6;N:70	-9.90899
;w:20;d:8	-9.90938
;w:12;N:56;w:12;N:58	-9.90945
;w:12;N:63;w:12;N:68	-9.91005
;w:6;d:18;N:57	-9.91007
;w:12;d:21;N:65	-9.91116
;N:54;N:60	-9.91127
;D:69;w:6;D:42;D:69	-9.91129
;w:24;d:36;N:3	-9.91139
;d:4;N:75;w:4	-9.91141
;w:32;d:7	-9.91146
;w:12;N:68;w:12;N:65	-9.91153
;N:53;w:3	-9.91159
;d:39;N:8	-9.9119
;N:92;w:6	-9.91251
;d:21;N:43	-9.91267
;w:6;d:12;N:81	-9.91301
;w:12;d:36;N:75	-9.91312
;d:12;N:69;w:12;N:69	-9.91316
;w:12;N:60;w:12;N:63	-9.91337
;w:33;d:15	-9.91338
;w:12;N:58;w:12;N:61	-9.91341
;N:34;w:8	-9.91353
;d:3;N:36	-9.91357
;w:12;d:54;N:6	-9.91367
;w:48;N:65	-9.91367
;N:71;w:12;N:71	-9.91426
;w:24;d:6;N:75	-9.91427
;d:12;N:67;w:12;N:67	-9.91434
;N:71;N:74;N:78	-9.91467
;w:6;D:36;w:6;D:38;D:42	-9.91467
;D:54;w:6;D:42;D:54	-9.91476
;N:52;N:59;N:64	-9.91487
;w:12;N:63;w:12;N:66	-9.91488
;d:6;N:67;w:6	-9.91508
;w:19;d:	-9.9151
;w:12;N:72;w:12;N:69	-9.91538
;d:4;N:42	-9.91558
;D:46;D:69	-9.91561
;w:18;d:6;N:55	-9.91571
;w:24;d:12;N:82	-9.91582
;d:96;N:43	-9.91584
;N:58;N:65;N:70	-9.91632
;D:38;D:54	-9.91643
;N:93;w:12	-9.91661
;w:6;D:36;D:39;D:42	-9.91717
;w:24;N:56;N:59	-9.91719
;d:20;N:46	-9.91738
;w:12;N:64;w:12;N:61	-9.91738
;N:77;w:9	-9.91745
;w:6;N:88;w:6	-9.91752
;d:12;N:61;w:12;N:61	-9.91762
;d:20;N:45	-9.91804
;N:45;N:48	-9.91882
;d:8;N:77;w:8	-9.91891
;w:12;N:57;N:69	-9.91932
;d:3;N:38	-9.91933
;d:56;N:6	-9.91937
;d:96;N:70	-9.92058
;N:57;w:9	-9.92073
;N:110	-9.92145
;w:12;d:15;N:67	-9.92172
;d:6;N:65;w:6	-9.92202
;w:24;N:59;N:63	-9.92206
;w:12;d:6;N:63;w:6	-9.92211
;d:6;N:78;w:6	-9.9223
;N:68;N:80;w:6	-9.92252
;N:58;N:64	-9.92294
;d:21;N:41	-9.92331
;d:12;N:68;w:12;N:66	-9.92334
2;N:79	-9.92336
;w:18;d:6;N:74;w:6	-9.92338
;w:12;d:12;N:83	-9.92363
;w:12;d:21;N:64	-9.92489
;d:12;N:94	-9.9249
;w:24;d:24;N:41	-9.92517
;w:18;N:76	-9.9252
;w:12;N:53;w:12;N:53	-9.92542
;N:82;w:2	-9.92548
;N:70;N:73;w:6	-9.92555
;d:4;N:41	-9.92617
;w:12;d:4;N:73	-9.92628
;d:27;N:55	-9.92671
;d:12;N:69;w:12;N:71	-9.92684
;w:3;N:64;w:3	-9.92742
;w:12;N:72;w:12;N:75	-9.92782
;D:69;w:2	-9.92785
;d:9;N:32	-9.92789
;w:14;d:1	-9.92799
;w:12;d:48;N:51	-9.92819
;N:69;w:12;N:69	-9.92823
;d:32;N:57	-9.92845
;N:91;w:8	-9.92852
;w:12;N:51;N:63	-9.92892
;D:70;w:6;D:42;D:70	-9.92899
;w:6;d:3;N:53	-9.92899
;w:12;N:45;w:12;N:45	-9.92913
;N:60;N:66	-9.92957
;d:60;N:72	-9.92964
;N:72;N:75;N:80	-9.92993
;w:12;d:18;N:72	-9.93015
;d:20;N:8	-9.93059
;d:3;N:61;w:3	-9.93065
;w:12;d:12;N:31	-9.93066
;w:6;D:36;D:42;w:6;D:36;D:42	-9.93069
;w:48;d:14	-9.93122
;w:48;d:24;N:59	-9.93147
0;N:49	-9.93172
;w:24;d:24;N:40	-9.93188
;w:30;d:9	-9.93213
;d:15;N:38	-9.93234
;d:3;N:82;w:3	-9.93257
;w:12;d:9;N:76	-9.93293
;w:12;N:67;w:12;N:70	-9.93293
;d:4;N:71;w:4	-9.93346
;N:57;w:4	-9.93381
;w:4;N:64;w:4	-9.93464
;N:65;w:2	-9.93484
;w:12;N:56;w:12;N:59	-9.93493
6;N:58	-9.93523
;w:4;N:77;w:4	-9.9359
;N:39;w:12;N:39	-9.93645
;d:12;N:67;w:12;N:65	-9.93655
;D:36;w:12;D:36	-9.93656
;w:36;d:24;N:4	-9.93671
;d:3;N:42	-9.93706
;w:12;d:36;N:47	-9.93726
;w:24;N:60;N:63	-9.93747
;w:18;d:6;N:62;w:6	-9.93753
;d:42;N:55	-9.93774
;d:45;N:72	-9.93775
;w:2;D:38	-9.93804
;w:12;d:4;N:49	-9.93831
;N:69;N:72;w:6	-9.93838
;D:42;D:48	-9.93885
0;N:39	-9.93905
;D:45;D:46	-9.93905
;w:18;d:6;N:66	-9.9391
;N:63;w:2	-9.93949
;w:12;N:55;w:12;N:58	-9.93954
;w:12;N:61;w:12;N:66	-9.93984
;d:3;N:60;w:3	-9.94032
;w:24;d:6;N:53	-9.94064
;w:12;N:79;w:12;N:77	-9.94075
;d:4;N:34	-9.94086
;w:12;N:50;N:62	-9.94096
;w:12;d:6;N:66;w:6	-9.94104
;d:21;N:40	-9.94113
;N:61;w:2	-9.94133
;w:12;N:69;w:12;N:72	-9.94193
;d:9;N:86	-9.94193
;w:24;d:45;N:7	-9.94196
;N:69;w:2	-9.94255
;d:144;N:4	-9.94257
;N:70;w:1	-9.9426
;D:76;w:12;D:42	-9.94313
;N:58;N:70;w:6	-9.9432
;w:6;N:54;w:6;N:54	-9.9432
;w:6;d:6;N:54;w:6	-9.94342
;w:24;d:72;N:4	-9.94358
;w:48;d:24;N:60	-9.94366
;d:21;N:81	-9.94388
;D:49;D:54	-9.94421
;D:39;D:46	-9.94428
;w:24;N:66;N:69	-9.94439
;w:12;N:51;w:12;N:51	-9.94468
;d:20;N:44	-9.94475
;d:72;N:76	-9.94482
;w:24;N:55;N:58	-9.94507
;d:36;N:31	-9.94539
;w:12;N:54;N:66	-9.94551
;d:42;N:56	-9.94556
;w:12;d:21;N:67	-9.94558
;w:12;d:21;N:58	-9.94559
;d:3;N:43	-9.94585
;d:12;N:69;w:12;N:67	-9.94597
;d:36;N:34	-9.94616
;d:45;N:54	-9.9467
;d:3;N:66;w:3	-9.94689
;w:12;d:8;N:69	-9.94723
;D:54;w:12;D:54	-9.94785
;d:18;N:34	-9.94786
;w:12;N:66;w:12;N:71	-9.94788
;w:6;N:34;w:6	-9.94801
;w:24;N:92	-9.94828
;N:72;N:77;N:81	-9.94899
;w:36;d:12;N:79	-9.94902
;D:51;w:6;D:51	-9.94905
;w:12;N:37;N:49	-9.94909
;w:12;d:48;N:50	-9.94928
;w:6;D:38;w:6;D:42	-9.94984
;w:6;N:75;w:6;N:75	-9.95004
;d:0;N:82	-9.9504
;w:6;N:63;w:6;N:65	-9.9505
;d:6;N:80;w:6	-9.95058
;N:70;N:72	-9.95085
;w:36;N:42	-9.95103
;d:30;N:73	-9.95167
;N:45;w:6;N:45	-9.95167
;N:68;N:77	-9.95178
;w:12;d:18;N:55	-9.95183
;w:12;d:8;N:53	-9.95185
;w:24;N:57;N:61	-9.95217
;N:55;N:61	-9.95219
;w:12;N:57;w:12;N:60	-9.95228
;w:6;d:6;N:76	-9.95235
;w:17;d:7	-9.95327
7;w:8	-9.95334
;D:69;w:3	-9.9535
;d:20;N:35	-9.95372
;w:12;N:57;w:12;N:62	-9.95389
;w:6;D:36;D:41;D:42	-9.95405
;w:12;N:51;w:12;N:53	-9.95419
;w:48;N:53	-9.95421
;d:45;N:55	-9.95459
;w:6;D:42;D:47	-9.95493
;w:6;d:3;N:75	-9.95495
;w:12;D:36;D:42;w:12;D:42	-9.95495
;w:4;N:60;w:4	-9.95518
;w:12;N:65;w:12;N:70	-9.95553
;w:24;d:24;N:77	-9.9556
;d:20;N:43	-9.95662
;w:12;d:18;N:73	-9.95684
;w:15;d:2	-9.95699
2;w:8	-9.95719
;w:24;d:48;N:54	-9.95725
;d:21;N:39	-9.95729
;d:16;N:51	-9.95778
;d:4;N:76;w:4	-9.95911
;d:16;N:50	-9.95951
;D:49;D:52	-9.95967
;N:59;N:65	-9.95981
;d:96;N:42	-9.96
;w:12;d:15;N:55	-9.96009
;D:49;w:12;D:36	-9.96013
;w:12;N:52;w:12;N:54	-9.96046
;d:15;N:33	-9.96049
;w:18;d:6;N:73;w:6	-9.96115
0;N:46	-9.96136
0;N:80	-9.962
;D:54;w:6;D:36	-9.96215
;D:46;w:12;D:36	-9.96228
;d:12;N:71;w:12;N:71	-9.96259
;w:12;N:62;w:12;N:59	-9.9627
;w:24;N:63;N:67	-9.96323
;d:12;N:64;N:67	-9.96336
;w:12;N:53;N:65	-9.96372
;w:33;d:6	-9.96381
;w:12;N:75;w:12;N:72	-9.96405
;D:45;w:6;D:45	-9.96405
;d:16;N:38	-9.96434
;d:12;N:63;w:12;N:63	-9.96449
;w:12;N:54;w:12;N:56	-9.96504
0;N:83	-9.96516
;N:62;w:2	-9.96539
;w:12;d:21;N:66	-9.96589
;d:24;N:63;N:66	-9.96589
;d:12;N:62;w:12;N:62	-9.96614
;d:24;N:27	-9.96614
;d:24;N:94	-9.96636
;d:33;N:72	-9.96646
;w:12;N:72;N:84	-9.96654
;D:51;w:6;D:38	-9.96671
;w:6;D:36;D:51	-9.96672
;w:6;D:36;w:6	-9.96695
;N:69;N:71	-9.96702
;w:12;N:44;w:12;N:44	-9.96707
;w:6;N:31	-9.96736
;N:73;N:78;N:82	-9.9674
;d:8;N:59;w:8	-9.96754
;N:53;w:4	-9.96848
;w:36;N:41	-9.96861
;d:16;N:37	-9.96864
;w:6;D:42;w:6;D:36	-9.96884
;w:12;D:36;D:43	-9.96884
;w:24;N:54;N:57	-9.96902
9;N:51	-9.96926
;w:6;d:3;N:45	-9.96956
;w:6;N:44;w:6;N:44	-9.96969
;d:8;N:78;w:8	-9.9697
;d:12;N:66;w:12;N:64	-9.96972
;d:20;N:78	-9.96989
;d:192;N:5	-9.96996
;w:12;N:70;w:12;N:73	-9.97046
;w:8;D:38;w:8;D:38	-9.97047
;w:18;d:6;N:76;w:6	-9.97089
;w:20;d:	-9.9713
;w:24;d:48;N:68	-9.97137
;w:12;N:74;w:12;N:71	-9.97138
;w:12;N:41;w:12;N:41	-9.97149
;d:15;N:83	-9.97172
;w:6;N:66;w:6;N:68	-9.97216
;d:42;N:71	-9.97216
;w:12;d:20;N:63	-9.97248
;N:56;w:4	-9.9731
;w:12;N:52;w:12;N:52	-9.97375
;w:12;d:48;N:71	-9.97423
;w:6;d:3;N:46	-9.97446
;d:33;N:56	-9.97447
8;N:73	-9.97459
;w:6;D:36;D:37;D:42	-9.97459
;N:90;w:4	-9.97484
;w:24;d:6;N:52	-9.97491
;w:2;D:42	-9.97502
;w:24;N:62;N:66	-9.97521
;N:83;w:2	-9.97536
;d:72;N:43	-9.97546
;w:6;d:6;N:76;w:6	-9.97547
;w:4;N:79;w:4	-9.97593
;N:63;N:75;w:6	-9.97605
;N:88;N:91	-9.97622
;w:6;D:42;w:6;D:36;D:42;w:6;D:42	-9.97633
;N:57;w:2	-9.97652
;w:4;N:73;w:4	-9.977
;w:6;d:18;N:56	-9.97702
;N:72;N:75;w:6	-9.97714
;w:12;d:3;N:51	-9.97728
;N:92;w:3	-9.97749
;w:12;N:74;N:86	-9.9775
;w:24;d:18;N:3	-9.97801
4;N:67	-9.97853
;d:16;N:80	-9.97879
;D:51;w:12;D:36;D:51	-9.97923
;w:6;D:36;D:41	-9.97995
4;N:68	-9.98007
;w:8;D:37	-9.98018
;w:48;d:24;N:61	-9.98038
;w:12;N:54;w:12;N:54	-9.98076
;N:53;N:58;N:61	-9.98108
;d:12;N:62;N:65	-9.9811
;d:4;N:77;w:4	-9.98156
;w:6;d:12;N:83	-9.98253
;d:33;N:55	-9.98269
;d:24;N:92	-9.98295
;d:60;N:73	-9.98325
;d:9;N:69;w:9	-9.98384
;d:12;N:59;w:12;N:59	-9.98396
;w:6;d:6;N:42	-9.98452
;w:12;d:8;N:70	-9.98454
;w:18;d:1	-9.98465
;w:48;d:24;N:57	-9.98472
;w:12;d:21;N:57	-9.9853
;d:33;N:73	-9.98545
;d:18;N:33	-9.9856
;w:36;N:74	-9.98572
;w:12;N:58;w:12;N:63	-9.98595
;w:8;N:73;w:8;N:7	-9.98627
;w:12;d:8;N:52	-9.98634
;d:9;N:35	-9.98671
;w:27;d:12	-9.98681
;D:39;D:42	-9.98693
;w:12;d:9;N:40	-9.98723
;w:12;N:40;w:12;N:40	-9.98762
;w:27;d:6	-9.98792
;w:12;d:6;N:58;w:6	-9.98794
;d:21;N:34	-9.98863
;w:9;d:2	-9.98865
;d:27;N:72	-9.98876
;d:0;N:39	-9.98878
;w:6;N:50;w:6;N:50	-9.98894
;N:87;w:8	-9.98897
;w:12;d:15;N:68	-9.99005
;w:54;d:3	-9.99016
;D:36;D:42;D:48	-9.99057
;w:6;d:6;N:77;w:6	-9.99071
;w:6;d:18;N:70	-9.99083
4;w:8	-9.99083
;d:6;N:79;w:6	-9.99133
;d:96;N:71	-9.99181
;N:28;w:12;N:28	-9.9922
;d:30;N:54	-9.99237
;d:8;N:85	-9.99251
;d:66;N:6	-9.99264
;N:68;N:72;N:77	-9.99303
;w:12;d:48;N:49	-9.99312
;d:12;N:70;w:12;N:70	-9.99319
;w:12;d:36;N:46	-9.99348
;d:8;N:36	-9.99356
;d:36;N:32	-9.99366
;w:12;N:64;N:67	-9.99369
;w:24;d:48;N:53	-9.99381
;d:6;N:87;w:6	-9.99392
;w:48;N:52	-9.9941
;w:18;d:7	-9.99435
;N:44;N:48	-9.99439
;N:62;w:1	-9.99443
;w:12;N:43;w:12;N:43	-9.99506
;N:25;w:6;N:25	-9.99509
;w:4;D:46	-9.99533
;d:12;N:70;w:12;N:72	-9.99582
;N:64;N:76;w:6	-9.99589
;w:30;d:4	-9.99597
;d:4;N:36	-9.99604
;D:73;w:6	-9.99628
;D:70;w:4	-9.99668
;D:46;w:6;D:42	-9.99697
;w:12;D:36;D:37;D:42	-9.99703
;w:24;N:65;N:69	-9.9972
;d:24;N:90	-9.99721
;w:6;N:84;w:6	-9.99723
;N:86;N:91	-9.99782
;d:6;N:30	-9.99784
6;N:82	-9.99813
;d:28;N:5	-9.9984
;d:20;N:42	-9.99885
;N:67;N:75	-9.9989
;N:53;N:59	-9.99896
;w:12;d:18;N:54	-9.99958
;w:8;N:64;w:8;N:6	-10.0001
;w:12;N:54;w:12;N:57	-10.0003
;w:12;d:20;N:62	-10.0006
;D:54;w:12;D:38	-10.0007
;w:12;D:42;w:12;D:36;D:42;w:12;D:42	-10.0011
;w:6;D:38;w:6;D:36;D:38	-10.0021
;w:4;N:63;w:4	-10.0025
;w:2;d:10	-10.0028
;w:42;d:6;N:3	-10.0029
;w:24;N:94	-10.0036
;w:4;N:62;w:4	-10.0038
;d:8;N:60;w:8	-10.0039
;N:71;N:74;w:6	-10.004
;w:24;d:12;N:33	-10.004
;w:12;d:21;N:68	-10.0043
;N:56;N:62	-10.0043
;w:18;d:6;N:53	-10.0043
;N:59;N:68	-10.0045
;w:12;N:61;w:12;N:59	-10.005
;w:16;d:10	-10.005
;N:39;N:44	-10.0054
;w:48;N:66	-10.0058
;D:70;w:6;D:38	-10.0059
;N:71;w:1	-10.006
;d:3;N:64;w:3	-10.0062
;w:12;d:6;N:81	-10.0065
;w:12;N:91	-10.0068
;D:36;D:42;w:12;D:42;w:12;D:38;D:42;w:12;D:42	-10.0069
;d:27;N:73	-10.007
;w:18;d:6;N:79	-10.0073
;d:16;N:36	-10.0073
;w:48;d:24;N:63	-10.0075
;w:6;N:47;w:6;N:47	-10.0077
;w:12;d:24;N:33	-10.0079
;w:8;D:42;w:8;D:42	-10.0086
;d:27;N:54	-10.0087
;d:12;N:76;w:12;N:74	-10.0088
;N:76;N:80;N:83	-10.0091
;d:12;N:61;N:64	-10.0092
;d:3;N:41	-10.0092
;w:6;N:77;w:6;N:77	-10.0095
;d:12;N:65;N:68	-10.0096
;w:1;d:9	-10.0097
;w:36;N:75	-10.0099
;d:32;N:72	-10.01
;w:24;N:59;N:62	-10.0101
;w:12;D:36;D:38;D:46	-10.0102
;N:93;w:6	-10.0106
6;N:61	-10.0118
;N:67;N:71;w:6	-10.0119
;w:6;d:9;N:62	-10.012
;w:6;d:3;N:42	-10.0121
;N:29;w:8	-10.0127
2;N:44	-10.013
;w:12;N:52;N:64	-10.0132
;w:18;d:6;N:59;w:6	-10.0133
;N:65;N:77;w:6	-10.0133
;N:55;N:57	-10.0134
;w:12;d:24;N:85	-10.0135
;N:64;w:2	-10.0138
;N:73;w:12;N:73	-10.014
;w:12;N:49;w:12;N:49	-10.0141
;w:12;N:26	-10.0142
;w:12;d:3;N:50	-10.0142
;w:6;N:51;w:6;N:51	-10.0143
;w:6;d:9;N:67	-10.0143
;N:61;w:1	-10.0145
;w:6;d:9;N:64	-10.0145
;w:12;N:42;w:12;N:42	-10.015
;w:18;d:6;N:70	-10.0151
;w:6;d:16	-10.0153
;w:24;d:48;N:69	-10.0154
;w:6;d:18;N:55	-10.0155
;d:12;N:60;w:12;N:60	-10.0156
;w:12;N:35;N:47	-10.016
;w:3;D:38;w:3;D:38	-10.0161
;w:12;d:15;N:54	-10.0162
;w:18;N:35	-10.0162
;w:6;D:36;D:45	-10.0167
;w:24;d:6;N:50	-10.0167
;w:24;d:48;N:52	-10.0168
;N:73;N:76;N:81	-10.0171
;w:3;N:80;w:3	-10.0172
0;N:48	-10.0175
;d:8;N:87	-10.0175
;w:36;d:12;N:80	-10.0175
;w:3;N:79;w:3	-10.0187
;w:6;d:6;N:77	-10.0188
;d:96;N:41	-10.0189
;w:18;d:6;N:77;w:6	-10.0192
;N:73;N:76;w:6	-10.0194
;w:12;d:20;N:60	-10.0196
;d:36;N:81	-10.0199
;d:72;N:77	-10.0199
;w:48;d:20;N:5	-10.02
;w:12;d:3;N:69	-10.0203
;D:42;D:49	-10.0206
6;N:60	-10.0208
;d:42;N:54	-10.0209
;D:50;D:53	-10.0211
;w:18;d:6;N:54	-10.0213
;w:24;N:56;N:60	-10.0215
;d:4;N:89	-10.0217
;d:3;N:35	-10.0217
;w:12;d:36;N:45	-10.022
;w:18;d:6;N:75;w:6	-10.022
;w:24;d:96;N:6	-10.0226
;w:21;d:8	-10.0232
;w:12;N:66;N:69	-10.0234
;d:81;N:6	-10.0235
;w:12;N:63;w:12;N:60	-10.0236
;N:91;w:3	-10.0236
;d:12;N:23	-10.0238
;w:12;N:36;N:48	-10.0243
;w:8;D:42;w:4;D:42	-10.0243
;w:6;d:12;N:31	-10.0248
;w:12;N:63;N:67	-10.0251
;w:48;d:24;N:65	-10.0255
;d:24;N:64;N:67	-10.0257
;N:65;N:70;N:73	-10.026
;d:12;N:68;w:12;N:70	-10.0262
;w:6;N:72;w:6;N:74	-10.0262
4;N:59	-10.0263
3;N:66	-10.0263
;N:72;N:75;N:79	-10.0266
;w:12;d:20;N:64	-10.0269
;N:85;w:4	-10.0269
;d:69;N:5	-10.0269
;w:12;d:6;N:62;w:6	-10.027
;N:36;w:4	-10.0271
;D:69;w:6;D:36;D:42	-10.0271
;w:12;N:75;w:12;N:78	-10.0276
;w:12;N:67;w:12;N:72	-10.028
;N:77;N:84	-10.028
;N:63;N:69	-10.0282
;w:12;d:20;N:61	-10.0282
;d:42;N:72	-10.0283
0;N:44	-10.0284
;w:33;d:	-10.0286
;w:12;N:48;w:12;N:50	-10.029
;w:12;N:38;w:12;N:38	-10.0292
;w:18;N:83	-10.0293
;d:3;N:84;w:3	-10.0295
;w:36;N:40	-10.0301
;d:45;N:73	-10.0302
;N:89;N:92	-10.0302
;w:12;N:52;w:12;N:55	-10.0303
;w:24;d:36;N:66	-10.0303
;w:2;D:36	-10.0303
;d:8;N:35	-10.0305
;d:24;N:65;N:68	-10.0306
;w:84;d:12	-10.0307
;d:32;N:73	-10.0309
;d:12;N:59;N:63	-10.0309
;d:3;N:83;w:3	-10.0309
;d:36;N:33	-10.0311
;w:12;d:8;N:71	-10.0313
;w:48;d:24;N:68	-10.0313
;d:12;N:72;w:12;N:72	-10.0314
3;N:55	-10.0316
;w:12;d:6;N:74;w:6	-10.0317
;w:12;N:62;N:65	-10.032
;w:24;N:58;N:61	-10.032
;w:24;d:9;N:62	-10.0326
;D:41;D:43	-10.0326
;w:48;d:24;N:67	-10.0328
;d:24;N:9	-10.033
;w:12;d:21;N:56	-10.0332
;w:24;N:40;N:52	-10.0333
;w:12;D:50	-10.0333
;N:56;N:63;N:68	-10.0343
;w:56;d:	-10.0345
;w:24;d:48;N:70	-10.0345
;w:24;d:28;N:6	-10.0346
;N:63;N:72	-10.0348
;N:41;w:12;N:41	-10.0348
;N:59;N:66;N:71	-10.0353
;w:12;d:6;N:60;w:6	-10.0356
;w:24;d:6;N:76	-10.0359
;d:12;N:61;N:65	-10.0365
;w:12;D:36;D:45	-10.0367
;d:12;N:63;N:67	-10.0369
;w:12;d:36;N:76	-10.037
;d:36;N:82	-10.0371
9;w:8	-10.0372
;w:48;d:24;N:62	-10.0373
;w:24;N:41;N:53	-10.0377
;w:12;N:53;w:12;N:56	-10.0378
;w:1;d:7	-10.0379
;N:41;w:6;N:41	-10.038
;w:12;d:20;N:65	-10.0381
;d:6;N:63;w:6	-10.0384
;d:15;N:84	-10.0385
;w:24;d:42;N:5	-10.0386
;N:83;w:4	-10.0386
3;N:57	-10.0389
;w:12;N:68;w:12;N:73	-10.0396
;d:30;N:74	-10.04
;w:12;D:38;w:12;D:36	-10.0401
;w:3;N:72;w:3	-10.0405
;N:35;N:42;N:47	-10.0406
;w:12;N:80;w:12;N:78	-10.0406
;d:30;N:53	-10.0407
;w:6;d:12;N:32	-10.0411
;w:12;N:61;N:64	-10.0424
;d:3;N:40	-10.0425
;w:12;N:62;N:66	-10.0426
;d:8;N:34	-10.0426
;N:56;w:2	-10.0432
;w:9;d:4	-10.0433
;w:24;N:42;N:54	-10.0434
;w:24;d:45;N:5	-10.0434
4;N:56	-10.0435
;w:6;D:36;D:42;w:6;D:38;D:42	-10.0435
3;N:67	-10.0438
;w:24;d:9;N:60	-10.0438
;w:6;d:9;N:63	-10.0439
;d:3;N:59;w:3	-10.0442
;w:3;N:83;w:3	-10.0443
;w:6;D:36;D:38;D:46	-10.0443
;w:12;d:20;N:59	-10.0443
;N:41;N:46	-10.0452
;w:27;d:	-10.0452
;w:12;N:50;w:12;N:52	-10.0457
;N:43;N:47	-10.0459
;w:12;d:6;N:73;w:6	-10.0465
;w:36;d:36;N:5	-10.0468
;d:12;N:48;w:12;N:48	-10.0468
;w:4;N:59;w:4	-10.0469
;N:73;N:76;N:80	-10.0472
;N:40;w:12;N:40	-10.0475
;d:21;N:33	-10.0475
;d:12;N:71;w:12;N:73	-10.0476
;w:6;N:71;w:6;N:74	-10.0477
;d:12;N:60;N:63	-10.0477
;d:48;N:33	-10.0479
;N:91;w:4	-10.048
;d:45;N:53	-10.0482
;w:8;N:78;w:8;N:7	-10.0486
;w:36;d:20;N:6	-10.0486
;N:65;w:12;N:65	-10.0487
6;N:71	-10.0491
;w:6;d:18;N:71	-10.0492
;D:69;w:12;D:42;D:69	-10.0492
;N:34;w:12;N:34	-10.0493
;w:6;d:3;N:48	-10.0495
;w:6;d:3;N:41	-10.0497
;N:49;N:52;N:57	-10.0497
;N:68;w:12;N:68	-10.0498
;d:21;N:82	-10.0498
;d:12;N:66;w:12;N:68	-10.05
;d:12;N:65;w:12;N:63	-10.05
;w:12;d:20;N:66	-10.0502
;d:108;N:6	-10.0503
;N:64;w:1	-10.0506
;w:24;d:36;N:64	-10.0506
;w:12;D:36;D:42;w:12;D:36;D:42	-10.0506
;w:24;d:12;N:32	-10.0518
;w:24;N:39;N:51	-10.0519
4;N:70	-10.0521
;w:24;N:43;N:55	-10.0523
;d:9;N:87	-10.0529
;d:36;N:75;w:36;d:12;N:7	-10.0532
;d:0;N:83	-10.0532
;w:24;d:9;N:64	-10.0534
;d:12;N:47;w:12;N:47	-10.0538
;d:12;N:60;N:64	-10.0538
;w:12;N:75;N:87	-10.0539
;d:60;N:74	-10.0542
;N:55;w:9	-10.0542
;w:24;d:9;N:66	-10.0543
;w:48;d:24;N:64	-10.0543
;w:24;d:9;N:68	-10.0547
;d:12;N:64;w:12;N:62	-10.0549
;d:9;N:31	-10.055
;w:21;d:5	-10.0552
;w:12;N:63;N:66	-10.0552
;d:72;N:42	-10.0554
;w:4;N:58;w:4	-10.0558
;w:6;d:3;N:52	-10.0563
;N:70;w:12;N:70	-10.0563
;N:68;N:76	-10.0569
;w:6;d:6;N:52;w:6	-10.057
;w:24;d:9;N:65	-10.0571
;d:12;N:77;w:12;N:75	-10.0572
;d:4;N:79;w:4	-10.0573
;d:12;N:67;w:12;N:69	-10.0575
;w:6;N:94;w:6;N:9	-10.0576
;w:12;d:18;N:53	-10.0576
;d:36;N:84	-10.0577
;D:51;D:56	-10.0578
;w:24;d:24;N:78	-10.058
;N:51;N:54;N:58	-10.0581
;N:72;w:12;N:72	-10.0581
;w:8;N:77;w:8;N:7	-10.0582
;d:24;N:61;N:64	-10.0583
;d:3;N:85;w:3	-10.0587
;d:23;N:6	-10.0593
;w:6;N:73;w:6;N:75	-10.0599
;w:12;N:39;w:12;N:39	-10.06
;w:8;N:76;w:8;N:7	-10.0602
;N:69;N:78	-10.0604
;w:12;N:76;w:12;N:76	-10.0605
;D:36;w:12;D:38	-10.0606
;w:4;N:76;w:4	-10.0607
;D:53;w:6;D:36	-10.0607
;d:12;N:58;w:12;N:58	-10.0611
;d:15;N:37	-10.0611
;w:15;d:12	-10.0612
;N:55;w:2	-10.0613
;d:24;N:91	-10.0615
;d:15;N:36	-10.0617
0;N:38	-10.0618
;N:80;w:2	-10.062
;w:6;d:9;N:60	-10.062
;w:12;d:8;N:51	-10.0622
;N:47;N:52;N:56	-10.0622
;w:39;d:6	-10.0624
;N:87;N:91	-10.0625
;d:4;N:73;w:4	-10.0627
;w:6;d:6;N:53;w:6	-10.0628
;d:12;N:50;w:12;N:50	-10.0629
;w:48;d:24;N:69	-10.0629
;w:48;d:24;N:56	-10.0632
;N:66;N:71;N:74	-10.0632
;D:70;w:12;D:70	-10.0632
;d:45;N:74	-10.0635
;d:6;N:86;w:6	-10.0637
;d:20;N:34	-10.0638
;N:68;w:1	-10.0641
;w:12;d:57;N:6	-10.0644
;w:16;d:8;N:54	-10.0646
;N:42;w:12;N:42	-10.0648
;w:6;d:18;N:72	-10.0648
;N:71;N:76;w:6	-10.0648
;N:54;N:66;w:6	-10.0649
;d:12;N:73;w:12;N:73	-10.0653
;d:9;N:65;w:9	-10.0657
;w:12;N:56;w:12;N:61	-10.0658
;D:51;w:12;D:42;D:51	-10.066
;d:42;N:53	-10.066
;w:24;d:9;N:63	-10.0662
;N:57;N:64;N:69	-10.0663
;w:36;d:4;N:3	-10.0665
;d:84;N:6	-10.0674
;w:8;N:59;w:8;N:6	-10.0675
;w:6;N:79;w:6;N:79	-10.0678
;w:24;d:36;N:63	-10.068
;w:6;N:97;w:6;N:9	-10.0684
0;N:43	-10.0685
;N:76;w:12;N:76	-10.0687
;w:18;N:34	-10.0688
;w:6;N:57;w:6;N:57	-10.0689
;w:48;N:67	-10.0694
;d:96;N:40	-10.0694
;w:24;d:33;N:6	-10.0698
;d:12;N:45;w:12;N:45	-10.0698
;N:52;N:57;N:60	-10.0703
;d:20;N:81	-10.0705
;w:24;d:36;N:62	-10.0711
;w:12;d:4;N:74	-10.0712
;w:24;N:55;N:59	-10.0714
;w:48;d:1	-10.0715
;w:12;N:69;w:12;N:74	-10.0716
;d:48;N:86	-10.0718
;w:12;N:45;w:12;N:47	-10.0718
;w:12;N:46;w:12;N:48	-10.0721
;d:36;N:73;w:36;d:12;N:7	-10.0722
;w:6;N:62;w:6;N:64	-10.0723
;w:12;d:20;N:68	-10.0723
;w:12;N:49;w:12;N:51	-10.0724
4;N:58	-10.0727
;w:12;N:60;N:64	-10.0727
;w:12;N:64;N:68	-10.0728
;N:46;w:12;N:46	-10.0728
;N:82;w:9	-10.0733
;d:12;N:57;w:12;N:57	-10.0737
;D:46;w:12;D:46	-10.0742
;N:48;w:3	-10.0743
;w:24;N:38;N:50	-10.0744
;w:28;d:	-10.0744
;w:12;d:4;N:48	-10.0746
;d:12;N:62;N:66	-10.0751
;w:6;N:91;w:6	-10.0753
;w:6;D:36;D:43	-10.0754
;w:48;N:51	-10.0755
;w:12;N:65;N:68	-10.0756
;D:36;D:42;D:53	-10.0756
;D:54;w:12;D:36;D:42	-10.0757
;w:24;N:24	-10.0759
;d:2;N:71	-10.0761
;D:42;D:43	-10.0765
;d:15;N:32	-10.0767
;w:6;N:46;w:6;N:46	-10.0767
;d:45;N:52	-10.0769
;d:16;N:35	-10.0772
;N:54;w:4	-10.0773
;N:85;w:8	-10.0773
;w:12;N:77;w:12;N:74	-10.0774
;N:67;N:71;N:76	-10.0776
;w:12;N:95;w:12;N:9	-10.0779
;d:45;N:75	-10.0782
;w:12;N:71;w:12;N:74	-10.0785
;w:12;d:48;N:72	-10.0786
;d:4;N:78;w:4	-10.079
;d:32;N:56	-10.0793
;w:48;d:24;N:66	-10.0794
;D:43;D:50	-10.0801
;w:12;N:67;w:12;N:66	-10.0806
;w:12;d:20;N:67	-10.081
;w:6;N:55;w:6;N:55	-10.0812
;d:4;N:40	-10.0814
;w:36;d:36;N:6	-10.0815
;w:48;d:21;N:5	-10.0815
;D:41;D:42	-10.0816
;N:70;w:3;N:70;w:3	-10.0819
;d:12;N:25	-10.082
;w:48;d:24;N:70	-10.0821
;w:8;d:9	-10.0825
;w:12;d:21;N:55	-10.0825
;w:24;d:24;N:39	-10.0826
;w:8;N:55;w:8;N:5	-10.0827
;d:12;N:58;N:61	-10.0831
;N:64;w:6;N:64;w:6;N:64	-10.0833
;N:63;w:1	-10.0837
;w:6;N:91;w:6;N:9	-10.084
;w:24;d:6;N:48	-10.0841
;d:12;N:46;w:12;N:46	-10.0843
;w:6;d:3;N:40	-10.0856
;w:24;d:6;N:77	-10.0857
;w:24;N:44;N:56	-10.0858
;w:12;N:58;N:61	-10.0859
;d:27;N:53	-10.086
;d:33;N:74	-10.0863
;w:6;d:3;N:44	-10.0867
;w:12;N:76;w:12;N:73	-10.0868
;w:12;N:67;N:70	-10.0869
;w:12;N:61;N:65	-10.0869
;w:12;d:28;N:4	-10.0871
;w:12;d:18;N:74	-10.0877
;w:48;d:36;N:7	-10.0877
;w:24;d:48;N:51	-10.0878
;w:6;d:9;N:65	-10.0884
;d:24;N:66;N:69	-10.0884
;w:36;d:1	-10.0895
;w:12;N:77;w:12;N:77	-10.0895
;d:12;N:62;w:12;N:64	-10.0896
;w:4;D:36;w:4;D:36	-10.0897
;w:12;d:8;N:72	-10.0898
;w:6;d:6;N:51;w:6	-10.0899
6;w:8	-10.0899
;w:12;d:8;N:50	-10.09
;w:12;d:84;N:7	-10.0901
;w:24;d:9;N:67	-10.0902
;w:12;d:48;N:48	-10.0902
;D:36;D:49;w:24;D:38	-10.091
;N:70;N:74;w:6	-10.091
;w:6;d:4;N:43	-10.091
;w:12;d:20;N:58	-10.0911
;D:41;D:45	-10.0911
;d:12;N:64;N:68	-10.0912
;w:12;N:60;w:12;N:58	-10.0912
;N:22;N:34	-10.0913
;d:96;N:72	-10.0915
;w:24;N:70;N:73	-10.0917
;d:4;N:72;w:4	-10.0919
;w:12;d:4;N:47	-10.0922
;w:6;N:80;w:6;N:80	-10.0922
;N:55;N:59;N:62;N:67	-10.0922
;N:75;w:12;N:75	-10.0925
;D:36;D:48	-10.0925
1;w:8	-10.0925
;w:36;d:12;N:35	-10.0929
;w:6;N:39;w:6;N:39	-10.0929
;w:11;d:9	-10.0929
;w:6;d:9;N:68	-10.0932
;d:39;N:66	-10.0935
;d:33;N:75	-10.0936
;w:4;N:74;w:4	-10.0937
;w:24;d:27;N:3	-10.0937
;w:6;d:3;N:50	-10.0938
;w:24;d:6;N:49	-10.0938
;d:39;N:62	-10.0939
;w:12;d:9;N:38	-10.0939
;d:33;N:54	-10.0942
;d:27;N:52	-10.0942
;N:78;w:2	-10.0943
;N:54;N:58;N:61;N:66	-10.0944
;w:48;d:24;N:55	-10.0945
;w:12;N:59;N:63	-10.0946
;w:6;d:9;N:61	-10.0948
;w:12;N:74;w:12;N:77	-10.095
;w:24;d:36;N:68	-10.0952
;N:68;N:72;w:6	-10.0953
;w:12;d:108;N:7	-10.0953
;N:67;w:12;N:67	-10.0955
;w:18;d:6;N:71	-10.0955
;w:24;d:24;N:38	-10.0957
;d:42;N:52	-10.0959
;N:72;w:1	-10.0961
;N:74;N:77;N:82	-10.0964
;d:39;N:63	-10.0968
;w:16;d:8;N:53	-10.0969
;w:12;N:92	-10.097
;w:12;d:21;N:70	-10.0972
4;N:66	-10.0978
3;N:58	-10.0979
;d:60;N:66	-10.0984
3;N:45	-10.0984
;w:12;d:15;N:69	-10.0985
;w:12;d:84;N:4	-10.0986
;N:38;w:12;N:38	-10.0987
;N:70;w:2	-10.0987
;d:30;N:2	-10.0988
;w:24;d:12;N:31	-10.099
;N:63;N:71	-10.0991
;w:6;D:42;w:6;D:38	-10.0995
;d:21;N:2	-10.0997
;d:12;N:40;w:12;N:40	-10.1
;d:12;N:44;w:12;N:44	-10.1
;w:12;D:36;D:38;D:49	-10.1003
;w:12;N:61;w:12;N:65	-10.1003
;d:39;N:61	-10.1004
;N:74;N:77;w:6	-10.1005
;d:57;N:4	-10.1006
;w:48;d:20;N:7	-10.1011
;d:60;N:65	-10.1012
;N:66;w:12;N:66	-10.1013
;w:12;d:15;N:53	-10.1013
;w:12;d:6;N:51;w:6	-10.1017
;w:18;d:6;N:78;w:6	-10.1018
;D:54;w:6;D:54;w:6;D:54;w:6;D:54	-10.102
;w:6;d:18;N:54	-10.102
;N:37;w:12;N:37	-10.102
;D:69;w:6;D:38;D:69	-10.1028
;N:84;w:2	-10.1031
;w:24;N:69;N:72	-10.1032
;w:12;N:57;N:60	-10.1032
;d:12;N:67;N:70	-10.1034
;w:24;d:6;N:47	-10.1037
;w:12;N:63;w:12;N:64	-10.1045
;w:6;N:53;w:6;N:53	-10.1049
;w:36;N:76	-10.105
;w:24;N:76;w:24;N:7	-10.1051
;d:12;N:57;N:61	-10.1055
;N:96;w:6	-10.1055
;w:6;d:9;N:66	-10.1062
;N:51;N:55;N:60	-10.1062
;d:18;N:85	-10.1063
;d:18;N:30	-10.1068
;d:4;N:60;w:4	-10.1068
;w:12;N:60;w:12;N:64	-10.1071
;w:12;d:18;N:52	-10.1071
;D:42;D:47	-10.1073
;D:47;w:6;D:47	-10.1074
;w:12;N:73;N:85	-10.1074
;w:12;d:3;N:71	-10.1074
6;N:69	-10.1075
;d:24;N:62;N:65	-10.1076
;D:49;D:53	-10.1076
;d:60;N:8	-10.1078
;D:38;D:39	-10.1079
;d:21;N:9	-10.1079
;w:2;d:6	-10.1081
;N:69;N:77	-10.1085
;N:64;N:70	-10.1085
;N:35;w:12;N:35	-10.1087
;w:18;d:12;N:62	-10.1087
;d:12;N:58;N:62	-10.1092
;w:12;d:4;N:46	-10.1093
;w:6;D:38;D:42;w:6;D:42	-10.1094
;w:12;d:6;N:59;w:6	-10.1097
;d:12;N:49;w:12;N:49	-10.1101
;d:4;N:38	-10.1101
;d:3;N:39	-10.1101
;d:12;N:66;N:69	-10.1101
;w:12;N:55;w:12;N:60	-10.1105
;N:62;N:71	-10.1105
;w:24;d:33;N:7	-10.1105
;w:12;D:36;D:42;D:45	-10.1108
;w:6;D:36;D:49	-10.1111
;w:6;d:3;N:51	-10.1111
;d:39;N:60	-10.1112
;N:86;N:98	-10.1113
;w:12;d:9;N:39	-10.1114
;d:24;N:61;N:65	-10.1123
;w:12;N:65;N:69	-10.1123
0;N:32	-10.1124
;d:12;N:65;N:69	-10.1125
;D:69;w:6;D:69;w:6;D:42	-10.1126
;d:60;N:75	-10.1128
;d:24;N:25	-10.1131
;d:6;N:29	-10.1135
;d:8;N:58;w:8	-10.1139
;d:12;N:66;N:70	-10.1141
;d:6;N:93	-10.1142
;w:6;N:1	-10.1144
;d:32;N:55	-10.1145
;d:12;N:42;w:12;N:42	-10.1148
;N:70;N:79	-10.1149
;N:71;N:73	-10.1154
;d:12;N:72;w:12;N:74	-10.1154
;N:63;w:6;N:63;w:6;N:63	-10.1155
;w:12;N:76;w:12;N:79	-10.1157
;d:24;N:95	-10.1158
;w:24;d:36;N:61	-10.1161
;w:16;d:8;N:57	-10.1164
;w:12;d:18;N:51	-10.1165
;w:12;d:6;N:75;w:6	-10.1166
;w:18;d:6;N:52	-10.1172
;d:24;N:59;N:63	-10.1173
;w:12;N:47;w:12;N:49	-10.1173
;w:48;d:24;N:54	-10.1174
;D:70;w:12;D:36	-10.1175
;d:12;N:59;N:62	-10.1177
;N:87;w:4	-10.1178
;d:56;N:5	-10.1181
;w:6;N:38;w:6;N:38	-10.1182
;w:12;d:4;N:43	-10.1183
;d:3;N:90	-10.1183
;d:6;N:61;w:6	-10.1185
;d:4;N:90	-10.1188
;d:6;N:60;w:6	-10.1188
;w:12;N:78;w:12;N:75	-10.1194
;w:6;N:96;w:6;N:9	-10.1199
0;N:37	-10.12
;w:15;d:15	-10.1201
;N:61;N:69	-10.1201
;N:84;w:4	-10.1202
;d:12;N:53;w:12;N:53	-10.1204
;w:12;d:12;N:84	-10.1206
;w:24;d:8;N:3	-10.1207
3;N:65	-10.1209
;N:56;w:9	-10.1209
;N:64;N:73	-10.1211
;w:6;N:52;w:6;N:52	-10.1213
;d:39;N:64	-10.1214
;w:12;d:6;N:49;w:6	-10.1216
;w:12;d:48;N:73	-10.1217
;w:12;N:59;w:12;N:63	-10.1221
;N:58;N:67	-10.1225
;d:39;N:67	-10.1225
6;N:83	-10.1227
;N:79;w:2	-10.1232
;w:24;D:39	-10.1235
;w:18;d:12;N:61	-10.1237
4;N:57	-10.1239
;N:88;w:8	-10.1241
;w:6;N:65;w:6;N:67	-10.1241
;w:36;N:39	-10.1241
;w:12;N:93;w:12;N:9	-10.1245
;w:18;d:6;N:49	-10.1245
;d:3;N:89	-10.1248
0;N:85	-10.125
;w:12;d:6;N:76;w:6	-10.125
;w:12;d:9;N:77	-10.125
;w:6;d:3;N:72	-10.1256
;w:6;d:9;N:59	-10.1259
;d:16;N:81	-10.126
;w:6;N:43;w:6;N:43	-10.126
;d:3;N:88	-10.1265
;w:12;d:15;N:70	-10.1265
;N:88;w:12;N:88	-10.1265
;d:8;N:33	-10.1268
;d:60;N:64	-10.1269
;w:12;N:60;N:63	-10.1275
;D:69;w:12;D:36;D:42	-10.1275
;D:43;D:46	-10.1275
;N:28;w:8	-10.1276
;w:18;d:6;N:51	-10.128
;w:12;d:1	-10.1283
;N:65;N:71	-10.1285
;w:12;D:38;w:6;D:38;w:6;D:38	-10.1287
;D:51;w:24;D:51	-10.1288
;w:12;N:61;w:12;N:58	-10.129
;w:24;D:51	-10.1292
;w:6;d:9;N:57	-10.1298
;N:35;w:4	-10.1299
;w:12;N:64;w:12;N:68	-10.1304
;w:6;N:33;w:6;N:3	-10.1304
;w:36;N:38	-10.1305
;d:72;N:78	-10.1306
;d:78;N:7	-10.1306
;w:6;N:77;w:6;N:79	-10.1306
;D:42;w:24;D:42	-10.1309
;N:78;w:12;N:78	-10.1309
;w:8;N:82;w:8;N:8	-10.1315
;w:12;N:70;w:12;N:75	-10.1316
;d:12;N:51;w:12;N:51	-10.1317
;d:24;N:65;N:69	-10.1318
;d:39;N:65	-10.1318
;w:12;d:3;N:49	-10.132
;w:24;d:9;N:59	-10.1323
;N:77;w:12;N:77	-10.1323
;w:24;N:82;w:24;N:8	-10.1325
;d:93;N:7	-10.1328
;w:6;N:62;w:6;N:65	-10.1329
;w:17;d:4	-10.1329
;w:12;N:37;w:12;N:37	-10.133
;w:24;d:9;N:61	-10.1331
;N:54;w:9	-10.1332
;d:12;N:52;w:12;N:52	-10.1332
;w:45;d:1	-10.1334
;N:50;N:53;N:57	-10.1335
;d:12;N:65;w:12;N:67	-10.1335
;w:8;N:60;w:8;N:6	-10.1338
;d:24;N:60;N:64	-10.1339
;w:12;N:79;w:12;N:81	-10.134
;d:60;N:67	-10.1341
;N:88;w:1	-10.1345
;w:12;N:60;w:12;N:57	-10.1345
;N:69;w:1	-10.1346
;w:12;d:20;N:57	-10.1348
;N:52;N:64;w:6	-10.135
;N:64;w:12;N:64	-10.1351
;w:8;N:72;w:8;N:7	-10.1351
;w:6;D:38;w:6;D:38;D:42	-10.1351
6;N:63	-10.1351
;w:6;D:36;D:39	-10.1353
;w:12;N:73;w:12;N:76	-10.1353
3;N:59	-10.1355
;w:6;N:70;w:6;N:73	-10.1356
;w:12;N:49;w:12;N:52	-10.1357
;w:12;D:42;D:47	-10.1359
;N:73;w:1	-10.1362
;w:12;d:18;N:75	-10.1363
;w:12;N:66;w:12;N:70	-10.1363
;d:9;N:34	-10.1364
2;N:54	-10.1364
;w:24;d:36;N:59	-10.1364
;w:8;N:70;w:8;N:7	-10.1368
4;N:71	-10.137
;w:12;d:48;N:47	-10.137
;N:58;N:62;N:65;N:70	-10.1372
;w:24;d:48;N:50	-10.1374
;N:47;N:51;N:54	-10.1374
;w:12;d:36;N:77	-10.1375
;w:12;d:9;N:37	-10.1376
;N:97;w:6	-10.1378
;N:60;N:72;w:6	-10.1385
;N:62;N:70	-10.1385
0;N:84	-10.1398
;d:4;N:61;w:4	-10.14
;w:24;d:48;N:71	-10.14
;d:20;N:2	-10.1404
;d:42;N:73	-10.1406
;w:24;N:2	-10.1408
;w:12;N:68;w:12;N:64	-10.141
;d:96;N:73	-10.141
;w:9;D:42	-10.1413
;N:36;w:12;N:36	-10.1414
;w:12;N:70;w:12;N:66	-10.1416
;d:12;N:41;w:12;N:41	-10.142
;w:12;N:72;w:12;N:73	-10.1421
;w:6;N:61;w:6;N:63	-10.1422
;N:62;w:12;N:62	-10.1425
;w:6;D:38;D:42;D:54	-10.1426
;N:73;w:2	-10.1429
;w:8;N:83;w:8;N:8	-10.143
;d:12;N:63;w:12;N:65	-10.143
;w:24;N:66;N:70	-10.1433
;N:45;w:12;N:45	-10.1435
;d:6;N:28	-10.1435
;d:12;N:64;w:12;N:66	-10.1435
;w:24;d:9;N:58	-10.1437
;w:12;N:62;w:12;N:66	-10.1439
;N:60;N:69	-10.144
;d:4;N:68;w:4	-10.1441
;d:12;N:43;w:12;N:43	-10.1442
;N:37;N:42	-10.1444
;d:0;N:38	-10.1446
;w:6;d:9;N:70	-10.1446
;d:8;N:80;w:8	-10.1446
;d:24;N:26	-10.1448
;w:6;N:78;w:6;N:78	-10.1448
;w:6;N:76;w:6;N:78	-10.1449
;N:78;N:85	-10.1451
;w:12;N:59;w:12;N:57	-10.1454
;w:12;d:36;N:44	-10.1463
;d:6;N:81;w:6	-10.1465
;D:36;D:47	-10.1467
;w:10;d:1	-10.1468
;w:8;N:56;w:8;N:5	-10.1469
;w:12;D:38;D:42;w:12;D:36;D:42	-10.1469
;d:51;N:8	-10.147
;d:24;N:63;N:67	-10.1471
;w:16;d:8;N:63	-10.1474
;w:24;d:21;N:8	-10.1475
;N:61;N:73;w:6	-10.1475
;w:12;d:20;N:70	-10.1479
;w:24;d:12;N:30	-10.1483
;w:6;N:32;w:6	-10.1487
;w:12;N:70;w:12;N:69	-10.1491
;w:48;N:68	-10.1492
;d:12;N:39;w:12;N:39	-10.1492
;d:4;N:29	-10.1492
3;N:60	-10.1492
;d:4;N:69;w:4	-10.1493
;w:6;N:68;w:6;N:71	-10.1494
;w:18;d:12;N:59	-10.1496
;w:6;D:42;D:50	-10.1503
;D:46;D:50	-10.1505
;d:68;N:6	-10.1506
;w:6;N:71;w:6;N:73	-10.151
;w:6;d:6;N:49;w:6	-10.1512
;w:12;N:65;w:12;N:66	-10.1512
;w:18;d:6;N:58;w:6	-10.1515
;w:6;d:9;N:58	-10.1517
;d:12;N:55;w:12;N:55	-10.152
;w:12;D:36;D:42;D:43	-10.1521
;D:73;D:76	-10.1521
;w:18;d:12;N:58	-10.1522
;d:24;N:41;N:53	-10.1522
;w:12;N:34;N:46	-10.1525
;N:89;w:8	-10.1525
;w:15;d:17	-10.1529
;w:24;d:9;N:69	-10.1529
;d:30;N:52	-10.1529
;D:36;D:42;w:6;D:42;w:6;D:46	-10.153
;d:60;N:68	-10.1531
;d:6;N:84;w:6	-10.1533
;w:24;N:45;N:57	-10.1543
;d:6;N:59;w:6;N:59	-10.1544
;w:12;N:59;w:12;N:56	-10.1548
;w:24;d:6;N:46	-10.1549
;d:4;N:88	-10.155
;w:24;d:18;N:61	-10.155
;d:24;N:67;N:70	-10.1551
;w:12;N:66;w:12;N:65	-10.1555
;w:6;N:63;w:6;N:66	-10.1556
;D:36;D:39	-10.1556
;d:3;N:58;w:3	-10.1557
;d:33;N:53	-10.1559
;w:12;N:44;w:12;N:46	-10.1563
;w:24;d:36;N:69	-10.1566
3;N:56	-10.1571
;d:28;N:64	-10.1572
;d:39;N:59	-10.1572
;N:50;N:62;w:6	-10.1578
;w:6;N:74;w:6;N:71	-10.158
;w:12;N:57;w:12;N:55	-10.1582
;w:18;d:12;N:60	-10.1585
;w:12;N:77;w:12;N:80	-10.1586
;w:24;N:37;N:49	-10.1588
;d:12;N:54;w:12;N:54	-10.1589
;w:24;d:36;N:60	-10.1591
;d:27;N:74	-10.1592
;D:51;w:6;D:36	-10.1592
;w:12;N:80;w:12;N:82	-10.1592
;N:56;N:60;N:63;N:68	-10.1594
;w:12;N:63;w:12;N:67	-10.1598
;w:12;N:78;w:12;N:78	-10.1599
;w:12;d:21;N:69	-10.1601
;d:48;N:87	-10.1601
;w:12;d:54;N:5	-10.1602
;N:71;N:75;w:6	-10.1602
;N:66;N:74	-10.1603
;w:24;N:59;N:64	-10.161
;D:36;D:69	-10.1611
;N:53;N:57;N:60;N:65	-10.1611
;d:4;N:59;w:4	-10.1612
;N:53;w:2	-10.1612
;N:72;N:80	-10.1614
4;N:46	-10.1614
;w:12;N:65;w:12;N:69	-10.1618
;d:24;N:60;N:63	-10.1624
;d:12;N:56;w:12;N:56	-10.1626
;w:24;d:9;N:70	-10.163
;N:94;w:12	-10.1637
;w:6;d:6;N:78	-10.1639
;w:36;d:48;N:6	-10.1641
;d:4;N:80;w:4	-10.1642
;w:6;N:67;w:6;N:64	-10.1643
;N:34;N:41	-10.1643
;N:44;w:12;N:44	-10.1644
;N:54;w:2	-10.1647
;w:36;d:12;N:37	-10.1649
;D:69;w:6;D:69;w:6;D:36	-10.1652
;w:24;N:77;w:24;N:7	-10.1653
;w:24;d:30;N:6	-10.1659
;N:37;w:4	-10.1665
;d:60;N:63	-10.1665
;w:48;d:48;N:4	-10.1665
;N:32;w:12;N:32	-10.1666
;w:18;d:12;N:63	-10.1666
;D:49;w:12;D:38	-10.1667
;N:75;N:78;N:83	-10.1668
;w:48;d:12;N:3	-10.1671
;w:12;d:9;N:78	-10.1672
;d:20;N:33	-10.1673
;w:12;N:73;w:12;N:72	-10.1675
;w:6;d:6;N:80;w:6	-10.1679
;w:12;N:71;w:12;N:70	-10.1682
;D:36;w:24;D:36	-10.1684
;w:24;d:18;N:59	-10.1687
;w:48;N:50	-10.169
;w:24;N:63;N:68	-10.1692
;w:24;N:62;N:67	-10.1693
;N:63;w:12;N:63	-10.17
;w:6;N:30	-10.17
;w:12;d:6;N:57;w:6	-10.17
;D:53;w:12;D:42	-10.17
;d:24;N:42;N:54	-10.17
;N:71;w:2	-10.1705
;D:38;w:12;D:38	-10.171
;w:8;N:81;w:8;N:8	-10.1712
8;N:80	-10.1718
;d:6;N:89;w:6	-10.1718
;d:15;N:31	-10.1719
;N:30;w:12;N:30	-10.1722
;d:2;N:72	-10.1724
;D:49;D:50	-10.1726
;w:12;d:36;N:43	-10.173
;d:88;N:6	-10.1734
;d:28;N:63	-10.1734
;N:87;N:92	-10.1736
;d:28;N:65	-10.1745
;w:12;N:58;N:62	-10.1748
;w:12;d:21;N:54	-10.175
;d:92;N:4	-10.1751
;w:12;N:69;w:12;N:65	-10.1752
;d:40;N:3	-10.1754
;w:36;d:36;N:4	-10.1757
;w:24;d:24;N:37	-10.1757
;d:0;N:37	-10.1761
;d:6;N:90;w:6	-10.1762
;w:12;N:70;w:12;N:71	-10.1764
;N:56;w:12;N:56	-10.1766
2;N:80	-10.1766
;w:24;N:46;N:58	-10.1766
;w:12;d:6;N:32	-10.177
;w:36;d:21;N:6	-10.1771
;w:18;N:33	-10.1774
;N:29;w:12;N:29	-10.1774
;w:12;N:54;w:12;N:59	-10.1777
;N:88;N:92	-10.1777
;w:12;N:57;w:12;N:61	-10.1777
;D:36;D:50	-10.1782
;N:75;N:78;w:6	-10.1786
;d:33;N:76	-10.1788
;d:12;N:78;w:12;N:76	-10.1788
;d:30;N:75	-10.1789
;d:9;N:33	-10.1793
;w:8;N:54;w:8	-10.1794
;w:12;d:15;N:52	-10.1795
;w:6;N:72;w:6;N:69	-10.1796
;w:12;N:71;w:12;N:76	-10.18
;w:6;d:24;N:62	-10.1801
;d:12;N:74;w:12;N:74	-10.1802
;N:93;w:8	-10.1803
0;N:77	-10.1807
;w:12;N:43;w:12;N:45	-10.1807
;d:60;N:61	-10.1808
;w:12;N:56;w:12;N:54	-10.1813
;N:57;N:66	-10.1819
;d:16;N:82	-10.1824
;d:33;N:52	-10.1825
;w:24;N:57;N:60	-10.1825
;w:12;d:20;N:69	-10.1826
;d:6;N:62;w:6;N:62	-10.1827
;w:6;N:67;w:6;N:70	-10.1827
;w:12;N:68;w:12;N:69	-10.1833
;d:12;N:40;N:52	-10.1834
;w:16;d:8;N:51	-10.1835
;w:12;N:58;w:12;N:55	-10.1837
;w:12;N:51;w:12;N:54	-10.1838
;d:36;N:76;w:36;d:12;N:7	-10.1839
;w:24;d:48;N:72	-10.1841
;w:12;d:9;N:36	-10.1843
;w:24;d:8;N:63	-10.1844
;N:53;N:62	-10.1846
;w:12;d:8;N:49	-10.1846
;N:49;w:4	-10.1848
;d:84;N:8	-10.1849
;w:12;N:67;w:12;N:63	-10.1851
;d:32;N:54	-10.1853
;w:24;d:8;N:64	-10.1855
;w:6;N:75;w:6;N:77	-10.1856
;d:12;N:41;N:53	-10.1856
;w:24;N:60;N:65	-10.1856
;w:12;N:66;w:12;N:67	-10.1857
;d:16;N:83	-10.1857
;w:48;d:24;N:52	-10.1858
;N:49;w:3	-10.1863
;d:20;N:82	-10.1865
;D:45;D:70	-10.1865
;d:12;N:39;N:51	-10.1868
;w:6;D:36;D:38;w:6;D:36;D:38	-10.1871
;w:6;N:49;w:6;N:51	-10.1873
;w:6;d:18;N:73	-10.1874
;w:24;d:48;N:49	-10.1875
;w:6;D:37;D:38	-10.1876
;w:18;d:12;N:64	-10.1877
;N:74;w:1	-10.1878
;d:6;N:82;w:6	-10.1881
;N:74;N:79;N:83	-10.1886
;D:51;w:12;D:38	-10.1887
;w:12;d:108;N:5	-10.1889
;w:16;d:8;N:59	-10.1891
;d:6;N:62;w:6	-10.1894
;w:6;d:18;N:52	-10.1894
;w:10;d:5	-10.1896
;w:12;N:58;w:12;N:62	-10.1897
;N:52;w:9	-10.1902
;d:39;N:68	-10.1903
;w:36;N:77	-10.1903
;w:6;d:6;N:41	-10.1905
;w:8;N:62;w:8;N:6	-10.191
;w:6;d:24;N:60	-10.1912
;w:6;N:73;w:6;N:70	-10.1913
;d:3;N:86;w:3	-10.1914
;w:42;d:	-10.1915
;D:45;D:49	-10.1916
;D:46;w:12;D:36;D:42	-10.1917
;N:53;w:9	-10.1917
;w:6;d:6;N:40	-10.1917
;w:12;d:4;N:44	-10.1918
;N:78;w:12;N:71	-10.1918
;d:16;N:34	-10.1923
;w:6;d:9;N:72	-10.1924
;w:6;N:54;w:6;N:57	-10.1926
;w:8;N:57;w:8;N:5	-10.1928
;w:6;d:3;N:71	-10.193
;w:12;N:48;w:12;N:51	-10.1934
;w:6;d:24;N:61	-10.1935
;w:12;D:36;D:51	-10.1936
;w:12;d:6;N:54;w:6	-10.1939
;w:12;d:15;N:71	-10.1939
;w:12;d:6;N:30	-10.194
;w:6;N:48;w:6;N:50	-10.194
;w:12;N:72;w:12;N:71	-10.1942
;N:44;w:6;N:44;w:6;N:44	-10.1943
;w:24;d:18;N:60	-10.1946
;D:53;D:70	-10.1947
;d:60;N:69	-10.1947
;w:72;d:24;N:4	-10.1949
;d:60;N:62	-10.195
;N:93;w:3	-10.1951
;D:36;D:42;D:49;w:12;D:42	-10.1956
;w:24;d:6;N:45	-10.196
;D:47;D:70	-10.1962
;d:36;N:85	-10.1962
;d:28;N:62	-10.1965
;w:24;d:72;N:	-10.1968
;w:12;N:71;w:12;N:67	-10.1968
;w:6;D:41;D:42	-10.1968
;d:27;N:75	-10.1973
;d:2;N:69	-10.1975
;w:24;d:21;N:5	-10.1987
;w:12;d:8;N:48	-10.1995
;D:70;w:12;D:42;D:70	-10.1995
;D:43;D:49	-10.1997
0;N:76	-10.1997
;d:24;N:39;N:51	-10.1998
;d:24;N:64;N:68	-10.1999
;w:12;d:18;N:50	-10.2
;N:62;w:6;N:62;w:6;N:62	-10.2001
;d:6;N:65;w:6;N:65	-10.2002
;w:6;N:51;w:6;N:53	-10.2003
;d:4;N:66;w:4	-10.2006
;w:12;d:6;N:55;w:6	-10.2013
;w:24;N:60;N:64	-10.2014
6;N:84	-10.2018
;w:12;N:66;w:12;N:62	-10.2019
;w:6;d:18;N:53	-10.2022
;w:24;d:8;N:65	-10.2026
;d:28;N:66	-10.203
;N:81;w:12;N:81	-10.203
;d:39;N:57	-10.2033
;w:12;d:21;N:71	-10.2033
;w:16;d:8;N:58	-10.2034
;N:95;w:6	-10.2041
;w:51;d:	-10.2041
;w:24;N:95	-10.2041
;w:12;N:71;w:12;N:72	-10.2042
;d:12;N:35;w:12;N:35	-10.2042
;d:12;N:38;N:50	-10.2043
;w:6;N:81;w:6;N:81	-10.2044
;D:54;D:69;D:70	-10.2044
;d:24;N:59;N:62	-10.2044
;w:12;d:12;N:30	-10.2044
;w:48;d:36;N:4	-10.205
;w:6;N:42;w:6;N:42	-10.2051
;d:28;N:61	-10.2054
;d:60;N:70	-10.2056
;w:24;d:24;N:3	-10.2056
;D:69;D:76;w:6	-10.2057
;w:12;N:73;w:12;N:69	-10.2057
;w:8;N:84;w:8;N:8	-10.2057
;w:36;D:38	-10.2058
;w:6;d:6;N:78;w:6	-10.2059
;d:12;N:63;w:12;N:61	-10.206
;d:21;N:32	-10.2062
;w:36;d:48;N:5	-10.2063
;w:13;d:5	-10.2066
;w:18;N:84	-10.2067
;w:12;d:3;N:70	-10.2067
;w:8;N:79;w:8;N:7	-10.2068
;N:38;N:43	-10.2068
;N:52;w:2	-10.207
;w:12;N:66;N:70	-10.2075
;w:8;N:63;w:8;N:6	-10.2078
;d:4;N:65;w:4	-10.2082
;N:64;N:72	-10.2082
;w:12;N:68;w:12;N:72	-10.2082
;N:89;w:1	-10.2087
;d:4;N:67;w:4	-10.209
;N:46;N:51;N:55	-10.2091
;d:54;N:8	-10.2091
;w:12;N:58;w:12;N:56	-10.2093
;d:24;N:62;N:66	-10.2095
3;N:61	-10.2095
;N:70;N:78	-10.2097
;D:43;w:6;D:43	-10.2099
;w:48;d:24;N:53	-10.2099
;D:36;D:41;D:42	-10.2099
;d:9;N:30	-10.21
;d:81;N:5	-10.2102
;D:47;D:49	-10.2104
;d:8;N:81;w:8	-10.2111
;w:24;N:35;N:47	-10.2111
;w:12;N:69;w:12;N:70	-10.2116
;N:59;w:1	-10.2117
;d:52;N:7	-10.2117
;w:12;D:36;D:41	-10.2117
;w:6;N:60;w:6;N:63	-10.2118
;w:6;d:1	-10.2121
;N:81;w:2	-10.2122
;d:45;N:51	-10.2123
;d:12;N:73;w:12;N:75	-10.2123
3;N:68	-10.2124
;N:54;N:56	-10.2126
;w:3;N:82;w:3	-10.2127
;w:12;d:6;N:53;w:6	-10.2128
;w:24;N:54;N:58	-10.2128
;w:16;N:70	-10.2128
;w:24;d:8;N:61	-10.2135
;w:12;d:20;N:56	-10.2137
;N:71;N:80	-10.2137
;d:4;N:70;w:4	-10.2137
;w:12;d:48;N:74	-10.2138
;w:4;N:75;w:4	-10.2139
;d:72;N:41	-10.214
;N:57;w:12;N:57	-10.2143
;w:6;D:38;D:42;D:48	-10.2147
;w:24;d:6;N:43	-10.2151
;w:9;D:38	-10.2155
;w:24;d:12;N:83	-10.2157
;w:12;N:36;w:12;N:36	-10.2158
;N:87;N:99	-10.2162
;w:12;d:8;N:73	-10.2165
;w:24;d:24;N:79	-10.2168
;w:12;d:20;N:55	-10.2169
;w:18;d:12;N:57	-10.2172
;d:2;N:65	-10.2172
;w:24;d:32;N:7	-10.2177
;w:12;d:8;N:46	-10.2183
;w:12;d:24;N:86	-10.2183
;d:3;N:34	-10.2185
8;N:79	-10.2186
;w:6;N:65;w:6;N:68	-10.2188
;N:27;w:12;N:27	-10.2192
;w:8;N:85;w:8;N:8	-10.2194
;w:24;d:9;N:57	-10.2197
;w:72;d:	-10.2198
;N:52;N:58	-10.2202
;D:39;w:6;D:39	-10.2205
;w:6;N:67;w:6;N:69	-10.2218
;N:71;w:6;N:71;w:6;N:71	-10.2218
;d:36;N:77;w:36;d:12;N:7	-10.2219
;w:24;d:32;N:5	-10.2222
;w:48;d:12;N:68	-10.2223
;w:12;N:71;N:74	-10.2223
;d:132;N:6	-10.2227
;w:12;d:6;N:82	-10.2227
;d:24;N:58;N:62	-10.223
;d:72;N:40	-10.2232
;w:18;d:24;N:3	-10.2232
;w:24;N:36;N:48	-10.2233
6;N:62	-10.2233
;d:12;N:62;w:12;N:60	-10.2234
;w:8;N:69;w:8;N:6	-10.2237
;d:88;N:5	-10.2239
;w:12;N:50;w:12;N:53	-10.2239
;w:24;d:8;N:66	-10.224
;d:12;N:38;w:12;N:38	-10.224
;d:24;N:40;N:52	-10.2242
;w:12;N:76;N:88	-10.2242
;w:6;N:36;w:6;N:36	-10.2245
;N:65;N:73	-10.2246
;d:24;N:57;N:61	-10.2246
;w:48;N:69	-10.2246
;d:12;N:75;w:12;N:75	-10.2247
;w:12;d:6;N:29	-10.2247
;N:61;w:12;N:61	-10.2249
;d:12;N:79;w:12;N:77	-10.225
;w:12;N:81;w:12;N:79	-10.2251
;w:6;N:95;w:6;N:9	-10.2251
;w:6;d:9;N:71	-10.2252
;w:24;d:28;N:5	-10.2253
;d:12;N:74;w:12;N:76	-10.2254
;d:12;N:36;w:12;N:36	-10.2255
;w:12;N:41;w:12;N:43	-10.2256
;w:6;d:24;N:63	-10.226
;N:73;N:78;w:6	-10.2263
;w:12;N:64;w:12;N:63	-10.2264
;w:12;d:24;N:29	-10.2265
;d:8;N:88	-10.2265
;N:69;N:73;N:78	-10.2265
;N:21;N:33	-10.2267
;D:42;w:6;D:42	-10.2271
;w:4;D:42;w:4;D:42	-10.2271
;w:24;N:83;w:24;N:8	-10.2272
;N:74;N:77;N:81	-10.2273
;d:21;N:83	-10.2274
;w:6;d:18;N:74	-10.2275
;w:6;N:40;w:6;N:40	-10.2275
;w:36;d:12;N:36	-10.2275
;w:24;N:58;N:63	-10.2276
;w:6;D:37;D:38;D:42	-10.2278
;w:6;d:9;N:69	-10.2278
;w:48;d:24;N:72	-10.228
;w:6;d:6;N:35	-10.2282
;w:12;D:36;D:38;D:39;D:42	-10.2284
;w:12;d:21;N:53	-10.2286
;d:12;N:42;N:54	-10.2286
;d:4;N:58;w:4	-10.2288
;d:45;N:76	-10.2294
;N:72;w:2	-10.2296
;w:16;N:69	-10.2297
;w:93;d:9	-10.2297
;d:18;N:29	-10.2298
;d:6;N:26	-10.23
;N:43;w:3	-10.2302
;w:12;N:55;w:12;N:59	-10.2304
;d:45;N:50	-10.2309
;w:12;N:67;N:71	-10.2313
;N:75;w:1	-10.2313
;d:45;N:49	-10.2314
;N:44;N:47	-10.2315
;w:18;d:6;N:57;w:6	-10.2319
;w:12;N:68;w:12;N:67	-10.232
;D:70;w:6;D:36;D:42	-10.2323
;N:60;w:12;N:60	-10.2325
;w:12;N:69;w:12;N:68	-10.2325
;d:32;N:53	-10.2326
;d:24;N:83;w:24;N:8	-10.2327
;N:57;N:61;N:64;N:69	-10.2327
;w:24;d:36;N:58	-10.2331
;D:54;w:12;D:42;D:54	-10.2331
;w:12;d:4;N:75	-10.2335
;w:36;d:8;N:4	-10.2338
;N:59;N:67	-10.234
;w:6;N:64;w:6;N:67	-10.2345
;N:60;N:67;N:72	-10.2345
;w:4;N:57;w:4	-10.2348
;w:12;d:48;N:46	-10.2348
;w:12;d:18;N:76	-10.2349
;D:51;w:2	-10.235
;d:0;N:85	-10.2352
0;N:36	-10.2353
;d:12;N:75;w:12;N:77	-10.2353
;N:60;w:1	-10.2356
8;N:75	-10.236
;N:85;w:2	-10.2361
;d:9;N:75;w:9	-10.2361
;w:12;N:48;w:12;N:46	-10.2362
;D:53;w:6;D:42	-10.2362
;w:6;D:38;D:45	-10.2363
;N:79;w:12;N:79	-10.2365
;w:12;d:24;N:30	-10.2365
;w:48;d:12;N:59	-10.2367
;w:6;N:69;w:6;N:66	-10.2368
;d:42;N:51	-10.2371
;w:24;N:47;N:59	-10.2374
3;N:62	-10.2374
;N:73;N:77;w:6	-10.2376
;d:15;N:85	-10.2377
;D:36;D:39;D:42	-10.2378
;N:58;N:66	-10.238
;d:6;N:64;w:6;N:64	-10.238
;w:6;D:36;D:42;D:48	-10.2381
;w:6;N:69;w:6;N:72	-10.2382
;w:16;d:8;N:56	-10.2384
;d:60;N:53	-10.2391
;d:39;N:58	-10.2393
;w:24;d:8;N:60	-10.2394
;w:18;d:12;N:68	-10.2396
;w:12;d:6;N:77;w:6	-10.2397
;d:32;N:74	-10.2398
;w:39;d:5	-10.2398
;D:36;D:49;w:12;D:36	-10.2399
;w:12;d:8;N:74	-10.2404
;N:50;N:54;N:59	-10.2407
;d:6;N:40;w:6;N:40	-10.2408
;w:12;d:20;N:71	-10.2412
;N:50;w:12;N:50	-10.2414
;w:12;d:8;N:43	-10.2414
;N:67;N:72;N:75	-10.2415
;w:12;d:9;N:32	-10.2416
;d:12;N:37;w:12;N:37	-10.2417
;N:52;w:4	-10.2418
;w:24;d:8;N:59	-10.2419
;D:37;D:38	-10.2419
;w:12;d:15;N:51	-10.242
;d:6;N:72;w:6;N:74	-10.2422
;w:21;d:1	-10.2423
;w:12;N:62;w:12;N:61	-10.2424
;d:12;N:44;N:56	-10.243
;w:6;N:78;w:6;N:80	-10.243
;w:36;d:12;N:81	-10.2431
;w:8;N:53;w:8;N:5	-10.2431
;w:8;N:66;w:8;N:6	-10.2432
;w:12;N:35;w:12;N:35	-10.2435
;w:12;N:64;w:12;N:65	-10.2437
;w:33;d:9	-10.2438
;w:6;d:12;N:30	-10.2441
;N:55;w:12;N:55	-10.2443
0;N:78	-10.2445
;w:12;N:73;w:12;N:74	-10.2445
;w:16;N:59	-10.2446
;D:49;w:12;D:42	-10.2447
;w:12;N:1	-10.2447
;N:51;N:57	-10.2448
;w:12;N:57;N:61	-10.2449
;D:54;D:69;w:6;D:54;D:69	-10.2449
;d:12;N:95	-10.2451
;D:50;w:6;D:50	-10.2456
;w:6;d:4;N:47	-10.2459
;w:24;d:8;N:62	-10.246
0;N:41	-10.246
;N:46;w:3	-10.2461
;w:6;D:36;D:38;D:39	-10.2461
;w:12;d:8;N:44	-10.2463
;w:23;d:	-10.2464
;w:18;d:6;N:48	-10.2465
;d:21;N:31	-10.247
;d:99;N:6	-10.247
;d:2;N:70	-10.2471
;w:24;d:8;N:68	-10.2471
;N:88;w:4	-10.2473
;d:2;N:66	-10.2474
;d:12;N:58;N:63	-10.2477
;d:9;N:77;w:9	-10.2481
;w:21;d:19	-10.2482
;w:12;N:74;w:12;N:75	-10.2485
;d:6;N:51;w:6;N:51	-10.2485
;d:42;N:50	-10.2485
;N:52;N:56;N:59;N:64	-10.2487
;d:28;N:68	-10.2488
;w:24;d:6;N:44	-10.2489
;d:12;N:43;N:55	-10.2492
;d:3;N:57;w:3	-10.2493
;w:24;d:48;N:73	-10.2493
;D:36;D:38;D:46	-10.2495
;w:36;N:2	-10.2497
;N:34;w:4	-10.2499
;w:24;N:69;N:73	-10.2502
;d:8;N:32	-10.2506
;w:24;d:6;N:78	-10.2507
;w:24;N:67;N:71	-10.2509
;w:12;N:72;w:12;N:77	-10.251
6;N:53	-10.251
;w:18;d:12;N:69	-10.2512
;w:6;N:41;w:6;N:41	-10.2514
;N:78;N:82;N:85	-10.2514
;w:16;d:8;N:61	-10.2518
;w:12;d:20;N:72	-10.2524
;d:24;N:84;w:24;N:8	-10.2526
;w:12;N:42;w:12;N:44	-10.2528
;w:18;d:6;N:46	-10.2529
;w:24;D:37;D:42	-10.2531
;N:33;w:12;N:33	-10.2533
;d:2;N:74	-10.2535
;d:24;N:38;N:50	-10.2536
;d:27;N:51	-10.2536
;w:10;d:3	-10.2538
;w:6;D:38;w:6;D:38;w:6;D:38;w:6;D:38	-10.2543
;d:16;N:33	-10.2544
;d:42;N:74	-10.2545
;w:24;d:18;N:57	-10.2547
;w:16;d:8;N:55	-10.2549
;d:8;N:29	-10.255
;N:56;N:68;w:6	-10.255
;w:12;N:33;N:45	-10.2552
;w:24;d:48;N:48	-10.2556
;d:4;N:64;w:4	-10.2558
;w:24;d:9;N:71	-10.2559
;w:12;N:72;w:12;N:68	-10.2561
;d:3;N:33	-10.2561
;w:64;d:8	-10.2564
;D:38;w:24;D:38	-10.2564
;D:36;D:42;D:46	-10.2564
;d:28;N:67	-10.2565
;w:24;N:43;w:24;N:4	-10.2568
;d:75;N:7	-10.2569
;d:60;N:60	-10.2571
;w:6;N:74;w:6;N:76	-10.2571
;w:24;d:18;N:58	-10.2574
;w:12;N:39;w:12;N:41	-10.2577
;w:12;N:68;N:71	-10.2578
;w:24;d:8;N:67	-10.2578
;w:6;N:63;w:6;N:60	-10.2578
;N:32;w:6;N:32	-10.2581
;w:36;d:24;N:63	-10.2582
6;N:68	-10.2583
;N:61;N:70	-10.2586
;w:12;N:97;w:12;N:9	-10.2586
;d:24;N:68;N:71	-10.2587
;w:36;N:37	-10.2587
;N:77;N:81;N:84	-10.2588
;d:72;N:79	-10.259
;w:12;N:63;w:12;N:59	-10.2592
;D:36;D:42;w:24;D:42	-10.2592
;d:24;N:43;N:55	-10.2593
;N:43;N:46	-10.2593
;N:77;w:2	-10.2596
;w:6;d:9;N:55	-10.2596
;w:6;N:90;w:6	-10.2598
;d:0;N:84	-10.2599
;w:12;d:24;N:31	-10.2599
;w:6;d:24;N:65	-10.2604
;w:12;d:4;N:45	-10.2607
;d:12;N:57;N:60	-10.261
;w:6;d:12;N:84	-10.261
;w:12;N:67;w:12;N:62	-10.261
;w:30;d:1	-10.2613
;w:12;N:55;w:12;N:53	-10.2614
;w:6;d:2;N:60	-10.2616
;d:33;N:2	-10.262
;w:12;N:67;w:12;N:68	-10.2622
;w:6;N:45;w:6;N:45	-10.2623
;d:36;N:83	-10.2624
;w:36;d:24;N:66	-10.2625
;w:36;d:24;N:62	-10.2626
;D:38;D:41	-10.2628
;w:12;d:6;N:48;w:6	-10.2631
;w:12;D:38;w:12;D:38;w:12;D:38	-10.2633
;w:12;d:15;N:72	-10.2639
;w:12;N:67;w:12;N:71	-10.2639
;w:16;N:71	-10.264
;d:3;N:56;w:3	-10.2641
;w:12;N:50;w:12;N:48	-10.2646
8;w:8	-10.2647
;d:60;N:76	-10.2651
;w:6;N:62;w:6;N:60	-10.2652
;d:12;N:61;w:12;N:63	-10.2653
;w:24;d:8;N:58	-10.2653
;d:4;N:37	-10.2654
;d:192;N:63	-10.2654
;w:12;d:3;N:73	-10.2654
;N:60;N:68	-10.2654
;d:12;N:59;w:12;N:61	-10.266
;d:12;N:68;N:71	-10.2663
;d:6;N:27	-10.2668
;N:47;w:3	-10.2669
;d:12;N:36;N:48	-10.2675
;w:8;D:36;D:38	-10.2676
;w:24;d:24;N:36	-10.2682
;d:24;N:44;N:56	-10.2683
;w:36;d:24;N:64	-10.2685
;w:12;N:65;w:12;N:61	-10.2686
;w:24;N:45;w:24;N:4	-10.2687
;d:28;N:60	-10.2689
;w:6;D:38;w:6	-10.2697
;w:24;d:6;N:40	-10.2698
;w:18;d:12;N:66	-10.2702
;d:9;N:27	-10.2702
;N:73;N:75	-10.2703
;w:15;d:18	-10.2708
;w:6;d:24;N:66	-10.2711
;d:96;N:39	-10.2713
;w:18;d:12;N:70	-10.2714
;d:39;N:69	-10.2715
;w:24;d:96;N:5	-10.2716
;w:16;N:60	-10.2716
;N:73;N:82	-10.2718
;N:58;w:12;N:58	-10.2718
;N:53;N:55	-10.2718
;w:18;d:6;N:47	-10.2718
6;N:85	-10.2721
;N:50;w:2	-10.2721
;w:48;d:21;N:7	-10.2723
;d:4;N:28	-10.2723
;w:6;d:2;N:57	-10.2724
;N:95;w:12	-10.2725
;d:12;N:37;N:49	-10.2726
;N:49;w:12;N:49	-10.2726
;w:12;d:48;N:45	-10.2729
;w:16;N:61	-10.2734
;w:8;D:46	-10.2734
;w:24;N:53;N:57	-10.2735
;w:16;D:36;D:42	-10.2736
;w:12;d:6;N:56;w:6	-10.2739
;d:32;N:75	-10.2739
;w:12;d:48;N:75	-10.2742
;D:48;D:56	-10.2744
;w:12;N:77;N:89	-10.2747
6;N:65	-10.275
;d:28;N:8	-10.2751
;N:31;w:12;N:31	-10.2753
;N:58;w:1	-10.2754
;N:35;N:42	-10.2755
;d:12;N:55;N:59	-10.2756
;w:24;N:84;w:24;N:8	-10.2757
;w:16;d:8;N:64	-10.2757
;N:26;w:12;N:26	-10.2761
;N:61;N:68;N:73	-10.2762
;w:12;d:8;N:47	-10.2766
;w:36;d:24;N:67	-10.2767
;w:3;N:94;w:3;N:9	-10.2767
;d:33;N:77	-10.2768
;N:55;N:64	-10.277
;w:7;d:11	-10.277
;w:12;d:4;N:76	-10.2771
;d:12;N:80;w:12;N:78	-10.2775
;w:6;N:61;w:6;N:64	-10.2778
;w:12;d:24;N:32	-10.2781
;w:4;d:12	-10.2785
;w:6;N:71;w:6;N:68	-10.2788
;w:3;D:47;w:3	-10.279
;w:12;N:72;N:75	-10.2793
;N:86;w:2	-10.2793
;d:24;N:58;N:61	-10.2794
;d:45;N:77	-10.2797
;d:12;N:56;N:60	-10.2798
;w:24;d:9;N:56	-10.2799
;w:12;d:8;N:41	-10.28
;w:48;d:12;N:69	-10.2806
;d:6;N:56;w:6;N:56	-10.2815
;N:90;N:93	-10.2817
;N:48;w:4	-10.2818
;N:51;w:2	-10.282
;N:76;N:79;w:6	-10.2822
6;N:57	-10.2825
;N:48;w:12;N:48	-10.2825
;w:7;d:1	-10.2826
;d:56;N:7	-10.283
;w:12;N:53;w:12;N:58	-10.2831
;w:8;N:71;w:8;N:7	-10.2832
;w:12;N:74;w:12;N:73	-10.2834
;w:48;d:24;N:71	-10.2838
;N:47;w:12;N:47	-10.2839
;w:12;N:52;w:12;N:57	-10.2839
;d:69;N:4	-10.2843
;D:54;w:6;D:36;D:54	-10.2844
;w:36;d:24;N:68	-10.2846
;w:6;N:73;w:6;N:76	-10.2847
;D:53;w:4	-10.2848
;w:12;N:56;N:60	-10.2852
;w:16;d:8;N:60	-10.2853
;w:18;d:6;N:80;w:6	-10.2854
;w:18;d:12;N:65	-10.2855
;w:6;d:24;N:59	-10.2857
;w:6;N:60;w:6;N:62	-10.2858
;w:24;D:36;D:38;D:42	-10.2859
;d:27;N:50	-10.2864
;D:51;D:76	-10.287
;d:12;N:57;N:62	-10.287
;D:56;w:12;D:42	-10.2872
;D:69;w:8;D:69	-10.2874
;w:24;N:81;w:24;N:8	-10.2875
;d:192;N:65	-10.2876
;d:8;N:54;w:8	-10.288
;D:36;D:42;D:51;w:12;D:42	-10.288
;w:12;d:9;N:35	-10.2881
;d:24;N:2	-10.2881
;w:12;d:36;N:78	-10.2881
;N:80;w:12;N:80	-10.2882
;w:24;D:45	-10.2884
;w:12;N:64;w:12;N:60	-10.2884
;w:24;d:36;N:57	-10.2886
;d:72;N:9	-10.289
;N:49;w:2	-10.2891
;d:20;N:32	-10.2891
;d:4;N:57;w:4	-10.2893
;w:16;N:62	-10.2893
;w:12;d:3;N:48	-10.2893
;w:12;N:68;N:72	-10.2896
;w:48;d:24;N:51	-10.2896
;w:12;N:61;w:12;N:62	-10.2901
;d:39;N:55	-10.2902
;N:51;w:12;N:51	-10.2903
;d:6;N:65;w:6;N:67	-10.2903
;w:24;N:53;w:24;N:5	-10.2903
;w:18;N:32	-10.2903
;w:18;d:12;N:67	-10.2904
;d:24;N:67;N:71	-10.2904
;N:51;w:9	-10.2904
;w:12;d:24;N:28	-10.2905
;N:88;N:93	-10.2907
;N:59;w:12;N:59	-10.2909
;w:42;d:4	-10.2915
;d:30;N:41	-10.2915
;N:83;w:9	-10.2918
;D:36;D:49;w:12;D:42	-10.2918
;d:48;N:32	-10.2919
;w:12;N:75;w:12;N:76	-10.2919
;d:6;N:49;w:6;N:49	-10.292
;d:30;N:50	-10.2924
;w:6;d:24;N:58	-10.2924
;d:4;N:56;w:4	-10.2926
;N:63;N:66;N:68	-10.2927
;N:77;w:12;N:70	-10.2928
;N:86;w:4	-10.2932
;d:0;N:1	-10.2933
;w:12;N:80;w:12;N:77	-10.2935
;d:28;N:59	-10.2936
;w:3;N:55;w:3	-10.2937
;N:48;w:2	-10.2937
;w:36;N:78	-10.2939
;w:24;N:85;w:24;N:8	-10.2939
;D:54;w:6;D:36;D:42	-10.294
;w:36;N:35	-10.2941
;d:33;N:51	-10.2942
;d:12;N:59;N:64	-10.2942
;w:6;N:70;w:6;N:72	-10.2943
;w:12;N:62;w:12;N:58	-10.2944
;d:24;N:57;N:60	-10.2945
;N:54;w:12;N:54	-10.2945
;d:60;N:71	-10.2947
;d:30;N:51	-10.2948
;d:27;N:49	-10.295
;d:2;N:64	-10.2952
;d:30;N:42	-10.2954
;d:3;N:91	-10.2955
;w:24;N:57;N:62	-10.2956
;N:75;N:80;w:12	-10.2957
;w:12;d:21;N:52	-10.2957
;d:192;N:62	-10.2961
;w:12;N:71;w:12;N:75	-10.2962
;w:6;d:6;N:39	-10.2962
;N:73;N:81	-10.2965
;w:6;d:18;N:50	-10.2965
6;N:64	-10.2966
;d:32;N:52	-10.2968
;w:36;d:20;N:5	-10.2973
;d:6;N:73;w:6;N:75	-10.2973
;w:24;d:24;N:80	-10.2974
;N:61;N:65;w:6	-10.2978
;d:6;N:64;w:6;N:66	-10.2979
;N:24;w:6	-10.298
;w:17;d:	-10.2981
;w:24;d:30;N:5	-10.2982
;w:6;d:2;N:59	-10.2982
;N:72;N:74	-10.2984
;N:74;w:2	-10.2986
;N:71;N:79	-10.2988
;d:12;N:61;N:66	-10.2988
;N:47;w:9	-10.2991
;d:48;N:31	-10.2996
;d:6;N:59;w:6	-10.3
;w:3;D:42;w:3;D:42	-10.3001
;d:6;N:63;w:6;N:63	-10.3002
;d:6;N:66;w:6;N:68	-10.3002
2;N:37	-10.3003
;w:18;d:6;N:73	-10.3005
;w:13;d:11	-10.3006
;w:6;D:45;w:6;D:45	-10.3006
;w:8;N:59;w:8;N:5	-10.3007
;d:12;N:45;N:57	-10.3009
;N:77;w:1	-10.3009
;w:12;N:70;w:12;N:74	-10.301
;w:12;d:20;N:54	-10.301
;w:24;d:39;N:6	-10.3011
;w:12;d:18;N:49	-10.3011
;w:36;d:24;N:65	-10.3012
;d:24;N:37;N:49	-10.3013
;N:46;N:50;N:53	-10.3014
0;N:35	-10.3019
;d:30;N:76	-10.302
;N:76;N:79;N:84	-10.3022
;w:12;D:38;w:12;D:36;D:38	-10.3023
;w:6;d:9;N:56	-10.3023
;w:60;d:15	-10.3024
;d:9;N:61;w:9	-10.3026
;N:58;N:61;w:6	-10.3027
;w:24;N:54;w:24;N:5	-10.3028
8;N:50	-10.3031
;d:12;N:60;N:65	-10.3032
;w:3;N:43;w:3;N:4	-10.3033
;w:12;d:21;N:72	-10.3034
;w:6;N:37;w:6;N:37	-10.3035
;w:6;d:6;N:38	-10.3037
;d:39;N:56	-10.3037
;d:2;N:68	-10.3038
;D:38;w:6;D:38	-10.304
;D:76;w:6;D:76	-10.3041
;w:12;N:69;w:12;N:73	-10.3043
;w:48;N:49	-10.3043
;d:12;N:67;N:71	-10.3045
;N:77;N:80;N:85	-10.3045
;N:94;w:8	-10.3047
;w:12;N:75;w:12;N:74	-10.3047
;w:6;d:4;N:51	-10.3048
;w:12;N:56;N:59	-10.3053
;d:8;N:31	-10.3054
;d:6;N:67;w:6;N:69	-10.3058
;w:21;d:24;N:4	-10.3061
;w:12;N:49;w:12;N:47	-10.3064
;w:12;N:79;w:12;N:79	-10.3064
4;N:55	-10.3064
;d:2;N:67	-10.3067
0;N:40	-10.3071
;d:36;N:30	-10.3072
4;N:73	-10.3074
;w:36;d:24;N:60	-10.3077
;w:12;N:57;w:12;N:54	-10.3078
;d:6;N:76;w:6;N:78	-10.3079
;w:21;d:27;N:6	-10.308
;w:12;N:56;w:12;N:60	-10.3081
;w:6;D:38;D:42;D:45	-10.3082
;w:12;d:20;N:52	-10.3087
;d:20;N:9	-10.3088
;N:72;N:76;w:6	-10.3089
;d:33;N:50	-10.3091
;d:90;N:4	-10.3092
;w:12;N:76;w:12;N:75	-10.3094
;w:24;d:9;N:55	-10.3095
;D:36;D:42;D:47	-10.3095
4;N:51	-10.3096
;w:6;D:36;D:47	-10.31
;d:8;N:56;w:8	-10.3101
;D:54;w:6;D:54;w:6;D:36	-10.3101
;w:12;N:81;w:12;N:83	-10.3105
;w:6;N:33;w:6;N:33	-10.3106
;w:36;d:12;N:2	-10.3106
;D:42;w:12;D:36;D:42	-10.3107
;w:24;d:20;N:6	-10.3108
;w:24;N:48;N:60	-10.3109
;w:6;N:82;w:6;N:82	-10.311
2;N:59	-10.3114
;w:18;d:12;N:56	-10.3114
;d:66;N:5	-10.3115
;w:8;N:58;w:8;N:5	-10.3118
;w:8;N:60	-10.3121
;d:24;N:66;N:70	-10.3121
;w:24;d:48;N:47	-10.3123
;w:12;d:15;N:73	-10.3123
;d:36;N:88	-10.3126
;d:2;N:73	-10.3127
;d:192;N:61	-10.3128
;D:70;w:8;D:70	-10.3128
;N:75;N:80;N:84	-10.3131
;w:24;d:6;N:42	-10.3132
2;N:39	-10.3134
;w:12;N:56;w:12;N:53	-10.3134
;w:12;N:73;w:12;N:78	-10.3136
;w:12;N:52;w:12;N:53	-10.3136
;w:12;d:6;N:50;w:6	-10.3137
;w:24;d:36;N:73	-10.3139
;w:18;d:6;N:72	-10.3142
;w:6;N:72;w:6;N:75	-10.3142
;d:12;N:96	-10.3144
;N:49;w:6;N:49;w:6;N:49	-10.3147
;d:18;N:28	-10.3149
;w:48;d:24;N:73	-10.3151
;w:6;D:38;D:41	-10.3152
;w:12;d:8;N:40	-10.3154
;w:6;D:42;w:6;D:37;D:42	-10.3154
;w:6;d:2;N:61	-10.3155
;d:36;N:74;w:36;d:12;N:7	-10.3155
;N:82;w:12;N:82	-10.3156
;w:6;N:66;w:6;N:69	-10.3156
;d:96;N:75	-10.3157
;w:24;N:53;N:56	-10.3157
;w:12;N:52;w:12;N:50	-10.3158
;w:36;d:24;N:69	-10.3158
;w:6;N:28	-10.3159
;N:76;w:2	-10.316
;w:3;D:38;w:3;D:38;w:3;D:38;w:3;D:38	-10.3162
;D:38;D:53	-10.3164
;w:3;D:42;w:3	-10.3164
;D:73;w:3	-10.3166
;w:36;d:24;N:61	-10.3167
;w:12;N:40;w:12;N:42	-10.3169
;w:12;d:3;N:72	-10.317
;d:27;N:43	-10.3173
;N:85;w:12;N:85	-10.3174
;w:12;d:36;N:42	-10.3174
;d:12;N:55;N:60	-10.3175
;d:6;N:94	-10.3175
;N:63;N:70;N:75	-10.3178
;w:12;N:34;w:12;N:34	-10.3181
;w:24;N:71;N:74	-10.3181
;w:12;N:71;w:12;N:66	-10.3181
;d:27;N:40	-10.3182
;w:36;d:24;N:70	-10.3185
;d:12;N:35;N:47	-10.3186
;w:24;N:44;w:24;N:4	-10.3186
6;N:73	-10.3186
;d:12;N:60;w:12;N:62	-10.3187
;w:6;d:3;N:47	-10.3188
;w:48;N:48	-10.3189
;d:87;N:4	-10.3191
;d:96;N:74	-10.3192
;d:57;N:8	-10.3197
;d:27;N:44	-10.3198
;N:63;N:68;w:6	-10.3201
;w:12;N:52;w:12;N:56	-10.3203
;d:28;N:2	-10.3204
;d:60;N:59	-10.3209
;N:54;N:63	-10.3209
;D:36;D:42;D:70	-10.3211
;w:16;d:8;N:52	-10.3215
;w:3;N:87;w:3	-10.3215
;N:75;w:15	-10.3217
;w:12;N:38;w:12;N:40	-10.3217
;d:60;N:77	-10.322
;w:6;N:93;w:6;N:9	-10.3221
;w:24;d:36;N:72	-10.3222
;w:24;N:47;w:24;N:4	-10.3222
;w:48;d:12;N:70	-10.3224
;D:69;w:6;D:38;D:42	-10.3224
;d:24;N:69;w:24;d:12;N:69	-10.3226
;N:51;w:4	-10.3227
;w:12;d:12;N:85	-10.3228
;w:12;d:3;N:74	-10.3231
;w:24;D:43	-10.3233
2;N:57	-10.3233
;w:6;d:2;N:56	-10.3236
;N:75;w:2	-10.3238
;N:74;N:79;w:6	-10.3238
;w:6;d:24;N:57	-10.3238
;N:70;N:74;N:79	-10.3242
;w:18;d:6;N:45	-10.3244
;N:57;w:1	-10.3245
;w:48;d:12;N:67	-10.3245
;d:6;N:70;w:6;N:72	-10.3247
;w:24;N:34;N:46	-10.3248
;d:6;N:68;w:6;N:68	-10.325
;w:12;N:75;w:12;N:71	-10.3252
;d:0;N:36	-10.3254
;w:12;d:15;N:50	-10.3256
;w:6;d:6;N:34	-10.3256
;d:28;N:69	-10.326
;N:33;w:4	-10.3261
;D:69;w:6;D:69;w:6;D:69;w:6;D:69	-10.3273
;w:12;N:68;w:12;N:63	-10.3273
;d:8;N:89	-10.3274
;N:25;w:12;N:25	-10.3274
;N:76;w:1	-10.3276
;N:74;N:82	-10.3278
;w:6;D:36;D:48	-10.3279
;w:9;d:8	-10.328
;w:12;d:8;N:45	-10.328
;w:6;d:	-10.3281
;d:33;N:78	-10.3284
;d:30;N:3	-10.3285
;d:12;N:56;N:61	-10.3285
;w:12;N:65;w:12;N:64	-10.3285
;w:12;N:78;w:12;N:81	-10.3286
;w:12;d:6;N:28	-10.3286
;D:36;D:42;w:12;D:46	-10.3288
;d:12;N:68;N:72	-10.3288
;D:76;w:6;D:36	-10.329
;w:12;N:82;w:12;N:84	-10.329
;w:6;N:75;w:6;N:72	-10.3292
;d:12;N:46;N:58	-10.3293
;w:12;d:36;N:41	-10.3294
;w:6;N:64;w:6;N:61	-10.3294
;d:42;N:75	-10.3299
;d:24;N:85;w:24;N:8	-10.3301
;w:10;d:2	-10.3302
;w:12;d:18;N:77	-10.3303
;d:16;N:84	-10.3304
;w:12;N:70;w:12;N:65	-10.3306
;D:70;w:6;D:69	-10.3306
;N:94;w:4	-10.3307
;D:54;D:69;w:6;D:54	-10.3308
;w:24;N:55;N:60	-10.331
;w:48;d:24;N:50	-10.3311
;w:12;D:36;D:42;w:12;D:36;D:42;w:12;D:42	-10.3313
;N:75;N:83	-10.3315
;N:66;N:75	-10.3315
;w:12;N:61;N:66	-10.3319
;w:6;N:61;w:6;N:66	-10.3319
;d:12;N:62;N:67	-10.3321
;w:6;d:54;N:6	-10.3322
2;N:81	-10.3327
;d:4;N:63;w:4	-10.3331
;d:9;N:88	-10.3331
;w:6;d:4;N:45	-10.3334
;w:24;N:60;N:64;N:67	-10.3342
;w:12;d:51;N:6	-10.3343
;N:81;w:9	-10.3344
;w:4;N:83;w:4;N:8	-10.3349
;w:24;N:57;N:61;N:64	-10.3349
;w:6;d:9;N:54	-10.335
;w:24;d:8;N:69	-10.3351
;N:34;N:41;N:46	-10.3351
;w:6;d:24;N:64	-10.3351
;w:12;N:93	-10.3352
;d:24;N:36;N:48	-10.3353
;w:18;N:85	-10.3355
;D:49;w:1	-10.3357
;w:6;N:53;w:6;N:56	-10.3357
;d:24;N:45;N:57	-10.3358
;w:24;d:12;N:28	-10.3359
;d:192;N:60	-10.3361
;w:16;N:57	-10.3362
;w:12;d:21;N:73	-10.3363
;w:11;d:4	-10.3364
;w:6;D:45;D:46	-10.3368
;w:6;N:56;w:6;N:59	-10.337
;w:12;N:78;w:12;N:79	-10.3371
;w:12;N:55;N:58	-10.3373
;N:89;w:4	-10.3373
;w:48;d:12;N:58	-10.3374
;N:56;N:65	-10.3376
;N:45;w:9	-10.3377
2;N:49	-10.3377
;w:12;D:42;D:51	-10.3379
1;N:53	-10.3379
;w:12;d:28;N:5	-10.3379
;w:8;N:80;w:8;N:8	-10.338
;w:12;d:20;N:73	-10.3381
;w:24;N:64;N:69	-10.3382
8;N:71	-10.3384
;d:30;N:44	-10.3387
;w:6;d:6;N:79	-10.3389
;w:6;d:9;N:73	-10.3391
;d:192;N:64	-10.3391
;w:36;d:24;N:59	-10.3393
;w:24;d:24;N:9	-10.3395
;w:18;N:29	-10.3398
;N:86;w:12;N:86	-10.3399
;w:36;N:36	-10.3399
;w:12;d:84;N:6	-10.3399
;w:6;D:38;D:43	-10.3405
;d:4;N:82;w:4	-10.3406
;D:48;D:50;D:69	-10.3407
;w:21;d:	-10.3408
;w:12;N:51;w:12;N:49	-10.3409
;w:48;N:70	-10.3409
;w:12;N:57;w:12;N:58	-10.3412
;w:12;N:79;w:12;N:76	-10.3416
;w:6;d:24;N:56	-10.3416
;w:16;d:8;N:62	-10.3417
;w:12;d:3;N:46	-10.3423
;D:36;w:12;D:42	-10.3424
;d:33;N:49	-10.3425
;w:12;N:74;w:12;N:70	-10.3426
;d:27;N:41	-10.3428
;w:24;N:41;w:24;N:4	-10.343
;d:6;N:50;w:6;N:50	-10.3431
;w:24;N:49;N:61	-10.3434
;w:12;d:8;N:75	-10.3434
;w:24;N:52;N:55	-10.3435
5;N:47	-10.3439
;w:24;N:67;N:72	-10.3442
;w:36;d:12;N:82	-10.3443
;d:24;N:96	-10.3443
;d:32;N:51	-10.3444
4;N:54	-10.3444
;w:24;d:6;N:39	-10.3446
;D:36;D:42;D:50	-10.3447
;d:12;N:69;N:72	-10.3456
;d:44;N:3	-10.3457
;w:6;d:18;N:51	-10.346
;N:61;N:66;w:6	-10.3462
;w:24;d:12;N:29	-10.3462
;d:12;N:56;N:59	-10.3463
;d:12;N:47;N:59	-10.3463
;w:12;N:54;w:12;N:52	-10.3463
;d:6;N:63;w:6;N:65	-10.3463
;d:30;N:43	-10.3463
;d:24;N:55;N:59	-10.3465
;w:4;N:78;w:4	-10.3466
;w:12;d:18;N:48	-10.3468
;w:6;N:34;w:6;N:34	-10.3469
;d:3;N:55;w:3	-10.3472
;d:6;N:66;w:6;N:66	-10.3472
;w:24;N:68;N:72	-10.3473
;w:12;d:36;N:40	-10.3474
;w:24;d:36;N:65	-10.3474
9;N:61	-10.3476
;w:24;d:36;N:67	-10.348
;d:33;N:46	-10.348
;d:12;N:70;w:12;N:69	-10.3483
;D:38;D:43	-10.3486
;w:12;N:61;w:12;N:57	-10.3488
;w:72;d:16	-10.3489
;N:51;N:60	-10.349
;w:12;d:8;N:42	-10.3493
;d:6;N:54;w:6;N:54	-10.3496
;d:6;N:95	-10.3498
;w:6;N:70;w:6;N:68	-10.35
;D:36;D:51;w:12;D:51	-10.3507
;D:69;w:6;D:69;w:6;D:42;D:69;w:6;D:69	-10.3509
;w:12;N:51;w:12;N:52	-10.3509
;w:12;d:20;N:53	-10.351
;D:69;w:8	-10.3511
3;N:64	-10.3515
;w:6;d:18;N:75	-10.3518
;w:6;N:47;w:6;N:49	-10.3519
;d:27;N:37	-10.3525
8;N:74	-10.3527
;w:15;d:9;N:62	-10.3527
;w:12;N:51;w:12;N:55	-10.3529
;d:30;N:49	-10.3532
;d:36;N:65;w:36;d:12;N:6	-10.3533
;w:6;D:36;w:6;D:38;D:46	-10.3535
;w:6;N:29	-10.3539
;d:12;N:33;w:12;N:33	-10.3541
;d:30;N:45	-10.3542
;d:27;N:46	-10.3542
;w:12;N:25	-10.3543
;d:72;N:39	-10.3544
;d:1;N:78;w:1;d:	-10.3544
;w:6;d:24;N:68	-10.3545
;d:32;N:76	-10.3546
;w:12;N:45;w:12;N:43	-10.3549
;d:27;N:47	-10.355
;w:24;d:9;N:54	-10.3551
;d:27;N:48	-10.3552
;w:6;N:68;w:6;N:65	-10.3554
;w:36;d:12;N:31	-10.3554
;N:87;w:12;N:87	-10.3555
;w:12;N:66;w:12;N:61	-10.3556
;w:24;d:12;N:84	-10.3556
;N:57;N:65	-10.3558
;w:6;N:67;w:6;N:68	-10.3558
;d:18;N:86	-10.3559
;w:12;N:47;w:12;N:50	-10.356
;w:12;N:62;N:67	-10.3561
;w:6;N:79;w:6;N:81	-10.3561
;d:12;N:63;N:68	-10.3562
;d:28;N:58	-10.3563
;d:27;N:39	-10.3563
;d:6;N:83;w:6	-10.3564
;d:192;N:67	-10.3566
;w:12;N:32;N:44	-10.3568
4;N:61	-10.3569
2;N:66	-10.357
;d:24;N:56;N:60	-10.3571
;w:12;N:96;w:12;N:9	-10.3571
;w:18;d:6;N:44	-10.3572
;w:6;d:2;N:62	-10.3573
;d:27;N:42	-10.3573
;w:12;N:69;N:72	-10.3574
;w:24;d:21;N:61	-10.3575
;w:6;N:59;N:71;w:6	-10.3576
;d:12;N:71;w:12;N:70	-10.3576
;w:12;d:8;N:39	-10.3578
8;N:81	-10.3579
;w:12;N:72;w:12;N:76	-10.3583
;w:16;N:58	-10.3586
;D:69;w:1	-10.3588
;w:24;N:61;N:65;N:68	-10.3593
;w:12;d:9;N:79	-10.3595
;N:45;w:3	-10.3599
;w:6;N:63;w:6;N:68	-10.3602
;d:27;N:38	-10.3605
;d:192;N:66	-10.3608
;w:60;d:18	-10.3608
;d:3;N:92	-10.361
4;N:60	-10.3617
;d:12;N:73;w:12;N:72	-10.3622
;w:12;N:73;N:76	-10.3622
;w:6;N:68;w:6;N:70	-10.3623
;d:45;N:48	-10.3625
;w:8;N:61	-10.3625
;N:74;N:78;w:6	-10.3627
;w:6;N:66;w:6;N:63	-10.3628
;w:12;D:36;D:42;w:12;D:38;D:42	-10.363
;N:59;N:63;w:6	-10.3633
8;N:70	-10.3634
;w:6;d:18;N:49	-10.364
;d:4;N:62;w:4	-10.3641
;w:12;d:39;N:4	-10.3641
;w:24;d:6;N:79	-10.3642
;N:46;w:9	-10.3642
;d:8;N:82;w:8	-10.3643
;w:18;d:6;N:56;w:6	-10.3643
;w:6;d:4;N:65	-10.3645
;N:50;w:9	-10.3646
;w:18;d:12;N:54	-10.3648
;w:6;N:74;w:6;N:72	-10.3652
;N:73;w:15	-10.3653
;w:24;d:24;N:35	-10.3654
;d:60;N:52	-10.3655
;d:30;N:47	-10.3656
;D:36;D:38;D:42;D:49	-10.3658
;d:4;N:91	-10.3658
;w:12;N:73;w:12;N:77	-10.366
;w:48;d:24;N:49	-10.366
;w:12;d:6;N:83	-10.3662
;D:56;w:6;D:42	-10.3663
;N:24;w:12;N:24	-10.3665
;d:3;N:53;w:3	-10.3667
;d:33;N:48	-10.3671
;d:4;N:92	-10.3674
;d:45;N:78	-10.3678
;N:79;N:86	-10.368
;w:12;N:53;w:12;N:51	-10.3681
;w:18;d:12;N:53	-10.3682
;w:36;d:24;N:58	-10.3685
;w:12;N:55;w:12;N:56	-10.3689
;w:24;d:6;N:38	-10.3691
;d:1;N:63;w:1	-10.3692
;w:24;N:72;N:75	-10.3692
;D:54;w:4	-10.3693
;w:45;d:	-10.3696
;w:24;d:6;N:80	-10.37
;w:8;N:69;w:8;N:7	-10.3702
;d:3;N:88;w:3	-10.3702
;w:24;d:8;N:57	-10.3703
;w:12;N:80;w:12;N:80	-10.3707
;D:54;w:3	-10.3715
;w:24;N:56;N:61	-10.3716
;d:27;N:45	-10.3716
;w:6;d:4;N:54	-10.3717
;w:16;d:6	-10.3717
;d:3;N:87;w:3	-10.3721
6;N:56	-10.3724
;w:24;d:18;N:56	-10.3724
;w:24;d:48;N:74	-10.3724
;d:12;N:58;w:12;N:60	-10.3726
;w:12;N:62;w:12;N:63	-10.3727
;d:2;N:60	-10.373
;w:6;d:9;N:53	-10.3731
6;N:72	-10.3733
;N:84;w:9	-10.3735
;w:24;d:18;N:70	-10.3737
;w:12;N:69;w:12;N:64	-10.3737
;d:12;N:48;N:60	-10.3738
;w:12;N:54;w:12;N:58	-10.3738
;w:8;N:59	-10.374
;w:12;N:77;w:12;N:78	-10.3741
;d:192;N:57	-10.3748
;w:6;N:69;N:81;w:6	-10.3748
;w:12;N:76;w:12;N:72	-10.375
;w:6;D:38;D:42;w:6;D:36;D:42	-10.3754
;N:78;w:1	-10.3758
;w:12;N:73;w:12;N:68	-10.3759
;N:47;w:4	-10.3759
;w:12;N:60;N:65	-10.376
;d:12;N:61;w:12;N:59	-10.3762
;D:36;D:42;D:56	-10.3762
;d:2;N:63	-10.3764
;d:5;N:64	-10.3765
;N:75;N:78;N:82	-10.3766
4;N:72	-10.3766
;d:60;N:58	-10.3767
;D:42;w:2	-10.3768
;w:12;d:60;N:4	-10.3769
;d:39;N:70	-10.3772
;w:6;N:76;w:6;N:79	-10.3773
;w:12;D:36;w:6;D:36	-10.3774
;w:12;d:9;N:31	-10.3776
;N:77;N:80;w:6	-10.3777
;D:51;w:6;D:51;w:6	-10.3779
;d:8;N:28	-10.3779
;w:12;N:55;N:59	-10.378
;N:68;N:73;w:6	-10.3783
;d:30;N:46	-10.3785
;w:12;d:4;N:77	-10.3789
;w:22;d:	-10.3791
;w:12;d:6;N:31	-10.3794
;w:6;N:69;w:6;N:67	-10.3799
2;N:65	-10.3799
6;N:49	-10.38
;w:12;N:92;w:12;N:9	-10.3802
;d:12;N:76;w:12;N:76	-10.3803
;d:27;N:76	-10.3804
;w:12;N:64;w:12;N:59	-10.3805
;w:8;d:8;N:63	-10.3805
;w:12;D:36;D:42;w:6;D:42	-10.3806
;w:12;D:36;D:39;D:42	-10.3806
;w:24;d:21;N:60	-10.3809
;w:12;d:6;N:47;w:6	-10.3809
;w:6;d:24;N:70	-10.3811
8;N:61	-10.3812
;w:12;N:76;w:12;N:77	-10.3812
;w:6;d:11	-10.3813
;d:20;N:31	-10.3814
;w:6;D:38;D:49	-10.3816
;d:36;N:66;w:36;d:12;N:6	-10.3817
;w:24;d:9;N:73	-10.3818
;w:12;N:51;w:12;N:56	-10.3821
;w:6;d:18;N:76	-10.3822
;d:6;N:60;w:6;N:60	-10.3822
;d:192;N:59	-10.3823
;d:48;N:88	-10.3825
;w:12;N:82;w:12;N:80	-10.3826
;N:65;N:68;w:6	-10.3827
;w:54;d:12	-10.3827
;N:53;w:12;N:53	-10.3829
;d:32;N:42	-10.3829
;d:12;N:57;w:12;N:59	-10.3832
;w:16;d:8;N:49	-10.3832
0;N:31	-10.3835
;w:12;N:46;w:12;N:49	-10.3836
;N:83;w:12;N:83	-10.3837
;w:24;N:52;w:24;N:5	-10.3838
8;N:72	-10.3838
;w:3;D:38;w:3;D:38;w:3;D:38;w:3;D:38;w:3;D:38;w:3;D:38;w:3;D:38;w:3;D:38	-10.3839
;w:24;N:1	-10.384
;N:65;N:74	-10.3842
;w:12;d:28;N:3	-10.3845
;w:18;d:12;N:71	-10.3845
;w:18;d:12;N:52	-10.3846
;w:24;d:8;N:56	-10.3846
3;N:69	-10.3846
;d:15;N:30	-10.3848
;d:12;N:70;N:73	-10.3849
;d:12;N:85;w:12;N:8	-10.3849
;w:24;d:9;N:53	-10.385
;d:24;N:62;N:67	-10.3851
;w:36;d:21;N:5	-10.386
;w:12;d:6;N:80;w:6	-10.386
;w:12;N:46;w:12;N:44	-10.3861
;D:42;D:46	-10.3863
;w:12;d:6;N:78;w:6	-10.3864
;w:3;D:38;w:1;D:38;w:2;D:38;w:2;D:38;w:1;D:38;w:3;D:38	-10.3865
;w:48;d:19	-10.3866
;w:24;d:9;N:72	-10.3869
;N:50;w:4	-10.387
;w:4;N:85;w:4;N:8	-10.3872
;w:12;N:63;w:12;N:58	-10.3877
;w:84;d:3	-10.3877
;w:24;d:8;N:70	-10.3879
;w:12;N:53;w:12;N:54	-10.388
;d:90;N:7	-10.3882
6;N:55	-10.3882
;d:6;N:69;w:6;N:67	-10.3882
;N:68;N:71;w:6	-10.3882
;w:12;d:6;N:52;w:6	-10.3884
;N:42;N:45	-10.3887
;N:49;N:52;N:56	-10.3888
;d:6;N:62;w:6;N:64	-10.3889
;w:16;d:8;N:50	-10.3894
;d:24;N:56;N:59	-10.3896
;w:12;N:59;w:12;N:60	-10.39
;N:52;w:12;N:52	-10.3901
;d:32;N:50	-10.3901
;w:12;N:54;w:12;N:55	-10.3902
;w:12;N:47;w:12;N:45	-10.3902
;d:32;N:41	-10.3902
;w:12;d:57;N:5	-10.3902
;w:36;d:24;N:71	-10.3903
;w:6;d:4;N:60	-10.3904
;D:54;D:69;w:6;D:42	-10.3904
;N:75;N:80;w:6	-10.3905
;N:62;N:69;N:74	-10.3905
;w:12;d:9;N:34	-10.3912
;w:12;D:36;D:41;D:42	-10.3918
;D:51;w:6;D:42;D:51	-10.3918
;w:24;d:48;N:46	-10.3919
;w:36;d:60;N:5	-10.3919
;w:24;d:36;N:56	-10.392
;w:12;N:69;N:73	-10.3927
;w:6;d:24;N:67	-10.3927
;w:12;d:24;N:87	-10.393
;w:48;d:12;N:60	-10.3931
;w:6;d:9;N:52	-10.3931
;w:16;d:8;N:42	-10.3933
;d:60;N:51	-10.3934
;w:6;d:6;N:82;w:6	-10.3935
;w:24;d:6;N:41	-10.3936
;w:6;N:75;w:6;N:73	-10.3937
;w:12;N:74;w:12;N:69	-10.3939
;w:6;d:9;N:74	-10.3939
;N:79;w:12;N:72	-10.3941
;d:6;N:39;w:6;N:39	-10.3943
;w:12;N:65;w:12;N:60	-10.3943
;w:16;N:56	-10.3947
;N:45;N:49;N:52	-10.3948
;w:24;D:48	-10.3948
3;N:63	-10.3949
;w:12;d:36;N:79	-10.3951
;d:36;N:64;w:36;d:12;N:6	-10.3952
;d:12;N:34;N:46	-10.3953
6;N:38	-10.3953
;w:12;D:36;D:39	-10.3953
;w:6;D:38;D:48	-10.3955
;w:24;N:96	-10.3956
;w:72;d:15	-10.396
;w:12;d:8;N:38	-10.3961
;N:66;N:72	-10.3961
;N:72;N:81	-10.3962
;w:24;N:65;N:70	-10.3962
;w:12;N:79;w:12;N:82	-10.3964
;d:45;N:45	-10.3964
;w:24;d:60;N:6	-10.3965
;w:12;D:37;D:38	-10.3967
;w:6;d:6;N:81;w:6	-10.3968
;d:30;N:77	-10.3968
;d:3;N:54;w:3	-10.3972
;N:67;N:76	-10.3975
;N:68;N:74	-10.3978
0;N:34	-10.3978
;w:12;N:55;w:12;N:52	-10.3981
;w:12;d:48;N:44	-10.3982
;w:12;N:72;w:12;N:67	-10.3984
;d:12;N:77;w:12;N:77	-10.3985
;w:12;N:53;w:12;N:57	-10.3987
;d:6;N:76;w:6;N:74	-10.3988
;w:12;N:70;N:73	-10.3989
;d:12;N:72;w:12;N:71	-10.399
;w:24;d:48;N:45	-10.3992
;w:12;D:37;D:38;D:42	-10.3995
;w:12;N:48;w:12;N:49	-10.4002
;w:6;D:42;w:6;D:38;D:42;w:6;D:42	-10.4004
;w:6;d:3;N:67;w:6	-10.4004
;w:24;N:66;N:78	-10.4006
;d:42;N:48	-10.4008
;w:12;D:38;D:41	-10.4008
;N:51;N:55;N:58;N:63	-10.4009
;w:24;d:18;N:55	-10.4012
;w:12;N:50;w:12;N:51	-10.4013
;D:46;w:6;D:38	-10.4014
;w:6;d:2;N:63	-10.4015
;w:12;N:56;N:61	-10.4015
;w:6;d:24;N:54	-10.4017
;N:57;w:6;N:57;w:6;N:57;w:6;N:57	-10.4019
;d:33;N:43	-10.402
;w:6;N:65;w:6;N:62	-10.4027
;d:24;N:35;N:47	-10.4027
;w:18;d:6;N:55;w:6	-10.4029
;w:12;d:3;N:75	-10.4029
;d:60;N:78	-10.4033
;w:42;d:3;N:3	-10.4035
;w:12;N:80;w:12;N:81	-10.4035
;N:72;w:15	-10.4036
;w:12;d:18;N:78	-10.4037
;w:12;d:16;N:64	-10.4038
;d:40;N:6	-10.4038
;d:30;N:48	-10.404
;w:6;N:69;w:6;N:71	-10.4041
;d:192;N:68	-10.4048
;w:24;N:66;N:71	-10.4049
;D:48;w:12;D:48	-10.405
;w:6;N:81;w:6;N:78	-10.405
;w:12;D:49	-10.4051
;d:6;N:60;w:6;N:62	-10.4051
;N:65;N:70;w:6	-10.4052
;D:69;w:4	-10.4052
;w:12;N:60;w:12;N:61	-10.406
;N:90;N:94	-10.4062
;w:12;N:80;w:12;N:76	-10.4064
;D:38;D:42;w:12;D:42	-10.4065
;w:24;N:70;N:74	-10.4066
;d:6;N:77;w:6;N:75	-10.4068
;w:12;N:63;w:12;N:62	-10.4069
;w:12;N:43;w:12;N:41	-10.4069
;d:12;N:76;w:12;N:78	-10.407
;w:6;N:74;w:6;N:77	-10.407
;w:12;N:33;w:12;N:33	-10.4074
;d:24;N:69;N:72	-10.4077
;N:95;w:4	-10.4077
;N:27;w:8	-10.4079
;w:8;N:58;w:8;N:6	-10.4084
;w:12;d:16;N:63	-10.4084
;w:6;N:77;w:6;N:74	-10.4084
;d:28;N:57	-10.4085
;d:5;N:62	-10.4091
;w:15;D:36	-10.4092
;w:18;N:31	-10.4093
;w:12;N:77;w:12;N:73	-10.4093
;w:15;d:9;N:63	-10.4094
;d:9;N:29	-10.4094
;N:61;w:6;N:61;w:6;N:61;w:6;N:61	-10.4094
;d:6;N:73;w:6;N:71	-10.4095
;d:24;N:68;N:72	-10.4098
;D:70;w:12;D:36;D:42	-10.4099
;w:6;D:43;D:46	-10.41
;d:33;N:40	-10.4101
;N:74;N:83	-10.4103
;w:36;d:24;N:72	-10.4104
;d:12;N:67;w:12;N:66	-10.4105
;d:68;N:5	-10.4106
;d:42;N:49	-10.4106
;w:6;d:24;N:53	-10.4106
;d:33;N:42	-10.4108
;w:18;d:12;N:55	-10.4108
;N:67;N:73	-10.4108
;d:6;N:44;w:6;N:44	-10.4109
;w:45;d:2	-10.4109
;w:12;N:74;w:12;N:79	-10.411
;d:5;N:63	-10.4113
;w:12;N:44;w:12;N:42	-10.4113
;w:6;d:6;N:79;w:6	-10.412
;w:24;N:68;w:24;N:68	-10.4121
;d:6;N:34;w:6;N:34	-10.4123
;d:44;N:64	-10.4124
;w:8;N:52;w:8	-10.4128
;w:6;N:59;w:6;N:57	-10.4129
;w:6;D:36;w:6;D:36;D:38	-10.4129
;d:16;N:85	-10.4131
;w:36;d:24;N:57	-10.4131
;d:0;N:35	-10.4135
;N:66;N:70;w:6	-10.4137
;N:58;N:62;w:6	-10.4139
;d:0;N:86	-10.4139
7;N:49	-10.4141
;d:33;N:79	-10.4142
;D:36;D:49;D:51	-10.4143
;w:6;d:12;N:29	-10.4146
;d:20;N:83	-10.415
;d:51;N:3	-10.415
;w:12;D:36;D:38;w:12;D:36;D:38	-10.4152
5;N:57	-10.4154
;w:12;d:18;N:45	-10.4155
;d:96;N:38	-10.4164
;w:24;d:42;N:7	-10.4167
;w:6;N:62;w:6;N:59	-10.417
9;N:62	-10.4172
;w:12;d:16;N:61	-10.4173
;d:12;N:81;w:12;N:79	-10.4174
;w:6;N:64;w:6;N:66	-10.4175
;w:6;N:76;w:6;N:73	-10.4176
;N:76;N:78	-10.418
8;N:60	-10.418
;N:48;N:51;N:56	-10.4184
;w:6;d:2;N:54	-10.4186
;N:60;N:65;w:6	-10.4187
;d:21;N:84	-10.4193
;d:12;N:34;w:12;N:34	-10.4193
;w:24;N:50;N:62	-10.4195
0;N:29	-10.4198
;w:12;D:42;w:12;D:42;w:12;D:42	-10.4198
;w:24;N:57;N:62;N:66	-10.42
8;N:30	-10.4205
;w:3;N:86;w:3	-10.4205
;w:12;N:62;w:12;N:57	-10.4206
3;N:70	-10.4209
;D:42;w:9;D:42	-10.4215
;d:32;N:48	-10.4215
;w:6;D:38;D:51	-10.4216
;d:12;N:74;w:12;N:73	-10.4217
;w:12;N:51;N:54	-10.4218
2;N:64	-10.4221
;d:45;N:47	-10.4224
;d:32;N:40	-10.4227
5;N:59	-10.4227
;d:44;N:63	-10.4228
;D:36;w:2	-10.4231
0;N:79	-10.4231
;w:24;N:33;N:45	-10.4231
;d:24;N:46;N:58	-10.4231
;d:6;N:74;w:6;N:76	-10.4232
;D:42;w:8;D:42	-10.4234
;w:8;d:8;N:57	-10.4237
;w:16;d:8;N:40	-10.4238
;w:6;D:69	-10.4239
;d:32;N:46	-10.4242
;w:12;d:21;N:51	-10.4244
8;N:62	-10.4245
;w:12;d:3;N:45	-10.4248
;d:27;N:36	-10.4249
;D:69;w:6;D:69;w:6;D:69	-10.4251
;w:48;d:24;N:47	-10.4253
;w:48;N:71	-10.4256
;w:12;N:85;w:12;N:83	-10.4257
;d:45;N:46	-10.4258
;w:12;d:9;N:80	-10.4258
;D:38;w:3;D:38	-10.426
;D:70;w:12;D:38	-10.4261
;d:6;N:72;w:6;N:70	-10.4262
;w:12;N:77;w:12;N:82	-10.4262
;D:46;w:12;D:38;D:42	-10.4262
;w:24;N:67;N:79	-10.4263
;w:12;d:48;N:76	-10.4265
;w:12;N:59;w:12;N:55	-10.4266
;d:6;N:57;w:6;N:57	-10.4267
;w:12;d:8;N:37	-10.4268
;d:33;N:47	-10.4268
1;N:63	-10.4269
;N:57;N:60;w:6	-10.4269
;d:6;N:53;w:6;N:53	-10.427
;d:44;N:62	-10.4271
;w:12;N:50;w:12;N:55	-10.4271
;N:42;w:1	-10.4272
;w:12;N:77;w:12;N:76	-10.4272
;d:12;N:77;w:12;N:76	-10.4273
;d:39;N:71	-10.4273
;d:4;N:81;w:4	-10.4274
;d:24;N:64;N:69	-10.4274
;w:12;d:18;N:46	-10.4281
;w:24;d:21;N:59	-10.4282
;d:33;N:41	-10.4285
;w:24;N:65;w:24;N:65	-10.4287
;d:96;N:76	-10.4288
;w:6;N:68;w:6;N:66	-10.4288
;d:24;N:62;w:24;N:62	-10.4296
;w:12;d:6;N:46;w:6	-10.4298
;N:91;N:94	-10.4299
;w:6;N:27	-10.4301
;w:6;N:72;w:6;N:70	-10.4302
;w:12;N:83;w:12;N:85	-10.4302
;w:24;d:8;N:71	-10.4304
;w:84;d:4	-10.4305
;w:6;d:24;N:69	-10.4306
;w:6;N:59;w:6;N:61	-10.4306
;w:6;N:66;w:6;N:67	-10.4307
;N:94;w:3	-10.431
;w:6;d:3;N:71;w:6	-10.431
;w:12;d:15;N:74	-10.4312
;w:18;d:6;N:81	-10.4313
;w:24;d:20;N:8	-10.4313
;w:4;N:80;w:4	-10.4318
;w:24;d:36;N:74	-10.4319
;N:89;N:93	-10.4319
;w:12;N:37;w:12;N:39	-10.4323
;w:6;N:78;w:6;N:81	-10.4323
;w:6;d:24;N:55	-10.4324
;N:67;N:70;w:6	-10.4327
9;N:63	-10.4327
;N:48;w:9	-10.4328
;N:58;N:61;N:63	-10.4329
;w:24;d:8;N:55	-10.4331
;w:16;d:8;N:65	-10.4333
;w:12;N:59;N:64	-10.4335
;w:3;N:54;w:3	-10.4336
;d:12;N:64;N:69	-10.4336
;d:102;N:6	-10.4339
;w:24;N:62;w:24;N:62	-10.4339
;d:24;N:24	-10.4342
;N:56;N:64	-10.4342
;w:12;d:48;N:43	-10.4344
4;N:62	-10.4344
;d:12;N:69;w:12;N:68	-10.4347
;D:47;w:12;D:47	-10.4348
;w:24;N:23	-10.4349
;w:12;N:65;N:70	-10.435
;d:12;N:68;w:12;N:67	-10.435
;D:38;D:45	-10.435
;w:24;N:46;w:24;N:4	-10.4351
;w:18;d:6;N:75	-10.4353
;d:32;N:45	-10.4355
;w:48;d:20;N:4	-10.4357
;w:48;N:47	-10.4358
;d:24;N:69;w:24;N:69	-10.4361
;w:6;N:56;w:6;N:60	-10.4363
;d:1;N:80;w:1;d:	-10.4365
;N:38;w:4	-10.4365
;w:36;d:6;N:69	-10.4367
;d:192;N:69	-10.4372
;D:48;D:76	-10.4374
;w:12;N:75;w:12;N:70	-10.4379
;d:24;N:70;N:73	-10.438
;w:12;d:51;N:5	-10.4384
;d:24;N:97	-10.4385
;D:36;D:42;w:12;D:42;w:12;D:42	-10.4386
;w:24;N:61;N:66	-10.4392
;d:69;N:7	-10.4393
;w:24;d:21;N:62	-10.4394
;N:76;w:6;N:76;w:6;N:76	-10.4394
;N:44;w:9	-10.4397
;w:24;d:48;N:75	-10.4397
;d:12;N:71;N:74	-10.4398
;w:12;d:3;N:47	-10.4399
;d:24;N:59;N:64	-10.44
;w:12;N:78;w:12;N:77	-10.44
;w:24;d:18;N:68	-10.44
;w:6;d:6;N:33	-10.4403
;w:12;N:47;N:54	-10.4403
;d:42;N:76	-10.4403
;d:24;N:65;w:24;N:65	-10.4404
;d:12;N:65;w:12;d:6;N:65	-10.4405
;d:60;N:57	-10.4405
;w:12;D:41;D:42	-10.4408
;N:80;w:12;N:73	-10.4408
;d:12;N:65;N:70	-10.4409
;D:49;w:3	-10.441
;w:6;d:4;N:52	-10.4412
;w:6;D:42;D:54	-10.4412
;w:57;d:	-10.4413
;D:54;D:70;w:6	-10.4413
;N:69;w:15	-10.4413
;w:6;N:63;w:6;N:61	-10.4415
;w:12;N:58;w:12;N:59	-10.4416
;w:15;d:9;N:57	-10.4416
;w:15;d:4	-10.4418
;d:3;N:30	-10.4423
;d:6;N:72;w:6;N:72	-10.4425
;N:70;w:3;N:72;w:3	-10.4428
6;N:90	-10.443
8;N:77	-10.443
3;N:71	-10.4433
;w:36;d:24;N:56	-10.4433
;w:12;d:6;N:79;w:6	-10.4433
;w:6;d:6;N:80	-10.4436
;w:12;N:61;w:12;N:60	-10.4437
;w:12;N:81;w:12;N:80	-10.4441
;w:6;N:80;w:6;N:82	-10.4441
;d:9;N:89	-10.4442
;w:24;N:35;w:24;N:3	-10.4445
;w:6;d:4;N:46	-10.4446
;w:6;N:53;w:6;N:55	-10.4446
;N:45;w:2	-10.4447
;D:53;w:6;D:38	-10.4447
;N:36;N:41	-10.4449
;w:24;d:36;N:55	-10.4449
7;N:59	-10.4454
;w:12;d:17	-10.4455
;w:24;N:59;N:64;N:68	-10.4455
;N:58;N:63;w:6	-10.4458
;w:6;D:42;D:46	-10.4461
;w:24;N:56;N:61;N:65	-10.4461
;N:68;N:73;N:76	-10.4465
;w:24;N:63;w:24;N:63	-10.4466
;N:44;w:2	-10.4466
;w:6;d:18;N:77	-10.4466
;w:36;d:48;N:4	-10.4466
;w:12;N:49;w:12;N:50	-10.4466
;w:24;N:97	-10.4471
;d:3;N:52;w:3	-10.4472
;N:56;w:1	-10.4472
;D:36;D:38;w:12;D:38	-10.4472
;D:54;D:70;w:6;D:54;D:70	-10.4473
;w:24;d:21;N:63	-10.4473
;w:24;d:33;N:5	-10.4474
;w:24;N:66;w:24;N:66	-10.4475
;d:12;N:63;N:66	-10.4477
;w:12;N:48;N:55	-10.448
;w:48;d:21;N:4	-10.4483
;w:12;d:16;N:62	-10.4483
;w:6;N:57;w:6;N:60	-10.4486
;N:76;N:79;N:83	-10.4487
;w:18;d:12;N:51	-10.4488
;N:68;w:15	-10.4489
;w:12;d:12;N:29	-10.4491
;N:52;N:61	-10.4491
;w:12;D:38;D:43	-10.4491
;w:24;d:18;N:64	-10.4493
;w:36;N:79	-10.4494
;w:6;D:50;w:6	-10.4496
;D:51;w:1	-10.4497
;w:4;d:16	-10.4499
;w:24;N:61;w:24;N:61	-10.4503
;d:12;N:50;N:62	-10.4504
;w:6;d:2;N:65	-10.4504
6;N:74	-10.4504
;w:48;d:12;N:66	-10.4505
;d:33;N:44	-10.451
;w:24;d:21;N:58	-10.4512
;w:24;N:64;N:76	-10.4513
;w:24;N:52;N:56	-10.4513
;w:12;N:63;N:68	-10.4513
;w:6;N:70;w:6;N:67	-10.4515
;w:9;d:19	-10.4516
;w:48;d:24;N:75	-10.4516
;d:12;N:68;w:12;d:6;N:68	-10.4517
;d:168;N:6	-10.4517
;w:44;d:1	-10.4522
;d:12;N:88;w:12;N:8	-10.4523
;d:6;N:74;w:6;N:72;w:6	-10.4525
;N:75;N:84	-10.4525
;w:3;D:42;w:3;D:42;w:3;D:42	-10.4526
;D:76;w:12;D:76	-10.4529
;w:18;d:12;N:48	-10.453
;w:6;N:54;w:6;N:59	-10.4531
;w:36;d:6;N:60	-10.4531
;d:6;N:59;w:6;N:61	-10.4532
;d:24;N:69;N:73	-10.4533
4;N:49	-10.4534
;w:16;N:55	-10.4535
;D:36;D:49;w:12;D:38	-10.4535
;w:48;d:24;N:48	-10.4538
;w:18;d:12;N:50	-10.454
;w:12;N:57;N:62	-10.454
;w:6;N:35;w:6;N:35	-10.4542
;N:47;N:50;N:55	-10.4542
;D:46;w:6;D:46	-10.4542
;w:24;d:21;N:65	-10.4542
;d:24;N:68;w:24;N:68	-10.4544
;w:6;N:61;w:6;N:59	-10.4546
;w:8;N:52;w:8;N:5	-10.4547
;w:6;N:52;w:6;N:55	-10.4547
;d:24;N:58;N:63	-10.4554
;d:9;N:26	-10.4554
;d:27;N:77	-10.4554
;d:12;N:55;N:58	-10.4556
;w:16;d:32;N:6	-10.4556
;N:87;w:2	-10.4562
;w:24;N:62;N:74	-10.4565
;w:12;d:3;N:76	-10.4565
;w:12;N:42;w:12;N:40	-10.4566
;N:69;N:74;w:6	-10.4566
;w:16;N:54	-10.4567
;d:32;N:49	-10.4574
;w:12;d:16;N:67	-10.4575
;w:6;N:62;w:6;N:67	-10.4576
;w:6;N:76;w:6;N:74	-10.4576
;d:28;N:70	-10.4579
;w:6;d:9;N:51	-10.458
;N:26;w:8	-10.458
;w:24;N:51;N:63	-10.4585
;d:24;N:67;w:24;N:67	-10.4586
;N:53;N:61	-10.4586
;d:44;N:60	-10.4588
;N:69;N:75	-10.459
;w:18;d:6;N:74	-10.4592
;w:6;d:24;N:51	-10.4592
;w:24;d:36;N:70	-10.4592
;N:74;N:76	-10.4593
;w:6;N:57;w:6;N:54	-10.4596
;w:24;D:38;D:46	-10.4597
;w:20;d:10	-10.4598
;w:6;N:89	-10.4598
;N:54;N:62	-10.4599
;w:24;d:18;N:54	-10.46
;w:12;N:79;w:12;N:80	-10.4602
;w:24;N:42;w:24;N:4	-10.4606
;D:48;w:6;D:36	-10.4606
;w:12;d:21;N:50	-10.4606
;d:32;N:47	-10.4607
;w:12;d:4;N:42	-10.4608
;w:24;d:18;N:66	-10.4608
;d:24;N:86;w:24;N:8	-10.4611
;w:6;N:83;w:6;N:83	-10.4614
;w:24;N:63;N:75	-10.4615
;w:6;N:72;w:6;N:73	-10.4615
;w:24;d:45;N:4	-10.4616
;w:12;N:60;w:12;N:59	-10.4617
;w:3;N:52;w:3;N:5	-10.4617
;d:36;N:89	-10.4622
;N:45;w:4	-10.4622
;N:76;N:84	-10.4622
;w:21;d:24;N:7	-10.4623
;w:15;D:38	-10.4624
;w:6;N:83;w:6;N:85	-10.4626
;N:48;w:6;N:48;w:6	-10.4627
;d:8;N:83;w:8	-10.4628
;w:12;N:74;w:12;N:78	-10.4629
;w:12;N:78;N:90	-10.4629
;w:18;d:18;N:3	-10.463
;w:12;N:61;w:12;N:56	-10.463
;N:59;N:63;N:66;N:71	-10.4632
;D:42;w:12;D:36	-10.4633
;w:18;d:12;N:72	-10.4637
;d:12;N:75;w:12;N:74	-10.4638
;w:24;d:9;N:74	-10.4638
;w:24;d:18;N:69	-10.4639
9;N:64	-10.4641
;w:24;N:51;N:58	-10.4642
;w:12;d:54;N:7	-10.4643
;d:4;N:33	-10.4643
;w:6;N:79;w:6;N:77	-10.4645
;w:4;N:82;w:4;N:8	-10.4646
;D:70;w:6;D:70;w:6;D:36	-10.4651
;d:24;N:65;N:70	-10.4651
;w:6;N:73;w:6;N:71	-10.4652
;d:12;N:66;N:71	-10.4655
;w:12;d:9;N:33	-10.4655
;D:42;w:6;D:42;w:6;D:42	-10.4655
;D:42;w:6;D:36	-10.4656
;d:36;N:86	-10.4656
;d:16;N:31	-10.4657
;w:6;D:38;D:42;w:6;D:38;D:42	-10.4658
;w:18;d:12;N:49	-10.4658
;w:18;D:38;w:6;D:38	-10.466
;w:8;N:62	-10.4662
0;N:33	-10.4665
;N:42;N:46	-10.4665
8;N:45	-10.4674
;w:6;d:3;N:37	-10.4675
;w:4;N:82;w:4	-10.4676
;d:4;N:55;w:4	-10.4676
;d:8;N:53;w:8	-10.4677
;D:51;w:12;D:38;D:51	-10.4679
;d:32;N:43	-10.4681
;w:12;N:50;w:12;N:54	-10.4683
;D:42;D:50	-10.4686
;w:24;d:21;N:57	-10.4687
;w:6;d:4;N:42	-10.4687
;D:69;w:6;D:69;w:6;D:38	-10.4689
;w:12;d:16;N:60	-10.469
;w:24;d:18;N:63	-10.4693
;D:48;w:4	-10.4696
;w:6;N:69;w:6;N:74	-10.4697
;d:192;N:58	-10.4697
;N:66;N:69;N:71	-10.4699
;w:24;d:36;N:54	-10.4701
;w:4;N:65;w:4;N:6	-10.4703
;w:6;N:79;w:6;N:76	-10.4704
;w:8;N:58	-10.4704
;N:59;w:6;N:59	-10.4705
;D:69;w:12;D:38	-10.4707
;w:12;d:20;N:51	-10.4707
;D:53;w:12;D:53	-10.4711
;N:25;w:6	-10.4713
;w:24;N:71;N:75	-10.4718
;d:24;N:63;w:24;N:63	-10.4719
;d:12;N:78;w:12;N:77	-10.472
;w:6;d:3;N:35	-10.472
;w:6;d:6;N:29	-10.472
;w:12;N:80;w:12;N:83	-10.472
;N:65;N:72;N:77	-10.4721
;N:43;w:9	-10.4724
;w:12;N:50;w:12;N:57	-10.4726
;w:24;N:67;w:24;N:67	-10.4727
;w:3;N:47;w:3;N:4	-10.4731
;w:24;d:192;N:6	-10.4731
;w:12;N:60;w:12;N:56	-10.4732
;w:48;d:12;N:62	-10.4734
;w:23;d:1	-10.4734
;d:44;N:67	-10.4735
;w:24;d:9;N:52	-10.4736
;D:43;D:70	-10.4737
1;N:65	-10.4738
;w:48;d:12;N:71	-10.4739
;w:24;d:6;N:37	-10.4741
;w:8;N:70;w:8;N:6	-10.4741
;w:12;d:16;N:65	-10.4743
;w:36;d:6;N:70	-10.4745
;w:24;N:65;N:77	-10.4745
;w:6;d:3;N:80	-10.4746
;w:12;N:70;N:74	-10.4747
;d:72;N:80	-10.4748
2;N:56	-10.4748
;w:6;N:55;w:6;N:58	-10.4748
;N:77;w:3;N:76;w:3	-10.4749
;w:3;D:38;w:3;D:38;w:3;D:38	-10.4749
;w:24;d:6;N:36	-10.4751
;w:6;N:76;w:6;N:80	-10.4751
;d:12;N:54;N:59	-10.4752
;d:12;N:32;w:12;N:32	-10.4752
;w:6;d:3;N:34	-10.4752
;w:6;d:4;N:48	-10.4754
;w:24;N:51;N:54	-10.4754
;w:12;d:19	-10.4755
;w:48;d:24;N:9	-10.4758
;d:6;N:67;w:6;N:67	-10.476
;w:16;N:53	-10.4761
;N:33;N:40;N:45	-10.4762
;w:6;N:64;w:6;N:62	-10.4764
;w:12;N:31;N:43	-10.4764
;d:33;N:45	-10.4765
;w:12;d:20;N:74	-10.4767
;d:4;N:83;w:4	-10.4767
;d:24;N:34;N:46	-10.4768
;w:12;d:15;N:48	-10.4768
;d:36;N:72;w:36;d:12;N:7	-10.4769
;d:12;N:76;w:12;N:75	-10.4769
;w:12;N:84;w:12;N:86	-10.4774
;d:1;N:79;w:1;d:	-10.4774
3;N:50	-10.4776
;w:48;d:24;N:74	-10.4776
;D:38;D:47	-10.4778
;w:18;d:12;N:75	-10.4778
;d:2;N:62	-10.4779
;w:15;d:9;N:55	-10.4779
;d:6;N:61;w:6;N:61;w:6	-10.478
;w:3;N:44;w:3;N:4	-10.4781
;w:12;N:64;N:69	-10.4781
;d:12;N:77;w:12;N:79	-10.4782
;w:36;d:6;N:59	-10.4784
;w:12;d:16;N:58	-10.4784
;w:6;d:2;N:64	-10.4785
;w:8;d:19	-10.4788
;w:3;D:36;w:3;D:36;w:3;D:36;w:3;D:36	-10.4791
;d:30;N:78	-10.4791
;d:12;N:49;N:61	-10.4791
;w:36;d:12;N:34	-10.4796
;w:8;N:63	-10.4805
;N:80;N:87	-10.4806
;w:6;N:42;w:6;N:54	-10.4809
;d:6;N:61;w:6;N:63	-10.4813
;N:49;w:9	-10.4814
;w:18;d:12;N:76	-10.4815
;w:24;N:52;N:64	-10.4817
;D:45;D:53	-10.4818
;N:89;N:94	-10.4819
;w:12;d:15;N:49	-10.4823
;w:12;d:8;N:76	-10.4823
;w:12;d:8;N:36	-10.4823
;w:24;N:68;N:73	-10.4824
;w:24;d:24;N:34	-10.4825
;w:6;D:38;D:42;D:43	-10.4827
;N:65;N:69;w:6	-10.4827
;N:90;w:1	-10.4827
;w:6;d:24;N:52	-10.4828
;w:8;d:8;N:65	-10.483
;d:9;N:28	-10.4831
;N:55;N:63	-10.4833
;d:16;N:32	-10.4833
;d:12;N:56;w:12;N:58	-10.4834
;d:44;N:61	-10.4835
;D:69;D:70;w:6	-10.4836
;d:39;N:54	-10.4836
;d:44;N:66	-10.4837
;w:12;d:18;N:47	-10.4837
;w:10;d:8	-10.4839
;w:12;d:21;N:74	-10.4841
;d:192;N:56	-10.4842
;w:24;N:54;N:59	-10.4842
;w:12;N:54;w:12;N:61	-10.4844
;w:6;N:59;w:6;N:56	-10.4847
;w:36;d:24;N:73	-10.4847
;w:16;d:8;N:48	-10.4848
;w:6;d:18;N:48	-10.485
;w:42;d:1	-10.4852
;w:24;D:41	-10.4853
;w:6;N:77;w:6;N:80	-10.4854
;w:6;N:11	-10.4854
;w:24;N:59;w:24;N:59	-10.4854
;D:36;D:42;w:24;D:38;D:42	-10.4854
;w:12;N:74;N:77	-10.4855
;w:12;d:20;N:8	-10.4856
;w:21;D:38	-10.4859
;w:6;d:4;N:61	-10.4859
;N:59;N:62;N:65	-10.486
6;N:43	-10.486
;D:36;D:38;D:43	-10.4861
;w:18;d:12;N:73	-10.4863
;D:54;D:69;w:6	-10.4866
8;N:82	-10.4867
;D:53;D:56	-10.4867
;w:6;d:4;N:49	-10.4867
;D:42;w:3;D:36	-10.4869
;w:6;d:3;N:72;w:6	-10.4871
;w:6;D:38;D:47	-10.4873
;d:24;N:84;w:24;d:12;N:8	-10.4874
;w:8;N:57	-10.4876
;w:6;d:9;N:75	-10.4878
;N:83;w:1	-10.4881
;w:6;d:24;N:50	-10.4882
;D:38;D:42;D:54	-10.4885
;w:16;d:8;N:45	-10.4886
8;N:76	-10.4887
;w:24;d:24;N:81	-10.4887
;N:47;w:12;N:47;w:12;N:47;w:12;N:47	-10.4888
;w:6;d:4;N:53	-10.4888
;w:12;N:55;N:60	-10.4889
;w:6;N:67;w:6;N:72	-10.489
4;N:53	-10.489
;D:39;D:51	-10.4891
;w:24;d:18;N:62	-10.4891
;d:33;N:39	-10.4892
;d:6;N:58;w:6;N:58	-10.4896
;d:32;N:77	-10.4896
;d:60;N:4	-10.4897
;w:12;N:50;w:12;N:47	-10.4899
;w:6;d:6;N:48;w:6	-10.49
;w:6;N:78;w:6;N:75	-10.4901
;w:4;N:56;w:4	-10.4901
;w:24;d:18;N:67	-10.4901
;w:48;d:12;N:65	-10.4902
;w:6;N:61;w:6;N:58	-10.4903
;D:76;w:12;D:36	-10.4905
;N:45;N:50;N:54	-10.4907
;d:36;N:29	-10.4907
;w:6;N:70;N:82;w:6	-10.491
;w:6;D:53	-10.4911
;w:12;N:75;w:12;N:80	-10.4915
;w:24;N:34;w:24;N:3	-10.4915
;w:12;d:20;N:75	-10.4915
;d:27;N:35	-10.4916
;w:12;d:16;N:68	-10.4917
;d:12;N:82;w:12;N:80	-10.4919
;w:12;d:16;N:66	-10.4922
;D:49;w:3;D:49	-10.4924
;d:44;N:65	-10.4925
;w:12;d:4;N:78	-10.4925
;d:72;N:38	-10.4926
;w:24;N:73;N:76	-10.493
;d:24;N:63;N:68	-10.4931
;w:6;N:56;w:6;N:53	-10.4932
;d:12;N:87;w:12;N:8	-10.4933
;N:85;w:9	-10.4933
;d:84;N:63	-10.4934
;d:24;N:81;w:24;N:8	-10.4936
;w:3;N:91;w:3;N:9	-10.4938
;w:6;d:2;N:66	-10.494
;d:24;N:55;N:58	-10.494
;w:24;d:8;N:54	-10.4942
;w:6;N:57;w:6;N:59	-10.4942
;w:36;d:20;N:4	-10.4942
;w:24;d:18;N:65	-10.4944
;w:24;d:21;N:66	-10.4945
;d:21;N:30	-10.4946
;w:6;d:3;N:73	-10.4947
;w:12;N:54;N:59	-10.4949
;w:24;N:64;w:24;N:64	-10.4951
;w:18;d:6;N:40	-10.4953
;d:32;N:44	-10.4955
;d:6;N:24	-10.4956
;d:12;N:63;N:75	-10.4956
;w:8;N:60;w:8;N:5	-10.4958
;d:12;N:65;w:12;N:68	-10.4958
;w:6;d:4;N:55	-10.496
;w:12;N:98;w:12;N:9	-10.4961
;d:45;N:79	-10.4961
;w:24;N:61;N:73	-10.4963
;d:24;N:61;N:66	-10.4963
;w:8;d:16;N:59	-10.4963
2;N:67	-10.4964
;w:6;D:36;D:42;D:47	-10.4964
;w:36;d:60;N:6	-10.4966
;w:36;d:24;N:55	-10.4969
;w:24;d:21;N:55	-10.497
;w:12;N:76;w:12;N:80	-10.4971
8;N:63	-10.4972
;N:34;w:24;N:34	-10.4973
;d:24;N:54;N:57	-10.4976
;D:41;D:46	-10.4977
2;N:34	-10.4978
;N:62;N:67;w:6	-10.4978
;w:12;N:56;w:12;N:57	-10.4979
;w:24;d:21;N:64	-10.498
;w:12;d:28;N:7	-10.4986
;w:48;N:46	-10.4986
;w:18;d:12;N:41	-10.4986
;N:59;N:64;w:6	-10.4991
;w:12;N:45;w:12;N:48	-10.4991
;w:24;N:69;N:81	-10.4992
;w:12;d:16;N:59	-10.4992
;w:6;N:98;w:6;N:9	-10.4993
;w:6;N:80;w:6;N:77	-10.4994
;w:12;N:60;w:12;N:55	-10.4998
;d:12;N:59;w:12;N:57	-10.4998
;N:82;w:1	-10.5001
;w:24;d:21;N:2	-10.5003
;w:24;N:70;w:24;N:70	-10.5004
;d:24;N:60;w:24;N:60	-10.501
;D:42;w:8;D:38;D:42	-10.501
;N:32;w:4	-10.5011
;d:12;N:51;N:63	-10.5011
;d:12;N:97	-10.5012
;w:6;N:78;w:6;N:79	-10.5013
;w:12;d:60;N:62	-10.5013
;w:6;d:12;N:85	-10.5014
;w:18;d:12;N:45	-10.5014
;w:24;N:69;w:24;N:69	-10.5015
;d:12;N:33;N:45	-10.5017
;D:51;D:54;D:69	-10.5017
;w:12;N:52;w:12;N:49	-10.5018
6;N:67	-10.5018
;d:6;N:37;w:6;N:37	-10.5019
;d:12;N:67;N:79	-10.5019
;d:12;N:66;w:12;N:65	-10.5019
;d:24;N:60;N:65	-10.5021
;w:12;N:58;N:63	-10.5024
;d:2;N:76	-10.5027
;w:3;N:53;w:3;N:5	-10.5028
;w:6;N:56;w:6;N:61	-10.5031
;N:50;N:59	-10.5031
;w:6;d:3;N:77;w:6	-10.5031
;w:48;d:12;N:61	-10.5032
;w:6;D:42;w:6;D:42;w:6;D:36;D:42	-10.5032
;w:24;N:60;w:24;N:60	-10.5037
;d:87;N:7	-10.5038
;w:36;d:36;N:3	-10.5038
;D:70;w:2	-10.504
;D:47;D:53	-10.5041
;N:80;w:1	-10.5041
;d:12;N:60;w:12;N:58	-10.5043
;N:75;N:77	-10.5044
;N:49;N:53;N:56;N:61	-10.5045
;w:12;N:81;w:12;N:78	-10.5048
;N:77;N:85	-10.5049
;w:6;N:46;w:6;N:48	-10.505
;w:16;d:32;N:5	-10.5053
;d:15;N:86	-10.5056
;w:3;N:97;w:3;N:9	-10.5058
;w:6;N:68;w:6;N:63	-10.5061
;w:12;d:4;N:41	-10.5063
;N:44;w:3	-10.5068
;w:12;d:18;N:41	-10.5072
;w:6;N:75;w:6;N:78	-10.5073
;w:6;d:4;N:62	-10.5073
;d:33;N:38	-10.5073
;w:6;N:99;w:6;N:9	-10.5075
;w:16;D:38;w:8;D:38	-10.5076
;w:6;d:4;N:41	-10.5079
;w:12;d:6;N:44;w:6	-10.508
;w:6;N:65;w:6;N:70	-10.508
;w:24;d:36;N:53	-10.5082
;w:24;d:96;N:7	-10.5084
;N:78;N:82;w:12	-10.5087
;d:6;N:85;w:6	-10.5088
;N:56;N:59;w:6	-10.5088
1;N:64	-10.5089
;w:12;d:18;N:44	-10.5095
;w:12;N:47;w:12;N:48	-10.5097
;d:44;N:59	-10.51
4;N:52	-10.5101
;N:75;N:79;w:6	-10.5102
;d:12;N:69;N:73	-10.5102
;w:18;d:12;N:44	-10.5106
;w:6;N:83;w:6;N:80	-10.5106
;w:12;d:18;N:43	-10.5107
;w:48;d:48;N:7	-10.5108
;w:24;N:52;N:57	-10.5108
;d:84;N:61	-10.511
;d:24;N:47;N:59	-10.5112
;N:95;w:8	-10.5113
;N:81;w:1	-10.5113
;w:12;N:78;w:12;N:83	-10.5116
;D:50;w:6;D:50;w:6	-10.5123
;w:15;d:9;N:54	-10.5123
;w:6;d:2;N:58	-10.5124
;w:24;d:39;N:5	-10.5125
;w:18;d:12;N:47	-10.5128
2;N:84	-10.5129
;d:24;N:70;w:24;N:70	-10.5129
;w:6;d:3;N:78;w:6	-10.513
2;N:36	-10.5141
;d:12;N:64;N:76	-10.5141
;w:18;d:12;N:74	-10.5142
;d:1;N:81;w:1;d:	-10.5143
;w:4;D:37	-10.5143
;w:24;d:18;N:53	-10.5149
;w:24;d:8;N:52	-10.5152
;w:12;d:24;N:10	-10.5154
;w:12;d:60;N:65	-10.5154
;w:24;N:68;N:80	-10.5158
;w:12;d:8;N:35	-10.5158
;w:24;d:36;N:75	-10.5159
;N:96;w:4	-10.516
;w:6;N:63;w:6;N:67	-10.5161
;w:6;d:4;N:50	-10.5162
4;N:63	-10.5163
;w:24;N:50;N:57	-10.5163
;N:45;N:52;N:57;N:61	-10.5164
;N:60;N:64;N:67;N:72	-10.5165
;d:12;N:61;N:73	-10.5165
;w:48;d:24;N:46	-10.5167
;w:24;d:8;N:72	-10.5168
;w:4;N:75;w:4;N:7	-10.517
;w:12;D:42;w:12;D:36	-10.5173
;w:6;N:69;w:6;N:70	-10.5175
7;N:61	-10.5177
;w:12;N:84;w:12;N:82	-10.5177
;w:6;N:77;w:6;N:75	-10.5179
;D:46;w:6;D:36	-10.518
;w:6;d:24;N:45	-10.518
1;N:58	-10.518
;w:12;N:83;w:12;N:81	-10.5184
;d:99;N:5	-10.5185
;d:12;N:66;w:12;N:69	-10.5185
;d:24;N:71;w:24;N:71	-10.5185
;w:24;N:54;N:66	-10.5185
;d:39;N:53	-10.5192
;D:36;D:52	-10.5192
;w:12;d:60;N:60	-10.5193
;w:12;d:48;N:77	-10.5193
;w:6;d:12;N:28	-10.5195
;D:42;D:53	-10.5197
;N:79;w:1	-10.5199
;D:54;w:6;D:54;w:6;D:42	-10.5201
;w:12;d:60;N:63	-10.5203
;d:24;N:57;N:62	-10.5204
;w:8;D:37;D:42	-10.5204
;d:108;N:7	-10.5204
;d:12;N:78;w:12;N:78	-10.5205
;w:24;d:9;N:51	-10.5206
;w:6;D:38;w:6;D:38;w:6;D:38;w:6;D:36;D:38	-10.5207
;N:60;N:63;N:66	-10.5209
;D:46;D:70	-10.5213
;w:4;N:84;w:4;N:8	-10.5214
;w:12;D:46;w:12;D:36	-10.5216
;d:6;N:78;w:6;N:76	-10.5218
;w:12;N:79;w:12;N:78	-10.5219
;w:48;d:12;N:63	-10.5219
;w:6;d:6;N:37	-10.5222
;w:21;d:27;N:5	-10.5223
;w:12;d:21;N:75	-10.5223
;d:96;N:77	-10.5224
8;N:55	-10.5227
;w:3;D:38;w:3;D:38;w:3;D:38;w:3;D:38;w:3;D:38;w:3;D:38;w:3;D:38	-10.5227
;d:8;N:52;w:8	-10.5228
;w:12;N:43;N:50	-10.5229
;w:6;d:2;N:53	-10.5231
;w:18;d:12;N:77	-10.5232
;w:8;N:54;w:8;N:5	-10.5236
;N:95;w:3	-10.5237
;w:39;d:1	-10.5237
;w:24;N:31;w:24;N:3	-10.5237
;w:6;D:36;D:42;D:51	-10.5237
;D:54;D:69;w:6;D:69	-10.5238
;w:6;N:32;w:6;N:32	-10.5239
;w:6;N:58;w:6;N:60	-10.5241
;d:32;N:2	-10.5245
;w:6;D:49	-10.5247
;N:66;w:12;N:66;w:12;N:66;w:12;N:66	-10.5252
;w:12;d:6;N:45;w:6	-10.5253
;N:59;N:62;N:64	-10.5253
;w:12;d:20;N:49	-10.5255
;D:53;w:12;D:38	-10.5257
;w:24;d:21;N:56	-10.5258
;d:1;N:82;w:1;d:	-10.5258
;w:24;N:48;N:55	-10.526
;d:3;N:89;w:3	-10.5265
;w:18;d:12;N:39	-10.5265
;w:6;N:60;w:6;N:65	-10.5267
;D:54;w:8;D:38	-10.5268
;d:27;N:34	-10.5269
;w:24;N:60;N:72	-10.5269
;w:8;N:86;w:8;N:8	-10.527
;D:70;w:6;D:38;D:42	-10.5274
;d:30;N:40	-10.5276
;w:6;D:45;w:6;D:43	-10.5276
;w:12;d:24;N:78;w:24;d:12	-10.5277
;d:12;N:65;N:77	-10.5278
;d:24;N:75;w:24;d:12;N:75	-10.5279
;w:12;N:32;w:12;N:32	-10.528
;N:76;N:81;N:85	-10.5281
;w:6;d:3;N:65;w:6	-10.5282
;w:12;D:38;D:51	-10.5284
;w:8;N:79;w:8;N:8	-10.5285
;D:38;D:42;D:49	-10.5286
;w:12;d:6;N:41;w:6	-10.5287
;w:12;d:20;N:50	-10.5287
;D:69;w:6;D:36;D:42;D:69	-10.5292
;D:48;D:54;D:69	-10.5293
;w:4;d:14	-10.5294
;w:16;d:8;N:46	-10.5301
;w:12;d:36;N:80	-10.5302
;d:20;N:84	-10.5305
;w:12;N:55;w:12;N:51	-10.5305
;d:108;N:5	-10.5306
;w:12;N:51;w:12;N:58	-10.5307
;d:42;N:45	-10.5307
;d:12;N:86;w:12;N:8	-10.5307
;N:40;w:6;d:3;N:40	-10.5308
;w:6;D:43;w:6;D:43	-10.5309
;w:24;D:49	-10.5311
;d:12;N:60;N:72	-10.5311
;D:42;w:1	-10.5311
;w:18;d:12;N:40	-10.5312
;w:12;N:53;w:12;N:50	-10.5314
;w:12;d:18;N:79	-10.5316
;w:24;d:18;N:71	-10.5319
;w:18;d:12;N:42	-10.532
;w:12;N:76;w:12;N:81	-10.532
;N:84;w:12;N:84	-10.5321
;w:12;N:91;w:12;N:9	-10.5324
;w:12;N:83;w:12;N:80	-10.5325
;D:54;w:6;D:54;w:6;D:42;D:54;w:6;D:54	-10.5325
;d:12;N:68;N:80	-10.5326
;w:6;N:35;w:6;N:3	-10.5327
;w:6;N:65;w:6;N:63	-10.533
;w:12;d:60;N:66	-10.5335
;N:68;N:73;w:12	-10.5338
;w:12;d:16;N:57	-10.5338
;w:16;d:8;N:44	-10.5342
;d:60;N:79	-10.5342
;D:70;w:6;D:70;w:6;D:42	-10.5344
;N:51;N:58;N:63;N:67	-10.5345
;N:73;N:77;N:82	-10.5349
;w:24;d:8;N:73	-10.5351
;w:12;N:66;N:71	-10.5353
;w:6;d:24;N:48	-10.5353
;w:12;N:54;N:57	-10.5354
;d:24;N:61;w:24;N:61	-10.5356
;d:5;N:61	-10.5356
;w:54;d:	-10.5357
;d:15;N:29	-10.5358
;w:24;N:52;N:59	-10.5359
;w:18;d:6;N:54;w:6	-10.536
6;N:54	-10.5361
0;N:87	-10.5361
;d:12;N:22	-10.5363
;d:4;N:54;w:4	-10.5363
;D:54;w:8;D:36	-10.5365
;d:18;N:27	-10.5365
;w:24;d:12;N:85	-10.5367
;w:12;N:56;w:12;N:52	-10.5369
;w:12;D:69	-10.5372
;w:6;d:2;N:52	-10.5373
;d:60;N:50	-10.5375
;w:24;d:18;N:52	-10.5376
;d:12;N:69;N:81	-10.5376
;D:37;D:39	-10.5378
;w:12;N:46;N:53	-10.5379
;w:6;N:75;w:6;N:80	-10.538
;w:18;d:12;N:43	-10.5383
;d:48;N:89	-10.5385
;D:53;w:8	-10.5385
;w:12;d:33;N:8	-10.5388
;w:12;N:46;w:12;N:47	-10.5388
;d:12;N:62;w:12;N:65	-10.5388
;w:12;d:16;N:70	-10.5388
;d:42;N:46	-10.5391
;w:6;d:9;N:50	-10.5391
;N:97;w:4	-10.5392
;N:47;N:54;N:59;N:63	-10.5392
;w:3;d:9;N:64	-10.5393
;d:42;N:47	-10.5398
;w:12;D:42;D:54	-10.5401
;w:8;N:51;w:8;N:5	-10.5402
;w:12;d:60;N:61	-10.5403
;w:48;N:72	-10.5406
;d:2;N:69;w:2	-10.5406
;d:3;N:93	-10.5407
;d:12;N:66;N:78	-10.5407
;w:24;N:32;N:44	-10.5412
;w:12;N:81;w:12;N:81	-10.5414
0;w:8	-10.5414
;w:36;d:20;N:7	-10.5415
;w:24;N:58;w:24;N:58	-10.5415
;w:6;d:18;N:47	-10.5416
;w:6;d:4;N:57	-10.5416
;N:40;w:4	-10.5417
;N:48;w:12;N:48;w:12;N:48;w:12;N:48	-10.5419
;d:192;N:55	-10.5422
;d:28;N:56	-10.5423
;D:56;D:73	-10.5424
;d:6;N:70;w:6;N:70	-10.5424
;d:8;N:51;w:8	-10.5426
;N:89;N:101	-10.5429
;d:40;N:62	-10.543
;d:24;N:64;w:24;N:64	-10.5433
6;N:66	-10.5433
;N:48;N:55;N:60;N:64	-10.5434
;w:18;d:12;N:46	-10.5435
;d:8;N:90	-10.5436
;w:15;d:9;N:64	-10.5437
;N:31;w:24;N:31	-10.5437
;w:3;N:52;w:3	-10.5438
;N:68;w:7	-10.5441
;w:15;d:9;N:59	-10.5447
;w:12;d:4;N:79	-10.5449
;N:43;w:2	-10.545
;w:15;d:9;N:66	-10.5454
2;N:78	-10.5456
;w:12;d:60;N:59	-10.5457
;d:6;N:96	-10.546
;d:18;N:78;w:18;d:6;N:7	-10.5461
;d:42;N:77	-10.5461
;d:6;N:62;N:65	-10.5461
;w:12;N:50;N:53	-10.5462
;d:24;N:82;w:24;N:8	-10.5462
;d:28;N:71	-10.5463
;w:24;d:9;N:75	-10.5467
;w:12;D:38;D:45	-10.5467
;d:39;N:52	-10.5467
;d:60;N:56	-10.5467
;w:6;N:60;w:6;N:57	-10.5469
;w:6;N:77;w:6;N:78	-10.5471
;w:6;D:42;D:53	-10.5472
;w:12;N:81;w:12;N:77	-10.5473
;w:12;D:38;D:42;D:54	-10.5473
;d:192;N:70	-10.5474
;w:36;d:6;N:68	-10.5475
;w:12;d:48;N:78	-10.5475
;w:6;d:3;N:68;w:6	-10.5477
;D:36;D:42;w:6;D:42;w:6;D:42;w:6;D:42;w:6;D:38;D:42	-10.5481
;w:6;N:50;w:6;N:52	-10.5481
;N:46;w:4	-10.5482
;w:24;N:53;N:65	-10.5483
;D:69;w:6;D:70	-10.5487
;d:92;N:7	-10.5488
2;N:55	-10.549
;w:18;d:6;N:43	-10.5491
;d:12;N:59;w:12;d:6;N:59	-10.5492
;d:6;N:64;w:6;N:62	-10.5492
;w:36;d:12;N:83	-10.5494
;D:38;D:69	-10.5494
;d:40;N:63	-10.5496
;d:12;N:72;N:75	-10.5499
;w:6;N:65;w:6;N:66	-10.55
;d:8;N:30	-10.5501
;w:18;d:12;N:78	-10.5502
;d:5;N:68	-10.5503
;d:24;N:75;w:24;d:12;N:7	-10.5504
;d:3;N:51;w:3	-10.5504
;w:3;N:51;w:3;N:5	-10.5509
;w:12;d:6;N:84	-10.5509
;D:76;w:6;D:38	-10.551
;w:6;d:3;N:79;w:6	-10.5513
;w:6;N:58;w:6;N:63	-10.5522
;N:35;w:24;N:35	-10.5523
;D:38;D:42;D:51	-10.5523
;w:12;N:44;w:12;N:47	-10.5523
;w:24;d:9;N:50	-10.5527
;d:12;N:54;N:57	-10.5527
;w:6;N:77;w:6;N:81	-10.5528
;N:69;N:74;N:77	-10.5528
;d:6;N:91;w:6	-10.553
;w:6;d:24;N:71	-10.5531
;N:63;w:12;N:63;w:12;N:63;w:12;N:63	-10.5531
;d:6;N:47;w:6;N:47	-10.5533
;d:24;N:62;w:24;d:12;N:62	-10.5535
;w:12;N:82;w:12;N:79	-10.5536
;w:24;N:75;w:24;N:7	-10.5538
;N:35;w:12;N:35;w:12;N:35	-10.5538
;D:69;w:6;D:69;w:6;D:36;D:42	-10.5539
;w:6;N:67;w:6;N:66	-10.554
;w:36;d:24;N:54	-10.554
;D:51;w:16;D:51	-10.5542
;w:6;d:6;N:83;w:6	-10.5543
;w:12;N:80;w:12;N:79	-10.5544
;d:24;N:60;w:24;d:12;N:60	-10.5545
;d:12;N:55;w:12;N:57	-10.5549
;d:12;N:62;N:74	-10.5553
;w:12;d:16;N:69	-10.5553
;N:49;N:56;N:61;N:65	-10.5553
;N:52;N:60	-10.5554
;d:5;N:65	-10.5555
;w:3;D:36;D:42	-10.5555
;w:6;d:6;N:36	-10.5556
;w:12;d:15;N:47	-10.5559
;N:67;w:12;N:55	-10.5559
;D:50;w:12;D:50	-10.5559
;w:12;d:36;N:39	-10.556
;w:6;d:2;N:55	-10.5567
;d:9;N:90	-10.5569
;w:12;N:52;N:59	-10.557
;w:48;d:12;N:64	-10.557
;w:24;N:71;w:24;N:71	-10.5572
;w:12;d:4;N:40	-10.5572
;w:24;d:24;N:33	-10.5573
;w:24;D:47	-10.5578
;w:12;N:53;N:57	-10.558
;d:24;N:54;N:58	-10.5582
;w:6;d:9;N:48	-10.5582
;w:12;N:45;N:52	-10.5584
;d:76;N:6	-10.5587
;w:6;d:6;N:30	-10.5587
;D:51;w:8;D:38	-10.559
4;N:77	-10.559
;w:6;d:3;N:36	-10.5591
2;N:35	-10.5592
;d:6;N:71;w:6;N:69;w:6	-10.5593
;d:24;N:56;N:61	-10.5594
;w:8;N:61;w:8;N:5	-10.5595
;N:76;N:85	-10.5596
;w:24;d:21;N:68	-10.5597
;N:50;N:54;N:57;N:62	-10.56
;N:57;N:62;w:6	-10.5601
;N:62;d:4;N:65	-10.5603
;w:6;d:3;N:39	-10.5605
;d:12;N:63;w:12;N:66	-10.5605
;w:12;N:81;w:12;N:82	-10.5608
;w:12;N:50;N:57	-10.5611
;w:12;d:60;N:64	-10.5612
;N:76;N:80;w:6	-10.5612
;w:12;N:51;w:12;N:48	-10.5613
;d:1;N:84;w:1;d:	-10.5615
;w:24;N:53;N:58	-10.5615
;w:6;N:72;w:6;N:77	-10.5615
;d:44;N:8	-10.5617
;w:12;d:15;N:75	-10.562
;D:54;w:6;D:36;D:42;D:54	-10.562
;N:63;N:66;N:69	-10.5621
;d:16;N:74;w:16;d:8	-10.5622
;w:12;N:78;w:12;N:73	-10.5626
;d:4;N:27	-10.5626
;w:6;N:80;w:6;N:81	-10.5627
;N:92;N:95	-10.5629
;N:64;w:12;N:64;w:12;N:64;w:12;N:64	-10.563
;D:38;D:52	-10.5632
;w:6;N:80;w:6;N:83	-10.5633
;N:35;N:40	-10.5634
3;N:54	-10.5634
;w:48;d:24;N:77	-10.5634
;w:12;N:78;w:12;N:74	-10.5634
;w:12;N:77;w:12;N:81	-10.564
;w:4;D:38;w:4;D:38	-10.5643
;w:6;D:38;w:6;D:38;D:42;w:6;D:38	-10.5643
;d:39;N:72	-10.5651
;w:6;d:4;N:63	-10.5651
;N:57;N:61;w:6	-10.5653
;w:24;N:33;w:24;N:3	-10.5653
;d:12;N:65;w:12;N:64	-10.5654
;w:24;N:50;N:53	-10.5654
;w:8;D:42;w:8;D:36;D:42	-10.5656
;w:24;N:49;N:56	-10.5657
;w:12;N:76;w:12;N:71	-10.5657
;w:12;d:18;N:42	-10.5659
8;N:39	-10.566
;w:6;d:24;N:49	-10.5661
;N:41;N:44	-10.5661
;d:24;N:71;N:74	-10.5661
;D:41;w:12;D:41	-10.5661
;D:50;D:56	-10.5662
2;N:38	-10.5663
;d:24;N:66;w:24;N:66	-10.5665
;w:18;d:6;N:51;w:6	-10.5665
;d:4;N:53;w:4	-10.5666
;w:18;d:12;N:38	-10.5666
;w:6;d:3;N:61;w:6	-10.5666
;N:50;N:56	-10.5668
;w:12;d:48;N:41	-10.5669
;d:84;N:60	-10.5669
6;N:75	-10.567
;w:18;d:6;N:76	-10.5673
;w:24;d:48;N:76	-10.5673
;d:6;N:35;w:6;N:35	-10.5678
;d:18;N:87	-10.5678
;w:48;d:24;N:45	-10.5679
;w:18;d:6;N:39	-10.5681
;d:18;N:76;w:18;d:6;N:7	-10.5681
;d:16;N:75;w:16;d:8	-10.5682
;w:12;N:43;w:12;N:46	-10.5683
;d:21;N:85	-10.5684
;w:24;N:57;w:24;N:57	-10.5684
;w:24;d:15;N:62	-10.5687
;D:69;D:70;w:6;D:69;D:70	-10.5687
;w:12;N:75;w:12;N:79	-10.5688
;D:54;D:69;w:6;D:42;D:54;D:69	-10.5689
;N:52;N:54	-10.569
;w:24;d:24;N:82	-10.569
;D:46;w:12;D:36;D:46	-10.569
;N:33;w:24;N:33	-10.569
;D:54;w:6;D:54;w:6;D:38	-10.5693
;d:36;N:68;w:36;d:12;N:6	-10.5694
;w:6;d:9;N:49	-10.5695
;N:70;w:7	-10.5695
;N:71;w:12;N:69	-10.5698
;w:12;d:12;N:27	-10.5699
;D:36;D:42;w:12;D:38;D:42	-10.5702
;d:12;N:59;w:12;N:62	-10.5703
;N:71;w:12;N:71;w:12;N:71;w:12;N:71	-10.5704
;w:36;d:6;N:40	-10.5706
;D:48;w:12;D:42	-10.5707
;w:24;d:18;N:51	-10.5707
;w:14;d:4	-10.5708
;N:70;N:75;w:6	-10.5708
;w:12;d:6;N:81;w:6	-10.5709
;D:37;D:39;D:42	-10.5712
;w:12;d:24;N:27	-10.5713
;w:48;D:36	-10.5713
;w:12;d:72;N:8	-10.5715
4;N:65	-10.5715
;d:84;N:65	-10.5718
;w:8;d:16;N:63	-10.5719
;d:12;N:31;w:12;N:31	-10.5724
;d:32;N:38	-10.5725
;w:16;d:8;N:47	-10.5725
;w:12;d:48;N:42	-10.5726
;w:12;N:49;N:56	-10.5729
;N:88;N:100	-10.573
9;N:50	-10.5731
;w:12;N:87;w:12;N:85	-10.5732
;d:3;N:50;w:3	-10.5732
;w:6;N:60;w:6;N:61	-10.5733
;w:36;d:24;N:53	-10.5733
6;N:46	-10.5734
;d:6;N:79;w:6;N:77	-10.5734
;w:24;d:8;N:51	-10.5734
;w:21;N:6	-10.5742
;d:44;N:68	-10.5742
;w:24;d:48;N:44	-10.5744
;d:24;N:77;w:24;d:12;N:7	-10.5744
;D:76;w:12;D:38	-10.5746
;d:5;N:60	-10.5746
;w:6;N:66;w:6;N:71	-10.5746
3;N:72	-10.5748
;w:12;d:18;N:39	-10.575
;d:3;N:70;w:6	-10.5752
;N:50;N:57;N:62;N:66	-10.5752
;w:12;N:54;N:58	-10.5755
;d:12;N:67;w:12;N:70	-10.5755
;d:78;N:4	-10.5757
;N:51;N:56;N:59	-10.5758
;D:49;w:2	-10.5759
;N:96;w:8	-10.576
;d:192;N:54	-10.576
;w:24;N:59;N:71	-10.576
;d:84;N:62	-10.5762
;w:6;N:78;w:6;N:74	-10.5763
;d:12;N:68;w:12;N:71	-10.5763
;w:8;N:55	-10.5764
;N:23;w:12;N:23	-10.5766
;w:6;d:6;N:42;w:6	-10.5766
;N:51;N:59	-10.5766
;w:19;d:1	-10.5767
;d:45;N:44	-10.5769
;w:4;N:81;w:4;N:8	-10.5771
;D:49;w:6;D:36	-10.5771
;N:70;N:76	-10.5771
;N:45;w:6;N:45;w:6;N:45	-10.5772
;d:6;N:33;w:6;N:33	-10.5773
4;N:64	-10.5776
;w:48;d:24;N:76	-10.5777
;w:6;N:74;w:6;N:78	-10.5777
;w:12;d:12;N:28	-10.5779
;w:12;d:12;N:86	-10.5787
;w:6;d:24;N:72	-10.5787
;w:12;N:55;w:12;N:54	-10.5787
;d:12;N:70;N:74	-10.5789
;w:12;N:48;w:12;N:53	-10.579
;w:6;D:42;w:6;D:42;w:6;D:42;w:6;D:36;D:42	-10.5794
;N:64;N:67;w:6	-10.5795
;w:12;N:53;N:58	-10.5797
;w:36;d:24;N:74	-10.5801
;N:61;N:64;N:66	-10.5805
;w:8;D:38;w:4;D:38	-10.5805
;w:8;D:41	-10.581
;w:6;N:80;w:6;N:79	-10.581
;w:6;N:74;w:6;N:75	-10.5811
;N:73;w:7	-10.5818
;w:12;d:8;N:34	-10.5821
;d:3;N:95	-10.5822
;N:61;N:64;N:67	-10.5822
4;N:76	-10.5822
;w:12;d:21;N:49	-10.5825
;d:6;N:80;w:6;N:78	-10.5827
;d:2;N:59	-10.5828
;w:3;d:9;N:66	-10.583
;w:6;N:74;w:6;N:69	-10.583
;N:23;w:6	-10.5831
;w:3;D:37	-10.5833
;w:12;N:40;w:12;N:38	-10.5833
;w:12;d:8;N:77	-10.5835
;d:28;N:54	-10.5836
;d:12;N:54;N:58	-10.5837
;N:61;w:12;N:61;w:12;N:61;w:12;N:61	-10.5838
;w:12;D:36;D:42;w:12;D:38	-10.5838
;w:6;D:42;w:6;D:36;D:42;w:6;D:42;w:6;D:38;D:42	-10.5838
;d:3;N:49;w:3	-10.5842
;N:81;w:12;N:74	-10.5844
;w:12;N:49;w:12;N:54	-10.5846
;d:45;N:80	-10.5846
;w:12;d:9;N:30	-10.5847
;w:6;N:59;w:6;N:59;w:6	-10.5849
;d:12;N:58;N:70	-10.585
;w:24;d:6;N:81	-10.585
;w:12;D:42;D:50	-10.585
;d:192;N:52	-10.585
;w:24;d:18;N:41	-10.5851
;d:12;N:52;N:64	-10.5851
;w:8;d:16;N:58	-10.5852
;N:62;N:65;w:6	-10.5853
;N:78;N:81;w:6	-10.5854
;N:77;N:79	-10.5855
;N:34;w:6;N:34;w:6;N:34	-10.5859
;D:42;D:56	-10.5861
;w:24;d:8;N:53	-10.5863
;N:63;N:66;w:6	-10.5863
;w:18;d:9;N:3	-10.5864
;d:4;N:52;w:4	-10.5864
;d:12;N:64;w:12;N:67	-10.5865
;w:24;N:53;N:60	-10.5866
;w:6;N:36;w:6;N:48	-10.5868
;w:12;N:82;w:12;N:81	-10.5869
;D:50;w:2	-10.5869
;w:36;d:6;N:43	-10.587
;w:12;d:20;N:48	-10.587
;w:24;N:69;N:74	-10.5872
4;N:80	-10.5873
;w:12;N:79;w:12;N:75	-10.5873
1;N:43	-10.5874
;w:12;N:48;w:12;N:55	-10.5874
;w:24;N:72;w:24;N:72	-10.5874
;N:67;w:12;N:67;w:12;N:67;w:12;N:67	-10.5876
;D:69;w:6;D:36;D:69	-10.5876
;d:28;N:55	-10.588
7;N:62	-10.588
;N:69;w:12;N:69;w:12;N:69;w:12;N:69	-10.5881
;w:24;N:70;N:82	-10.5881
;N:72;w:7	-10.5883
;w:15;d:9;N:53	-10.5884
;w:12;d:21;N:48	-10.5885
;w:24;N:56;N:68	-10.5885
;w:24;d:36;N:76	-10.5887
;w:7;D:38	-10.5888
;w:24;d:18;N:46	-10.5888
;d:12;N:70;N:82	-10.5891
;w:12;N:44;N:51	-10.5896
2;N:85	-10.5896
;w:24;N:58;N:70	-10.59
;w:12;d:18;N:38	-10.59
;w:12;N:48;w:12;N:52	-10.5902
;d:5;N:67	-10.5903
;d:8;N:84;w:8	-10.5903
2;N:61	-10.5903
;w:6;N:70;w:6;N:65	-10.5907
;w:6;N:84;w:6;N:85	-10.5909
;N:44;w:4	-10.591
;w:8;D:39	-10.591
;d:44;N:58	-10.5911
;w:18;d:12;N:2	-10.5911
;w:12;d:24;N:88	-10.5912
;w:12;N:54;N:61	-10.5913
;N:37;w:12;d:12;N:37	-10.5914
;D:50;w:6;D:50;w:6;D:50	-10.5915
;w:36;d:6;N:37	-10.5915
;w:8;N:56	-10.5917
;d:6;N:52;w:6;N:52	-10.5919
;D:36;D:38;D:45	-10.592
;w:48;d:12;N:57	-10.592
;N:77;w:12;N:75	-10.5921
;N:58;N:61;N:64	-10.5922
;w:6;N:64;w:6;N:69	-10.5922
;w:3;N:95;w:3;N:9	-10.5923
;w:12;N:54;w:12;N:53	-10.5924
;w:12;N:81;w:12;N:84	-10.5925
;N:65;w:12;N:65;w:12;N:65;w:12;N:65	-10.5929
;w:12;N:45;w:12;N:46	-10.5929
;d:24;N:73;w:24;d:12;N:73	-10.5929
;N:66;w:6;N:66;w:6;N:66	-10.593
;w:6;N:58;w:6;N:55	-10.593
;d:36;N:28	-10.5932
;N:48;N:52;N:55;N:60	-10.5932
;w:24;d:48;N:43	-10.5933
;N:35;w:6;N:35;w:6;N:35	-10.5936
;w:15;d:9;N:52	-10.5937
;w:6;N:49;w:6;N:52	-10.5941
;w:18;d:6;N:53;w:6	-10.5942
;d:12;N:79;w:12;N:79	-10.5942
3;N:52	-10.5943
;w:6;d:54;N:7	-10.5944
;w:48;d:24;N:78	-10.5944
;w:12;N:53;w:12;N:60	-10.5946
;w:12;D:54	-10.5947
;w:6;N:54;w:6;N:56	-10.5947
;w:8;D:38;D:46	-10.5947
2;N:82	-10.595
;d:40;N:61	-10.5951
;w:12;D:38;D:42;w:12;D:38;D:42	-10.5951
;D:51;w:18;D:51	-10.596
;w:6;N:68;w:6;N:69	-10.596
;w:12;d:33;N:3	-10.5963
;w:12;d:57;N:7	-10.5966
;w:12;N:94	-10.597
;N:64;N:67;N:69	-10.5971
;w:6;d:24;N:73	-10.5971
;w:3;N:36;w:3	-10.5973
1;N:55	-10.5973
;N:64;N:71;N:76	-10.5973
;w:36;d:21;N:4	-10.5977
;d:12;N:48;N:55	-10.5977
;d:6;N:48;w:6;N:48	-10.598
;d:24;N:48;N:60	-10.598
;w:6;d:24;N:46	-10.598
;w:8;d:8;N:59	-10.598
;w:6;N:74;w:6;N:79	-10.5982
;w:6;d:2;N:67	-10.5982
;d:5;N:69	-10.5982
;w:8;D:36;w:4	-10.5983
;d:12;N:78;w:12;N:80	-10.5983
;w:6;N:61;w:6;N:62	-10.5983
;N:66;N:73;N:78	-10.5984
;w:12;N:46;w:12;N:53	-10.5987
;D:36;D:46;w:12;D:42	-10.5989
;w:12;N:51;N:58	-10.5989
;d:192;N:53	-10.5989
;w:6;N:82;w:6;N:79	-10.5991
;w:18;d:12;N:79	-10.5991
;w:6;N:58;w:6;N:61	-10.5991
;w:6;N:26;w:6;N:2	-10.5992
;N:69;w:7	-10.5993
;w:36;d:24;N:52	-10.5993
;w:18;d:3;N:65	-10.5994
;w:8;d:8;N:61	-10.5995
;d:24;N:87;w:24;N:8	-10.5997
;d:27;N:78	-10.5997
;d:84;N:64	-10.5999
;w:12;N:26;N:38	-10.5999
7;N:60	-10.6
;w:3;N:48;w:3	-10.6
;d:32;N:78	-10.6
;d:36;N:63;w:36;d:12;N:6	-10.6002
;N:82;w:12;N:80	-10.6002
;w:8;N:53	-10.6003
;w:6;N:60;w:6;N:59	-10.6006
;w:36;d:6;N:58	-10.6006
;D:70;w:6;D:38;D:70	-10.6007
;d:24;N:71;w:24;d:12;N:69	-10.601
;w:6;d:4;N:71	-10.6011
;w:24;N:86;w:24;N:8	-10.6011
;w:4;D:38;w:4;D:38;w:4;D:38	-10.6014
;w:24;d:9;N:49	-10.6014
;w:18;d:3;N:67	-10.6015
;w:6;N:60;w:6;N:58	-10.6015
;w:24;d:42;N:4	-10.6017
;N:57;N:60;N:63	-10.6017
;w:16;d:8;N:67	-10.602
;N:60;d:4;N:63	-10.6021
;w:15;d:9;N:60	-10.6022
;N:60;w:12;N:60;w:12;N:60;w:12;N:60	-10.6024
;w:24;N:57;N:69	-10.6024
;d:5;N:75	-10.6025
;w:6;N:55;w:6;N:57	-10.6026
;N:43;w:4	-10.6028
;w:6;N:78;w:6;N:76	-10.6028
;d:6;N:88;w:6	-10.6028
;w:24;N:54;N:61	-10.6032
;w:8;N:87;w:8;N:8	-10.6033
;w:24;d:15;N:64	-10.6039
9;N:74	-10.604
;d:12;N:60;w:12;N:63	-10.6041
;w:24;N:31;N:43	-10.6041
;w:6;N:49;w:6;N:50	-10.6042
;w:36;d:24;N:75	-10.6042
;w:36;d:6;N:57	-10.6043
;N:63;d:4;N:66	-10.6044
;w:32;d:12	-10.6045
;w:6;d:6;N:81	-10.6055
;w:3;N:84;w:3	-10.6055
;N:35;w:12;d:12;N:35	-10.6056
;w:16;N:52	-10.6057
;D:38;D:41;D:42	-10.6059
4;N:36	-10.606
;w:6;d:9;N:76	-10.6062
;w:3;N:53;w:3	-10.6063
;w:16;N:77	-10.6065
;D:38;w:9;D:38	-10.6065
;D:36;D:42;w:6;D:42;w:6;D:36;D:42	-10.6066
;w:48;d:12;N:72	-10.6066
;w:3;d:9;N:63	-10.6068
;d:81;N:4	-10.6068
;d:12;N:57;N:69	-10.607
;N:80;N:84;N:87	-10.607
;d:12;N:61;w:12;N:64	-10.6071
;w:12;N:77;w:12;N:72	-10.6072
;w:24;N:87;w:24;N:8	-10.6074
;w:12;N:52;w:12;N:59	-10.6075
;w:15;d:9;N:65	-10.6079
;d:24;N:59;w:24;N:59	-10.6085
;D:49;w:6;D:38	-10.6085
;w:24;d:21;N:54	-10.6089
;w:24;d:48;N:77	-10.609
;w:12;d:18;N:40	-10.6093
;w:6;N:71;w:6;N:75	-10.6096
;N:48;N:60;w:6	-10.6096
;w:6;N:83;w:6;N:86	-10.6097
;d:6;N:65;w:6;N:63	-10.6105
;w:6;d:6;N:28	-10.6107
;d:12;N:32;N:44	-10.6109
;d:189;N:6	-10.6111
;w:12;d:3;N:44	-10.6113
;w:6;d:18;N:45	-10.6116
;N:72;w:12;N:70	-10.6119
;w:36;d:6;N:36	-10.612
;w:12;N:87;w:12;N:89	-10.612
;d:192;N:71	-10.6121
;d:12;N:64;w:12;d:6;N:64	-10.6121
;w:12;d:32;N:3	-10.6121
3;N:47	-10.6123
;w:6;N:66;w:6;N:64	-10.6125
;w:24;N:50;N:54	-10.6133
;N:34;w:12;d:12;N:34	-10.6133
;w:36;d:24;N:2	-10.6133
4;N:38	-10.6136
5;N:58	-10.6137
;w:6;N:68;w:6;N:73	-10.6138
;N:55;w:1	-10.6142
;N:79;N:83;N:86	-10.6144
;w:24;d:21;N:53	-10.6146
;D:50;w:6;D:36	-10.6146
;d:15;N:87	-10.6148
;N:50;w:12;N:50;w:12;N:50;w:12;N:50	-10.6149
;N:42;w:9	-10.615
;d:39;N:73	-10.615
;d:1;N:60;w:1	-10.6151
;D:51;w:12;D:36;D:42;D:51	-10.6152
;w:6;N:56;w:6;N:58	-10.6154
;w:6;D:38;D:42;D:51	-10.6155
;N:72;N:76;N:81	-10.616
;d:12;N:53;N:65	-10.616
;N:31;w:4	-10.616
;d:33;N:37	-10.6163
;N:61;d:4;N:65	-10.6164
;w:16;d:8;N:39	-10.6164
;w:6;d:2;N:43	-10.6164
;d:12;N:52;N:57	-10.6168
;d:12;N:48;w:12;N:55	-10.6168
;D:36;D:42;w:6;D:42;w:6;D:38;D:42	-10.6169
;w:6;N:52;w:6;N:54	-10.6169
;d:24;N:59;w:24;d:12;N:59	-10.617
;d:6;N:64;N:67	-10.6177
;N:49;w:6;d:3;N:49	-10.6179
;w:12;d:8;N:33	-10.6179
;d:24;N:72;w:24;N:70	-10.6179
;w:12;d:24;N:2	-10.6181
;w:24;d:9;N:40	-10.6182
;d:60;N:55	-10.6182
;d:6;N:73;w:6;N:73	-10.6186
;w:24;N:71;N:83	-10.6186
;d:24;N:70;w:24;N:68	-10.6187
;N:48;N:57	-10.6188
;w:24;d:18;N:48	-10.6188
;w:12;d:15;N:45	-10.619
;D:48;w:2	-10.619
;D:51;w:8;D:51	-10.6193
;N:65;w:7	-10.6194
;d:6;N:66;N:69	-10.6195
;d:24;N:61;w:24;d:12;N:61	-10.6199
;d:45;N:43	-10.62
6;N:45	-10.62
;N:70;w:12;N:68	-10.6201
;d:6;N:71;w:6;N:73;w:6	-10.6203
;d:36;N:57;w:36;d:12;N:5	-10.6203
;w:6;N:68;w:6;N:72	-10.6205
;N:78;N:80	-10.6205
;d:5;N:59	-10.6207
;N:46;w:2	-10.6208
;d:21;N:29	-10.6209
;w:24;d:9;N:38	-10.621
;w:6;d:18;N:78	-10.6212
;w:6;N:77;w:6;N:76	-10.6213
;w:24;d:36;N:71	-10.6213
;w:18;N:30	-10.6217
;w:6;N:55;w:6;N:43	-10.6218
;w:8;d:16;N:60	-10.6218
;d:1;N:68;w:1	-10.622
;w:24;N:55;w:24;N:5	-10.6223
;w:12;N:36;w:12;N:38	-10.6228
;w:36;d:6;N:41	-10.6229
;w:12;d:3;N:77	-10.6229
;d:12;N:53;N:58	-10.623
;D:51;w:12;D:36;D:42	-10.623
;N:42;w:4	-10.6233
;w:24;d:18;N:45	-10.6235
;d:40;N:65	-10.6236
;w:18;d:6;N:47;w:6	-10.6236
;d:40;N:60	-10.6237
;d:12;N:59;N:71	-10.6238
;d:36;N:56;w:36;d:12;N:5	-10.6239
;N:41;w:4	-10.624
;w:24;d:15;N:61	-10.624
;d:12;N:64;w:12;N:63	-10.624
;N:57;N:60;N:62	-10.624
;w:12;N:46;w:12;N:58	-10.6241
;w:48;d:51;N:	-10.6242
;N:69;w:12;N:67	-10.6244
;w:6;N:71;w:6;N:69	-10.6244
;N:77;N:82;w:6	-10.6246
4;N:39	-10.6249
;w:36;d:12;N:33	-10.6251
;N:67;N:70;N:72	-10.6252
;N:63;N:67;w:6	-10.6253
;w:12;N:41;w:12;N:39	-10.6253
;w:3;D:36;w:3;D:36	-10.6254
;w:24;d:36;N:52	-10.6254
;w:12;D:53	-10.6255
;w:12;d:8;N:32	-10.6257
;N:78;N:81;N:86	-10.6259
;N:77;N:80;N:84	-10.6259
;D:43;D:53	-10.6259
;D:53;w:2	-10.626
;w:4;N:64;w:4;N:6	-10.6261
;d:12;N:71;N:75	-10.6263
;w:24;d:28;N:7	-10.6263
;w:1;D:36	-10.6265
;d:52;N:4	-10.6265
;d:5;N:70	-10.6268
;w:6;D:48;w:6;D:48	-10.6276
;w:12;N:47;w:12;N:54	-10.6279
;w:24;d:6;N:35	-10.628
;N:89;w:12;N:89	-10.628
;w:12;N:54;w:12;N:51	-10.6284
;w:12;d:60;N:67	-10.6286
;w:18;d:3;N:64	-10.629
;w:12;N:82;w:12;N:82	-10.6293
;d:12;N:45;w:12;N:52	-10.6294
;N:77;N:82;N:86	-10.6297
;w:12;d:36;N:38	-10.6298
;d:12;N:47;w:12;N:54	-10.6298
;w:24;d:21;N:67	-10.63
;N:67;w:6;N:67	-10.63
;d:12;N:71;N:83	-10.6302
;w:8;d:16;N:61	-10.6302
;N:32;w:24;N:32	-10.6303
;w:6;d:9;N:40	-10.6304
;N:36;w:12;d:12;N:36	-10.6304
;w:6;d:24;N:47	-10.6304
;w:6;N:50;w:6;N:38	-10.6306
;w:6;N:71;N:83;w:6	-10.6307
;w:24;d:9;N:42	-10.6309
3;N:35	-10.6309
;w:6;N:79;w:6;N:82	-10.631
;D:38;D:48	-10.631
;w:12;N:99;w:12;N:9	-10.6314
;N:45;N:52;w:12;N:45;N:52	-10.6316
;w:12;N:47;w:12;N:52	-10.6316
;w:12;N:78;w:12;N:82	-10.6317
6;N:47	-10.6317
;w:15;d:9;N:68	-10.6317
;d:33;N:80	-10.6317
;N:67;w:7	-10.6319
;w:15;d:9;N:56	-10.632
3;N:75	-10.6321
;d:36;N:87	-10.6321
;d:12;N:58;w:12;N:61	-10.6322
;w:6;N:64;w:6;N:68	-10.6324
;w:24;d:18;N:39	-10.6325
;N:55;N:60;N:64;N:67	-10.6326
;w:24;N:58;N:62;N:65	-10.6327
;d:3;N:94	-10.6328
;d:24;N:73;w:24;N:71	-10.6328
;d:6;N:55;w:6;N:55	-10.6328
;w:24;N:51;N:55	-10.6328
;w:24;N:59;N:63;N:66	-10.633
;w:6;D:47;w:6;D:47	-10.633
;N:59;w:12;N:59;w:12;N:59;w:12;N:59	-10.633
[...]
