<unk>	0
<s>	0
</s>	0
<pad>	0
;B:0	0
;B:1	0
;B:2	0
;B:3	0
;B:4	0
;B:5	0
;B:6	0
;B:7	0
;M:0	0
;M:1	0
;M:2	0
;M:3	0
;M:4	0
;M:5	0
;M:6	0
;M:7	0
;L:1	0
;L:2	0
;L:3	0
;L:4	0
;L:5	0
;L:6	0
;L:7	0
;L:8	0
;L:9	0
;L:10	0
;L:11	0
;L:12	0
;L:13	0
;L:14	0
;L:15	0
;L:16	0
;L:17	0
;L:18	0
;L:19	0
;L:20	0
;L:21	0
;L:22	0
;L:23	0
;L:24	0
;L:25	0
;L:26	0
;L:27	0
;L:28	0
;L:29	0
;L:30	0
;L:31	0
;L:32	0
;L:33	0
;L:34	0
;L:35	0
;L:36	0
;L:37	0
;L:38	0
;L:39	0
;L:40	0
;L:41	0
;L:42	0
;L:43	0
;L:44	0
;L:45	0
;L:46	0
;L:47	0
;L:48	0
;L:49	0
;L:50	0
;L:51	0
;L:52	0
;L:53	0
;L:54	0
;L:55	0
;L:56	0
;L:57	0
;L:58	0
;L:59	0
;L:60	0
;L:61	0
;L:62	0
;L:63	0
;L:64	0
;L:65	0
;L:66	0
;L:67	0
;L:68	0
;L:69	0
;L:70	0
;L:71	0
;L:72	0
;L:73	0
;L:74	0
;L:75	0
;L:76	0
;L:77	0
;L:78	0
;L:79	0
;L:80	0
;L:81	0
;L:82	0
;L:83	0
;L:84	0
;L:85	0
;L:86	0
;L:87	0
;L:88	0
;L:89	0
;L:90	0
;L:91	0
;L:92	0
;L:93	0
;L:94	0
;L:95	0
;L:96	0
;L:97	0
;L:98	0
;L:99	0
;L:100	0
;L:101	0
;L:102	0
;L:103	0
;L:104	0
;L:105	0
;L:106	0
;L:107	0
;L:108	0
;L:109	0
;L:110	0
;L:111	0
;L:112	0
;L:113	0
;L:114	0
;L:115	0
;L:116	0
;L:117	0
;L:118	0
;L:119	0
;L:120	0
;L:121	0
;L:122	0
;L:123	0
;L:124	0
;L:125	0
;L:126	0
;L:127	0
;L:128	0
;L:129	0
;L:130	0
;L:131	0
;L:132	0
;L:133	0
;L:134	0
;L:135	0
;L:136	0
;L:137	0
;L:138	0
;L:139	0
;L:140	0
;L:141	0
;L:142	0
;L:143	0
;L:144	0
;L:145	0
;L:146	0
;L:147	0
;L:148	0
;L:149	0
;L:150	0
;L:151	0
;L:152	0
;L:153	0
;L:154	0
;L:155	0
;L:156	0
;L:157	0
;L:158	0
;L:159	0
;L:160	0
;L:161	0
;L:162	0
;L:163	0
;L:164	0
;L:165	0
;L:166	0
;L:167	0
;L:168	0
;L:169	0
;L:170	0
;L:171	0
;L:172	0
;L:173	0
;L:174	0
;L:175	0
;L:176	0
;L:177	0
;L:178	0
;L:179	0
;L:180	0
;L:181	0
;L:182	0
;L:183	0
;L:184	0
;L:185	0
;L:186	0
;L:187	0
;L:188	0
;L:189	0
;L:190	0
;L:191	0
;L:192	0
;I:0	0
;I:1	0
;I:2	0
;I:3	0
;I:4	0
;I:5	0
;I:6	0
;I:7	0
;I:8	0
;I:9	0
;I:10	0
;I:11	0
;I:12	0
;I:13	0
;I:14	0
;I:15	0
;I:16	0
;I:17	0
;I:18	0
;I:19	0
;I:20	0
;I:21	0
;I:22	0
;I:23	0
;I:24	0
;I:25	0
;I:26	0
;I:27	0
;I:28	0
;I:29	0
;I:30	0
;I:31	0
;I:32	0
;I:33	0
;I:34	0
;I:35	0
;I:36	0
;I:37	0
;I:38	0
;I:39	0
;I:40	0
;I:41	0
;I:42	0
;I:43	0
;I:44	0
;I:45	0
;I:46	0
;I:47	0
;I:48	0
;I:49	0
;I:50	0
;I:51	0
;I:52	0
;I:53	0
;I:54	0
;I:55	0
;I:56	0
;I:57	0
;I:58	0
;I:59	0
;I:60	0
;I:61	0
;I:62	0
;I:63	0
;I:64	0
;I:65	0
;I:66	0
;I:67	0
;I:68	0
;I:69	0
;I:70	0
;I:71	0
;I:72	0
;I:73	0
;I:74	0
;I:75	0
;I:76	0
;I:77	0
;I:78	0
;I:79	0
;I:80	0
;I:81	0
;I:82	0
;I:83	0
;I:84	0
;I:85	0
;I:86	0
;I:87	0
;I:88	0
;I:89	0
;I:90	0
;I:91	0
;I:92	0
;I:93	0
;I:94	0
;I:95	0
;I:96	0
;I:97	0
;I:98	0
;I:99	0
;I:100	0
;I:101	0
;I:102	0
;I:103	0
;I:104	0
;I:105	0
;I:106	0
;I:107	0
;I:108	0
;I:109	0
;I:110	0
;I:111	0
;I:112	0
;I:113	0
;I:114	0
;I:115	0
;I:116	0
;I:117	0
;I:118	0
;I:119	0
;I:120	0
;I:121	0
;I:122	0
;I:123	0
;I:124	0
;I:125	0
;I:126	0
;I:127	0
;I:128	0
;I:129	0
;I:130	0
;I:131	0
;I:132	0
;I:133	0
;I:134	0
;I:135	0
;I:136	0
;I:137	0
;I:138	0
;I:139	0
;I:140	0
;I:141	0
;I:142	0
;I:143	0
;I:144	0
;I:145	0
;I:146	0
;I:147	0
;I:148	0
;I:149	0
;I:150	0
;I:151	0
;I:152	0
;I:153	0
;I:154	0
;I:155	0
;I:156	0
;I:157	0
;I:158	0
;I:159	0
;I:160	0
;I:161	0
;I:162	0
;I:163	0
;I:164	0
;I:165	0
;I:166	0
;I:167	0
;I:168	0
;I:169	0
;I:170	0
;I:171	0
;I:172	0
;I:173	0
;I:174	0
;I:175	0
;I:176	0
;I:177	0
;I:178	0
;I:179	0
;I:180	0
;I:181	0
;I:182	0
;I:183	0
;I:184	0
;I:185	0
;I:186	0
;I:187	0
;I:188	0
;I:189	0
;I:190	0
;I:191	0
;I:192	0
;I:193	0
;I:194	0
;I:195	0
;I:196	0
;I:197	0
;I:198	0
;I:199	0
;I:200	0
;I:201	0
;I:202	0
;I:203	0
;I:204	0
;I:205	0
;I:206	0
;I:207	0
;I:208	0
;I:209	0
;I:210	0
;I:211	0
;I:212	0
;I:213	0
;I:214	0
;I:215	0
;I:216	0
;I:217	0
;I:218	0
;I:219	0
;I:220	0
;I:221	0
;I:222	0
;I:223	0
;I:224	0
;I:225	0
;I:226	0
;I:227	0
;I:228	0
;I:229	0
;I:230	0
;I:231	0
;I:232	0
;I:233	0
;I:234	0
;I:235	0
;I:236	0
;I:237	0
;I:238	0
;I:239	0
;I:240	0
;I:241	0
;I:242	0
;I:243	0
;I:244	0
;I:245	0
;I:246	0
;I:247	0
;I:248	0
;I:249	0
;I:250	0
;I:251	0
;I:252	0
;I:253	0
;I:254	0
;I:255	0
;I:256	0
;I:257	0
;R:1	0
;R:2	0
;R:3	0
;R:4	0
;R:5	0
;R:6	0
;R:7	0
;R:8	0
;R:9	0
;R:10	0
;R:11	0
;R:12	0
;R:13	0
;R:14	0
;R:15	0
;R:16	0
;R:17	0
;R:18	0
;R:19	0
;R:20	0
;R:21	0
;R:22	0
;R:23	0
;R:24	0
;R:25	0
;R:26	0
;R:27	0
;R:28	0
;R:29	0
;R:30	0
;R:31	0
;R:32	0
;R:33	0
;R:34	0
;R:35	0
;R:36	0
;R:37	0
;R:38	0
;R:39	0
;R:40	0
;R:41	0
;R:42	0
;R:43	0
;R:44	0
;R:45	0
;R:46	0
;R:47	0
;R:48	0
;R:49	0
;R:50	0
;R:51	0
;R:52	0
;R:53	0
;R:54	0
;R:55	0
;R:56	0
;R:57	0
;R:58	0
;R:59	0
;R:60	0
;R:61	0
;R:62	0
;R:63	0
;<extra_id_0>	0
;<extra_id_1>	0
;<extra_id_2>	0
;<extra_id_3>	0
;<extra_id_4>	0
;<extra_id_5>	0
;<extra_id_6>	0
;<extra_id_7>	0
;<extra_id_8>	0
;<extra_id_9>	0
;<extra_id_10>	0
;<extra_id_11>	0
;<extra_id_12>	0
;<extra_id_13>	0
;<extra_id_14>	0
;<extra_id_15>	0
;<extra_id_16>	0
;<extra_id_17>	0
;<extra_id_18>	0
;<extra_id_19>	0
;<extra_id_20>	0
;<extra_id_21>	0
;<extra_id_22>	0
;<extra_id_23>	0
;<extra_id_24>	0
;<extra_id_25>	0
;<extra_id_26>	0
;<extra_id_27>	0
;<extra_id_28>	0
;<extra_id_29>	0
;<extra_id_30>	0
;<extra_id_31>	0
;<extra_id_32>	0
;<extra_id_33>	0
;<extra_id_34>	0
;<extra_id_35>	0
;<extra_id_36>	0
;<extra_id_37>	0
;<extra_id_38>	0
;<extra_id_39>	0
;<extra_id_40>	0
;<extra_id_41>	0
;<extra_id_42>	0
;<extra_id_43>	0
;<extra_id_44>	0
;<extra_id_45>	0
;<extra_id_46>	0
;<extra_id_47>	0
;<extra_id_48>	0
;<extra_id_49>	0
;<extra_id_50>	0
;<extra_id_51>	0
;<extra_id_52>	0
;<extra_id_53>	0
;<extra_id_54>	0
;<extra_id_55>	0
;<extra_id_56>	0
;<extra_id_57>	0
;<extra_id_58>	0
;<extra_id_59>	0
;<extra_id_60>	0
;<extra_id_61>	0
;<extra_id_62>	0
;<extra_id_63>	0
;<extra_id_64>	0
;<extra_id_65>	0
;<extra_id_66>	0
;<extra_id_67>	0
;<extra_id_68>	0
;<extra_id_69>	0
;<extra_id_70>	0
;<extra_id_71>	0
;<extra_id_72>	0
;<extra_id_73>	0
;<extra_id_74>	0
;<extra_id_75>	0
;<extra_id_76>	0
;<extra_id_77>	0
;<extra_id_78>	0
;<extra_id_79>	0
;<extra_id_80>	0
;<extra_id_81>	0
;<extra_id_82>	0
;<extra_id_83>	0
;<extra_id_84>	0
;<extra_id_85>	0
;<extra_id_86>	0
;<extra_id_87>	0
;<extra_id_88>	0
;<extra_id_89>	0
;<extra_id_90>	0
;<extra_id_91>	0
;<extra_id_92>	0
;<extra_id_93>	0
;<extra_id_94>	0
;<extra_id_95>	0
;<extra_id_96>	0
;<extra_id_97>	0
;<extra_id_98>	0
;<extra_id_99>	0
;<extra_id_100>	0
;<extra_id_101>	0
;<extra_id_102>	0
;<extra_id_103>	0
;<extra_id_104>	0
;<extra_id_105>	0
;<extra_id_106>	0
;<extra_id_107>	0
;<extra_id_108>	0
;<extra_id_109>	0
;<extra_id_110>	0
;<extra_id_111>	0
;<extra_id_112>	0
;<extra_id_113>	0
;<extra_id_114>	0
;<extra_id_115>	0
;<extra_id_116>	0
;<extra_id_117>	0
;<extra_id_118>	0
;<extra_id_119>	0
;<extra_id_120>	0
;<extra_id_121>	0
;<extra_id_122>	0
;<extra_id_123>	0
;<extra_id_124>	0
;<extra_id_125>	0
;<extra_id_126>	0
;<extra_id_127>	0
;<extra_id_128>	0
;<extra_id_129>	0
;<extra_id_130>	0
;<extra_id_131>	0
;<extra_id_132>	0
;<extra_id_133>	0
;<extra_id_134>	0
;<extra_id_135>	0
;<extra_id_136>	0
;<extra_id_137>	0
;<extra_id_138>	0
;<extra_id_139>	0
;<extra_id_140>	0
;<extra_id_141>	0
;<extra_id_142>	0
;<extra_id_143>	0
;<extra_id_144>	0
;<extra_id_145>	0
;<extra_id_146>	0
;<extra_id_147>	0
;<extra_id_148>	0
;<extra_id_149>	0
;<extra_id_150>	0
;<extra_id_151>	0
;<extra_id_152>	0
;<extra_id_153>	0
;<extra_id_154>	0
;<extra_id_155>	0
;<extra_id_156>	0
;<extra_id_157>	0
;<extra_id_158>	0
;<extra_id_159>	0
;<extra_id_160>	0
;<extra_id_161>	0
;<extra_id_162>	0
;<extra_id_163>	0
;<extra_id_164>	0
;<extra_id_165>	0
;<extra_id_166>	0
;<extra_id_167>	0
;<extra_id_168>	0
;<extra_id_169>	0
;<extra_id_170>	0
;<extra_id_171>	0
;<extra_id_172>	0
;<extra_id_173>	0
;<extra_id_174>	0
;<extra_id_175>	0
;<extra_id_176>	0
;<extra_id_177>	0
;<extra_id_178>	0
;<extra_id_179>	0
;<extra_id_180>	0
;<extra_id_181>	0
;<extra_id_182>	0
;<extra_id_183>	0
;<extra_id_184>	0
;<extra_id_185>	0
;<extra_id_186>	0
;<extra_id_187>	0
;<extra_id_188>	0
;<extra_id_189>	0
;<extra_id_190>	0
;<extra_id_191>	0
;<extra_id_192>	0
;<extra_id_193>	0
;<extra_id_194>	0
;<extra_id_195>	0
;<extra_id_196>	0
;<extra_id_197>	0
;<extra_id_198>	0
;<extra_id_199>	0
;<extra_id_200>	0
;<extra_id_201>	0
;<extra_id_202>	0
;<extra_id_203>	0
;<extra_id_204>	0
;<extra_id_205>	0
;<extra_id_206>	0
;<extra_id_207>	0
;<extra_id_208>	0
;<extra_id_209>	0
;<extra_id_210>	0
;<extra_id_211>	0
;<extra_id_212>	0
;<extra_id_213>	0
;<extra_id_214>	0
;<extra_id_215>	0
;<extra_id_216>	0
;<extra_id_217>	0
;<extra_id_218>	0
;<extra_id_219>	0
;<extra_id_220>	0
;<extra_id_221>	0
;<extra_id_222>	0
;<extra_id_223>	0
;<extra_id_224>	0
;<extra_id_225>	0
;<extra_id_226>	0
;<extra_id_227>	0
;<extra_id_228>	0
;<extra_id_229>	0
;<extra_id_230>	0
;<extra_id_231>	0
;<extra_id_232>	0
;<extra_id_233>	0
;<extra_id_234>	0
;<extra_id_235>	0
;<extra_id_236>	0
;<extra_id_237>	0
;<extra_id_238>	0
;<extra_id_239>	0
;<extra_id_240>	0
;<extra_id_241>	0
;<extra_id_242>	0
;<extra_id_243>	0
;<extra_id_244>	0
;<extra_id_245>	0
;<extra_id_246>	0
;<extra_id_247>	0
;<extra_id_248>	0
;<extra_id_249>	0
;<extra_id_250>	0
;<extra_id_251>	0
;<extra_id_252>	0
;<extra_id_253>	0
;<extra_id_254>	0
;<extra_id_255>	0
;<mono>	0
;<poly>	0
;<instruction_0>	0
;<instruction_1>	0
;<instruction_2>	0
;<instruction_3>	0
;<instruction_4>	0
;<instruction_5>	0
;<instruction_6>	0
;<instruction_7>	0
;<instruction_8>	0
;<instruction_9>	0
;<instruction_10>	0
;<instruction_11>	0
;<instruction_12>	0
;<instruction_13>	0
;<instruction_14>	0
;<instruction_15>	0
;<instruction_16>	0
;<instruction_17>	0
;<instruction_18>	0
;<instruction_19>	0
;<instruction_20>	0
;<instruction_21>	0
;<instruction_22>	0
;<instruction_23>	0
;<instruction_24>	0
;<instruction_25>	0
;<instruction_26>	0
;<instruction_27>	0
;<instruction_28>	0
;<instruction_29>	0
;<instruction_30>	0
;<instruction_31>	0
;<instruction_32>	0
;<instruction_33>	0
;<instruction_34>	0
;<instruction_35>	0
;<instruction_36>	0
;<instruction_37>	0
;<instruction_38>	0
;<instruction_39>	0
;<instruction_40>	0
;<instruction_41>	0
;<instruction_42>	0
;<instruction_43>	0
;<instruction_44>	0
;<instruction_45>	0
;<instruction_46>	0
;<instruction_47>	0
;<instruction_48>	0
;<instruction_49>	0
;<instruction_50>	0
;<instruction_51>	0
;<instruction_52>	0
;<instruction_53>	0
;<instruction_54>	0
;<instruction_55>	0
;<instruction_56>	0
;<instruction_57>	0
;<instruction_58>	0
;<instruction_59>	0
;<instruction_60>	0
;<instruction_61>	0
;<instruction_62>	0
;<instruction_63>	0
;<instruction_64>	0
;<instruction_65>	0
;<instruction_66>	0
;<instruction_67>	0
;<instruction_68>	0
;<instruction_69>	0
;<instruction_70>	0
;<instruction_71>	0
;<instruction_72>	0
;<instruction_73>	0
;<instruction_74>	0
;<instruction_75>	0
;<instruction_76>	0
;<instruction_77>	0
;<instruction_78>	0
;<instruction_79>	0
;<instruction_80>	0
;<instruction_81>	0
;<instruction_82>	0
;<instruction_83>	0
;<instruction_84>	0
;<instruction_85>	0
;<instruction_86>	0
;<instruction_87>	0
;<instruction_88>	0
;<instruction_89>	0
;<instruction_90>	0
;<instruction_91>	0
;<instruction_92>	0
;<instruction_93>	0
;<instruction_94>	0
;<instruction_95>	0
;<instruction_96>	0
;<instruction_97>	0
;<instruction_98>	0
;<instruction_99>	0
;<instruction_100>	0
;<instruction_101>	0
;<instruction_102>	0
;<instruction_103>	0
;<instruction_104>	0
;<instruction_105>	0
;<instruction_106>	0
;<instruction_107>	0
;<instruction_108>	0
;<instruction_109>	0
;<instruction_110>	0
;<instruction_111>	0
;<instruction_112>	0
;<instruction_113>	0
;<instruction_114>	0
;<instruction_115>	0
;<instruction_116>	0
;<instruction_117>	0
;<instruction_118>	0
;<instruction_119>	0
;<instruction_120>	0
;<instruction_121>	0
;<instruction_122>	0
;<instruction_123>	0
;<instruction_124>	0
;<instruction_125>	0
;<instruction_126>	0
;<instruction_127>	0
;<instruction_128>	0
;<instruction_129>	0
;<instruction_130>	0
;<instruction_131>	0
;<instruction_132>	0
;<instruction_133>	0
;<instruction_134>	0
;<instruction_135>	0
;<instruction_136>	0
;<instruction_137>	0
;<instruction_138>	0
;<instruction_139>	0
;<instruction_140>	0
;<instruction_141>	0
;<instruction_142>	0
;<instruction_143>	0
;<instruction_144>	0
;<instruction_145>	0
;<instruction_146>	0
;<instruction_147>	0
;<instruction_148>	0
;<instruction_149>	0
;<instruction_150>	0
;<instruction_151>	0
;<instruction_152>	0
;<instruction_153>	0
;<instruction_154>	0
;<instruction_155>	0
;<instruction_156>	0
;<instruction_157>	0
;<instruction_158>	0
;<instruction_159>	0
;<instruction_160>	0
;<instruction_161>	0
;<instruction_162>	0
;<instruction_163>	0
;<instruction_164>	0
;<instruction_165>	0
;<instruction_166>	0
;<instruction_167>	0
;<instruction_168>	0
;<instruction_169>	0
;<instruction_170>	0
;<instruction_171>	0
;<instruction_172>	0
;<instruction_173>	0
;<instruction_174>	0
;<instruction_175>	0
;<instruction_176>	0
;<instruction_177>	0
;<instruction_178>	0
;<instruction_179>	0
;<instruction_180>	0
;<instruction_181>	0
;<instruction_182>	0
;<instruction_183>	0
;<instruction_184>	0
;<instruction_185>	0
;<instruction_186>	0
;<instruction_187>	0
;<instruction_188>	0
;<instruction_189>	0
;<instruction_190>	0
;<instruction_191>	0
;<instruction_192>	0
;<instruction_193>	0
;<instruction_194>	0
;<instruction_195>	0
;<instruction_196>	0
;<instruction_197>	0
;<instruction_198>	0
;<instruction_199>	0
;<instruction_200>	0
;<instruction_201>	0
;<instruction_202>	0
;<instruction_203>	0
;<instruction_204>	0
;<instruction_205>	0
;<instruction_206>	0
;<instruction_207>	0
;<instruction_208>	0
;<instruction_209>	0
;<instruction_210>	0
;<instruction_211>	0
;<instruction_212>	0
;<instruction_213>	0
;<instruction_214>	0
;<instruction_215>	0
;<instruction_216>	0
;<instruction_217>	0
;<instruction_218>	0
;<instruction_219>	0
;<instruction_220>	0
;<instruction_221>	0
;<instruction_222>	0
;<instruction_223>	0
;<instruction_224>	0
;<instruction_225>	0
;<instruction_226>	0
;<instruction_227>	0
;<instruction_228>	0
;<instruction_229>	0
;<instruction_230>	0
;<instruction_231>	0
;<instruction_232>	0
;<instruction_233>	0
;<instruction_234>	0
;<instruction_235>	0
;<instruction_236>	0
;<instruction_237>	0
;<instruction_238>	0
;<instruction_239>	0
;<instruction_240>	0
;<instruction_241>	0
;<instruction_242>	0
;<instruction_243>	0
;<instruction_244>	0
;<instruction_245>	0
;<instruction_246>	0
;<instruction_247>	0
;<instruction_248>	0
;<instruction_249>	0
;<instruction_250>	0
;<instruction_251>	0
;<instruction_252>	0
;<instruction_253>	0
;<instruction_254>	0
;<instruction_255>	0
;<instruction_256>	0
;<instruction_257>	0
;<instruction_258>	0
;<instruction_259>	0
;<instruction_260>	0
;<instruction_261>	0
;<instruction_262>	0
;<instruction_263>	0
;<instruction_264>	0
;<instruction_265>	0
;<instruction_266>	0
;<instruction_267>	0
;<instruction_268>	0
;<instruction_269>	0
;<instruction_270>	0
;<instruction_271>	0
;<instruction_272>	0
;<instruction_273>	0
;<instruction_274>	0
;<instruction_275>	0
;<instruction_276>	0
;<instruction_277>	0
;<instruction_278>	0
;<instruction_279>	0
;<instruction_280>	0
;<instruction_281>	0
;<instruction_282>	0
;<instruction_283>	0
;<instruction_284>	0
;<instruction_285>	0
;<instruction_286>	0
;<instruction_287>	0
;<instruction_288>	0
;<instruction_289>	0
;<instruction_290>	0
;<instruction_291>	0
;<instruction_292>	0
;<instruction_293>	0
;<instruction_294>	0
;<instruction_295>	0
;<instruction_296>	0
;<instruction_297>	0
;<instruction_298>	0
;<instruction_299>	0
;<instruction_300>	0
;<instruction_301>	0
;<instruction_302>	0
;<instruction_303>	0
;<instruction_304>	0
;<instruction_305>	0
;<instruction_306>	0
;<instruction_307>	0
;<instruction_308>	0
;<instruction_309>	0
;<instruction_310>	0
;<instruction_311>	0
;<instruction_312>	0
;<instruction_313>	0
;<instruction_314>	0
;<instruction_315>	0
;<instruction_316>	0
;<instruction_317>	0
;<instruction_318>	0
;<instruction_319>	0
;<instruction_320>	0
;<instruction_321>	0
;<instruction_322>	0
;<instruction_323>	0
;<instruction_324>	0
;<instruction_325>	0
;<instruction_326>	0
;<instruction_327>	0
;<instruction_328>	0
;<instruction_329>	0
;<instruction_330>	0
;<instruction_331>	0
;<instruction_332>	0
;<instruction_333>	0
;<instruction_334>	0
;<instruction_335>	0
;<instruction_336>	0
;<instruction_337>	0
;<instruction_338>	0
;<instruction_339>	0
;<instruction_340>	0
;<instruction_341>	0
;<instruction_342>	0
;<instruction_343>	0
;<instruction_344>	0
;<instruction_345>	0
;<instruction_346>	0
;<instruction_347>	0
;<instruction_348>	0
;<instruction_349>	0
;<instruction_350>	0
;<instruction_351>	0
;<instruction_352>	0
;<instruction_353>	0
;<instruction_354>	0
;<instruction_355>	0
;<instruction_356>	0
;<instruction_357>	0
;<instruction_358>	0
;<instruction_359>	0
;<instruction_360>	0
;<instruction_361>	0
;<instruction_362>	0
;<instruction_363>	0
;<instruction_364>	0
;<instruction_365>	0
;<instruction_366>	0
;<instruction_367>	0
;<instruction_368>	0
;<instruction_369>	0
;<instruction_370>	0
;<instruction_371>	0
;<instruction_372>	0
;<instruction_373>	0
;<instruction_374>	0
;<instruction_375>	0
;<instruction_376>	0
;<instruction_377>	0
;<instruction_378>	0
;<instruction_379>	0
;<instruction_380>	0
;<instruction_381>	0
;<instruction_382>	0
;<instruction_383>	0
;<instruction_384>	0
;<instruction_385>	0
;<instruction_386>	0
;<instruction_387>	0
;<instruction_388>	0
;<instruction_389>	0
;<instruction_390>	0
;<instruction_391>	0
;<instruction_392>	0
;<instruction_393>	0
;<instruction_394>	0
;<instruction_395>	0
;<instruction_396>	0
;<instruction_397>	0
;<instruction_398>	0
;<instruction_399>	0
;<instruction_400>	0
;<instruction_401>	0
;<instruction_402>	0
;<instruction_403>	0
;<instruction_404>	0
;<instruction_405>	0
;<instruction_406>	0
;<instruction_407>	0
;<instruction_408>	0
;<instruction_409>	0
;<instruction_410>	0
;<instruction_411>	0
;<instruction_412>	0
;<instruction_413>	0
;<instruction_414>	0
;<instruction_415>	0
;<instruction_416>	0
;<instruction_417>	0
;<instruction_418>	0
;<instruction_419>	0
;<instruction_420>	0
;<instruction_421>	0
;<instruction_422>	0
;<instruction_423>	0
;<instruction_424>	0
;<instruction_425>	0
;<instruction_426>	0
;<instruction_427>	0
;<instruction_428>	0
;<instruction_429>	0
;<instruction_430>	0
;<instruction_431>	0
;<instruction_432>	0
;<instruction_433>	0
;<instruction_434>	0
;<instruction_435>	0
;<instruction_436>	0
;<instruction_437>	0
;<instruction_438>	0
;<instruction_439>	0
;<instruction_440>	0
;<instruction_441>	0
;<instruction_442>	0
;<instruction_443>	0
;<instruction_444>	0
;<instruction_445>	0
;<instruction_446>	0
;<instruction_447>	0
;<instruction_448>	0
;<instruction_449>	0
;<instruction_450>	0
;<instruction_451>	0
;<instruction_452>	0
;<instruction_453>	0
;<instruction_454>	0
;<instruction_455>	0
;<instruction_456>	0
;<instruction_457>	0
;<instruction_458>	0
;<instruction_459>	0
;<instruction_460>	0
;<instruction_461>	0
;<instruction_462>	0
;<instruction_463>	0
;<instruction_464>	0
;<instruction_465>	0
;<instruction_466>	0
;<instruction_467>	0
;<instruction_468>	0
;<instruction_469>	0
;<instruction_470>	0
;<instruction_471>	0
;<instruction_472>	0
;<instruction_473>	0
;<instruction_474>	0
;<instruction_475>	0
;<instruction_476>	0
;<instruction_477>	0
;<instruction_478>	0
;<instruction_479>	0
;<instruction_480>	0
;<instruction_481>	0
;<instruction_482>	0
;<instruction_483>	0
;<instruction_484>	0
;<instruction_485>	0
;<instruction_486>	0
;<instruction_487>	0
;<instruction_488>	0
;<instruction_489>	0
;<instruction_490>	0
;<instruction_491>	0
;<instruction_492>	0
;<instruction_493>	0
;<instruction_494>	0
;<instruction_495>	0
;<instruction_496>	0
;<instruction_497>	0
;<instruction_498>	0
;<instruction_499>	0
;<instruction_500>	0
;<instruction_501>	0
;<instruction_502>	0
;<instruction_503>	0
;<instruction_504>	0
;<instruction_505>	0
;<instruction_506>	0
;<instruction_507>	0
;<instruction_508>	0
;<instruction_509>	0
;<instruction_510>	0
;<instruction_511>	0
;w:6	-3.54828
;w:12	-3.58851
;w:3	-3.61508
;w:4	-4.00784
;w:2	-4.05576
;w:8	-4.36035
;w:9	-4.49243
;w:1	-4.77263
4	-4.80208
8	-4.80794
0	-5.15995
6	-5.29471
;w:15	-5.41932
;w:16	-5.52679
;w:5	-5.54725
2	-5.64633
1	-5.67538
;w:7	-5.7223
;N:63	-5.92885
;N:62	-5.93003
;N:64	-5.93999
;N:59	-5.94487
;N:61	-5.95016
;N:60	-5.95515
;N:66	-5.98577
;N:65	-5.98581
;N:67	-5.99604
;N:68	-6.01569
;N:57	-6.02197
;N:58	-6.02394
;N:69	-6.0442
;N:70	-6.05907
;N:56	-6.0614
;N:55	-6.07054
;N:71	-6.11514
;N:54	-6.12515
7	-6.13637
;N:53	-6.15168
;N:52	-6.1589
;N:72	-6.16071
;N:51	-6.17044
;N:50	-6.20253
;N:49	-6.22514
;N:73	-6.24506
3	-6.24723
;N:74	-6.25098
;N:46	-6.25658
;N:48	-6.25688
;N:45	-6.2593
;N:47	-6.26716
;N:75	-6.28305
;N:44	-6.29463
5	-6.32433
;N:43	-6.34045
;N:42	-6.35754
;N:76	-6.379
;N:77	-6.38096
;N:41	-6.39128
;N:40	-6.40914
;N:78	-6.43811
;T:	-6.44639
9	-6.4948
;N:39	-6.53594
;N:79	-6.54151
;N:38	-6.57393
;w:10	-6.61207
;N:80	-6.63026
;N:81	-6.72061
;N:82	-6.75654
;N:37	-6.75799
;N:36	-6.81785
;N:83	-6.89345
;N:35	-6.90777
;/N:75	-6.94739
;/N:71	-6.98543
;/N:72	-7.01697
;/N:69	-7.02017
;/N:70	-7.02532
;/N:77	-7.03816
;/N:74	-7.05083
;/N:76	-7.05316
;/N:73	-7.05336
;N:84	-7.05614
;N:34	-7.06086
;/N:67	-7.10635
;w:11	-7.11909
;/N:79	-7.13111
;/N:68	-7.13254
;N:85	-7.14112
;N:33	-7.16226
;/N:78	-7.16694
;/N:66	-7.1924
;/N:64	-7.19402
;/N:63	-7.21308
;D:36	-7.23134
;/N:65	-7.25148
;N:67;w:12;/N:67	-7.26977
;/N:62	-7.27387
;N:68;w:12;/N:68	-7.27804
;N:70;w:12;/N:70	-7.28486
;N:66;w:12;/N:66	-7.29018
;N:69;w:12;/N:69	-7.2919
;N:65;w:12;/N:65	-7.2988
;/N:80	-7.30084
;/N:61	-7.30185
;N:64;w:12;/N:64	-7.30634
;N:71;w:12;/N:71	-7.32054
;N:86	-7.33633
;N:32	-7.34595
;N:87	-7.35658
;N:63;w:12;/N:63	-7.35855
;/N:81	-7.36096
;N:72;w:12;/N:72	-7.36124
;N:62;w:12;/N:62	-7.37218
;N:69;w:6;/N:69	-7.38383
;N:31	-7.40476
;N:68;w:6;/N:68	-7.40481
;/N:60	-7.40877
;N:61;w:12;/N:61	-7.4117
;N:66;w:6;/N:66	-7.41524
;/N:59	-7.41753
;N:70;w:6;/N:70	-7.4185
;N:67;w:6;/N:67	-7.42067
;N:65;w:6;/N:65	-7.43552
;N:71;w:6;/N:71	-7.44277
;N:59;w:12;/N:59	-7.44379
;N:60;w:12;/N:60	-7.44551
;N:74;w:12;/N:74	-7.44874
;N:64;w:6;/N:64	-7.45058
;/N:82	-7.45146
;/N:83	-7.45798
;N:88	-7.46375
;N:63;w:6;/N:63	-7.4762
;N:73;w:6;/N:73	-7.48083
;N:73;w:12;/N:73	-7.48378
;N:74;w:6;/N:74	-7.49037
;N:72;w:6;/N:72	-7.50059
;N:61;w:6;/N:61	-7.50467
;N:62;w:6;/N:62	-7.5059
;N:58;w:12;/N:58	-7.51374
;N:75;w:12;/N:75	-7.51519
;/N:58	-7.54519
;N:76;w:12;/N:76	-7.55514
;N:57;w:12;/N:57	-7.55817
;N:76;w:6;/N:76	-7.56302
;N:75;w:6;/N:75	-7.56852
;N:59;w:6;/N:59	-7.57392
;w:14	-7.57477
;N:89	-7.57734
;N:60;w:6;/N:60	-7.58339
;N:56;w:12;/N:56	-7.58758
;N:77;w:6;/N:77	-7.58868
;/N:57	-7.60001
;N:77;w:12;/N:77	-7.61
;N:54;w:12;/N:54	-7.62772
;N:55;w:12;/N:55	-7.63255
;N:58;w:6;/N:58	-7.64084
;N:30	-7.6493
;N:78;w:6;/N:78	-7.65561
;N:90	-7.65619
;/N:56	-7.67302
;N:78;w:12;/N:78	-7.6744
;N:53;w:12;/N:53	-7.67628
;N:57;w:6;/N:57	-7.67808
;/N:85	-7.67903
;N:56;w:6;/N:56	-7.68308
;/N:84	-7.68387
;N:52;w:12;/N:52	-7.69689
;N:51;w:12;/N:51	-7.71894
;N:47;w:12;/N:47	-7.7259
;N:46;w:12;/N:46	-7.72704
;N:55;w:6;/N:55	-7.73144
;D:36;D:42	-7.73164
;N:49;w:12;/N:49	-7.73758
;N:79;w:6;/N:79	-7.73907
;N:50;w:12;/N:50	-7.74081
;D:53	-7.74246
;N:53;w:6;/N:53	-7.74354
;/N:55	-7.74704
;/N:87	-7.75136
;N:45;w:12;/N:45	-7.75861
;N:43;w:12;/N:43	-7.76378
;N:79;w:12;/N:79	-7.78313
;N:54;w:6;/N:54	-7.78521
;T:63	-7.78585
;N:48;w:12;/N:48	-7.78849
;w:13	-7.78914
;N:42;w:12;/N:42	-7.79359
;N:44;w:12;/N:44	-7.80146
;N:39;w:12;/N:39	-7.80352
;T:70	-7.80434
;N:52;w:6;/N:52	-7.81212
;D:51	-7.82305
;N:38;w:12;/N:38	-7.82681
;N:67;w:24;/N:67	-7.83074
;/N:54	-7.83115
;N:29	-7.8319
;N:51;w:6;/N:51	-7.83576
;N:60;w:24;/N:60	-7.83924
;N:41;w:12;/N:41	-7.83925
;N:80;w:6;/N:80	-7.84072
;N:80;w:12;/N:80	-7.84247
;/N:86	-7.84277
;D:49	-7.85371
;N:40;w:12;/N:40	-7.85528
;N:68;w:24;/N:68	-7.85549
;T:67	-7.85605
;T:62	-7.85763
;N:48;w:6;/N:48	-7.86186
;N:65;w:24;/N:65	-7.86238
;N:71;w:24;/N:71	-7.86442
;N:69;w:24;/N:69	-7.86595
;N:70;w:24;/N:70	-7.86759
;N:73;w:24;/N:73	-7.86916
;N:66;w:24;/N:66	-7.86937
;N:43;w:6;/N:43	-7.87173
;N:49;w:6;/N:49	-7.87223
;N:50;w:6;/N:50	-7.87279
;N:46;w:6;/N:46	-7.87679
;N:62;w:24;/N:62	-7.87855
;T:68	-7.87876
;N:58;w:24;/N:58	-7.88105
;N:59;w:24;/N:59	-7.8822
;N:45;w:6;/N:45	-7.8861
;N:47;w:6;/N:47	-7.88767
;N:39;w:6;/N:39	-7.89039
;N:64;w:24;/N:64	-7.89371
;D:46	-7.89388
;/N:53	-7.89784
;N:63;w:24;/N:63	-7.89895
;/N:88	-7.89997
;T:65	-7.90177
;N:44;w:6;/N:44	-7.90441
;N:72;w:24;/N:72	-7.90539
;N:37;w:12;/N:37	-7.90542
;N:57;w:24;/N:57	-7.90568
;D:47	-7.90828
;N:38;w:6;/N:38	-7.92385
;T:71	-7.9262
;T:69	-7.9315
;T:61	-7.93349
;N:61;w:24;/N:61	-7.93676
;N:28	-7.93791
;D:76	-7.9403
;/N:52	-7.94638
;N:36;w:12;/N:36	-7.95101
;N:91	-7.95448
;N:81;w:12;/N:81	-7.95838
;T:60	-7.9671
;N:42;w:6;/N:42	-7.96855
;T:9	-7.96931
;D:54	-7.96945
;T:66	-7.97139
;/N:51	-7.98101
;N:75;w:24;/N:75	-7.9822
;N:37;w:6;/N:37	-7.98239
;N:40;w:6;/N:40	-7.98568
;N:74;w:24;/N:74	-7.98801
;N:81;w:6;/N:81	-7.99099
;T:72	-7.99136
;N:56;w:24;/N:56	-7.99155
;N:36;w:6;/N:36	-7.99423
;T:64	-7.99605
;N:55;w:24;/N:55	-7.9962
;N:41;w:6;/N:41	-7.99773
;/N:89	-8.00818
;N:92	-8.00945
;N:35;w:12;/N:35	-8.01914
;N:82;w:12;/N:82	-8.02492
;D:43	-8.03013
;N:76;w:24;/N:76	-8.03028
;N:54;w:24;/N:54	-8.03111
;N:78;w:24;/N:78	-8.04321
;D:52	-8.05078
;T:73	-8.05518
;T:75	-8.05684
;N:34;w:12;/N:34	-8.06297
;N:53;w:24;/N:53	-8.06384
;N:35;w:6;/N:35	-8.07123
;N:82;w:6;/N:82	-8.07187
;N:83;w:12;/N:83	-8.07751
;T:56	-8.0789
;N:33;w:12;/N:33	-8.07984
;T:59	-8.08048
;N:52;w:24;/N:52	-8.08648
;N:64;w:8;/N:64	-8.0947
;N:77;w:24;/N:77	-8.09573
;N:45;w:24;/N:45	-8.09639
;N:62;w:8;/N:62	-8.10114
;/N:90	-8.10135
;N:66;w:8;/N:66	-8.10268
;N:79;w:24;/N:79	-8.11049
;N:51;w:24;/N:51	-8.11259
;T:58	-8.11392
;D:48	-8.11503
;N:65;w:8;/N:65	-8.12147
;/N:50	-8.1217
;N:62;N:65	-8.12926
;N:63;w:8;/N:63	-8.13061
;N:44;w:24;/N:44	-8.13274
;/N:91	-8.13281
;N:32;w:12;/N:32	-8.13688
;N:50;w:24;/N:50	-8.13872
;N:80;w:24;/N:80	-8.13893
;N:64;N:67	-8.13956
;D:73	-8.14084
;N:43;w:24;/N:43	-8.14259
;D:50	-8.14489
;/N:49	-8.14563
;N:68;w:8;/N:68	-8.1466
;D:36;D:49	-8.14686
;N:48;w:24;/N:48	-8.14766
;N:93	-8.14948
;N:63;N:66	-8.1495
;N:49;w:24;/N:49	-8.15818
;N:31;w:12;/N:31	-8.15853
;N:61;w:8;/N:61	-8.15863
;N:67;w:8;/N:67	-8.15866
;N:46;w:24;/N:46	-8.15926
;D:56	-8.16281
;N:34;w:6;/N:34	-8.16381
;N:47;w:24;/N:47	-8.16827
;N:60;N:63	-8.17748
;N:42;w:24;/N:42	-8.18869
;w:3;/N:62	-8.19226
;N:69;w:8;/N:69	-8.19313
;T:77	-8.19621
;N:83;w:6;/N:83	-8.1966
;N:60;w:8;/N:60	-8.20199
;T:74	-8.20232
;N:57;N:61	-8.20258
;N:59;N:62	-8.20293
;N:30;w:12;/N:30	-8.2048
;w:3;/N:61	-8.20598
;/N:65;/N:68	-8.20641
;T:57	-8.21129
;N:33;w:6;/N:33	-8.2113
;N:58;N:62	-8.21386
;N:84;w:12;/N:84	-8.21413
;N:41;w:24;/N:41	-8.2145
;N:62;N:66	-8.2178
;/N:93	-8.21804
;T:76	-8.22108
;w:3;/N:60	-8.22382
;N:27	-8.22403
;T:53	-8.22509
;N:70;w:8;/N:70	-8.22627
;N:68;w:3;/N:68	-8.23124
;N:59;N:63	-8.23313
;N:71;w:8;/N:71	-8.23504
;N:67;w:3;/N:67	-8.24342
;D:38	-8.24393
;N:73;w:4;/N:73	-8.24412
;T:55	-8.24599
;/N:66;/N:69	-8.24632
;/N:92	-8.24725
;w:3;/N:58	-8.2476
;N:59;w:8;/N:59	-8.24802
;N:40;w:24;/N:40	-8.25028
;N:45;N:57	-8.2504
;N:82;w:24;/N:82	-8.25424
;D:45	-8.25492
;N:81;w:24;/N:81	-8.25503
;N:71;N:74	-8.25587
;T:51	-8.25752
;N:58;N:61	-8.25804
;N:65;w:4;/N:65	-8.25857
;/N:63;/N:66	-8.25885
;N:95	-8.26348
;N:57;N:60	-8.26587
;N:61;N:65	-8.26668
;w:3;/N:63	-8.2689
;N:24	-8.26904
;N:66;w:3;/N:66	-8.26914
;N:70;w:3;/N:70	-8.26919
;T:52	-8.27122
;N:72;N:75	-8.27236
;w:3;/N:59	-8.27417
;D:69	-8.27473
;N:85;w:12;/N:85	-8.27497
;N:39;N:51	-8.27522
;N:38;N:50	-8.27602
;N:60;N:64	-8.27605
;N:73;w:8;/N:73	-8.27935
;N:75;w:8;/N:75	-8.2798
;N:72;w:8;/N:72	-8.28099
;N:94	-8.28329
;T:50	-8.28512
;D:41	-8.2868
;N:38;w:24;/N:38	-8.28964
;/N:48	-8.29028
;N:61;N:64	-8.29121
;N:71;w:3;/N:71	-8.29477
;/N:95	-8.29502
;N:76;w:3;/N:76	-8.2955
;N:72;w:3;/N:72	-8.29572
;w:3;/N:57	-8.29799
;N:46;N:58	-8.29818
;/N:64;/N:68	-8.30078
;N:58;w:8;/N:58	-8.30207
;N:73;w:3;/N:73	-8.30215
;N:39;w:24;/N:39	-8.30277
;N:65;N:68	-8.30338
;N:42;N:54	-8.30441
;/N:67;/N:70	-8.30517
;N:85;w:6;/N:85	-8.30696
;N:65;w:3;/N:65	-8.30702
;T:54	-8.30883
;N:43;N:55	-8.30933
;w:6;/N:57	-8.31105
;N:44;N:56	-8.31137
;N:75;w:3;/N:75	-8.31353
;N:77;w:8;/N:77	-8.31463
;/N:61;/N:64	-8.31844
;N:32;w:6;/N:32	-8.3253
;w:3;/N:64	-8.32812
;D:39	-8.32814
;N:78;w:3;/N:78	-8.33009
;/N:62;/N:65	-8.33235
;N:79;w:4;/N:79	-8.33591
;/N:47	-8.33607
;N:29;w:12;/N:29	-8.33635
;/N:65;/N:69	-8.33689
;w:6;/N:53	-8.33873
;N:66;N:69	-8.33937
;N:41;N:53	-8.3398
;N:77;w:4;/N:77	-8.34115
;N:36;N:48	-8.34559
;N:40;N:52	-8.3458
;N:55;N:60	-8.3458
;N:56;N:60	-8.34587
;/N:63;/N:67	-8.34626
;N:76;w:8;/N:76	-8.34638
;w:3;/N:65	-8.34703
;N:74;w:8;/N:74	-8.34892
;w:3;/N:56	-8.34964
;w:12;/N:54	-8.34967
;N:74;w:4;/N:74	-8.35018
;N:72;w:4;/N:72	-8.35061
;N:57;w:8;/N:57	-8.35185
;/N:43	-8.3542
;w:6;/N:54	-8.35673
;w:6;/N:56	-8.35777
;N:56;N:59	-8.35796
;N:67;N:72	-8.35821
;N:55;N:58	-8.35897
;N:65;N:70	-8.3594
;N:56;N:61	-8.35998
;N:66;N:71	-8.36056
;N:69;w:3;/N:69	-8.36097
;N:47;N:59	-8.36138
;/N:41	-8.36448
;N:99	-8.36604
;N:84;w:6;/N:84	-8.36639
;/N:59;/N:62	-8.36685
;N:23	-8.3671
;N:86;w:6;/N:86	-8.36832
;N:37;N:49	-8.37022
;N:48;N:60	-8.37055
;N:64;N:69	-8.37097
;N:26	-8.37486
;w:6;/N:52	-8.37549
;/N:45	-8.37731
;N:37;w:24;/N:37	-8.3778
;w:12;/N:56	-8.38092
;/N:68;/N:71	-8.38183
;w:3;/N:66	-8.38274
;N:31;w:6;/N:31	-8.38485
;N:67;N:70	-8.38586
;N:68;N:71	-8.38686
;/N:66;/N:70	-8.38826
;N:67;w:4;/N:67	-8.38918
;N:70;N:74	-8.3928
;w:6;/N:55	-8.3929
;N:64;w:3;/N:64	-8.39315
;N:60;w:3;/N:60	-8.39329
;w:6;/N:46	-8.39444
;w:6;/N:51	-8.39469
;N:68;N:73	-8.39512
;T:2	-8.39528
;/N:60;/N:63	-8.39591
;w:3;/N:55	-8.39777
;N:63;w:3;/N:63	-8.40084
;N:54;N:58	-8.4021
;N:80;w:4;/N:80	-8.40469
;w:12;/N:61	-8.40785
;N:69;w:4;/N:69	-8.40798
;/N:62;/N:66	-8.40957
;N:54;N:57	-8.40976
;N:64;N:68	-8.41017
;N:66;N:78	-8.41103
;N:69;N:73	-8.41164
;w:6;/N:60	-8.41182
;w:6;/N:58	-8.41469
;N:69;N:72	-8.41574
;N:28;w:12;/N:28	-8.41605
;N:71;w:4;/N:71	-8.41628
;/N:64;/N:67	-8.41659
;N:78;w:8;/N:78	-8.41729
;N:56;w:8;/N:56	-8.41767
;/N:94	-8.41845
;N:57;N:62	-8.41898
;N:61;w:4;/N:61	-8.41993
;N:79;w:3;/N:79	-8.41998
;w:3;/N:67	-8.42017
;N:54;w:8;/N:54	-8.42022
;N:36;w:24;/N:36	-8.42146
;N:70;N:73	-8.42224
;N:62;N:67	-8.4224
;N:63;N:67	-8.4227
;/N:61;/N:65	-8.42325
;w:12;/N:51	-8.42359
;N:70;w:4;/N:70	-8.4238
;N:83;w:24;/N:83	-8.42409
;N:49;N:61	-8.42473
;w:6;/N:59	-8.4271
;N:89;w:12;/N:89	-8.42926
;w:12;/N:57	-8.4295
;N:67;N:79	-8.42961
;w:6;/N:61	-8.42966
;N:65;N:77	-8.43002
;N:74;w:3;/N:74	-8.43042
;N:79;w:8;/N:79	-8.43055
;N:66;w:4;/N:66	-8.43182
;/N:62;/N:67	-8.43451
;N:61;w:3;/N:61	-8.43545
;N:71;N:75	-8.43597
;w:12;/N:53	-8.43689
;N:58;w:3;/N:58	-8.43737
;w:6;/N:50	-8.43752
;N:65;N:69	-8.43801
;N:35;N:47	-8.43883
;/N:61;/N:66	-8.43916
;/N:60;/N:65	-8.44177
;N:86;w:12;/N:86	-8.44289
;N:64;N:76	-8.4446
;N:63;N:75	-8.44471
;/N:46	-8.44562
;N:63;N:68	-8.44842
;w:6;/N:47	-8.44967
;N:11	-8.44999
;N:73;N:76	-8.45048
;N:55;N:59	-8.45144
;T:47	-8.45238
;N:51;N:63	-8.453
;N:50;N:62	-8.45424
;N:61;N:66	-8.45532
;N:55;w:8;/N:55	-8.45664
;N:62;N:74	-8.45764
;N:52;N:59	-8.45809
;N:75;w:4;/N:75	-8.45888
;w:12;/N:59	-8.45939
;N:64;w:4;/N:64	-8.4598
;N:49;N:56	-8.46019
;N:68;w:4;/N:68	-8.46097
;/N:59;/N:64	-8.46132
;N:34;N:46	-8.46261
;N:87;w:12;/N:87	-8.4634
;N:54;N:59	-8.46612
;N:69;N:81	-8.46702
;N:61;N:73	-8.46752
;/N:63;/N:68	-8.46768
;N:77;w:3;/N:77	-8.46796
;N:87;w:6;/N:87	-8.47024
;N:48;N:55	-8.47061
;N:54;w:3;/N:54	-8.47067
;N:60;N:72	-8.47295
;N:60;N:64;N:67	-8.47301
;/N:72;/N:75	-8.47542
;/N:69;/N:72	-8.47582
;N:58;N:62;N:65	-8.47642
;N:66;N:70	-8.47669
;N:27;w:12;/N:27	-8.47809
;w:6;/N:45	-8.48266
;N:47;N:54	-8.48465
;w:12;/N:58	-8.48556
;w:12;/N:55	-8.4867
;N:59;N:63;N:66	-8.48738
;w:6;/N:44	-8.48793
;N:91;w:12;/N:91	-8.4886
;/N:64;/N:69	-8.48927
;w:3;/N:68	-8.4915
;D:70	-8.49153
;/N:71;/N:74	-8.49182
;N:56;w:3;/N:56	-8.49276
;N:58;N:63	-8.4929
;N:59;N:71	-8.49374
;N:80;w:3;/N:80	-8.49471
;/N:65;/N:70	-8.49478
;N:30;w:6;/N:30	-8.49498
;N:53;N:60	-8.49724
;N:62;w:3;/N:62	-8.49751
;N:52;N:64	-8.49855
;w:6;/N:48	-8.4993
;N:68;N:72	-8.49938
;w:3;/N:52	-8.49952
;N:88;w:12;/N:88	-8.50033
;w:6;/N:49	-8.50117
;N:60;N:65	-8.50198
;w:3;/N:53	-8.50311
;N:59;N:64	-8.50348
;N:57;N:61;N:64	-8.50432
;N:54;N:66	-8.50476
;N:98	-8.50564
;w:12;/N:46	-8.5065
;N:55;N:67	-8.50702
;/N:58;/N:61	-8.50876
;N:92;w:12;/N:92	-8.51098
;N:58;N:70	-8.51112
;N:67;N:71	-8.51172
;/N:60;/N:64	-8.51212
;N:46;N:53	-8.51321
;N:90;w:12;/N:90	-8.51369
;N:53;w:3;/N:53	-8.51648
;w:3;/N:54	-8.51708
;N:59;w:3;/N:59	-8.51712
;N:69;w:18;/N:69	-8.51817
;N:35;w:24;/N:35	-8.51871
;w:12;/N:52	-8.52288
;N:80;w:8;/N:80	-8.52504
;N:33;N:45	-8.52561
;/N:70;/N:73	-8.52752
;/N:58;/N:63	-8.52754
;/N:67;/N:71	-8.53188
;N:67;w:18;/N:67	-8.53347
;N:55;N:62	-8.5338
;N:63;w:4;/N:63	-8.53484
;w:12;/N:60	-8.5366
;N:53;N:65	-8.53681
;/N:73;/N:76	-8.53883
;w:12;/N:50	-8.53918
;N:54;N:61	-8.53945
;N:53;N:56	-8.54087
;N:76;w:4;/N:76	-8.54113
;N:73;w:18;/N:73	-8.5416
;N:55;w:3;/N:55	-8.54219
;N:68;N:80	-8.54226
;D:42	-8.54262
;/N:68;/N:72	-8.54299
;N:57;N:69	-8.54423
;N:62;w:4;/N:62	-8.54488
;N:72;w:18;/N:72	-8.54592
;N:56;N:68	-8.54629
;N:53;N:57	-8.54642
;/N:67;/N:72	-8.54651
;N:70;N:82	-8.54665
;N:57;w:4;/N:57	-8.54718
;N:71;w:18;/N:71	-8.54879
;/N:56;/N:61	-8.55011
;D:36;D:38	-8.5504
;N:75;N:78	-8.55258
;N:1	-8.55392
;T:78	-8.55408
;N:57;w:3;/N:57	-8.55456
;N:82;w:4;/N:82	-8.55747
;w:6;/N:43	-8.55751
;N:81;w:3;/N:81	-8.55811
;/N:74;/N:77	-8.55923
;N:84;w:24;/N:84	-8.56127
;N:51;w:8;/N:51	-8.56187
;N:45;N:52	-8.5632
;/N:42	-8.56673
;N:56;N:60;N:63	-8.56974
;N:78;w:4;/N:78	-8.56991
;w:12;/N:44	-8.57319
;N:74;N:77	-8.57449
;/N:68;/N:73	-8.57485
;N:65;w:18;/N:65	-8.57532
;/N:56;/N:59	-8.5761
;N:53;w:8;/N:53	-8.5765
;N:71;N:83	-8.57883
;/N:69;/N:73	-8.57934
;N:50;N:57	-8.58155
;N:66;w:18;/N:66	-8.58308
;N:55;N:59;N:62	-8.5833
;/N:66;/N:71	-8.58363
;N:70;w:18;/N:70	-8.58412
;w:12;N:59	-8.58506
;N:52;w:3;/N:52	-8.58583
;N:56;N:63	-8.58679
;/N:96	-8.59187
;N:53;N:58	-8.59242
;T:79	-8.59414
;N:62;N:66;N:69	-8.59622
;w:12;/N:47	-8.59669
;N:88;w:6;/N:88	-8.59695
;/N:11	-8.59782
;w:3;/N:69	-8.5988
;w:12;/N:43	-8.59927
;N:51;w:3;/N:51	-8.59956
;/N:99	-8.6001
;N:51;N:58	-8.60013
;N:61;N:65;N:68	-8.6007
;N:26;w:12;/N:26	-8.60271
;N:73;N:85	-8.60496
;N:89;w:6;/N:89	-8.60759
;T:46	-8.60784
;w:6;/N:62	-8.60815
;N:34;w:24;/N:34	-8.60873
;N:63;w:18;/N:63	-8.60932
;/N:57;/N:62	-8.61132
;N:49;w:3;/N:49	-8.61217
;w:12;/N:63	-8.61244
;/N:36	-8.61317
;N:96	-8.61358
;w:3;/N:50	-8.61371
;N:52;w:8;/N:52	-8.61418
;w:3;/N:70	-8.61529
;/N:40	-8.61599
;N:25	-8.61931
;w:6;/N:64	-8.61979
;N:64;w:18;/N:64	-8.62142
;N:82;w:3;/N:82	-8.62155
;N:52;N:55	-8.62187
;N:32;N:44	-8.62322
;T:3	-8.62487
;N:68;w:18;/N:68	-8.62731
;w:6;/N:42	-8.63122
;D:36;D:42;D:49	-8.6333
;w:3;/N:51	-8.63344
;/N:29	-8.63375
;N:96;w:6;/N:96	-8.63421
;D:37	-8.63538
;D:36;D:46	-8.63557
;N:97	-8.63607
;N:81;w:8;/N:81	-8.63616
;w:6;/N:65	-8.63732
;N:70;w:3;/N:70;w:3	-8.63833
;N:56;w:4;/N:56	-8.63869
;N:50;w:3;/N:50	-8.63882
;N:94;w:6;/N:94	-8.63904
;/N:97	-8.63969
;w:6;/N:63	-8.63999
;/N:55;/N:60	-8.64072
;N:85;w:24;/N:85	-8.64172
;T:42	-8.64441
;/N:56;/N:60	-8.64486
;/N:35	-8.64535
;/N:57;/N:60	-8.64556
;w:12;/N:41	-8.64809
;w:12;N:60	-8.64813
;N:74;w:18;/N:74	-8.64853
;N:57;N:64	-8.64876
;N:69;N:74	-8.64936
;N:29;w:6;/N:29	-8.65051
;N:63;N:67;N:70	-8.65132
;w:12;/N:49	-8.65208
;N:22	-8.6532
;N:72;N:84	-8.65377
;N:69;w:3;/N:69;w:3	-8.65567
;N:53;w:4;/N:53	-8.65623
;/N:55;/N:59	-8.65686
;w:12;N:57	-8.65751
;D:36;D:51	-8.66071
;/N:44	-8.66236
;N:75;N:87	-8.66551
;N:52;N:56	-8.66699
;w:12;N:61	-8.66852
;N:33;w:24;/N:33	-8.66942
;N:48;w:3;/N:48	-8.67024
;N:68;w:9;/N:68;w:3	-8.67057
;N:75;w:18;/N:75	-8.67218
;w:12;/N:62	-8.67229
;w:6;/N:41	-8.67275
;N:81;w:4;/N:81	-8.67694
;N:60;w:4;/N:60	-8.67794
;N:71;w:3;/N:71;w:3	-8.6783
;N:91;w:6;/N:91	-8.68131
;T:38	-8.68151
;N:31;N:43	-8.68168
;/N:23	-8.68226
;N:52;N:57	-8.68241
;w:12;/N:48	-8.68334
;N:79;N:82	-8.68366
;N:67;w:9;/N:67;w:3	-8.684
;N:70;w:9;/N:70;w:3	-8.68482
;N:58;N:63;N:67	-8.68557
;N:58;w:4;/N:58	-8.68998
;/N:54;/N:57	-8.69498
;N:93;w:12;/N:93	-8.69573
;w:12;N:62	-8.6977
;N:72;w:3;/N:72;w:3	-8.69888
;N:47;w:3;/N:47	-8.6989
;/N:57;/N:61	-8.69902
;w:3;/N:48	-8.70055
;w:12;/N:40	-8.70065
;/N:75;/N:78	-8.70243
;T:80	-8.70352
;N:69;w:9;/N:69;w:3	-8.70403
;w:12;/N:45	-8.70441
;w:6;/N:40	-8.70483
;w:12;/N:42	-8.7062
;N:50;w:8;/N:50	-8.70827
;N:65;w:3;/N:65;w:3	-8.7088
;/N:71;/N:75	-8.70931
;/N:78;/N:81	-8.71067
;w:12;N:56	-8.71131
;N:62;w:18;/N:62	-8.71285
;w:12;N:58	-8.71371
;N:66;w:9;/N:66;w:3	-8.71391
;w:3;/N:46	-8.71517
;N:59;w:4;/N:59	-8.71529
;w:12;/N:64	-8.71548
;/N:70;/N:74	-8.71576
;T:49;T:5	-8.71601
;N:50;N:54	-8.71624
;/N:55;/N:58	-8.71634
;N:43;N:50	-8.71717
;N:83;w:4;/N:83	-8.7177
;N:92;w:6;/N:92	-8.71897
;N:94;w:12;/N:94	-8.71913
;N:44;N:51	-8.71967
;T:41	-8.72021
;/N:24	-8.7212
;w:3;/N:49	-8.72193
;N:68;w:3;/N:68;w:3	-8.72266
;N:67;w:3;/N:67;w:3	-8.72367
;N:51;N:55	-8.72394
;N:66;w:3;/N:66;w:3	-8.72637
;N:83;w:3;/N:83	-8.72815
;N:74;N:86	-8.72833
;w:3;/N:47	-8.72975
;T:40	-8.72977
;w:24;D:36	-8.73046
;N:50;N:53	-8.73085
;N:58;N:65	-8.73141
;/N:39	-8.73156
;N:50;N:55	-8.73229
;w:12;/N:39	-8.7328
;N:65;w:9;/N:65;w:3	-8.73722
;N:90;w:6;/N:90	-8.73907
;/N:59;/N:63	-8.73918
;N:73;w:3;/N:73;w:3	-8.73918
;N:60;N:65;N:69	-8.7436
;N:70;N:75	-8.74457
;N:45;w:3;/N:45	-8.74487
;N:64;N:68;N:71	-8.74659
;/N:58;/N:62	-8.74697
;/N:69;/N:74	-8.74959
;N:59;N:66	-8.74984
;N:76;w:18;/N:76	-8.75098
;N:100	-8.75138
;N:71;w:9;/N:71;w:3	-8.75154
;N:73;N:77	-8.75178
;/N:98	-8.75272
;w:12;N:55	-8.75282
;N:97;w:6;/N:97	-8.75333
;N:49;w:8;/N:49	-8.75395
;N:51;w:4;/N:51	-8.75695
;N:54;N:58;N:61	-8.75944
;N:28;w:6;/N:28	-8.76322
;N:72;w:9;/N:72;w:3	-8.76366
;N:57;N:62;N:66	-8.76404
;N:59;N:64;N:68	-8.766
;N:49;N:53	-8.76916
;/N:76;/N:79	-8.76936
;N:60;N:67	-8.77069
;/N:72;/N:76	-8.77114
;N:82;w:8;/N:82	-8.77209
;N:82;N:85	-8.77245
;T:44	-8.77255
;N:51;N:56	-8.77451
;N:74;w:3;/N:74;w:3	-8.77693
;w:12;D:46	-8.77882
;N:64;w:9;/N:64;w:3	-8.78023
;w:3;/N:45	-8.78125
;N:67;w:9;/N:67	-8.78145
;N:70;w:9;/N:70	-8.78276
;w:3;/N:44	-8.78357
;N:55;N:60;N:64	-8.78403
;N:64;w:3;/N:64;w:3	-8.78455
;N:69;w:9;/N:69	-8.78539
;/N:81;/N:84	-8.78673
;w:6;/N:66	-8.78784
;N:68;w:9;/N:68	-8.78871
;N:66;w:9;/N:66	-8.78972
;T:43	-8.78992
;N:46;w:3;/N:46	-8.79209
;N:84;w:4;/N:84	-8.79299
;N:73;w:3	-8.79406
;/N:34	-8.79979
;w:12;D:38	-8.80097
;w:3;/N:43	-8.80227
;N:60;w:18;/N:60	-8.80345
;N:61;N:68	-8.80356
;N:63;w:3;/N:63;w:3	-8.80468
;w:12;N:65	-8.80493
;w:3;/N:71	-8.80538
;/N:77;/N:80	-8.80595
;N:76;N:79	-8.80865
;N:65;w:9;/N:65	-8.80933
;N:72;w:3	-8.81
;w:12;/N:66	-8.8106
;N:48;N:52	-8.81073
;N:61;w:18;/N:61	-8.81233
;N:76;N:88	-8.81249
;N:62;w:3;/N:62;w:3	-8.81346
;N:75;w:9;/N:75;w:3	-8.81459
;/N:70;/N:75	-8.8161
;N:47;w:8;/N:47	-8.81692
;N:95;w:6;/N:95	-8.81709
;N:75;w:3	-8.81739
;N:75;w:3;/N:75;w:3	-8.81747
;w:12;N:63	-8.8176
;w:24;D:38	-8.81886
;N:80;N:83	-8.81939
;N:48;w:8;/N:48	-8.81944
;N:93;w:6;/N:93	-8.82111
;w:45;/N:5	-8.8235
;N:73;w:9;/N:73;w:3	-8.82467
;w:12;N:54	-8.82497
;N:77;N:80	-8.82628
;/N:54;/N:58	-8.82636
;N:77;w:18;/N:77	-8.82674
;/N:54;/N:59	-8.83
;N:72;N:76	-8.83095
;w:3;/N:40	-8.83109
;N:49;N:52	-8.83112
;N:74;w:3	-8.83289
;/N:38	-8.83518
;N:56;N:61;N:65	-8.83657
;N:64;w:9;/N:64	-8.83789
;N:63;w:9;/N:63;w:3	-8.83841
;/N:37	-8.83911
;/N:58;/N:62;/N:65	-8.83914
;N:84;w:8;/N:84	-8.83943
;N:71;w:3	-8.84076
;w:12;/N:65	-8.84121
;N:44;w:3;/N:44	-8.84128
;N:65;N:69;N:72	-8.84133
;N:61;w:3;/N:61;w:3	-8.84248
;N:32;w:24;/N:32	-8.84349
;w:3;/N:73	-8.84387
;w:3;/N:42	-8.84394
;N:71;N:75;N:78	-8.84417
;w:24;/N:63	-8.84443
;w:3;/N:41	-8.84521
;/N:75;/N:79	-8.84574
;w:6;/N:67	-8.84648
;N:21	-8.84686
;w:3;/N:72	-8.84726
;/N:59;/N:66	-8.84828
;w:6;D:38	-8.84834
;w:24;/N:64	-8.84837
;N:44;w:8;/N:44	-8.84879
;N:52;N:56;N:59	-8.8489
;/N:73;/N:77	-8.84941
;N:20	-8.85063
;N:53;N:57;N:60	-8.85104
;N:46;w:8;/N:46	-8.85235
;N:59;N:62;N:67	-8.85252
;N:51;N:55;N:58	-8.85456
;N:71;w:9;/N:71	-8.85475
;/N:71;/N:76	-8.85593
;N:68;N:73;N:77	-8.85671
;/N:67;/N:79	-8.85693
;/N:32	-8.85711
;N:86;w:24;/N:86	-8.85712
;N:78;w:18;/N:78	-8.85869
;/N:57;/N:64	-8.8588
;/N:57;/N:61;/N:64	-8.85925
;N:62;N:69	-8.85956
;N:68;w:36;/N:68	-8.85971
;N:61;N:66;N:70	-8.86
;/N:69;/N:81	-8.86216
;N:60;N:63;N:68	-8.86248
;N:67;w:36;/N:67	-8.86289
;/N:59;/N:63;/N:66	-8.86336
;N:51;N:54	-8.86346
;/N:33	-8.86461
;N:63;w:9;/N:63	-8.86476
;w:12;N:66	-8.8649
;w:12;N:64	-8.86633
;w:12;/N:38	-8.8674
;N:72;w:9;/N:72	-8.86827
;N:62;w:9;/N:62;w:3	-8.86917
;N:63;N:70	-8.87118
;N:61;N:64;N:69	-8.87141
;/N:79;/N:82	-8.87155
;w:6;/N:68	-8.87176
;N:30;N:42	-8.87261
;N:64;N:71	-8.87334
;N:45;w:8;/N:45	-8.87461
;N:76;w:3;/N:76;w:3	-8.87477
;N:69;w:36;/N:69	-8.87496
;/N:61;/N:73	-8.87672
;/N:59;/N:71	-8.87797
;/N:60;/N:72	-8.87835
;N:95;w:12;/N:95	-8.87895
;N:66;N:73	-8.87948
;/N:31	-8.88073
;/N:58;/N:65	-8.88115
;/N:74;/N:78	-8.88254
;N:83;w:8;/N:83	-8.88321
;N:70;w:3	-8.88436
;N:70;w:36;/N:70	-8.88473
;w:12;/N:67	-8.88488
;N:84;w:3;/N:84	-8.88505
;N:76;w:9;/N:76;w:3	-8.88514
;/N:63;/N:70	-8.88816
;/N:56;/N:63	-8.88862
;/N:56;/N:60;/N:63	-8.89004
;N:76;w:3	-8.89098
;N:78;N:81	-8.89168
;/N:60;/N:67	-8.89176
;N:66;w:36;/N:66	-8.89253
;N:70;N:74;N:77	-8.89328
;N:87;w:24;/N:87	-8.8937
;T:37	-8.89427
;/N:100	-8.89437
;N:27;w:6;/N:27	-8.89482
;N:73;w:9;/N:73	-8.89638
;/N:58;/N:70	-8.89742
;N:62;w:9;/N:62	-8.89805
;w:6;/N:39	-8.8982
;N:101	-8.89833
;/N:53;/N:60	-8.89881
;/N:28	-8.89972
;N:66;N:70;N:73	-8.90023
;N:77;N:89	-8.90339
;N:57;N:60;N:65	-8.90484
;T:48;T:5	-8.90489
;N:42;N:49	-8.90608
;N:77;w:3;/N:77;w:3	-8.9067
;N:31;w:24;/N:31	-8.90793
;T:39	-8.90818
;/N:68;/N:80	-8.90821
;N:74;w:9;/N:74;w:3	-8.90915
;N:58;N:61;N:66	-8.90922
;/N:77;/N:82	-8.90938
;/N:74;/N:79	-8.91122
;N:71;w:36;/N:71	-8.91135
;/N:61;/N:68	-8.91405
;N:58;w:3;/N:58;w:3	-8.91417
;w:24;/N:61	-8.91719
;w:12;N:67	-8.9176
;N:60;w:3;/N:60;w:3	-8.91907
;/N:82;/N:85	-8.91939
;N:85;w:3;/N:85	-8.92003
;/N:57;/N:69	-8.92123
;N:85;w:4;/N:85	-8.92166
;w:6;D:38;D:42	-8.9237
;/N:79;/N:84	-8.924
;N:71;N:76	-8.92614
;N:43;w:8;/N:43	-8.92653
;N:77;w:3	-8.9271
;/N:53;/N:56	-8.92902
;/N:25	-8.9305
;/N:56;/N:68	-8.93066
;/N:63;/N:67;/N:70	-8.93122
;N:50;N:54;N:57	-8.93148
;T:81	-8.93287
;/N:63;/N:75	-8.93314
;N:65;w:36;/N:65	-8.93457
;N:72;w:36;/N:72	-8.93583
;w:6;/N:38	-8.93678
;N:69;w:16;/N:69	-8.93857
;/N:62;/N:69	-8.9393
;/N:53;/N:57	-8.93931
;N:54;N:59;N:63	-8.93993
;w:12;D:37	-8.94027
;/N:66;/N:78	-8.94051
;/N:65;/N:77	-8.94174
;/N:52;/N:55	-8.94254
;N:59;w:18;/N:59	-8.94257
;N:77;N:82	-8.94268
;/N:30	-8.94322
;/N:72;/N:77	-8.94368
;N:64;w:36;/N:64	-8.94423
;N:74;N:78	-8.94469
;N:54;w:4;/N:54	-8.9448
;/N:54;/N:58;/N:61	-8.94518
;w:12;N:52	-8.94558
;/N:64;/N:71	-8.947
;/N:64;/N:76	-8.94704
;N:80;N:85	-8.94767
;N:42;w:8;/N:42	-8.9492
;N:71;N:78	-8.95121
;N:77;N:81	-8.95175
;N:68;w:16;/N:68	-8.95233
;/N:62;/N:66;/N:69	-8.95339
;N:81;N:85	-8.95402
;w:24;/N:59	-8.95549
;N:73;w:36;/N:73	-8.95599
;/N:80;/N:83	-8.95618
;w:3;/N:39	-8.95694
;N:59;w:3;/N:59;w:3	-8.95728
;N:58;w:18;/N:58	-8.95786
;/N:62;/N:74	-8.95831
;N:81;N:84	-8.96132
;/N:55;/N:59;/N:62	-8.96182
;/N:60;/N:64;/N:67	-8.96237
;N:65;N:72	-8.96267
;w:1;/N:54	-8.96278
;N:61;w:9;/N:61;w:3	-8.9632
;T:35	-8.96445
;N:75;N:79	-8.96487
;N:85;w:8;/N:85	-8.96529
;T:36	-8.96565
;w:24;/N:55	-8.96775
;/N:61;/N:65;/N:68	-8.96878
;D:48;D:50	-8.97161
;/N:39;/N:51	-8.97187
;N:70;w:16;/N:70	-8.97234
;N:25;w:12;/N:25	-8.97236
;N:78;w:3	-8.97478
;N:62;N:65;N:70	-8.97587
;N:42;w:3;/N:42	-8.976
;N:71;w:16;/N:71	-8.97745
;/N:35;/N:47	-8.97864
;N:58;w:9;/N:58;w:3	-8.97973
;/N:74;/N:86	-8.98185
;N:78;w:3;/N:78;w:3	-8.98241
;N:43;w:3;/N:43	-8.98348
;N:98;w:6;/N:98	-8.98368
;/N:27	-8.98372
;N:70;w:4;/N:70;w:2	-8.98381
;N:66;N:69;N:73	-8.98404
;w:24;/N:58	-8.98426
;w:12;N:53	-8.98441
;N:67;w:16;/N:67	-8.98519
;N:60;w:9;/N:60;w:3	-8.98696
;N:29;N:41	-8.98765
;N:79;w:18;/N:79	-8.99152
;w:24;/N:57	-8.99175
;w:6;/N:69	-8.99178
;w:45;/N:4	-8.99183
;/N:75;/N:80	-8.99247
;/N:71;/N:83	-8.99422
;/N:53;/N:58	-8.9944
;w:24;/N:65	-8.99514
;N:57;w:9;/N:57;w:3	-8.99877
;N:77;w:9;/N:77;w:3	-8.99973
;/N:55;/N:67	-8.99985
;w:24;/N:50	-8.99987
;N:52;w:4;/N:52	-9.00102
;w:24;/N:66	-9.00124
;N:68;N:75	-9.00151
;N:74;w:9;/N:74	-9.00154
;N:78;N:82	-9.0021
;/N:76;/N:80	-9.00216
;w:24;/N:56	-9.00237
;/N:33;/N:45	-9.00242
;/N:55;/N:62	-9.00254
;N:72;N:79	-9.00555
;N:69;w:4;/N:69;w:2	-9.00587
;N:79;N:84	-9.00685
;/N:49;/N:56	-9.00692
;/N:73;/N:78	-9.00754
;/N:79;/N:83	-9.00779
;/N:66;/N:73	-9.00791
;N:41;w:8;/N:41	-9.01039
;N:70;N:77	-9.01048
;/N:52;/N:59	-9.01093
;N:19	-9.01148
;N:63;w:36;/N:63	-9.01215
;N:48;w:4;/N:48	-9.01215
;N:71;w:4;/N:71;w:2	-9.01245
;D:36;D:42;w:12;D:42	-9.0133
;N:61;N:70	-9.01348
;/N:70;/N:82	-9.01407
;/N:101	-9.01525
;N:67;N:70;N:74	-9.01599
;/N:22	-9.0168
;N:87;w:3;/N:87	-9.01734
;N:52;N:57;N:61	-9.01803
;N:75;w:9;/N:75	-9.01884
;N:55;w:3;/N:55;w:3	-9.01981
;N:68;N:77	-9.01993
;N:57;w:18;/N:57	-9.02082
;/N:53;/N:57;/N:60	-9.02105
;/N:77;/N:81	-9.02207
;w:24;D:42	-9.0227
;w:45;/N:6	-9.0228
;N:88;w:3;/N:88	-9.023
;N:66;w:16;/N:66	-9.02424
;/N:54;/N:66	-9.02436
;N:62;w:36;/N:62	-9.0263
;N:49;N:54	-9.02727
;N:26;w:6;/N:26	-9.02993
;N:55;w:4;/N:55	-9.03035
;N:50;N:55;N:59	-9.0306
;/N:73;/N:85	-9.03104
;N:72;N:76;N:79	-9.03146
;N:72;w:16;/N:72	-9.03186
;/N:50;/N:57	-9.03309
;N:78;N:90	-9.03373
;N:72;w:4;/N:72;w:2	-9.03377
;w:12;/N:68	-9.03414
;N:37;w:8;/N:37	-9.03553
;D:69;D:70	-9.03697
;T:82	-9.03708
;w:1;/N:53	-9.03772
;N:79;N:83	-9.03773
;N:59;N:62;N:66	-9.038
;/N:54;/N:61	-9.03855
;N:69;w:3	-9.0389
;N:62;N:67;N:71	-9.0394
;/N:51;/N:56	-9.03981
;w:12;N:68	-9.03986
;/N:65;/N:72	-9.03993
;N:102	-9.04027
;/N:44;/N:56	-9.04047
;N:94;w:3;/N:94	-9.04056
;N:74;w:36;/N:74	-9.04065
;/N:75;/N:87	-9.04088
;/N:34;/N:46	-9.04192
;N:79;w:3;/N:79;w:3	-9.04197
;N:57;w:3;/N:57;w:3	-9.04257
;N:63;N:66;N:71	-9.04274
;/N:52;/N:57	-9.0428
;N:48;N:53	-9.04288
;N:41;N:48	-9.04477
;N:60;N:63;N:67	-9.04527
;/N:50;/N:55	-9.04603
;N:83;N:86	-9.04656
;N:39;w:8;/N:39	-9.04795
;w:6;D:37	-9.04821
;N:56;N:59;N:64	-9.0487
;N:41;w:18;/N:41	-9.04975
;/N:72;/N:84	-9.04975
;N:79;w:3	-9.05051
;N:63;N:72	-9.05051
;N:66;w:3	-9.05155
;N:69;N:73;N:76	-9.05324
;N:61;w:6;/N:61;w:6	-9.05382
;N:77;w:6;/N:77;w:6	-9.05473
;N:47;N:51	-9.05527
;N:38;w:4;/N:38	-9.05558
;N:59;w:9;/N:59;w:3	-9.05612
;w:3;/N:74	-9.05616
;/N:41;/N:53	-9.05745
;N:73;N:80	-9.05752
;N:96;w:12;/N:96	-9.05935
;N:65;w:16;/N:65	-9.05956
;D:54;D:69	-9.05958
;w:24;/N:51	-9.05966
;/N:20	-9.06019
;w:12;/N:69	-9.06021
;N:103	-9.06056
;w:24;/N:53	-9.06061
;N:75;w:36;/N:75	-9.06126
;N:73;w:16;/N:73	-9.06164
;/N:51;/N:63	-9.06253
;/N:42;/N:54	-9.0632
;N:90;w:3;/N:90	-9.06335
;D:38;D:46	-9.06424
;N:54;N:57;N:61	-9.06429
;N:52;N:55;N:59	-9.06437
;D:51;D:69	-9.06781
;N:47;N:52	-9.06789
;N:67;N:72;N:76	-9.06943
;/N:78;/N:82	-9.06955
;/N:65;/N:69;/N:72	-9.06957
;/N:70;/N:74;/N:77	-9.07087
;N:86;w:4;/N:86	-9.0709
;N:56;w:9;/N:56;w:3	-9.07152
;w:24;/N:62	-9.07169
;N:80;w:18;/N:80	-9.07195
;w:12;/N:37	-9.07211
;/N:31;/N:43	-9.0722
;/N:32;/N:44	-9.07252
;N:68;N:71;N:76	-9.0726
;N:65;w:3	-9.07271
;/N:80;/N:85	-9.07297
;N:69;N:72;N:77	-9.07319
;N:63;N:71	-9.07364
;N:55;N:58;N:62	-9.07393
;D:54;D:70	-9.07457
;N:66;N:71;N:75	-9.07475
;N:59;w:9;/N:59	-9.07479
;N:54;N:57;N:62	-9.07598
;N:48;N:51	-9.07644
;N:88;w:4;/N:88	-9.077
;N:40;w:8;/N:40	-9.07829
;N:53;N:58;N:62	-9.07855
;w:2;/N:62	-9.07861
;N:63;N:66;N:70	-9.07872
;/N:78;/N:83	-9.08018
;N:38;w:18;/N:38	-9.08047
;N:40;N:47	-9.08047
;/N:38;/N:50	-9.08107
;N:68;N:72;N:75	-9.08137
;N:68;N:76	-9.08163
;/N:81;/N:85	-9.08171
;N:72;N:77	-9.08192
;w:3;/N:38	-9.08212
;N:67;N:71;N:74	-9.08231
;N:65;N:68;N:72	-9.08324
;N:36;w:8;/N:36	-9.08412
;w:24;/N:52	-9.08442
;N:38;w:8;/N:38	-9.0847
;N:78;N:83	-9.08582
;w:24;/N:60	-9.08602
;/N:45;/N:57	-9.08654
;N:75;N:80	-9.08692
;w:24;/N:67	-9.0876
;/N:64;/N:68;/N:71	-9.08797
;/N:51;/N:54	-9.08807
;/N:72;/N:79	-9.08856
;N:56;w:18;/N:56	-9.08868
;/N:71;/N:78	-9.08922
;N:80;w:3	-9.0893
;/N:51;/N:58	-9.08956
;N:55;N:58;N:63	-9.08976
;N:64;w:16;/N:64	-9.08992
;N:63;N:68;N:72	-9.09105
;w:6;D:46	-9.09206
;N:67;N:74	-9.09208
;w:12;N:69	-9.09259
;w:1;/N:63	-9.09301
;N:68;N:71;N:75	-9.09328
;/N:52;/N:56	-9.09394
;N:50;w:4;/N:50	-9.09456
;D:38;D:42	-9.09529
;N:62;N:70	-9.09552
;N:61;w:9;/N:61	-9.0958
;N:64;N:67;N:71	-9.09585
;N:68;w:4;/N:68;w:2	-9.09623
;w:6;D:43	-9.097
;/N:40;/N:52	-9.09794
;N:56;w:3;/N:56;w:3	-9.0988
;N:30;w:24;/N:30	-9.09906
;/N:43;/N:55	-9.09998
;/N:61;/N:70	-9.09998
;N:69;N:74;N:78	-9.1004
;N:64;N:72	-9.10048
;N:64;N:73	-9.10151
;N:99;w:6;/N:99	-9.10161
;w:1;/N:62	-9.10186
;/N:80;/N:84	-9.10242
;N:73;N:77;N:80	-9.10294
;N:67;w:4;/N:67;w:2	-9.10296
;N:55;w:9;/N:55;w:3	-9.10304
;N:86;w:3;/N:86	-9.10306
;N:44;w:4;/N:44	-9.10375
;w:1;/N:52	-9.10394
;N:46;w:4;/N:46	-9.10502
;N:80;N:84	-9.10591
;w:12;D:45	-9.10723
;N:56;N:59;N:63	-9.10834
;w:2;/N:64	-9.10868
;N:88;w:24;/N:88	-9.10981
;N:64;N:67;N:72	-9.11207
;/N:58;/N:66	-9.11228
;N:105	-9.11263
;N:67;w:3	-9.11311
;D:51;D:54	-9.11312
;N:83;N:87	-9.11335
;N:74;w:16;/N:74	-9.11415
;/N:75;w:3	-9.11432
;N:28;N:40	-9.11511
;/N:55;/N:58;/N:63	-9.1157
;N:76;N:80	-9.11574
;N:76;w:9;/N:76	-9.11621
;/N:49;/N:61	-9.11621
;N:41;w:3;/N:41	-9.11641
;w:12;/N:59;N:59	-9.11653
;/N:81;/N:86	-9.11664
;/N:37;/N:49	-9.11729
;/N:52;/N:64	-9.11792
;w:27;/N:3	-9.12049
;w:12;N:70	-9.12071
;w:24;/N:54	-9.1209
;w:1;/N:65	-9.12103
;N:60;w:9;/N:60	-9.12151
;N:78;w:9;/N:78;w:3	-9.12164
;w:12;/N:61;N:61	-9.12193
;N:66;w:4;/N:66;w:2	-9.12211
;N:61;N:64;N:68	-9.12255
;/N:60;/N:62	-9.12277
;w:2;/N:61	-9.12304
;N:66;N:75	-9.12312
;N:70;N:73;N:78	-9.12517
;w:1;/N:64	-9.12563
;N:82;N:86	-9.12585
;N:73;w:4;/N:73;w:2	-9.12708
;w:1;/N:58	-9.12716
;N:57;N:60;N:64	-9.12717
;/N:50;/N:53	-9.12739
;N:74;w:4;/N:74;w:2	-9.12753
;N:61;w:36;/N:61	-9.12757
;w:2;/N:60	-9.12829
;w:1;/N:61	-9.12843
;w:2;/N:63	-9.12864
;N:87;w:3	-9.12881
;/N:66;/N:74	-9.1301
;w:6;/N:37	-9.13017
;w:24;N:58	-9.13041
;w:24;/N:47	-9.13096
;N:55;w:18;/N:55	-9.13149
;N:40;w:6;/N:40;w:6	-9.13204
;N:89;w:3;/N:89	-9.13286
;w:24;N:61	-9.13287
;N:45;N:52;N:57	-9.13296
;w:24;N:60	-9.13374
;N:81;N:86	-9.13446
;/N:67;/N:74	-9.13462
;N:43;w:18;/N:43	-9.13505
;w:12;/N:70	-9.13514
;N:65;N:73	-9.13626
;/N:53;/N:65	-9.13654
;w:12;/N:58;N:58	-9.13731
;N:97;w:12;/N:97	-9.13893
;N:87;w:4;/N:87	-9.13925
;N:39;w:6;/N:39;w:6	-9.13968
;N:81;N:93	-9.14033
;T:85	-9.14067
;/N:57;/N:62;/N:66	-9.1419
;w:12;/N:57;N:57	-9.14211
;N:62;N:65;N:69	-9.14223
;w:1;/N:57	-9.14282
;w:24;N:59	-9.14303
;N:35;w:8;/N:35	-9.14388
;w:12;/N:60;N:60	-9.14419
;N:58;N:61;N:65	-9.14427
;N:39;w:3;/N:39	-9.14588
;/N:73;/N:80	-9.1464
;N:65;w:4;/N:65;w:2	-9.14655
;N:66;N:74	-9.14796
;N:60;N:69	-9.14841
;N:44;w:18;/N:44	-9.1487
;N:53;N:56;N:61	-9.14885
;D:36;D:38;D:49	-9.15006
;w:12;/N:36	-9.15016
;N:69;N:77	-9.15016
;N:74;N:79	-9.1506
;/N:67;/N:69	-9.15074
;w:1;/N:60	-9.15094
;w:6;/N:70	-9.15113
;w:24;N:62	-9.15122
;/N:36;/N:48	-9.15261
;N:69;w:6;/N:69;w:6	-9.15345
;N:75;w:4;/N:75;w:2	-9.15395
;N:46;N:53;N:58	-9.15444
;w:3;/N:75	-9.15462
;/N:63;/N:65	-9.15475
;N:62;N:71	-9.15493
;w:6;D:36	-9.15578
;/N:60;/N:69	-9.156
;N:63;w:16;/N:63	-9.1567
;N:58;N:64	-9.15676
;N:53;N:56;N:60	-9.15762
;N:57;N:63	-9.15779
;N:55;w:6;/N:55;w:6	-9.1583
;/N:59;/N:68	-9.15831
;N:80;w:3;/N:80;w:3	-9.15887
;w:24;/N:68	-9.15895
;N:73;N:78	-9.15944
;N:63;w:6;/N:63;w:6	-9.16041
;/N:53;/N:58;/N:62	-9.16187
;/N:46;/N:58	-9.16244
;N:65;N:68;N:73	-9.16274
;/N:68;/N:75	-9.16291
;/N:50;/N:62	-9.16302
;/N:71;/N:75;/N:78	-9.16371
;N:65;N:74	-9.16397
;/N:58;/N:67	-9.16514
;N:84;N:87	-9.16554
;D:36;D:37	-9.16677
;N:75;w:16;/N:75	-9.1673
;N:61;N:69	-9.16732
;N:37;w:6;/N:37;w:6	-9.16786
;/N:26	-9.16846
;w:18;D:36	-9.17089
;N:73;w:6;/N:73;w:6	-9.17101
;N:65;N:70;N:74	-9.17104
;N:93;w:3;/N:93	-9.17121
;w:24;/N:46	-9.1718
;N:40;w:3;/N:40	-9.17181
;N:54;w:9;/N:54;w:3	-9.17297
;N:60;w:36;/N:60	-9.17365
;w:1;/N:66	-9.17489
;N:86;w:8;/N:86	-9.17522
;N:92;w:3;/N:92	-9.17533
;N:56;N:65	-9.17571
;w:24;N:57	-9.17612
;w:2;/N:59	-9.17663
;N:64;w:3	-9.17699
;N:42;w:4;/N:42	-9.17723
;N:63;N:68;N:71	-9.17771
;N:76;N:81	-9.17815
;N:52;N:55;N:60	-9.17902
;w:24;N:63	-9.17929
;N:35;w:18;/N:35	-9.17969
;w:2;/N:58	-9.18025
;w:3;/N:37	-9.18029
;N:67;N:75	-9.18043
;w:1;/N:59	-9.18062
;N:54;w:6;/N:54;w:6	-9.18089
;N:76;w:36;/N:76	-9.18192
;N:58;N:62;N:67	-9.18195
;T:83	-9.18263
;N:68;w:3	-9.18316
;N:54;N:62	-9.18318
;N:46;N:50	-9.1841
;N:54;w:18;/N:54	-9.18448
;/N:48;/N:60	-9.18608
;/N:47;/N:54	-9.18621
;T:51;T:5	-9.18659
;/N:83;/N:86	-9.18777
;N:49;w:4;/N:49	-9.18839
;N:64;w:4;/N:64;w:2	-9.18872
;N:70;N:79	-9.18877
;N:55;N:64	-9.18885
;N:38;w:6;/N:38;w:6	-9.18952
;/N:62;/N:64	-9.19027
;w:6;D:36;D:38;D:42	-9.19091
;N:47;N:54;N:59	-9.19095
;N:104	-9.1911
;D:51;D:70	-9.19196
;N:51;N:56;N:60	-9.19238
;T:34	-9.19289
;/N:52;/N:56;/N:59	-9.19351
;N:45;w:18;/N:45	-9.19359
;/N:66;/N:70;/N:73	-9.19428
;N:62;N:68	-9.19464
;/N:64;/N:66	-9.19602
;N:57;w:9;/N:57	-9.19608
;N:89;w:4;/N:89	-9.19689
;N:48;N:52;N:55	-9.1971
;N:59;N:63;N:68	-9.19759
;N:67;N:76	-9.19769
;/N:46;/N:53	-9.19783
;N:70;N:75;N:79	-9.198
;N:46;w:18;/N:46	-9.19863
;N:47;N:50	-9.19893
;N:69;N:76	-9.19963
;/N:76;/N:81	-9.20176
;w:2;/N:65	-9.20296
;D:51;D:53	-9.20323
;N:49;N:53;N:56	-9.2037
;/N:54;/N:59;/N:63	-9.20416
;/N:63;/N:72	-9.20425
;/N:59;/N:64;/N:68	-9.20429
;w:24;N:56	-9.20442
;N:63;N:67;N:72	-9.20463
;N:66;w:6;/N:66;w:6	-9.20501
;N:82;N:87	-9.20502
;w:24;/N:48	-9.20546
;/N:76;/N:88	-9.20683
;N:77;w:9;/N:77	-9.20761
;N:62;N:64	-9.20804
;N:36;w:4;/N:36	-9.20871
;N:70;w:6;/N:70;w:6	-9.20894
;/N:68;/N:70	-9.20912
;N:77;w:36;/N:77	-9.21026
;N:63;w:4;/N:63;w:2	-9.21146
;w:6;D:41	-9.21167
;/N:55;/N:60;/N:64	-9.21194
;N:50;w:9;/N:50;w:3	-9.21249
;/N:57;/N:66	-9.21259
;N:58;N:67	-9.21289
;N:81;w:18;/N:81	-9.21389
;/N:56;/N:61;/N:65	-9.21403
;w:12;/N:56;N:56	-9.21422
;w:6;D:36;D:38	-9.21476
;N:36;w:6;/N:36;w:6	-9.2157
;N:54;w:3;/N:54;w:3	-9.216
;w:2;/N:66	-9.21602
;/N:47;/N:59	-9.21616
;N:59;N:68	-9.21668
;N:67;w:6;/N:67;w:6	-9.21704
;w:12;D:38;D:42	-9.2171
;w:1;/N:50	-9.21733
;/N:70;/N:77	-9.21744
;/N:68;/N:73;/N:77	-9.21782
;/N:30;/N:42	-9.21813
;w:12;N:50	-9.21825
;w:12;/N:55;N:55	-9.21915
;N:57;N:61;N:66	-9.22022
;/N:66;/N:68	-9.22027
;N:52;w:9;/N:52;w:3	-9.22028
;w:12;/N:63;N:63	-9.22052
;/N:19	-9.22055
;N:24;w:12;/N:24	-9.22062
;N:62;w:16;/N:62	-9.22122
;N:39;w:9;/N:39;w:3	-9.22196
;N:68;w:6;/N:68;w:6	-9.22203
;w:1;/N:67	-9.2223
;N:51;w:9;/N:51;w:3	-9.22294
;N:48;N:55;N:60	-9.22345
;N:44;N:51;N:56	-9.22365
;N:46;N:51	-9.22378
;w:72;/N:5	-9.22415
;w:12;/N:62;N:62	-9.22454
;N:53;w:9;/N:53;w:3	-9.22457
;N:41;w:4;/N:41	-9.22496
;w:12;D:42	-9.2253
;T:45;T:5	-9.22572
;N:55;N:63	-9.22649
;w:24;/N:70	-9.22677
;N:89;w:24;/N:89	-9.22689
;N:79;N:91	-9.22697
;/N:59;/N:61	-9.22747
;N:53;w:18;/N:53	-9.22757
;N:40;w:4;/N:40	-9.22828
;/N:83;/N:87	-9.22829
;T:87	-9.22924
;w:1;/N:51	-9.22934
;D:48;D:69	-9.22941
;N:40;w:9;/N:40;w:3	-9.2298
;N:72;w:6;/N:72;w:6	-9.23003
;/N:102	-9.23007
;/N:65;/N:67	-9.23063
;N:59;w:36;/N:59	-9.23188
;/N:82;/N:87	-9.23229
;N:60;w:6;/N:60;w:6	-9.23303
;/N:48;/N:53	-9.23348
;w:12;D:43	-9.23361
;/N:105	-9.23366
;N:91;w:3;/N:91	-9.23467
;w:12;D:39	-9.23495
;/N:68;/N:72;/N:75	-9.23532
;D:43;D:45	-9.2354
;/N:68;/N:77	-9.23558
;/N:70;w:3	-9.2365
;w:24;/N:49	-9.23727
;N:49;w:18;/N:49	-9.2373
;/N:63;/N:71	-9.23755
;w:24;N:64	-9.23771
;N:58;w:9;/N:58	-9.23792
;/N:61;/N:64;/N:68	-9.23848
;N:64;w:6;/N:64;w:6	-9.2385
;w:24;N:54	-9.2386
;w:6;D:37;D:42	-9.23884
;/N:61;/N:69	-9.23895
;w:24;/N:71	-9.23905
;N:56;N:62	-9.23944
;N:42;w:9;/N:42;w:3	-9.23992
;N:38;w:9;/N:38;w:3	-9.24057
;N:41;w:9;/N:41;w:3	-9.2408
;/N:58;/N:63;/N:67	-9.24159
;N:52;w:18;/N:52	-9.24168
;N:34;w:8;/N:34	-9.24172
;N:47;w:18;/N:47	-9.24187
;/N:76;w:3	-9.24209
;N:74;N:81	-9.24228
;w:6;/N:36	-9.24242
;N:29;w:24;/N:29	-9.24316
;D:42;D:51	-9.24339
;w:2;/N:57	-9.24424
;/N:47;/N:52	-9.24456
;D:45;D:47	-9.24458
;N:25;N:37	-9.24473
;N:60;N:64;N:69	-9.24554
;w:1;/N:56	-9.24619
;/N:54;/N:62	-9.24642
;w:12;N:71	-9.24664
;/N:54;/N:57;/N:62	-9.24699
;T:86	-9.24766
;N:82;w:3	-9.24861
;N:61;N:63	-9.24868
;N:59;N:67	-9.2492
;w:24;N:55	-9.24926
;N:76;w:16;/N:76	-9.2493
;N:81;w:3	-9.25146
;N:95;w:3;/N:95	-9.25242
;N:63;N:65	-9.25285
;/N:61;/N:63	-9.25316
;N:56;N:61;N:64	-9.25385
;N:49;N:56;N:61	-9.25411
;N:71;w:6;/N:71;w:6	-9.25438
;N:54;N:60	-9.25462
;/N:63;/N:66;/N:71	-9.25474
;/N:77;/N:89	-9.255
;N:67;N:70;N:75	-9.25554
;N:65;w:6;/N:65;w:6	-9.25609
;N:53;w:3;/N:53;w:3	-9.25644
;/N:62;/N:70	-9.25687
;N:51;w:18;/N:51	-9.25694
;N:81;w:3;/N:81;w:3	-9.25744
;/N:57;/N:65	-9.25773
;/N:64;/N:69;/N:73	-9.25938
;N:69;N:72;N:76	-9.25976
;N:63;N:69	-9.25997
;/N:82;w:3	-9.26012
;w:24;/N:45	-9.26019
;/N:73;w:3	-9.26022
;N:79;w:9;/N:79;w:3	-9.2608
;T:33	-9.2612
;/N:82;/N:86	-9.26148
;/N:72;w:3	-9.26158
;/N:61;/N:66;/N:70	-9.26166
;w:24;/N:2	-9.26288
;N:62;w:6;/N:62;w:6	-9.26297
;N:87;w:8;/N:87	-9.26365
;/N:61;/N:64;/N:69	-9.26387
;N:57;N:66	-9.26423
;N:47;w:4;/N:47	-9.26425
;/N:62;/N:71	-9.26429
;N:53;N:62	-9.26473
;N:50;w:3;/N:50;w:3	-9.26475
;N:50;w:18;/N:50	-9.26492
;N:60;N:66	-9.26593
;D:56;D:69	-9.26649
;N:74;w:6;/N:74;w:6	-9.2672
;N:62;w:4;/N:62;w:2	-9.26743
;N:63;w:3	-9.26779
;N:37;w:9;/N:37;w:3	-9.26823
;N:76;w:4;/N:76;w:2	-9.26824
;N:52;N:59;N:64	-9.2683
;N:43;w:9;/N:43;w:3	-9.2688
;N:76;w:6;/N:76;w:6	-9.26925
;N:34;w:18;/N:34	-9.26932
;/N:64;/N:73	-9.26968
;/N:56;/N:59;/N:64	-9.27002
;/N:71;w:3	-9.27066
;N:50;N:57;N:62	-9.27102
;N:38;w:3;/N:38	-9.2717
;N:44;w:9;/N:44;w:3	-9.27218
;N:57;N:65	-9.27226
;w:12;D:36;D:38	-9.27238
;N:39;w:4;/N:39	-9.27266
;/N:60;/N:63;/N:68	-9.2727
;N:66;N:69;N:74	-9.27472
;T:84	-9.27475
;N:85;N:88	-9.27502
;/N:49;/N:54	-9.27505
;/N:21	-9.27615
;D:48;D:51	-9.27681
;/N:59;/N:62;/N:67	-9.27718
;N:56;N:64	-9.27727
;/N:67;/N:70;/N:74	-9.27774
;w:2;/N:54	-9.27829
;/N:58;/N:60	-9.27955
;N:61;N:65;N:70	-9.27963
;D:46;D:51	-9.27997
;N:55;w:9;/N:55	-9.28039
;/N:44;/N:51	-9.2804
;D:42;D:54	-9.28069
;w:24;N:65	-9.28112
;/N:65;/N:68;/N:72	-9.28172
;/N:52;/N:57;/N:61	-9.28207
;N:61;N:67	-9.28244
;N:59;N:64;N:67	-9.28284
;/N:68;/N:71;/N:76	-9.28289
;N:60;N:68	-9.2831
;/N:53;/N:62	-9.28315
;/N:64;/N:72	-9.28354
;N:45;w:4;/N:45	-9.28367
;/N:45;/N:52	-9.28437
;N:36;w:9;/N:36;w:3	-9.2847
;N:64;N:68;N:73	-9.28484
;/N:66;/N:69;/N:73	-9.28685
;w:18;D:38	-9.28718
;N:58;w:4;/N:58;w:2	-9.28726
;N:56;w:9;/N:56	-9.28855
;/N:68;/N:76	-9.28868
;N:84;w:3	-9.28975
;N:61;w:16;/N:61	-9.2906
;N:43;N:50;N:55	-9.29068
;w:3;/N:36	-9.29191
;N:75;w:6;/N:75;w:6	-9.29193
;/N:62;/N:65;/N:70	-9.29199
;N:78;w:9;/N:78	-9.29284
;/N:57;/N:63	-9.29306
;N:49;w:9;/N:49;w:3	-9.29314
;/N:57;/N:60;/N:65	-9.29318
;/N:54;/N:63	-9.29343
;/N:60;/N:63;/N:67	-9.29373
;N:70;w:6	-9.29409
;w:27;/N:4	-9.29425
;N:48;w:18;/N:48	-9.29428
;N:82;N:94	-9.29533
;/N:59;/N:62;/N:66	-9.29579
;N:42;w:9;/N:42	-9.29698
;N:52;w:3;/N:52;w:3	-9.29712
;D:38;D:49	-9.29758
;/N:51;/N:55	-9.29871
;N:59;N:65	-9.3
;N:65;N:71	-9.30016
;w:6;D:36;D:42	-9.30028
;N:51;N:58;N:63	-9.3005
;N:71;N:80	-9.30134
;N:41;w:6;/N:41;w:6	-9.30172
;/N:67;/N:71;/N:74	-9.30212
;N:43;w:6;/N:43;w:6	-9.30304
;/N:59;/N:67	-9.30313
;/N:81;/N:93	-9.30332
;N:78;w:36;/N:78	-9.30379
;N:48;w:3;/N:48;w:3	-9.30432
;/N:42;/N:49	-9.3045
;N:62;N:67;N:70	-9.30491
;/N:59;/N:65	-9.30567
;/N:56;/N:65	-9.30642
;N:70;N:78	-9.30657
;/N:62;/N:65;/N:69	-9.30682
;/N:55;/N:63	-9.30682
;N:82;w:3;/N:82;w:3	-9.30691
;/N:61;/N:67	-9.30698
;N:70;N:73;N:77	-9.30717
;/N:48;/N:55	-9.3072
;N:35;w:9;/N:35;w:3	-9.30747
;N:53;N:57;N:62	-9.30787
;N:33;w:8;/N:33	-9.30829
;/N:62;/N:68	-9.30839
;N:80;w:9;/N:80;w:3	-9.30845
;N:71;N:76;N:80	-9.30851
;/N:58;/N:64	-9.30939
;N:42;w:6;/N:42;w:6	-9.3095
;w:12;N:49	-9.30968
;D:36;D:41	-9.30979
;w:6;D:39	-9.31009
;w:1;/N:55	-9.31052
;N:53;N:60;N:65	-9.31075
;/N:81;w:3	-9.31083
;N:43;w:4;/N:43	-9.31207
;/N:72;/N:76;/N:79	-9.31222
;/N:68;w:3	-9.31378
;N:54;N:63	-9.31389
;N:67;N:69	-9.3142
;w:24;/N:43	-9.31425
;N:51;w:3;/N:51;w:3	-9.31548
;/N:58;/N:61;/N:66	-9.3163
;N:106	-9.31663
;/N:74;/N:81	-9.31734
;N:65;N:67	-9.31795
;N:75;N:82	-9.31814
;w:12;D:36	-9.31819
;N:48;N:53;N:57	-9.31835
;N:83;w:2	-9.31844
;/N:67;/N:72;/N:76	-9.31855
;N:58;w:36;/N:58	-9.31892
;N:60;w:4;/N:60;w:2	-9.319
;N:59;N:61	-9.31961
;N:61;N:66;N:69	-9.31992
;N:69;N:78	-9.31993
;w:24;N:53	-9.32
;N:62;N:66;N:71	-9.32135
;N:55;N:60;N:63	-9.3216
;w:12;/N:54;N:54	-9.32201
;/N:63;/N:69	-9.32236
;w:2;/N:67	-9.32373
;N:49;w:3;/N:49;w:3	-9.32389
;N:35;w:6;/N:35;w:6	-9.32398
;/N:70;/N:72	-9.32445
;N:83;w:3	-9.32447
;w:1;/N:68	-9.32506
;N:54;w:9;/N:54	-9.32512
;/N:53;/N:56;/N:61	-9.32564
;/N:69;/N:77	-9.32588
;/N:67;w:3	-9.32609
;N:61;w:4;/N:61;w:2	-9.3261
;D:53;D:54	-9.32639
;w:24;/N:44	-9.32704
;/N:69;w:3	-9.32712
;N:82;w:18;/N:82	-9.32758
;w:3;/N:76	-9.32829
;/N:84;/N:87	-9.32912
;/N:103	-9.32936
;N:69;w:6	-9.32954
;/N:60;/N:68	-9.32986
;N:40;w:18;/N:40	-9.33011
;N:36;w:3;/N:36	-9.3306
;N:55;N:61	-9.33062
;N:77;w:4;/N:77;w:2	-9.33107
;N:41;w:9;/N:41	-9.33182
;/N:63;/N:66;/N:70	-9.33242
;N:98;w:12;/N:98	-9.33307
;N:51;N:54;N:59	-9.33368
;N:37;w:3;/N:37	-9.33423
;N:88;w:3	-9.33452
;/N:80;w:3	-9.33486
;w:72;/N:6	-9.33571
;N:39;N:46	-9.3359
;N:90;w:4;/N:90	-9.33714
;N:27;N:39	-9.33746
;w:1;/N:49	-9.33795
;N:68;N:70	-9.33862
;/N:68;/N:71;/N:75	-9.33886
;N:80;N:92	-9.33938
;N:60;w:16;/N:60	-9.34014
;N:45;N:50	-9.34059
;/N:69;/N:71	-9.34101
;/N:55;/N:64	-9.34127
;N:72;w:6	-9.34147
;N:84;N:88	-9.34151
;N:59;w:6;/N:59;w:6	-9.34286
;D:73;w:6	-9.34315
;N:39;w:18;/N:39	-9.34434
;N:64;N:66	-9.34505
;N:40;w:9;/N:40	-9.34517
;w:12;D:37;D:42	-9.34561
;/N:57;/N:60;/N:64	-9.34612
;N:64;N:70	-9.34623
;N:45;w:6;/N:45;w:6	-9.34635
;D:47;D:48	-9.34635
;/N:78;/N:90	-9.34637
;N:46;w:3;/N:46;w:3	-9.34638
;N:71;N:79	-9.34701
;/N:43;/N:50	-9.34775
;N:64;N:69;N:73	-9.34874
;N:96;w:3;/N:96	-9.34877
;w:6;D:45	-9.34915
;N:57;w:36;/N:57	-9.34959
;w:6;D:42;w:6;D:42	-9.34964
;N:85;w:3	-9.35043
;N:77;w:16;/N:77	-9.35164
;w:12;/N:64;N:64	-9.35171
;N:42;N:49;N:54	-9.35202
;N:39;w:9;/N:39	-9.35215
;N:50;N:53;N:58	-9.35221
;N:73;w:6	-9.3527
;T:79;T:8	-9.35271
;/N:64;/N:67;/N:71	-9.35271
;N:62;w:3	-9.35435
;N:64;N:69;N:72	-9.35485
;N:60;N:62	-9.35528
;/N:77;w:3	-9.35608
;N:42;w:18;/N:42	-9.35652
;D:36;D:42;D:51	-9.35687
;N:47;w:3;/N:47;w:3	-9.35836
;N:32;w:3;/N:32	-9.35916
;D:45;D:51	-9.36039
;/N:62;/N:67;/N:71	-9.36049
;N:58;N:66	-9.3618
;w:24;N:66	-9.36282
;N:46;w:6;/N:46;w:6	-9.36297
;N:100;w:6;/N:100	-9.36335
;w:24;/N:10	-9.36375
;N:38;w:9;/N:38	-9.3644
;N:47;w:6;/N:47;w:6	-9.365
;/N:69;/N:73;/N:76	-9.3651
;N:58;N:60	-9.3655
;N:45;w:9;/N:45;w:3	-9.36667
;w:6;/N:71	-9.36718
;N:44;w:6;/N:44;w:6	-9.36748
;N:51;N:60	-9.36921
;w:6;D:38;w:6;D:38	-9.36944
;/N:66;/N:75	-9.36974
;w:2;/N:55	-9.37072
;/N:70;/N:79	-9.37204
;N:54;N:58;N:63	-9.37249
;N:75;w:6	-9.37447
;N:45;w:3;/N:45;w:3	-9.37449
49	-9.37467
;/N:56;/N:64	-9.37635
;/N:29;/N:41	-9.37658
;/N:65;/N:74	-9.37765
;N:90;w:24;/N:90	-9.37778
;/N:65;/N:73	-9.37841
;/N:56;/N:62	-9.37868
;w:3;/N:35	-9.37962
;N:44;w:9;/N:44	-9.37977
;N:53;w:6;/N:53;w:6	-9.37988
;w:1;/N:48	-9.38
;w:2;/N:68	-9.38052
;N:49;w:6;/N:49;w:6	-9.38099
;/N:79;w:3	-9.38119
;D:43;D:46	-9.3814
;/N:85;/N:88	-9.38143
;N:78;w:4;/N:78;w:2	-9.38192
;N:43;w:9;/N:43	-9.38235
;N:55;N:59;N:64	-9.38289
;/N:41;/N:48	-9.38427
;N:34;w:9;/N:34;w:3	-9.38478
;N:66;N:68	-9.38482
;N:49;N:54;N:58	-9.38489
;w:2;/N:56	-9.38601
;w:1;/N:47	-9.38668
;N:25;w:6;/N:25	-9.3867
;N:38;N:45	-9.38753
;/N:104	-9.38753
;/N:83;w:3	-9.38775
;w:2;/N:53	-9.3878
;N:53;N:61	-9.38806
;/N:75;/N:82	-9.38841
;N:26;N:38	-9.38884
;/N:58;/N:61;/N:65	-9.38889
;N:52;w:9;/N:52	-9.38924
;N:37;w:9;/N:37	-9.38927
;N:70;N:72	-9.38942
;N:70;w:8;/N:70;w:4	-9.39022
;N:56;N:60;N:65	-9.39038
;/N:51;/N:56;/N:60	-9.39053
;/N:65;/N:68;/N:73	-9.39054
;N:47;w:9;/N:47;w:3	-9.39055
;D:69;w:6;D:69	-9.39063
;/N:66;/N:71;/N:75	-9.39122
;N:41;N:48;N:53	-9.39136
;w:24;N:52	-9.39146
;/N:67;/N:75	-9.39176
;N:48;w:6;/N:48;w:6	-9.39178
;/N:69;/N:76	-9.39179
;/N:74;w:3	-9.3921
;/N:60;/N:66	-9.39228
;N:53;w:9;/N:53	-9.39234
;N:87;w:2	-9.39298
;/N:73;/N:77;/N:80	-9.39351
;/N:63;/N:68;/N:72	-9.39374
;N:59;w:16;/N:59	-9.39438
;N:35;w:3;/N:35	-9.39467
;N:34;w:6;/N:34;w:6	-9.39477
;N:67;w:6	-9.39576
;N:46;w:9;/N:46;w:3	-9.39602
;N:74;w:6	-9.39789
;N:36;w:18;/N:36	-9.39859
;N:71;w:6	-9.39971
;/N:64;/N:67;/N:72	-9.39998
;N:72;N:80	-9.40044
;N:47;w:9;/N:47	-9.40106
;/N:64;/N:70	-9.4019
;N:57;N:62;N:65	-9.40211
;N:70;w:2;/N:70	-9.40254
;N:37;w:18;/N:37	-9.40489
;w:6;D:42;w:6;D:46	-9.40501
;N:65;N:77;w:6;/N:65;/N:77	-9.40521
;N:54;N:61;N:66	-9.40548
;N:48;w:9;/N:48;w:3	-9.40554
;w:12;/N:35	-9.40593
;N:69;w:8;/N:69;w:4	-9.40611
;N:83;N:88	-9.40629
;N:79;w:36;/N:79	-9.4073
;N:62;N:74;w:6;/N:62;/N:74	-9.40771
;/N:52;/N:55;/N:59	-9.40794
;N:52;N:61	-9.40869
;N:58;w:6;/N:58;w:6	-9.40882
;N:74;N:78;N:81	-9.40899
;w:12;/N:65;N:65	-9.41037
;/N:57;/N:59	-9.41093
;N:58;N:65;N:70	-9.41139
;N:50;w:6;/N:50;w:6	-9.41186
;N:71;w:2;/N:71	-9.41291
;/N:25;/N:37	-9.41345
;N:69;w:2;/N:69	-9.41346
;N:78;w:6;/N:78;w:6	-9.4137
;/N:51;/N:55;/N:58	-9.41402
;w:1;/N:69	-9.41426
;N:24;N:36	-9.4143
;N:59;w:4;/N:59;w:2	-9.41512
;N:66;N:72	-9.4157
;w:6;/N:73	-9.41644
;/N:69;/N:74;/N:78	-9.41677
;N:37;w:4;/N:37	-9.4168
;N:44;w:3;/N:44;w:3	-9.41737
;w:12;D:36;D:42	-9.41756
;N:97;w:3;/N:97	-9.41806
;N:33;w:9;/N:33;w:3	-9.4187
;N:68;w:6	-9.4189
;w:18;/N:59	-9.41907
;N:73;w:4	-9.41921
;w:2;/N:50	-9.42024
;N:40;N:45	-9.42029
;/N:60;/N:65;/N:69	-9.42039
;N:58;N:63;N:66	-9.42048
;N:45;w:9;/N:45	-9.42074
;N:52;w:6;/N:52;w:6	-9.42126
;N:32;w:8;/N:32	-9.42169
;N:42;N:47	-9.42207
;N:79;w:6;/N:79;w:6	-9.42222
;/N:69;/N:72;/N:77	-9.42229
;/N:51;/N:60	-9.42306
;w:2;/N:52	-9.42314
;N:68;w:15;/N:68	-9.42338
;w:4;/N:54	-9.42402
;w:6;/N:35	-9.42458
;w:1;/N:71	-9.42497
;N:54;N:59;N:62	-9.42501
;N:99;w:12;/N:99	-9.42513
;N:84;w:2	-9.42517
;/N:49;/N:53	-9.42614
;N:70;w:4	-9.4262
;N:43;w:3;/N:43;w:3	-9.42704
;w:24;D:37	-9.42763
;w:24;N:67	-9.42775
;N:53;N:59	-9.42784
;/N:54;/N:57;/N:61	-9.42812
;w:3;D:38	-9.42814
;D:48;D:54	-9.42926
;N:56;w:36;/N:56	-9.42996
;N:78;w:16;/N:78	-9.43001
;T:73;T:7	-9.43228
;/N:66;/N:69;/N:74	-9.43276
;N:45;N:49	-9.4328
;/N:78;w:3	-9.43319
;N:71;w:4	-9.43348
;w:12;/N:71	-9.43355
;N:51;w:6;/N:51;w:6	-9.43385
;N:49;w:9;/N:49	-9.43473
;N:60;N:65;N:68	-9.43491
;N:66;N:70;N:75	-9.43675
;/N:52;/N:61	-9.43709
;D:41;D:42	-9.43734
;N:23;w:6;/N:23	-9.43783
;N:42;w:3;/N:42;w:3	-9.43825
;w:12;N:72	-9.43969
;N:77;w:6	-9.43985
;N:72;w:4	-9.44025
;w:28;/N:4	-9.4403
;N:56;w:6;/N:56;w:6	-9.44081
;N:55;w:4;/N:55;w:2	-9.44093
;N:32;w:18;/N:32	-9.44316
;N:72;w:2;/N:72	-9.44324
;N:76;N:83	-9.44362
;N:86;N:89	-9.4444
;D:36;D:38;D:42	-9.44495
;w:6;D:38;D:46	-9.44505
;N:66;w:6	-9.44514
;N:79;w:9;/N:79	-9.44514
;N:50;w:9;/N:50	-9.44627
;w:12;D:41	-9.44646
;/N:72;w:2	-9.44751
;w:18;/N:61	-9.4476
;N:67;w:2;/N:67	-9.44779
;w:1;/N:70	-9.4482
;/N:71;/N:73	-9.44843
;N:69;w:15;/N:69	-9.44866
;N:51;w:9;/N:51	-9.44896
;/N:71;/N:80	-9.44921
;w:12;N:65;w:12;/N:65	-9.44931
;w:12;N:66;w:12;/N:66	-9.4495
;w:24;N:68	-9.44952
;N:38;N:45;N:50	-9.44953
;N:39;N:44	-9.44953
;w:3;/N:77	-9.45001
;N:65;N:69;N:74	-9.45025
;N:69;N:71	-9.45045
;N:66;N:78;w:6;/N:66;/N:78	-9.45062
;/N:48;/N:52	-9.45073
;N:67;w:48;/N:67	-9.45109
;N:80;w:6;/N:80;w:6	-9.45147
;/N:82;/N:94	-9.45172
;N:70;w:15;/N:70	-9.45346
;/N:55;/N:61	-9.45421
;N:73;w:2;/N:73	-9.45436
;/N:50;/N:54	-9.45457
;/N:28;/N:40	-9.45504
;w:12;/N:66;N:66	-9.45517
;N:36;w:9;/N:36	-9.45555
;/N:70;/N:73;/N:78	-9.45573
;T:88	-9.45906
;N:41;w:3;/N:41;w:3	-9.45936
;w:12;N:61;w:12;/N:61	-9.46045
;N:40;w:3;/N:40;w:3	-9.46069
;N:65;N:68;w:12;/N:65;/N:68	-9.46202
;N:52;N:60	-9.46322
;w:12;N:62;w:12;/N:62	-9.46365
;D:70;w:6;D:70	-9.46373
;w:12;/N:52;N:52	-9.46404
;N:64;N:76;w:12;/N:64;/N:76	-9.46452
;N:68;w:2;/N:68	-9.46501
;N:71;N:74;N:79	-9.46541
;N:83;w:3;/N:83;w:3	-9.466
;N:88;w:8;/N:88	-9.46676
;/N:76;/N:83	-9.4668
;w:6;D:42	-9.46681
;w:4;/N:55	-9.46698
;N:66;w:48;/N:66	-9.4692
;N:64;N:67;w:12;/N:64;/N:67	-9.46923
;N:57;w:6;/N:57;w:6	-9.46934
;w:18;/N:62	-9.46941
;/N:67;/N:76	-9.47018
;N:85;w:6;/N:85;w:6	-9.47027
;N:68;w:48;/N:68	-9.47028
;/N:83;/N:88	-9.47046
;N:63;N:75;w:12;/N:63;/N:75	-9.47054
;N:65;N:77;w:12;/N:65;/N:77	-9.47059
;w:12;/N:53;N:53	-9.47152
;/N:49;/N:52	-9.47234
;w:12;N:64;w:12;/N:64	-9.47278
;N:66;w:2;/N:66	-9.4733
;N:85;N:89	-9.47346
;N:87;N:90	-9.47418
;N:69;w:48;/N:69	-9.47431
;N:67;N:79;w:6;/N:67;/N:79	-9.47463
;/N:46;/N:51	-9.47463
;/N:1	-9.47464
;N:74;w:4	-9.47466
;w:12;N:68;w:12;/N:68	-9.47475
;N:35;N:42	-9.47499
;N:28;w:24;/N:28	-9.47511
;T:47;T:5	-9.47557
;N:80;w:9;/N:80	-9.47626
;N:28;w:4;/N:28	-9.47642
;N:65;N:70;N:73	-9.47658
;N:61;w:3	-9.47678
;N:65;w:6	-9.4777
;N:83;N:95	-9.47789
;N:67;w:15;/N:67	-9.47865
;N:66;w:15;/N:66	-9.47879
;N:46;w:9;/N:46	-9.47886
;N:48;w:9;/N:48	-9.47889
;N:76;w:6	-9.4791
;N:45;N:48	-9.48025
;w:18;/N:58	-9.48093
;/N:65;/N:71	-9.48219
;w:12;N:63;w:12;/N:63	-9.48247
;N:10	-9.48251
;/N:65;w:3	-9.48299
;/N:63;/N:68;/N:71	-9.48304
;N:70;w:48;/N:70	-9.4841
;N:67;N:70;w:12;/N:67;/N:70	-9.48561
;w:18;/N:63	-9.48573
;w:12;N:60;w:12;/N:60	-9.4858
;N:83;w:18;/N:83	-9.48627
;/N:53;/N:56;/N:60	-9.48637
;N:60;N:72;w:6;/N:60;/N:72	-9.48698
;w:1;/N:46	-9.48706
;w:12;N:51	-9.48707
;N:72;N:75;N:80	-9.48717
;N:72;w:8;/N:72;w:4	-9.48727
;N:62;N:74;w:12;/N:62;/N:74	-9.48762
;N:74;w:2;/N:74	-9.48815
;N:71;w:15;/N:71	-9.48847
;w:12;N:48	-9.48896
;N:31;w:8;/N:31	-9.48933
;w:4;/N:52	-9.48945
;/N:106	-9.48957
;N:58;w:16;/N:58	-9.49044
;N:62;N:65;w:12;/N:62;/N:65	-9.49096
;N:66;N:78;w:12;/N:66;/N:78	-9.49118
;N:33;w:6;/N:33;w:6	-9.49153
;N:65;w:2;/N:65	-9.49178
;/N:65;/N:70;/N:74	-9.49202
;D:43;D:47	-9.49276
;N:34;w:3;/N:34	-9.49278
;N:38;N:43	-9.49295
;N:66;N:69;w:12;/N:66;/N:69	-9.49449
;/N:52;/N:55;/N:60	-9.49461
;N:61;N:73;w:6;/N:61;/N:73	-9.49546
;/N:72;w:1	-9.49549
;N:78;w:6	-9.49686
;N:75;w:4	-9.49774
;/N:56;/N:58	-9.49776
;N:63;N:66;w:12;/N:63;/N:66	-9.49825
;/N:66;w:3	-9.49828
;N:50;N:53;N:57	-9.49965
;N:55;w:36;/N:55	-9.49966
;w:12;N:59;w:12;/N:59	-9.5003
;w:24;/N:72	-9.50062
;D:49;D:51	-9.50075
;N:50;N:59	-9.50088
;/N:53;/N:61	-9.50128
;N:39;w:3;/N:39;w:3	-9.50128
;N:36;N:43	-9.5014
;/N:71;w:2	-9.50186
;N:75;w:2;/N:75	-9.50196
;/N:71;/N:79	-9.50207
;N:68;N:80;w:6;/N:68;/N:80	-9.50212
;N:55;N:62;N:67	-9.50221
;N:41;N:46	-9.50248
;N:79;w:6	-9.50278
;N:60;w:6;/N:60;N:60;w:6;/N:60	-9.50289
;w:3;/N:78	-9.50383
;N:35;w:9;/N:35	-9.50408
;/N:79;/N:91	-9.50463
;N:72;N:81	-9.50491
;w:24;/N:42	-9.50623
;N:85;w:2	-9.50644
;/N:84;w:3	-9.50662
;w:1;/N:73	-9.5067
;N:81;w:6;/N:81;w:6	-9.50742
;w:1;/N:72	-9.50783
;N:44;N:49	-9.5081
;w:18;/N:57	-9.5081
;N:86;w:3	-9.5082
;w:6;D:42;D:43	-9.50828
;/N:69;/N:72;/N:76	-9.50858
;N:34;w:9;/N:34	-9.50874
;N:75;N:79;N:82	-9.50884
;N:107	-9.50968
;N:57;N:59	-9.50969
;N:73;w:15;/N:73	-9.50997
;N:83;w:4	-9.51112
;N:59;N:66;N:71	-9.51149
;N:80;w:36;/N:80	-9.51161
;/N:64;w:3	-9.51175
;N:71;w:48;/N:71	-9.51285
;/N:85;w:3	-9.51288
;N:67;w:4	-9.51292
;N:40;N:47;N:52	-9.51301
;N:64;w:15;/N:64	-9.51385
;N:61;N:73;w:12;/N:61;/N:73	-9.51397
;w:4;/N:53	-9.51472
;N:80;w:6	-9.51553
;N:65;w:48;/N:65	-9.51562
;N:31;w:18;/N:31	-9.5161
;w:12;N:67;w:12;/N:67	-9.51729
;N:69;N:81;w:6;/N:69;/N:81	-9.51747
;/N:72;/N:80	-9.51789
;w:24;N:51	-9.51795
;/N:84;/N:88	-9.51815
;/N:40;/N:47	-9.52256
;/N:52;/N:60	-9.52257
;N:58;w:6;/N:58;N:58;w:6;/N:58	-9.52279
;N:67;N:79;w:12;/N:67;/N:79	-9.52307
;N:72;w:15;/N:72	-9.52322
;N:89;w:3	-9.52356
;w:12;/N:72	-9.524
;w:4;/N:51	-9.52554
;w:24;/N:69	-9.52635
;N:70;N:82;w:6;/N:70;/N:82	-9.52641
;N:73;N:81	-9.52653
;/N:63;N:63	-9.52737
;D:46;D:54	-9.5279
;w:6;/N:1	-9.52962
;N:52;N:56;N:61	-9.52991
;N:81;w:9;/N:81;w:3	-9.53028
;/N:55;/N:58;/N:62	-9.5307
;N:32;w:9;/N:32;w:3	-9.53118
;N:57;N:64;N:69	-9.53171
;/N:63;w:3	-9.53295
;N:57;w:16;/N:57	-9.53466
;N:61;N:64;w:12;/N:61;/N:64	-9.53473
;N:71;N:74;N:78	-9.53487
;N:54;w:36;/N:54	-9.535
;/N:63;/N:67;/N:72	-9.5351
;N:72;N:77;N:81	-9.53561
;N:31;w:3;/N:31	-9.53596
;w:21;/N:2	-9.53628
;D:76;w:6	-9.53692
;N:91;w:4;/N:91	-9.5378
;w:18;/N:60	-9.53886
;N:63;N:67;w:12;/N:63;/N:67	-9.53893
;w:1;/N:45	-9.539
;w:12;N:73	-9.53939
;N:72;w:48;/N:72	-9.53957
;N:73;N:76;N:81	-9.53976
;w:12;N:47	-9.53994
;N:66;N:71;N:74	-9.54063
;N:65;w:15;/N:65	-9.54075
;N:86;w:2	-9.54179
;w:2;/N:49	-9.54183
;D:42;D:69	-9.54213
;w:24;N:50	-9.54224
;/N:67;/N:70;/N:75	-9.54268
;N:79;w:4;/N:79;w:2	-9.54369
;N:35;w:4;/N:35	-9.54517
;w:6;/N:72	-9.54524
;N:33;w:3;/N:33	-9.5458
;N:64;w:48;/N:64	-9.54612
;w:12;D:36;D:46	-9.54638
;w:2;/N:69	-9.54698
;/N:70;/N:75;/N:79	-9.54738
;N:57;w:6;/N:57;N:57;w:6;/N:57	-9.54812
;/N:56;/N:59;/N:63	-9.54817
;/N:45;/N:50	-9.54823
;N:51;N:54;N:58	-9.54866
;N:60;N:72;w:12;/N:60;/N:72	-9.5488
;/N:73;/N:75	-9.54951
;D:50;D:51	-9.54964
;N:71;N:73	-9.54977
;w:6;D:36;D:46	-9.5499
;/N:72;/N:74	-9.55059
;N:24;w:6;/N:24	-9.55097
;N:68;N:80;w:12;/N:68;/N:80	-9.55174
;N:64;w:6;/N:64;N:64;w:6;/N:64	-9.55235
;N:73;N:82	-9.55301
;N:65;N:69;w:12;/N:65;/N:69	-9.55434
;N:59;N:71;w:6;/N:59;/N:71	-9.55455
;N:73;w:48;/N:73	-9.5553
;/N:58;/N:62;/N:67	-9.55537
;N:53;w:36;/N:53	-9.55613
;N:53;N:58;N:61	-9.55871
;D:69;D:73	-9.55966
;/N:67;w:1	-9.56002
;N:33;w:9;/N:33	-9.56018
;N:81;w:2	-9.56027
;D:45;D:46	-9.56048
;N:64;w:2;/N:64	-9.56062
;N:68;N:71;w:12;/N:68;/N:71	-9.56084
;N:51;w:6;/N:51;N:51;w:6;/N:51	-9.56087
;N:52;w:6;/N:52;N:52;w:6;/N:52	-9.56092
;/N:50;/N:59	-9.56108
;N:76;w:4	-9.56156
;N:65;N:68;w:6;/N:65;/N:68	-9.56202
;N:59;N:71;w:12;/N:59;/N:71	-9.56207
;N:44;N:47	-9.56216
;D:36;D:43	-9.56218
;w:12;N:69;w:12;/N:69	-9.56252
;N:56;N:58	-9.5626
;N:38;w:3;/N:38;w:3	-9.56297
;N:84;w:3;/N:84;w:3	-9.56331
;/N:86;/N:89	-9.56341
;N:46;N:49	-9.56345
;N:65;w:6;/N:65;N:65;w:6;/N:65	-9.56361
;/N:66;/N:72	-9.56554
;w:18;/N:64	-9.56639
;/N:69;N:69	-9.56683
;N:77;w:4	-9.56714
;D:69;w:12;D:69	-9.56726
;N:57;w:4;/N:57;w:2	-9.56736
;w:12;N:55;w:12;/N:55	-9.56817
;N:89;w:8;/N:89	-9.56888
;N:64;N:68;w:12;/N:64;/N:68	-9.57015
;/N:70;/N:73;/N:77	-9.57022
;D:38;D:51	-9.57032
;w:12;N:58;w:12;/N:58	-9.57107
;N:62;N:66;w:12;/N:62;/N:66	-9.57147
;w:6;D:36;D:38;D:39;D:42	-9.57195
;N:58;N:70;w:6;/N:58;/N:70	-9.57213
;w:12;N:70;w:12;/N:70	-9.57213
;N:69;N:72;w:12;/N:69;/N:72	-9.5724
;w:12;N:57;w:12;/N:57	-9.57294
;/N:70;/N:78	-9.57312
;N:84;N:89	-9.57356
;N:68;w:6;/N:68;N:68;w:6;/N:68	-9.57502
;w:21;/N:58	-9.57514
;D:46;D:53	-9.57561
;N:66;w:6;/N:66;N:66;w:6;/N:66	-9.57599
;N:82;w:6;/N:82;w:6	-9.57642
;N:77;w:2;/N:77	-9.5767
;w:4;/N:58	-9.57695
;N:76;w:2;/N:76	-9.57711
;N:80;w:4;/N:80;w:2	-9.57738
;w:2;/N:48	-9.57776
;N:39;N:46;N:51	-9.57849
;N:32;w:6;/N:32;w:6	-9.57871
;N:101;w:6;/N:101	-9.58049
;N:71;w:6;/N:71;N:71;w:6;/N:71	-9.58073
;w:12;D:38;D:46	-9.581
;N:56;w:4;/N:56;w:2	-9.58111
;w:2;/N:70	-9.58117
;N:69;N:81;w:12;/N:69;/N:81	-9.58142
;N:67;w:6;/N:67;N:67;w:6;/N:67	-9.58185
;N:68;w:4	-9.58216
;w:18;/N:55	-9.58272
;/N:64;N:64	-9.58351
;N:79;w:16;/N:79	-9.58372
;/N:73;w:1	-9.5841
;/N:85;/N:89	-9.58599
;/N:54;/N:60	-9.58682
;D:41;D:43	-9.58723
;/N:75;/N:77	-9.58758
;N:56;N:63;N:68	-9.58767
;N:66;N:70;w:12;/N:66;/N:70	-9.58772
;w:4;/N:56	-9.58801
;N:84;w:4	-9.58871
;N:82;w:9;/N:82;w:3	-9.58873
;N:98;w:3;/N:98	-9.58904
;/N:24;/N:36	-9.58939
;w:6;D:47	-9.58969
2;/N:62	-9.58996
;N:63;w:48;/N:63	-9.59039
;N:62;w:6;/N:62;N:62;w:6;/N:62	-9.59041
2;/N:65	-9.59052
;/N:59;/N:64;/N:67	-9.59093
;/N:71;w:1	-9.59141
;N:55;w:6;/N:55;N:55;w:6;/N:55	-9.5923
;/N:55;/N:57	-9.59238
;/N:74;/N:76	-9.59249
;/N:47;/N:50	-9.59277
;/N:60;/N:64;/N:69	-9.59327
;D:46;D:48	-9.59369
;N:82;w:2	-9.59373
;N:67;N:71;w:12;/N:67;/N:71	-9.59468
;/N:54;/N:58;/N:63	-9.59487
;N:33;w:18;/N:33	-9.59488
;/N:59;/N:63;/N:68	-9.59496
;/N:70;N:70	-9.59551
;N:86;w:3;/N:86;w:3	-9.59771
;w:18;/N:56	-9.59812
;w:24;/N:41	-9.59827
;/N:62;w:3	-9.59947
;N:67;w:4;/N:67;w:8	-9.59963
;T:53;T:5	-9.60023
;/N:45;/N:48	-9.6003
;/N:71;N:71	-9.60049
;D:36;D:53	-9.60127
;N:47;N:51;N:54	-9.60137
;w:3;/N:79	-9.60164
;w:12;N:56;w:12;/N:56	-9.60169
;N:63;w:2;/N:63	-9.60198
;N:73;N:78;N:82	-9.60224
;N:54;w:6;/N:54;N:54;w:6;/N:54	-9.6029
;N:42;w:8;/N:42;w:4	-9.60321
;N:77;N:84	-9.60337
;/N:56;/N:61;/N:64	-9.6034
;/N:39;/N:44	-9.60349
;w:6;/N:34	-9.60421
;w:24;/N:9	-9.60485
;N:62;w:48;/N:62	-9.60507
;N:55;N:57	-9.60539
;w:4;/N:57	-9.60545
;N:67;N:73	-9.60623
;N:61;w:6;/N:61;N:61;w:6;/N:61	-9.60645
;w:12;D:51	-9.60685
;w:24;N:69	-9.60777
;/N:62;N:62	-9.60842
;N:37;w:3;/N:37;w:3	-9.60863
;w:18;/N:54	-9.6088
;N:69;w:6;/N:69;N:69;w:6;/N:69	-9.60895
;N:92;w:4;/N:92	-9.60948
;N:23;w:12;/N:23	-9.60957
;w:4;/N:50	-9.60958
;N:52;N:57;N:60	-9.61028
;N:43;N:48	-9.61078
;w:9;/N:54	-9.61086
;/N:64;/N:68;/N:73	-9.61088
;N:85;N:90	-9.61136
;/N:53;/N:57;/N:62	-9.61184
;N:72;w:6;/N:72;N:72;w:6;/N:72	-9.61303
;N:63;w:6;/N:63;N:63;w:6;/N:63	-9.61456
;N:52;w:36;/N:52	-9.61523
;N:23;N:35	-9.61564
;w:21;/N:59	-9.61614
;w:24;D:4	-9.61625
;w:21;/N:60	-9.61639
;N:56;w:16;/N:56	-9.61862
;N:60;N:63;w:12;/N:60;/N:63	-9.61873
;w:12;D:36;D:38;D:42	-9.61902
;N:53;w:6;/N:53;N:53;w:6;/N:53	-9.61957
;N:59;N:62;w:12;/N:59;/N:62	-9.61978
;N:65;w:4	-9.61978
;/N:50;/N:54;/N:57	-9.61989
;N:86;w:6;/N:86;w:6	-9.62027
;N:63;w:15;/N:63	-9.62061
2;/N:66	-9.62069
;/N:69;w:1	-9.62131
;N:70;N:82;w:12;/N:70;/N:82	-9.62135
;N:69;w:4;/N:69;w:8	-9.62143
;N:59;w:6;/N:59;N:59;w:6;/N:59	-9.62171
;/N:73;/N:81	-9.62181
;T:77;T:8	-9.62187
;N:51;N:59	-9.62268
;N:58;N:70;w:12;/N:58;/N:70	-9.62272
;N:70;N:73;w:12;/N:70;/N:73	-9.6233
;/N:10	-9.62382
;N:67;N:71;N:76	-9.62429
;w:18;/N:65	-9.62444
;w:6;D:48	-9.62483
;w:24;D:36;D:38	-9.62486
;N:68;N:74	-9.62615
;/N:74;/N:78;/N:81	-9.62618
;/N:60;N:60	-9.62635
;/N:69;/N:78	-9.62685
;w:21;/N:56	-9.62706
;w:12;/N:51;N:51	-9.62712
;N:57;N:69;w:12;/N:57;/N:69	-9.62973
;/N:56;/N:60;/N:65	-9.63025
;/N:65;/N:69;/N:74	-9.63032
2;/N:61	-9.63077
;w:24;D:38;D:42	-9.6308
;/N:84;/N:89	-9.63113
;N:56;w:6;/N:56;N:56;w:6;/N:56	-9.63118
;N:64;w:4;/N:64;w:8	-9.63144
;N:35;w:8;/N:35;w:4	-9.63156
;N:60;w:3	-9.6317
;w:24;/N:40	-9.63194
;w:1;/N:44	-9.63235
;N:32;w:9;/N:32	-9.63255
;w:24;N:70	-9.63257
;/N:71;/N:76;/N:80	-9.63257
;N:62;N:65;w:6;/N:62;/N:65	-9.63263
;N:68;N:72;w:12;/N:68;/N:72	-9.6336
;/N:71;w:6	-9.63478
;w:2;/N:47	-9.63482
;N:57;N:69;w:6;/N:57;/N:69	-9.63493
;/N:72;/N:81	-9.63508
;N:60;N:67;N:72	-9.6353
;N:51;N:55;N:60	-9.63545
;N:45;N:57;w:12;/N:45;/N:57	-9.63551
;/N:77;/N:84	-9.63565
;N:31;w:9;/N:31;w:3	-9.6357
;w:6;D:42;w:6;D:36;D:42	-9.63585
;N:61;w:2;/N:61	-9.63598
;/N:50;/N:55;/N:59	-9.63648
;/N:87;/N:90	-9.63648
;/N:57;/N:61;/N:66	-9.63716
;w:9;/N:53	-9.63743
;D:45;D:48	-9.63779
;N:36;w:3;/N:36;w:3	-9.63814
;N:52;N:58	-9.63828
;N:64;N:76;w:6;/N:64;/N:76	-9.63846
;w:21;/N:57	-9.63859
;N:70;w:6;/N:70;N:70;w:6;/N:70	-9.63922
;N:43;w:8;/N:43;w:4	-9.63961
;N:73;w:6;/N:73;N:73;w:6;/N:73	-9.64007
;w:4;/N:45	-9.64108
;/N:68;w:1	-9.64128
;w:12;N:54;w:12;/N:54	-9.64199
;/N:70;w:1	-9.64353
;D:70;w:12;D:36	-9.64361
;w:72;/N:7	-9.64372
;/N:80;/N:92	-9.6439
;N:43;N:47	-9.64393
;N:74;w:48;/N:74	-9.64447
;w:12;/N:67;N:67	-9.64504
;/N:83;/N:95	-9.64535
;N:55;N:67;w:6;/N:55;/N:67	-9.64621
;N:50;w:36;/N:50	-9.64626
;N:47;N:59;w:12;/N:47;/N:59	-9.64637
;D:36;D:42;D:54	-9.64696
;w:4;/N:60	-9.64859
;/N:72;N:72	-9.6487
;/N:77;w:1	-9.64872
;N:61;N:65;w:12;/N:61;/N:65	-9.64939
;N:66;w:4;/N:66;w:8	-9.65063
;w:6;D:42;w:6;D:42;w:6;D:42	-9.65104
;N:29;w:2	-9.65117
;N:56;N:68;w:6;/N:56;/N:68	-9.65138
;/N:64;/N:69;/N:72	-9.65139
;N:64;w:12;/N:64;N:64;w:12;/N:64	-9.65168
;/N:74;w:1	-9.65175
;N:63;w:4;/N:63;w:8	-9.65216
;N:34;w:3	-9.65252
;N:49;w:6;/N:49;N:49;w:6;/N:49	-9.65289
;N:54;w:4;/N:54;w:2	-9.65307
;N:78;w:2;/N:78	-9.65372
;N:46;N:58;w:12;/N:46;/N:58	-9.65379
;w:12;N:71;w:12;/N:71	-9.6539
;N:85;w:4	-9.65418
;N:34;w:3;/N:34;w:3	-9.65443
;/N:58;/N:63;/N:66	-9.65444
;/N:86;w:3	-9.65476
;N:68;w:4;/N:68;w:8	-9.65502
;N:43;N:55;w:12;/N:43;/N:55	-9.65548
;/N:75;w:2	-9.65652
;N:74;w:15;/N:74	-9.6567
;N:72;N:74	-9.65688
;N:74;N:82	-9.65728
;N:61;N:68;N:73	-9.65754
;N:68;N:72;N:77	-9.65799
;N:34;w:4;/N:34	-9.65854
;/N:70;w:6	-9.65908
;N:36;N:48;w:12;/N:36;/N:48	-9.65944
;N:89;w:1	-9.65985
;N:71;N:83;w:6;/N:71;/N:83	-9.65998
;N:60;N:64;w:12;/N:60;/N:64	-9.6602
;/N:55;/N:60;/N:63	-9.66135
;/N:87;w:3	-9.66144
;N:44;N:48	-9.66184
;N:37;N:44	-9.66194
2;/N:64	-9.66256
;N:84;w:18;/N:84	-9.66272
;N:51;w:36;/N:51	-9.66359
;w:9;/N:52	-9.664
;N:33;N:40	-9.66401
;N:42;w:21;/N:42	-9.66631
;N:44;w:36;/N:44	-9.66694
;N:75;w:15;/N:75	-9.667
;w:21;/N:61	-9.66704
;/N:62;/N:67;/N:70	-9.6674
;/N:73;w:6	-9.66741
;/N:61;w:3	-9.66777
;w:6;D:36;w:6;D:38	-9.66778
;w:2;/N:51	-9.66786
;/N:46;/N:50	-9.66872
;N:62;w:2;/N:62	-9.6688
;D:47;D:54	-9.66903
;N:63;N:75;w:6;/N:63;/N:75	-9.66914
;N:67;w:8;/N:67;w:4	-9.66929
;/N:67;w:2	-9.66959
;/N:66;w:1	-9.67054
;/N:64;w:1	-9.67055
;N:42;w:16;/N:42	-9.67103
;/N:57;N:57	-9.67143
;N:64;N:68;w:6;/N:64;/N:68	-9.67226
;N:73;N:75	-9.67257
;N:68;w:8;/N:68;w:4	-9.6729
;N:91;w:24;/N:91	-9.67304
;N:48;w:6;/N:48;N:48;w:6;/N:48	-9.67306
;w:21;N:5	-9.67431
2;/N:63	-9.67448
;N:49;N:52;N:57	-9.67696
;/N:53;/N:59	-9.67766
;N:45;w:36;/N:45	-9.67817
;N:66;w:4	-9.67829
;N:48;w:36;/N:48	-9.67879
;/N:67;N:67	-9.67927
;N:61;N:66;w:6;/N:61;/N:66	-9.67945
;N:60;w:2;/N:60	-9.67994
;w:12;/N:73	-9.68011
;N:31;w:6;/N:31;w:6	-9.68012
;D:46;D:47	-9.68018
;N:74;N:77;N:82	-9.68166
;w:24;/N:73	-9.68229
;N:71;w:8;/N:71;w:4	-9.68249
;N:78;w:4	-9.68254
;D:39;D:42	-9.68297
;N:41;w:16;/N:41	-9.68297
;N:75;w:48;/N:75	-9.68308
;N:78;N:85	-9.68314
;w:4;/N:47	-9.68328
;/N:59;N:59	-9.68332
;N:41;w:36;/N:41	-9.68381
;/N:62;/N:66;/N:71	-9.68391
;N:62;w:15;/N:62	-9.68397
;N:74;w:6;/N:74;N:74;w:6;/N:74	-9.68408
;N:72;N:75;N:79	-9.68428
;/N:50;/N:53;/N:58	-9.68445
;N:49;w:36;/N:49	-9.68451
;/N:76;w:2	-9.68484
;N:80;w:16;/N:80	-9.68519
;w:12;D:48	-9.68534
;N:44;w:8;/N:44;w:4	-9.68548
;N:68;w:12;/N:68;N:68;w:12;/N:68	-9.68548
;w:18;/N:53	-9.6856
;N:65;w:12;/N:65;N:65;w:12;/N:65	-9.68613
;N:61;w:48;/N:61	-9.68624
;N:40;w:36;/N:40	-9.68667
;N:55;w:16;/N:55	-9.68748
;N:62;w:12;/N:62;N:62;w:12;/N:62	-9.68804
;N:42;w:36;/N:42	-9.68836
;D:70;D:73	-9.68886
;N:62;w:4;/N:62;w:8	-9.68902
;N:44;w:16;/N:44	-9.68922
;N:66;w:12;/N:66;N:66;w:12;/N:66	-9.68932
;N:43;w:36;/N:43	-9.69071
;N:72;N:84;w:6;/N:72;/N:84	-9.69074
;w:12;N:53;w:12;/N:53	-9.69076
;N:68;w:20;/N:68;w:4	-9.69199
;N:85;w:3;/N:85;w:3	-9.69252
;/N:73;/N:82	-9.69309
;N:89;w:6;/N:89;w:6	-9.69314
;N:30;w:3	-9.69328
2;/N:59	-9.69351
;N:39;w:16;/N:39	-9.69401
;/N:66;/N:70;/N:75	-9.69437
;/N:38;/N:43	-9.69445
;w:12;N:72;w:12;/N:72	-9.69452
;N:47;N:52;N:56	-9.6958
;N:47;w:36;/N:47	-9.69589
;w:21;/N:55	-9.69589
;/N:73;w:2	-9.69646
;N:43;w:16;/N:43	-9.69664
;N:56;N:68;w:12;/N:56;/N:68	-9.69668
;N:81;w:4;/N:81;w:2	-9.69718
;N:35;w:3;/N:35;w:3	-9.69726
;N:81;w:9;/N:81	-9.6974
;N:90;w:3	-9.69745
;T:50;T:5	-9.69812
;N:45;w:8;/N:45;w:4	-9.69831
;/N:72;w:6	-9.69865
;w:24;N:71	-9.69907
;w:21;N:6	-9.70028
2;/N:70	-9.70042
;N:71;w:4;/N:71;w:8	-9.70066
;N:46;w:6;/N:46;N:46;w:6;/N:46	-9.701
;/N:26;/N:38	-9.70103
;w:9;/N:57	-9.70105
;N:36;w:3	-9.70243
;w:21;/N:62	-9.70302
;/N:65;w:1	-9.70303
;N:48;N:60;w:12;/N:48;/N:60	-9.70343
;N:67;w:12;/N:67;N:67;w:12;/N:67	-9.70383
;D:37;D:42	-9.70416
;N:69;N:72;w:6;/N:69;/N:72	-9.70476
;D:45;D:54	-9.70541
;N:59;N:63;w:12;/N:59;/N:63	-9.70547
;w:4;/N:59	-9.70549
;D:36;D:42;D:43	-9.70567
;N:30;w:18;/N:30	-9.70605
;w:4;/N:48	-9.7064
;w:1;/N:75	-9.70644
;/N:38;/N:45	-9.70672
;N:70;N:73;w:6;/N:70;/N:73	-9.70744
;w:12;D:42;D:45	-9.7079
;/N:48;/N:53;/N:57	-9.70834
;N:46;w:8;/N:46;w:4	-9.7086
;N:37;w:3	-9.70874
;/N:27;/N:39	-9.70877
;N:51;N:63;w:12;/N:51;/N:63	-9.70892
;w:4;/N:49	-9.71032
;N:70;w:20;/N:70;w:4	-9.71056
;w:4;/N:46	-9.71087
;w:12;/N:68;N:68	-9.71159
;D:36;D:45	-9.712
;N:38;w:3	-9.71212
;N:54;w:16;/N:54	-9.71216
;/N:85;/N:90	-9.71216
;N:29;w:9;/N:29;w:3	-9.71236
;/N:61;/N:65;/N:70	-9.71236
;N:30;w:8;/N:30	-9.71247
;N:54;N:66;w:12;/N:54;/N:66	-9.7132
;N:76;N:80;N:83	-9.71329
;N:46;w:36;/N:46	-9.71338
;D:43;D:69	-9.71348
;N:63;w:12;/N:63;N:63;w:12;/N:63	-9.7135
;N:68;w:21;/N:68;w:3	-9.71352
;N:52;w:4;/N:52;w:2	-9.71384
;N:84;N:96	-9.71385
;N:67;w:20;/N:67;w:4	-9.7141
;N:100;w:12;/N:100	-9.71476
;w:12;D:36;D:37	-9.71546
;w:6;/N:33	-9.71569
;N:49;N:61;w:12;/N:49;/N:61	-9.71589
;N:44;N:56;w:12;/N:44;/N:56	-9.71707
;N:55;N:67;w:12;/N:55;/N:67	-9.71747
;N:65;N:69;w:6;/N:65;/N:69	-9.71755
0;/N:66	-9.71784
;N:75;N:83	-9.71799
;/N:74;w:4	-9.71819
;N:66;w:8;/N:66;w:4	-9.71831
;N:71;N:83;w:12;/N:71;/N:83	-9.71833
;w:4;/N:43	-9.71833
;N:66;w:20;/N:66;w:4	-9.71843
;N:74;N:83	-9.71866
;D:42;w:12;D:42	-9.71947
;w:9;/N:56	-9.71951
;/N:54;/N:56	-9.71987
;N:39;w:36;/N:39	-9.72027
;N:69;w:12;/N:69;N:69;w:12;/N:69	-9.72035
;N:87;w:3;/N:87;w:3	-9.72035
;/N:67;/N:73	-9.72041
;N:54;N:66;w:6;/N:54;/N:66	-9.72045
;N:53;N:65;w:6;/N:53;/N:65	-9.72093
;w:4;/N:61	-9.72118
;/N:74;w:2	-9.72135
;N:67;N:72;N:75	-9.72146
;w:12;/N:50;N:50	-9.72204
;D:69;D:76	-9.72242
;/N:45;/N:52;/N:57	-9.72242
;N:40;w:16;/N:40	-9.72337
;/N:68;w:6	-9.72337
;w:6;D:38;D:39	-9.72349
;D:70;w:12;D:70	-9.72354
;w:12;/N:34	-9.72359
;N:69;w:20;/N:69;w:4	-9.72383
;N:69;N:73;w:12;/N:69;/N:73	-9.72386
;N:39;w:3	-9.72388
;N:33;w:8;/N:33;w:4	-9.7241
;N:65;N:70;w:6;/N:65;/N:70	-9.72421
;/N:51;/N:54;/N:59	-9.72464
;N:66;N:70;w:6;/N:66;/N:70	-9.72493
;N:38;w:16;/N:38	-9.72507
;N:81;w:36;/N:81	-9.72518
0;/N:68	-9.72528
;N:87;w:4	-9.72539
;w:1;/N:42	-9.72546
;N:71;N:74;w:12;/N:71;/N:74	-9.72555
;N:90;w:8;/N:90	-9.72596
;D:43;D:51	-9.72737
;N:60;w:48;/N:60	-9.72739
;w:1;/N:43	-9.7275
;/N:39;/N:46	-9.72752
;N:82;w:9;/N:82	-9.72753
;w:18;/N:68	-9.72799
;/N:90;w:3	-9.72806
;w:12;N:52;w:12;/N:52	-9.72825
;w:18;/N:52	-9.72853
;w:9;/N:55	-9.72863
;N:60;w:4;/N:60;w:8	-9.72866
;N:75;N:77	-9.72885
;N:58;w:2;/N:58	-9.72925
;/N:88;w:3	-9.72926
;N:73;N:76;N:80	-9.7296
2;/N:60	-9.7297
;N:70;w:21;/N:70;w:3	-9.72985
;w:12;N:74	-9.73022
2;/N:71	-9.73041
;N:62;N:67;w:12;/N:62;/N:67	-9.73054
;/N:75;/N:79;/N:82	-9.73057
;/N:58;N:58	-9.7311
;N:45;w:6;/N:45;N:45;w:6;/N:45	-9.73127
2;/N:69	-9.73163
;N:35;w:3	-9.73213
;N:37;w:16;/N:37	-9.73248
;w:48;/N:46	-9.73281
;N:52;N:64;w:12;/N:52;/N:64	-9.73334
;N:69;w:4	-9.73356
;N:62;N:67;w:6;/N:62;/N:67	-9.73375
;N:27;w:24;/N:27	-9.73397
;T:46;T:5	-9.73404
;/N:68;/N:74	-9.73419
;w:9;/N:58	-9.73521
;N:40;w:3	-9.73534
;/N:66;N:66	-9.73553
;N:53;w:16;/N:53	-9.73558
;w:21;/N:54	-9.73614
;N:53;w:4;/N:53;w:2	-9.73718
;D:54;D:56	-9.73724
;/N:65;/N:70;/N:73	-9.73739
;N:79;w:2;/N:79	-9.73752
;N:57;N:61;w:12;/N:57;/N:61	-9.73775
;D:53;D:69	-9.7382
;/N:76;/N:78	-9.73836
;N:48;N:57	-9.73847
;N:89;w:2	-9.73873
;N:33;w:3;/N:33;w:3	-9.73893
;/N:74;/N:82	-9.73941
;/N:57;/N:62;/N:65	-9.73958
;N:70;w:12;/N:70;N:70;w:12;/N:70	-9.73965
;/N:48;/N:51	-9.74001
;N:58;N:61;w:12;/N:58;/N:61	-9.74009
;N:67;N:71;w:6;/N:67;/N:71	-9.74011
;w:18;/N:67	-9.74066
;N:67;w:21;/N:67;w:3	-9.74067
;/N:50;/N:57;/N:62	-9.74157
;N:69;w:21;/N:69;w:3	-9.74172
;N:74;N:76	-9.74181
;w:12;D:42;w:12;D:42	-9.74207
;N:63;N:68;w:12;/N:63;/N:68	-9.74269
;D:42;D:70	-9.74283
;w:2;/N:46	-9.74293
;N:47;w:6;/N:47;N:47;w:6;/N:47	-9.74319
;N:34;N:46;w:12;/N:34;/N:46	-9.7434
;/N:68;N:68	-9.74379
;/N:67;w:6	-9.74408
;w:12;D:47	-9.74481
;N:31;w:9;/N:31	-9.74509
;N:75;w:6;/N:75;N:75;w:6;/N:75	-9.74536
;w:12;N:50;w:12;/N:50	-9.74551
;/N:68;w:2	-9.74621
;/N:75;w:1	-9.74742
;/N:71;/N:74;/N:78	-9.74751
;/N:54;/N:59;/N:62	-9.74768
;w:18;/N:66	-9.74791
;N:50;w:6;/N:50;N:50;w:6;/N:50	-9.74799
;/N:48;/N:55;/N:60	-9.74835
;/N:69;w:6	-9.74887
;N:84;w:6;/N:84;w:6	-9.74892
;/N:44;/N:47	-9.74912
;w:24;N:49	-9.75015
;N:83;w:6;/N:83;w:6	-9.7505
;D:43;D:54	-9.75111
;D:47;D:51	-9.75136
;N:71;w:20;/N:71;w:4	-9.75148
;w:21;/N:63	-9.7515
;N:61;w:15;/N:61	-9.75165
;/N:78;/N:85	-9.75166
;N:39;N:51;w:12;/N:39;/N:51	-9.75205
;T:45;T:4	-9.75212
;/N:63;w:1	-9.75216
;N:46;w:16;/N:46	-9.75326
;/N:75;w:6	-9.75337
;N:64;N:69;w:6;/N:64;/N:69	-9.75405
;/N:70;w:2	-9.75417
;N:81;w:6	-9.7544
;N:71;w:12;/N:71;N:71;w:12;/N:71	-9.75455
;w:4;/N:42	-9.75467
;N:58;N:62;w:12;/N:58;/N:62	-9.7547
;N:52;w:16;/N:52	-9.75492
;/N:61;/N:66;/N:69	-9.75501
;N:28;w:9;/N:28;w:3	-9.75647
;N:60;N:65;w:6;/N:60;/N:65	-9.75655
;w:8;/N:54	-9.75726
;T:78;T:8	-9.75801
;N:64;N:69;w:12;/N:64;/N:69	-9.75832
;w:48;/N:45	-9.75879
0;/N:67	-9.75887
;w:6;D:36;D:41	-9.75905
;N:33;w:4;/N:33	-9.75931
;w:6;D:36;w:6;D:36	-9.75943
;N:76;w:48;/N:76	-9.75966
;w:6;N:61;w:6;/N:61	-9.75975
;N:59;w:48;/N:59	-9.7603
;/N:77;w:2	-9.76054
;N:38;w:36;/N:38	-9.76079
;/N:51;/N:59	-9.76149
;N:82;w:36;/N:82	-9.76226
;N:61;N:66;w:12;/N:61;/N:66	-9.76323
;/N:46;/N:53;/N:58	-9.76323
;N:86;N:90	-9.76325
;N:65;w:8;/N:65;w:4	-9.76379
;N:72;w:4;/N:72;w:8	-9.76388
;N:75;N:78;N:83	-9.76393
;N:48;N:60;w:6;/N:48;/N:60	-9.76443
;N:60;N:63;w:6;/N:60;/N:63	-9.76499
;N:30;w:3;/N:30	-9.76518
;N:72;w:20;/N:72;w:4	-9.7655
;N:72;N:84;w:12;/N:72;/N:84	-9.76586
;N:61;N:65;w:6;/N:61;/N:65	-9.76593
;w:1;/N:74	-9.76653
;N:42;N:45	-9.76656
;/N:53;/N:55	-9.76657
;D:70;w:8	-9.76682
;D:69;w:6;D:36	-9.76701
;N:49;w:16;/N:49	-9.76731
;w:6;D:38;D:39;D:42	-9.76818
;w:2;/N:45	-9.76897
;N:79;w:4	-9.76928
;N:66;w:21;/N:66;w:3	-9.76939
;w:4;/N:62	-9.76943
;D:46;D:49	-9.76957
;N:45;N:57;w:6;/N:45;/N:57	-9.76958
;N:71;w:21;/N:71;w:3	-9.76983
;N:50;N:62;w:12;/N:50;/N:62	-9.77002
;w:21;/N:53	-9.77029
;N:61;w:12;/N:61;N:61;w:12;/N:61	-9.77038
;N:57;N:62;w:6;/N:57;/N:62	-9.77039
;N:80;w:4	-9.77061
;/N:46;/N:49	-9.77065
;N:72;N:75;w:12;/N:72;/N:75	-9.77077
;/N:61;N:61	-9.77107
;w:6;/N:74	-9.77112
;N:69;w:5;/N:69	-9.7712
;N:40;N:52;w:6;/N:40;/N:52	-9.77124
;N:53;N:65;w:12;/N:53;/N:65	-9.77236
;/N:78;w:1	-9.77336
;N:99;w:3;/N:99	-9.77412
;/N:74;w:6	-9.77432
;/N:41;/N:46	-9.77494
;N:51;N:57	-9.77519
;N:65;w:20;/N:65;w:4	-9.77521
;N:43;N:55;w:6;/N:43;/N:55	-9.77541
;N:73;w:2	-9.77599
;N:76;w:15;/N:76	-9.77617
;w:12;N:51;w:12;/N:51	-9.77675
;N:66;N:71;w:6;/N:66;/N:71	-9.77683
;N:27;w:8;/N:27	-9.77696
;w:9;/N:51	-9.77715
;N:68;w:5;/N:68	-9.77764
;N:71;N:74;w:6;/N:71;/N:74	-9.77856
;/N:76;w:1	-9.77871
;/N:73;N:73	-9.77892
0;/N:69	-9.77925
;w:6;D:42;w:6;D:38;D:42	-9.77929
;w:9;/N:44	-9.77968
;/N:82;w:1	-9.77995
;N:83;w:9;/N:83;w:3	-9.78015
;/N:107	-9.78039
;T:62;T:67	-9.78054
;/N:73;/N:76;/N:81	-9.78057
;/N:69;w:2	-9.7814
;N:69;N:73;N:78	-9.78195
;N:60;w:12;/N:60;N:60;w:12;/N:60	-9.78216
;N:51;N:63;w:6;/N:51;/N:63	-9.78235
;N:66;N:71;w:12;/N:66;/N:71	-9.78266
;N:51;w:16;/N:51	-9.78312
;N:47;w:16;/N:47	-9.78329
;w:9;/N:59	-9.78364
;N:37;N:42	-9.7842
;T:61;T:66	-9.78502
;N:76;w:6;/N:76;N:76;w:6;/N:76	-9.78519
;/N:23;/N:35	-9.78572
;N:43;w:6;/N:43;N:43;w:6;/N:43	-9.78605
;N:29;w:4;/N:29	-9.78615
;T:75;T:7	-9.78618
;N:46;N:50;N:53	-9.78696
2;/N:67	-9.78729
;N:48;w:16;/N:48	-9.78752
;N:36;w:16;/N:36	-9.78836
;D:36;D:54	-9.78842
;/N:55;/N:59;/N:64	-9.78873
;w:9;/N:60	-9.78875
;N:65;N:70;w:12;/N:65;/N:70	-9.78884
;N:49;N:58	-9.78938
;/N:47;/N:51	-9.78957
;w:9;/N:62	-9.78979
;N:44;N:56;w:6;/N:44;/N:56	-9.79002
;w:9;/N:50	-9.7907
;N:27;w:4;/N:27	-9.79086
;N:80;w:2;/N:80	-9.79102
;/N:56;N:56	-9.79108
;T:68;T:71	-9.79111
;/N:71;/N:74;/N:79	-9.79115
;N:57;w:2;/N:57	-9.79191
;w:12;N:73;w:12;/N:73	-9.79201
;N:50;N:58	-9.79208
;N:59;N:64;w:12;/N:59;/N:64	-9.79274
;N:37;N:49;w:12;/N:37;/N:49	-9.79283
;N:39;w:15;/N:39	-9.79286
;N:70;N:74;w:12;/N:70;/N:74	-9.79443
;N:50;N:62;w:6;/N:50;/N:62	-9.79506
;N:43;N:46	-9.79516
;N:42;N:54;w:6;/N:42;/N:54	-9.79539
;N:41;N:53;w:12;/N:41;/N:53	-9.79547
;N:60;N:65;w:12;/N:60;/N:65	-9.79557
;N:66;w:5;/N:66	-9.79558
;N:45;w:16;/N:45	-9.7959
;N:90;w:1	-9.79604
;N:48;w:4;/N:48;w:2	-9.7964
;N:47;N:59;w:6;/N:47;/N:59	-9.79674
;N:60;N:64;w:6;/N:60;/N:64	-9.79741
;N:40;N:52;w:12;/N:40;/N:52	-9.79747
;N:37;w:36;/N:37	-9.79751
;N:73;w:8;/N:73;w:4	-9.79774
;N:30;w:9;/N:30;w:3	-9.79822
;T:80;T:8	-9.79847
;N:68;N:72;w:6;/N:68;/N:72	-9.79874
;N:51;w:4;/N:51;w:2	-9.79892
;w:6;/N:75	-9.799
;T:56;T:60	-9.79936
;/N:81;w:1	-9.79943
;N:64;w:20;/N:64;w:4	-9.7996
;w:21;/N:64	-9.79983
;w:1;/N:76	-9.80005
;w:24;N:48	-9.80026
;N:49;N:52;N:56	-9.80037
;w:9;/N:61	-9.80075
;w:48;/N:44	-9.80123
;N:70;N:76	-9.80134
;N:59;w:2;/N:59	-9.80159
;N:38;N:50;w:12;/N:38;/N:50	-9.80195
;N:69;N:73;w:6;/N:69;/N:73	-9.80219
;/N:51;/N:58;/N:63	-9.8022
;N:50;w:4;/N:50;w:2	-9.8024
;/N:66;/N:71;/N:74	-9.80308
;N:67;w:5;/N:67	-9.80332
;N:33;w:3	-9.80346
;N:39;w:8;/N:39;w:4	-9.80397
;T:83;T:8	-9.80479
;N:52;N:64;w:6;/N:52;/N:64	-9.80489
;N:57;N:60;w:12;/N:57;/N:60	-9.80525
;N:50;w:16;/N:50	-9.80557
;/N:80;w:4	-9.80567
;w:12;N:46	-9.80646
;N:73;w:20;/N:73;w:4	-9.80682
;w:9;/N:45	-9.80715
;N:85;w:18;/N:85	-9.80731
;T:62;T:65	-9.8077
;w:3;/N:34	-9.80786
;D:69;w:6;D:42	-9.80798
;N:69;N:75	-9.80838
;w:8;/N:50	-9.80922
;/N:59;/N:66;/N:71	-9.8112
;/N:66;w:2	-9.81136
;N:49;N:53;N:56;N:61	-9.81143
;N:37;w:15;/N:37	-9.81206
;N:93;w:4;/N:93	-9.81343
;/N:72;/N:75;/N:80	-9.81395
;N:72;w:12;/N:72;N:72;w:12;/N:72	-9.81395
;N:102;w:6;/N:102	-9.81416
0;/N:65	-9.8143
0;/N:62	-9.81434
;w:3;D:42	-9.81508
;w:6;D:39;D:42	-9.81538
;w:24;N:72	-9.81573
;N:65;w:21;/N:65;w:3	-9.81585
;N:42;N:54;w:12;/N:42;/N:54	-9.81616
;/N:75;/N:83	-9.81629
;N:54;N:56	-9.81677
;N:48;w:8;/N:48;w:4	-9.81727
;N:38;w:15;/N:38	-9.81769
;D:46;D:69	-9.8179
;N:29;w:3;/N:29	-9.81802
2;/N:73	-9.81822
;N:70;w:5;/N:70	-9.81862
;N:82;w:4;/N:82;w:2	-9.81872
;/N:44;/N:49	-9.81921
;N:47;w:8;/N:47;w:4	-9.81963
;/N:52;/N:56;/N:61	-9.81978
;N:36;w:36;/N:36	-9.82009
;N:74;w:8;/N:74;w:4	-9.82016
;N:82;w:6	-9.821
;N:59;w:4;/N:59;w:8	-9.8212
;D:45;D:69	-9.82131
;D:54;w:6;D:42	-9.82152
;N:64;w:5;/N:64	-9.82168
;D:70;D:76	-9.82191
;N:85;N:97	-9.82251
;N:46;N:58;w:6;/N:46;/N:58	-9.82283
;N:39;w:4;/N:39;w:8	-9.82323
;w:1;/N:41	-9.82359
;N:21;w:6;/N:21	-9.82424
;N:59;N:62;w:6;/N:59;/N:62	-9.82426
;N:72;w:21;/N:72;w:3	-9.82472
;/N:49;/N:54;/N:58	-9.82535
;/N:52;/N:59;/N:64	-9.82537
;N:46;w:4;/N:46;w:2	-9.82546
;N:22;w:12;/N:22	-9.8256
;T:60;T:65	-9.82576
;N:65;w:5;/N:65	-9.82597
;N:81;w:16;/N:81	-9.82689
;N:36;w:15;/N:36	-9.8269
;N:58;w:4;/N:58;w:8	-9.8275
;D:36;D:42;D:45	-9.82807
;/N:49;/N:53;/N:56	-9.82808
;N:90;w:6;/N:90;w:6	-9.82845
;N:55;w:2;/N:55	-9.82912
;N:75;N:84	-9.82958
;w:3;/N:33	-9.82959
;/N:48;/N:52;/N:55	-9.82976
;N:63;w:4	-9.82992
;N:44;w:6;/N:44;N:44;w:6;/N:44	-9.82995
;D:51;w:8;D:51	-9.83052
;w:72;/N:4	-9.8314
;N:56;w:2;/N:56	-9.83148
;N:59;w:12;/N:59;N:59;w:12;/N:59	-9.8316
;/N:79;w:4	-9.8318
;N:64;w:8;/N:64;w:4	-9.8321
;N:49;N:57	-9.83218
;N:73;N:76;w:6;/N:73;/N:76	-9.83227
;D:36;D:38;D:51	-9.83234
;N:92;w:24;/N:92	-9.83248
;N:86;w:4	-9.83269
2;/N:72	-9.8327
;N:71;w:1;/N:71	-9.83297
;/N:43;/N:47	-9.83354
;N:60;N:64;N:67;N:72	-9.83356
;w:12;D:42;w:6;D:42	-9.83399
;w:2;/N:71	-9.83399
;w:12;D:42;D:43	-9.83404
;N:69;w:1;/N:69	-9.83437
;N:67;N:72;w:6;/N:67;/N:72	-9.83473
;w:6;D:42;D:45	-9.8356
;/N:75;w:4	-9.83596
;N:54;N:58;N:61;N:66	-9.83626
;D:50;D:54	-9.83634
2;/N:68	-9.83692
;/N:72;/N:77;/N:81	-9.83703
;N:32;w:8;/N:32;w:4	-9.83706
;D:70;w:6;D:42	-9.83713
;D:47;D:50	-9.83723
2;/N:57	-9.83804
;N:40;w:15;/N:40	-9.83889
;N:37;N:44;N:49	-9.8389
;N:58;w:48;/N:58	-9.83915
;N:57;N:62;w:12;/N:57;/N:62	-9.83925
;D:54;w:12;D:54	-9.83926
;/N:62;w:1	-9.8394
;N:88;w:2	-9.83972
;N:44;w:4;/N:44;w:2	-9.83994
;/N:44;/N:48	-9.83999
;N:77;w:48;/N:77	-9.84034
;w:12;D:36;w:12;D:36	-9.84057
;/N:55;N:55	-9.84132
;N:72;N:75;w:6;/N:72;/N:75	-9.84165
;N:47;w:4;/N:47;w:2	-9.84219
;N:45;w:4;/N:45;w:2	-9.84227
;D:38;D:54	-9.84227
;N:63;w:20;/N:63;w:4	-9.84237
;D:42;D:45	-9.84249
;/N:60;w:3	-9.8431
;/N:44;/N:51;/N:56	-9.84321
;/N:57;/N:64;/N:69	-9.84347
;N:73;w:12;/N:73;N:73;w:12;/N:73	-9.84348
;N:60;w:15;/N:60	-9.8435
;N:49;w:4;/N:49;w:2	-9.84403
;N:42;w:6;/N:42;N:42;w:6;/N:42	-9.84406
;D:54;w:2	-9.84449
0;/N:64	-9.84451
;/N:52;N:52	-9.84458
;N:35;N:47;w:6;/N:35;/N:47	-9.84486
;w:8;/N:53	-9.84517
;N:40;w:4;/N:40;w:8	-9.84521
;N:41;w:3	-9.84539
;N:29;w:3	-9.8457
;N:67;N:70;w:6;/N:67;/N:70	-9.8462
;N:68;N:73;N:76	-9.84623
;N:72;w:5;/N:72	-9.84668
;w:48;/N:43	-9.84685
;N:40;w:8;/N:40;w:4	-9.84751
;D:70;w:6	-9.84804
;/N:77;/N:79	-9.8481
;N:26;w:24;/N:26	-9.8483
;N:41;w:4;/N:41;w:8	-9.84872
;D:54;w:8;D:54	-9.84961
;N:47;N:56	-9.85042
;N:59;N:63;w:6;/N:59;/N:63	-9.8511
;w:2;/N:44	-9.85152
;w:6;D:38;w:6;D:36	-9.85209
;w:4;/N:41	-9.85227
;N:34;w:4;/N:34;w:2	-9.85256
;D:36;D:37;D:42	-9.85301
;N:64;w:4	-9.8531
;N:63;w:8;/N:63;w:4	-9.85382
0;/N:71	-9.85383
;w:24;N:73	-9.85396
;T:61;T:64	-9.85403
;N:88;N:91	-9.85421
;/N:73;w:4	-9.85432
;N:42;w:4;/N:42;w:8	-9.85444
;N:73;N:85;w:6;/N:73;/N:85	-9.85445
;T:62;T:66	-9.85456
;w:12;N:49;w:12;/N:49	-9.8547
;N:38;N:50;w:6;/N:38;/N:50	-9.85505
;w:12;D:36;D:41	-9.85511
;D:69;w:4	-9.85529
;N:62;N:69;N:74	-9.85557
;N:73;w:5;/N:73	-9.85602
;T:82;T:8	-9.85608
;/N:60;/N:65;/N:68	-9.85614
;N:71;N:75;w:12;/N:71;/N:75	-9.8562
;N:35;w:16;/N:35	-9.85644
;N:70;w:2	-9.85646
;/N:86;/N:90	-9.85658
;T:69;T:72	-9.85681
;/N:48;/N:57	-9.8572
;N:101;w:12;/N:101	-9.85725
;N:74;w:12;/N:74;N:74;w:12;/N:74	-9.85726
;N:67;N:72;w:12;/N:67;/N:72	-9.85766
;N:91;w:3	-9.85781
;w:12;N:47;w:12;/N:47	-9.85815
;N:63;N:70;N:75	-9.85831
;w:6;D:36;D:37	-9.85849
;w:9;/N:47	-9.85905
;N:58;N:63;w:12;/N:58;/N:63	-9.85912
;N:35;w:15;/N:35	-9.8594
;/N:89;/N:9	-9.85952
;N:73;w:1;/N:73	-9.85974
0;/N:72	-9.85996
;w:4;/N:63	-9.86029
;T:61;T:65	-9.86037
;/N:91;w:3	-9.86052
;N:33;N:45;w:12;/N:33;/N:45	-9.86054
0;/N:70	-9.86055
;N:66;N:69;w:6;/N:66;/N:69	-9.86105
;N:70;w:1;/N:70	-9.86124
;N:41;w:15;/N:41	-9.86135
8;/N:83	-9.86143
;N:85;w:6	-9.86216
;T:70;T:73	-9.86261
;/N:65;w:6	-9.86306
;/N:61;w:1	-9.86319
;/N:79;w:1	-9.86338
;/N:74;/N:83	-9.86364
;D:54;w:6;D:54	-9.86404
;N:51;N:55;N:58;N:63	-9.86416
;N:49;N:61;w:6;/N:49;/N:61	-9.86421
;N:68;N:73;w:6;/N:68;/N:73	-9.86456
;N:64;N:67;w:6;/N:64;/N:67	-9.86472
;w:6;N:54;w:6;/N:54	-9.86475
;N:62;w:20;/N:62;w:4	-9.86481
8;/N:39	-9.86512
;N:72;w:1;/N:72	-9.86554
;N:48;N:52;N:55;N:60	-9.8656
;/N:74;/N:77;/N:82	-9.86683
;/N:76;w:6	-9.86715
;N:34;N:41	-9.86758
0;/N:37	-9.86821
;N:38;w:8;/N:38;w:4	-9.86831
;N:77;w:15;/N:77	-9.8688
;w:3;D:38;w:3;D:38	-9.86925
;/N:65;N:65	-9.86951
;N:57;w:12;/N:57;N:57;w:12;/N:57	-9.87007
;/N:67;/N:71;/N:76	-9.87051
;D:43;D:48	-9.87059
;N:43;w:4;/N:43;w:2	-9.87155
;N:41;w:4;/N:41;w:2	-9.87182
;N:73;N:85;w:12;/N:73;/N:85	-9.87244
;w:3;/N:80	-9.87259
;N:26;w:8;/N:26	-9.87284
;N:46;N:51;N:55	-9.87435
;w:8;/N:52	-9.87474
;N:59;w:15;/N:59	-9.87495
;N:50;N:54;N:59	-9.87583
;N:87;N:91	-9.87674
;w:4;D:38	-9.87704
;N:57;w:48;/N:57	-9.87721
;N:81;w:4	-9.87753
;N:73;w:21;/N:73;w:3	-9.87755
;/N:84;/N:96	-9.87771
;N:29;w:8;/N:29	-9.87772
;w:3;/N:61;w:9	-9.87909
;N:46;w:12;/N:46;N:46;w:12;/N:46	-9.87915
;N:68;N:71;w:6;/N:68;/N:71	-9.87919
;w:8;/N:51	-9.8793
;N:62;w:5;/N:62	-9.87934
;N:58;w:12;/N:58;N:58;w:12;/N:58	-9.87949
;/N:68;/N:72;/N:77	-9.87979
;N:64;w:21;/N:64;w:3	-9.88128
;N:32;w:3	-9.88137
;w:9;/N:48	-9.88189
;/N:49;/N:56;/N:61	-9.88264
;N:71;w:5;/N:71	-9.8827
;/N:53;/N:58;/N:61	-9.8829
;N:40;w:4;/N:40;w:2	-9.88296
;w:4;/N:40	-9.88316
;N:58;N:61;w:6;/N:58;/N:61	-9.88366
;N:47;w:2;/N:47	-9.88368
;D:76;w:6;D:42	-9.88374
;N:69;w:2	-9.88426
;N:56;N:61;w:6;/N:56;/N:61	-9.88474
;N:74;N:79;N:83	-9.88478
;T:60;T:64	-9.88538
;/N:66;w:6	-9.88589
;N:77;w:6;/N:77;N:77;w:6;/N:77	-9.88598
;w:18;/N:51	-9.88618
;N:53;N:55	-9.88629
;w:9;/N:43	-9.88636
;N:83;w:6	-9.88657
;N:56;N:59;w:12;/N:56;/N:59	-9.88713
;w:9;/N:49	-9.88713
;D:36;D:42;D:69	-9.88729
;w:12;N:45	-9.88875
;/N:73;/N:78;/N:82	-9.88894
;N:75;w:4;/N:75;w:8	-9.88912
;D:45;D:50	-9.8892
;D:51;w:12;D:51	-9.88963
;N:46;w:2;/N:46	-9.88987
;w:12;N:75	-9.89062
;N:66;/N:66	-9.89078
;N:29;w:3;/N:29;w:3	-9.8908
;w:21;/N:51	-9.89141
;N:75;w:12;/N:75;N:75;w:12;/N:75	-9.89154
;N:88;w:3;/N:88;w:3	-9.8918
;N:42;w:15;/N:42	-9.89202
;N:48;w:12;/N:48;N:48;w:12;/N:48	-9.89215
;N:32;w:3;/N:32;w:3	-9.8926
;N:42;w:4;/N:42;w:2	-9.89301
;w:12;D:38;w:12;D:38	-9.89301
;N:91;w:8;/N:91	-9.89319
;N:37;w:4;/N:37;w:8	-9.89322
;w:6;N:55;w:6;/N:55	-9.89357
;N:63;w:5;/N:63	-9.89385
;N:74;w:20;/N:74;w:4	-9.89458
;N:71;w:2	-9.89502
;N:58;N:63;w:6;/N:58;/N:63	-9.89503
;N:35;w:36;/N:35	-9.89526
;N:65;/N:65	-9.89539
;T:81;T:8	-9.89571
;/N:69;/N:75	-9.89591
;N:48;w:2;/N:48	-9.89594
;/N:51;/N:54;/N:58	-9.8974
;w:21;/N:50	-9.89752
;w:3;/N:65;w:9	-9.898
;N:100;w:3;/N:100	-9.898
;w:20;/N:58	-9.89824
;N:41;w:6;/N:41;N:41;w:6;/N:41	-9.89848
;/N:83;w:1	-9.89855
;N:87;w:1	-9.89885
;N:67;w:12;/N:67;N:69;w:12;/N:69	-9.89887
;N:37;w:8;/N:37;w:4	-9.89895
;w:21;/N:66	-9.89912
;w:21;/N:52	-9.89936
;N:39;w:4;/N:39;w:2	-9.8996
;w:6;D:38;w:6;D:38;w:6;D:38	-9.8998
;N:76;N:84	-9.90032
;N:73;N:76;w:12;/N:73;/N:76	-9.90032
;N:79;N:86	-9.90044
;D:51;w:12;D:36	-9.90045
;w:21;/N:65	-9.90098
;N:63;N:68;w:6;/N:63;/N:68	-9.90113
;w:8;/N:49	-9.90159
;/N:61;/N:68;/N:73	-9.90216
;N:55;N:59;N:62;N:67	-9.90222
;w:3;/N:63;w:9	-9.90224
;N:69;w:12;/N:69;N:67	-9.90232
;T:72;T:7	-9.90255
;N:82;w:4	-9.90262
;/N:81;w:2	-9.90269
;N:68;w:1;/N:68	-9.90277
;N:93;w:3	-9.90303
;N:36;w:8;/N:36;w:4	-9.9033
;w:12;/N:33	-9.90338
;/N:78;w:2	-9.90347
;/N:60;/N:67;/N:72	-9.90448
;w:1;/N:40	-9.90452
;N:90;w:2	-9.90514
;T:74;T:7	-9.9054
;N:74;N:86;w:6;/N:74;/N:86	-9.90563
;N:68;w:2	-9.90591
;N:68;N:73;w:12;/N:68;/N:73	-9.90596
;N:43;w:4;/N:43;w:8	-9.90602
;w:12;N:75;w:12;/N:75	-9.90619
;N:74;N:77;N:81	-9.90626
0;/N:76	-9.90635
;D:41;D:45	-9.90639
;D:54;w:12;D:42	-9.90714
;N:66;w:1;/N:66	-9.90719
;N:30;w:6;/N:30;w:6	-9.90725
;D:50;D:69	-9.90727
;w:1;/N:77	-9.90731
;T:48;T:	-9.90737
;/N:51;/N:55;/N:60	-9.9079
;w:3;/N:60;w:9	-9.90805
;N:54;w:12;/N:54;N:54;w:12;/N:54	-9.90845
;/N:80;w:1	-9.90856
;T:66;T:69	-9.90865
;/N:40;/N:45	-9.90938
;N:41;w:8;/N:41;w:4	-9.90994
;N:56;N:61;w:12;/N:56;/N:61	-9.91
;N:88;w:4	-9.9101
;N:67;w:6;/N:67;N:69;w:6;/N:69	-9.91035
;/N:72;/N:75;/N:79	-9.91057
;/N:45;/N:49	-9.91099
2;/N:58	-9.91118
;/N:43;/N:46	-9.91136
;N:78;w:48;/N:78	-9.91147
;N:28;w:3;/N:28	-9.91195
;/N:59;w:3	-9.91196
;/N:60;w:1	-9.91199
;N:36;N:43;N:48	-9.91215
;N:70;N:74;w:6;/N:70;/N:74	-9.91234
;N:75;w:8;/N:75;w:4	-9.91309
;w:4;/N:44	-9.9131
;w:12;N:74;w:12;/N:74	-9.9134
;N:67;w:1;/N:67	-9.91355
0;/N:63	-9.91405
;N:68;/N:68	-9.91423
;N:57;N:61;N:64;N:69	-9.91457
;N:77;N:81;N:84	-9.91458
;N:53;N:57;N:60;N:65	-9.91484
;N:50;w:12;/N:50;N:50;w:12;/N:50	-9.91491
;/N:62;w:2	-9.91506
;N:29;w:18;/N:29	-9.91513
;N:58;N:62;w:6;/N:58;/N:62	-9.91541
;N:75;w:1;/N:75	-9.91558
;N:34;w:15;/N:34	-9.91579
;w:16;D:36	-9.91641
;w:8;/N:47	-9.91651
;N:41;N:45	-9.91654
;N:32;w:4;/N:32	-9.91716
;N:65;w:1;/N:65	-9.91747
;N:63;/N:63	-9.91753
0;/N:61	-9.91759
;w:5;/N:53	-9.91785
;N:53;w:2;/N:53	-9.91813
;N:72;w:2	-9.9187
;N:43;w:3	-9.91901
;/N:43;/N:48	-9.91913
;N:50;N:57;N:62;N:66	-9.91928
;/N:75;/N:84	-9.91938
;w:9;/N:46	-9.92039
;/N:89;w:3	-9.92069
;/N:78;/N:80	-9.92081
;N:45;w:12;/N:45;N:45;w:12;/N:45	-9.92101
;w:8;/N:48	-9.92142
;N:52;N:59;N:64;N:68	-9.92145
;w:6;D:42;D:47	-9.9216
;w:48;/N:42	-9.92185
;N:74;w:1;/N:74	-9.92191
;N:63;w:21;/N:63;w:3	-9.92195
;N:76;N:78	-9.92224
;N:63;N:66;w:6;/N:63;/N:66	-9.92259
;N:59;N:62;N:65	-9.92368
;D:70;w:4	-9.92379
;N:68;w:12;/N:68;N:66	-9.92449
;N:47;w:12;/N:47;N:47;w:12;/N:47	-9.92493
;/N:74;N:74	-9.92507
;w:18;/N:50	-9.92519
;N:54;w:2;/N:54	-9.92521
;/N:47;/N:54;/N:59	-9.9256
;/N:88;/N:91	-9.92574
;w:6;/N:31	-9.92638
;N:32;N:44;w:12;/N:32;/N:44	-9.92639
;N:67;/N:67	-9.9265
;N:66;w:6;/N:66;N:68;w:6;/N:68	-9.927
;N:84;w:9;/N:84;w:3	-9.92752
;T:69;T:73	-9.92842
;N:44;w:12;/N:44;N:44;w:12;/N:44	-9.92894
;N:56;N:60;w:12;/N:56;/N:60	-9.92923
;N:74;w:5;/N:74	-9.92931
;w:2;/N:62;w:4	-9.92978
;N:51;w:12;/N:51;N:51;w:12;/N:51	-9.92982
;N:50;w:2;/N:50	-9.92999
0;/N:84	-9.93025
;N:61;N:65;N:68;N:73	-9.93025
;N:60;N:63;N:66	-9.93056
;N:55;w:4;/N:55;w:8	-9.93072
;w:12;D:42;D:48	-9.93078
;N:39;w:12;/N:39;N:39;w:12;/N:39	-9.93082
;N:88;w:6;/N:88;w:6	-9.93127
;N:65;w:6;/N:65;N:67;w:6;/N:67	-9.93155
;N:54;N:59;w:6;/N:54;/N:59	-9.93182
;N:42;w:3	-9.93188
;N:67;w:2	-9.93274
;w:24;N:47	-9.93335
;N:40;w:12;/N:40;N:40;w:12;/N:40	-9.93353
;T:43;T:5	-9.93381
;N:68;w:6;/N:68;N:70;w:6;/N:70	-9.9339
;/N:54;N:54	-9.93407
;N:70;/N:70	-9.93413
;w:12;N:48;w:12;/N:48	-9.9355
;w:12;D:38;D:39	-9.93566
;N:45;N:49;N:52	-9.93576
;N:76;w:1;/N:76	-9.93594
;N:31;w:8;/N:31;w:4	-9.93626
;N:49;w:12;/N:49;N:49;w:12;/N:49	-9.93637
;w:12;/N:70;N:70	-9.93642
;T:64;T:69	-9.93661
;N:34;w:16;/N:34	-9.93688
;N:76;w:4;/N:76;w:8	-9.93695
;w:12;N:45;w:12;/N:45	-9.93698
;N:76;N:85	-9.93701
;N:52;w:12;/N:52;N:52;w:12;/N:52	-9.93723
;N:45;w:4;/N:45;w:8	-9.93767
;T:54;T:59	-9.9378
;/N:81;w:4	-9.93845
;N:89;N:92	-9.93854
;N:61;w:5;/N:61	-9.93896
;D:54;w:12;D:36	-9.93901
;N:26;w:4;/N:26	-9.93934
;N:75;w:2	-9.94008
;N:69;w:6;/N:69;N:71;w:6;/N:71	-9.94015
;/N:77;w:6	-9.94016
;N:66;w:12;/N:66;N:68;w:12;/N:68	-9.94033
;T:60;T:63	-9.94076
;N:41;w:12;/N:41;N:41;w:12;/N:41	-9.94111
;w:24;/N:38	-9.94145
;N:83;w:36;/N:83	-9.9416
;w:3;/N:59;w:9	-9.94215
;N:43;w:12;/N:43;N:43;w:12;/N:43	-9.94218
0;/N:60	-9.94245
;/N:75;/N:78;/N:83	-9.94318
;w:8;/N:46	-9.94321
;w:12;/N:49;N:49	-9.94355
;w:6;N:63;w:6;/N:63;w:6	-9.94435
;N:78;w:6;/N:78;N:78;w:6;/N:78	-9.94448
;N:59;N:64;w:6;/N:59;/N:64	-9.94449
;N:75;w:20;/N:75;w:4	-9.94468
;N:69;w:7	-9.94476
;N:83;w:9;/N:83	-9.94476
;N:53;w:12;/N:53;N:53;w:12;/N:53	-9.94485
;N:54;w:4;/N:54;w:8	-9.94495
;w:9;/N:42	-9.94496
;w:5;/N:52	-9.94525
;N:69;/N:69	-9.94532
;N:77;w:1;/N:77	-9.94537
;N:77;N:79	-9.94582
;T:63;T:66	-9.94602
;w:3;/N:62;w:9	-9.94602
;N:67;w:12;/N:67;N:65	-9.94613
;N:56;w:12;/N:56;N:56;w:12;/N:56	-9.94646
2;/N:74	-9.94677
;/N:52;/N:57;/N:60	-9.94714
;N:35;N:47;w:12;/N:35;/N:47	-9.94767
;N:82;w:2;/N:82	-9.94776
2;/N:75	-9.94825
;w:24;D:46	-9.94847
;N:46;w:4;/N:46;w:8	-9.94857
;N:62;w:8;/N:62;w:4	-9.94883
;/N:52;/N:58	-9.94919
;N:49;w:2;/N:49	-9.94948
;T:63;T:68	-9.94962
;N:31;w:3	-9.94963
;N:94;w:4;/N:94	-9.94968
;N:78;w:15;/N:78	-9.94984
;/N:53;/N:60;/N:65	-9.95037
;w:20;/N:60	-9.95086
;N:58;N:61;N:64	-9.95104
;N:71;N:75;w:6;/N:71;/N:75	-9.9511
;N:81;w:2;/N:81	-9.9511
;T:41;T:4	-9.9513
;w:20;/N:57	-9.95152
;w:2;/N:65;w:4	-9.9517
;N:42;w:12;/N:42;N:42;w:12;/N:42	-9.95208
;/N:73;/N:76;/N:80	-9.95218
;w:24;/N:39	-9.95223
;N:71;/N:71	-9.95263
;w:18;/N:69	-9.95292
;N:55;N:60;w:12;/N:55;/N:60	-9.95302
;N:55;N:59;w:12;/N:55;/N:59	-9.95311
;w:2;/N:66;w:4	-9.95395
;/N:53;N:53	-9.95468
;/N:35;/N:42	-9.95514
;w:2;/N:67;w:4	-9.95518
;N:64;/N:64	-9.95531
;D:54;D:76	-9.95613
;N:71;w:7	-9.95626
;N:60;w:20;/N:60;w:4	-9.95636
;N:70;w:4;/N:70;w:8	-9.95663
;N:52;N:56;N:59;N:64	-9.9573
;N:69;N:74;w:6;/N:69;/N:74	-9.9574
;N:62;w:21;/N:62;w:3	-9.95756
;N:31;w:3;/N:31;w:3	-9.95782
;/N:76;/N:80;/N:83	-9.95801
;N:71;w:12;/N:71;N:69	-9.95811
;w:20;/N:59	-9.9582
;N:44;w:2;/N:44	-9.95832
;w:12;N:46;w:12;/N:46	-9.95875
;N:40;w:6;/N:40;N:40;w:6;/N:40	-9.95923
;N:28;w:3;/N:28;w:3	-9.95949
;T:72;T:75	-9.95964
;w:48;/N:41	-9.95988
;N:34;w:4;/N:34;w:8	-9.95991
;/N:50;/N:53;/N:57	-9.96126
;w:18;/N:71	-9.9613
;N:86;N:91	-9.96134
;w:3;/N:67;w:9	-9.96178
;N:61;N:64;N:66	-9.96237
;/N:85;/N:97	-9.96262
;w:2;/N:64;w:4	-9.96273
;/N:82;w:2	-9.96344
;N:58;N:62;N:65;N:70	-9.96373
;N:35;w:4;/N:35;w:8	-9.96383
;N:70;w:12;/N:70;N:68	-9.96471
;N:62;w:4	-9.9649
;T:65;T:70	-9.96492
;N:50;N:56	-9.96506
;N:48;w:4;/N:48;w:8	-9.96537
;/N:61;w:2	-9.96562
;N:74;w:21;/N:74;w:3	-9.9658
;w:6;D:42;D:48	-9.96654
;N:22;w:6;/N:22	-9.96661
;N:38;w:4;/N:38;w:2	-9.96665
;w:2;/N:63;w:4	-9.96683
;/N:77;w:4	-9.96707
;N:70;N:75;w:6;/N:70;/N:75	-9.96813
;N:55;N:60;w:6;/N:55;/N:60	-9.96874
;/N:87;/N:91	-9.96903
;/N:90;/N:9	-9.96972
;/N:51;N:51	-9.96984
;/N:43;/N:50;/N:55	-9.96998
;N:73;w:12;/N:73;N:71	-9.97022
;/N:45;N:45	-9.97023
;N:70;w:6;/N:70;N:72;w:6;/N:72	-9.97033
;N:55;w:12;/N:55;N:55;w:12;/N:55	-9.9705
;N:50;N:54;N:57;N:62	-9.97051
;N:72;w:12;/N:72;N:70	-9.971
;D:49;D:54	-9.9712
;w:12;N:44;w:12;/N:44	-9.9717
;w:24;N:74	-9.97182
;D:70;w:6;D:38	-9.972
;N:75;N:78;w:6;/N:75;/N:78	-9.97205
;N:39;w:6;/N:39;N:39;w:6;/N:39	-9.97243
;T:71;T:74	-9.97279
;N:30;w:9;/N:30	-9.97289
;w:2;/N:42	-9.9729
;N:47;w:4;/N:47;w:8	-9.97297
;w:1;/N:39	-9.97364
;N:33;w:16;/N:33	-9.97395
;D:38;D:39	-9.97431
;/N:79;/N:86	-9.97434
;N:56;N:60;N:63;N:68	-9.9746
;T:55;T:58	-9.97483
;N:43;w:15;/N:43	-9.9751
;T:67;T:71	-9.97517
;N:82;w:16;/N:82	-9.97549
;N:45;w:2;/N:45	-9.97652
;/N:76;w:4	-9.97669
;N:63;N:67;w:6;/N:63;/N:67	-9.9767
;D:54;w:6;D:54;w:6	-9.97691
;N:43;w:2;/N:43	-9.97709
;/N:58;w:2	-9.97727
;/N:69;/N:73;/N:78	-9.97728
;w:3;/N:58;w:9	-9.97728
;/N:78;w:6	-9.97736
;N:51;w:8;/N:51;w:4	-9.97739
;w:2;/N:68;w:4	-9.97774
;N:83;w:1	-9.97786
;/N:70;/N:76	-9.97818
;N:71;N:77	-9.9789
;w:4;/N:64	-9.98013
;N:74;w:12;/N:74;N:72	-9.98106
;N:65;w:12;/N:65;N:67;w:12;/N:67	-9.9811
;N:34;w:36;/N:34	-9.9813
;w:18;/N:70	-9.98141
;N:77;N:85	-9.98157
;w:12;N:76	-9.98179
;T:55;T:59	-9.98223
0;/N:83	-9.98228
;w:3;/N:68;w:9	-9.98259
;N:59;w:5;/N:59	-9.98266
;N:69;N:74;N:77	-9.98273
;/N:84;w:1	-9.98368
;/N:37;/N:44	-9.98503
;w:18;/N:2	-9.98546
;w:2;/N:43	-9.98562
;N:74;/N:74	-9.98574
;/N:34;/N:41	-9.98576
;/N:38;/N:45;/N:50	-9.98583
;w:2;/N:72	-9.98606
;N:71;w:6;/N:71;N:73;w:6;/N:73	-9.98623
;N:56;w:48;/N:56	-9.98641
;N:36;N:41	-9.9867
;N:74;N:77;w:6;/N:74;/N:77	-9.98677
;N:74;w:2	-9.98718
;w:6;D:36;D:45	-9.98773
;N:75;N:87;w:6;/N:75;/N:87	-9.98781
;N:52;w:8;/N:52;w:4	-9.98797
;N:53;N:60;N:65;N:69	-9.98804
;/N:58;/N:65;/N:70	-9.98811
;N:53;N:58;w:6;/N:53;/N:58	-9.98819
;w:9;/N:63	-9.98849
;N:76;w:2	-9.9887
;N:73;/N:73	-9.9887
;w:24;N:46	-9.98877
2;/N:76	-9.98891
;N:55;w:48;/N:55	-9.98906
;w:8;/N:44	-9.98923
;D:69;D:76;w:6	-9.98944
;T:64;T:67	-9.99012
;N:33;w:15;/N:33	-9.99158
;w:12;/N:48;N:48	-9.9917
;N:84;w:6	-9.99201
;N:61;N:64;w:6;/N:61;/N:64	-9.99243
;N:37;w:4;/N:37;w:2	-9.99271
;/N:37;/N:42	-9.99308
;D:50;D:70	-9.9932
;T:68;T:73	-9.99393
;N:70;N:74;N:79	-9.99412
;N:58;w:15;/N:58	-9.99438
;/N:51;/N:57	-9.9948
;N:55;w:12;/N:55;N:58;w:12;/N:58	-9.99495
;N:57;N:60;w:6;/N:57;/N:60	-9.99498
;w:9;/N:40	-9.99505
;N:57;N:60;N:63	-9.99548
;w:1;/N:78	-9.99564
;/N:42;/N:49;/N:54	-9.99588
;N:88;w:9;/N:88	-9.99617
;N:62;/N:62	-9.99618
;D:69;w:6;D:38	-9.99646
;D:56;D:70	-9.99656
;N:38;w:12;/N:38;N:38;w:12;/N:38	-9.9968
;D:50;w:4	-9.99686
;/N:71;w:4	-9.99742
;N:67;w:7	-9.99777
;/N:72;w:4	-9.99781
;N:78;N:80	-9.9981
;N:59;N:62;N:64	-9.99883
;N:57;N:61;w:6;/N:57;/N:61	-9.99895
;w:2;/N:61;w:4	-9.99908
;/N:86;/N:91	-9.99919
;w:6;N:60;w:6;/N:60	-9.99964
;N:50;w:4;/N:50;w:8	-9.99981
;N:33;w:4;/N:33;w:2	-10
;/N:58;w:3	-10.0011
;w:3;/N:66;w:9	-10.0012
;w:21;/N:48	-10.0019
;N:60;/N:60	-10.0021
;N:74;N:77;w:12;/N:74;/N:77	-10.0026
;N:74;N:86;w:12;/N:74;/N:86	-10.003
;N:75;/N:75	-10.0031
;N:76;w:12;/N:76;N:76;w:12;/N:76	-10.0031
0;/N:75	-10.0035
;D:47;D:69	-10.0035
;D:36;D:46;D:49	-10.0037
;T:76;T:8	-10.0039
;N:59;w:12;/N:59;N:61;w:12;/N:61	-10.0039
;N:72;w:7	-10.0041
;N:55;N:58;w:12;/N:55;/N:58	-10.0041
0;/N:39	-10.0042
;/N:76;/N:84	-10.0044
;w:3;/N:70;w:9	-10.0044
;N:58;N:61;N:63	-10.0048
;N:72;N:76;w:12;/N:72;/N:76	-10.0049
;N:75;N:80;N:84	-10.0052
;/N:49;/N:58	-10.0052
;D:42;D:43	-10.0053
;N:48;N:51;N:55	-10.0058
;N:37;w:6;/N:37;N:37;w:6;/N:37	-10.006
;/N:49;N:49	-10.006
;/N:50;N:50	-10.007
;D:76;w:6;D:76	-10.0071
;N:73;w:6;/N:73;N:75;w:6;/N:75	-10.0075
;w:12;D:50	-10.0078
;N:60;w:5;/N:60	-10.008
;w:4;/N:39	-10.0081
;w:24;/N:74	-10.0084
;/N:82;w:4	-10.0088
;w:6;D:36;D:43	-10.0089
;N:70;w:7	-10.0089
;N:78;N:82;N:85	-10.0089
;w:5;/N:50	-10.0092
;/N:67;/N:72;/N:75	-10.0098
;w:21;/N:49	-10.0098
;N:71;N:76;w:6;/N:71;/N:76	-10.01
0;/N:73	-10.0101
;N:54;N:61;N:66;N:70	-10.0104
;w:4;D:42	-10.0111
;N:60;N:63;N:65	-10.0112
;N:64;w:6;/N:64;N:66;w:6;/N:66	-10.0115
;N:91;w:6;/N:91;w:6	-10.0116
;T:66;T:71	-10.0118
;w:8;/N:45	-10.012
;N:66;w:7	-10.012
;N:51;w:2;/N:51	-10.0121
;N:61;w:21;/N:61;w:3	-10.0125
;N:61;/N:61	-10.0129
;D:46;w:12;D:42	-10.0136
;N:52;N:57;w:6;/N:52;/N:57	-10.0138
;/N:59;w:1	-10.0144
;N:86;w:18;/N:86	-10.0144
;/N:48;N:48	-10.0148
;N:64;w:1;/N:64	-10.0151
;/N:79;w:2	-10.0154
;w:21;/N:67	-10.0154
;N:72;w:6;/N:72;N:74;w:6;/N:74	-10.0155
;w:5;/N:47	-10.0156
;N:32;N:44;w:6;/N:32;/N:44	-10.016
;N:61;w:20;/N:61;w:4	-10.0161
;N:38;w:6;/N:38;N:38;w:6;/N:38	-10.0162
;w:6;N:59;w:6;/N:59;w:6	-10.0166
;N:56;N:59;N:62	-10.0166
;T:68;T:72	-10.0172
;N:61;N:64;N:67	-10.0175
;w:21;/N:68	-10.0176
;N:36;w:12;/N:36;N:36;w:12;/N:36	-10.0177
;w:12;D:36;D:49	-10.0177
0;/N:35	-10.0178
;N:78;w:2	-10.0179
;N:37;w:12;/N:37;N:37;w:12;/N:37	-10.0182
;/N:42;/N:45	-10.0183
;N:77;/N:77	-10.0186
;N:41;w:2;/N:41	-10.0187
;N:57;w:12;/N:57;N:60;w:12;/N:60	-10.0188
;N:28;w:8;/N:28	-10.0197
;w:2;/N:60;w:4	-10.0197
;N:61;w:6;/N:61;w:6;N:61;w:6;/N:61	-10.0198
;D:48;D:53	-10.02
;N:72;/N:72	-10.0201
;D:38;w:3;D:38	-10.0204
;N:68;w:12;/N:68;N:70	-10.0205
;D:36;w:24;D:38	-10.0207
;D:53;w:12;D:36	-10.0211
;w:6;D:42;D:50	-10.0211
;N:79;w:6;/N:79;N:79;w:6;/N:79	-10.0212
;N:67;w:6;/N:67;w:6;N:67;w:6;/N:67	-10.0214
;w:20;/N:61	-10.0228
;N:69;w:12;/N:69;N:71	-10.0228
;N:71;w:12;/N:71;N:69;w:12;/N:69	-10.0233
;T:59;T:63	-10.0239
;w:12;N:43;w:12;/N:43	-10.0241
;N:67;w:12;/N:67;N:69	-10.0244
;N:49;w:4;/N:49;w:8	-10.0248
;N:33;w:36;/N:33	-10.0249
;N:77;w:2	-10.025
;/N:49;/N:57	-10.0251
;N:52;w:4;/N:52;w:8	-10.0251
;N:42;w:2;/N:42	-10.0252
0;/N:74	-10.026
;N:28;w:18;/N:28	-10.0262
;D:36;D:47	-10.0263
;/N:49;/N:52;/N:57	-10.0264
;N:50;w:12;/N:50;N:52;w:12;/N:52	-10.0266
;N:46;N:55	-10.0267
;w:48;/N:61	-10.0269
;N:62;w:12;/N:62;N:65;w:12;/N:65	-10.0276
;N:75;w:5;/N:75	-10.0276
;T:39;T:4	-10.0279
;N:49;w:12;/N:49;N:51;w:12;/N:51	-10.0281
;T:59;T:62	-10.0285
0;/N:59	-10.0285
;N:52;w:2;/N:52	-10.029
;w:18;N:59	-10.029
8;/N:38	-10.0291
;N:25;w:3;/N:25	-10.0293
2;/N:55	-10.0293
;w:6;N:60;w:6;/N:60;w:6	-10.0294
;N:64;w:12;/N:64;N:67;w:12;/N:67	-10.0294
;w:9;/N:64	-10.0299
;N:68;w:12;/N:68;N:70;w:12;/N:70	-10.0301
;N:73;w:7	-10.0304
;N:92;w:8;/N:92	-10.0305
;N:66;w:2	-10.0311
;w:6;N:62;w:6;/N:62;w:6	-10.0315
;N:80;N:87	-10.0322
;w:24;/N:75	-10.0329
;N:59;/N:59	-10.033
;N:51;w:12;/N:51;N:53;w:12;/N:53	-10.0331
;w:5;/N:51	-10.0335
;/N:89;/N:92	-10.0343
;N:61;w:12;/N:61;N:64;w:12;/N:64	-10.0343
;w:4;/N:65	-10.0344
;N:62;w:12;/N:62;N:64;w:12;/N:64	-10.0344
;N:44;w:15;/N:44	-10.0344
;N:36;w:6;/N:36;N:36;w:6;/N:36	-10.0345
;N:75;w:21;/N:75;w:3	-10.0346
;w:36;/N:62	-10.0347
;N:60;w:8;/N:60;w:4	-10.0349
;N:63;w:6;/N:63;w:6;N:63;w:6;/N:63	-10.035
;D:69;w:12;D:36	-10.0354
;/N:52;/N:54	-10.0355
;N:66;w:12;/N:66;N:64	-10.0357
;/N:42;/N:47	-10.0359
;/N:64;w:6	-10.0361
;N:62;N:65;N:68	-10.0365
;/N:105;N:10	-10.0366
;D:69;w:12;D:42	-10.0369
;w:12;D:36;w:12;D:38	-10.0377
;N:31;w:4;/N:31	-10.0379
;w:3;/N:64;w:9	-10.038
;N:40;w:2;/N:40	-10.0382
;N:60;w:12;/N:60;N:63;w:12;/N:63	-10.0386
;T:59;T:64	-10.0389
;N:88;N:92	-10.0393
;N:76;w:8;/N:76;w:4	-10.0394
;N:58;w:12;/N:58;N:61;w:12;/N:61	-10.0396
;N:26;w:1	-10.0397
;N:69;w:12;/N:69;N:71;w:12;/N:71	-10.0398
;N:34;w:8;/N:34;w:4	-10.0406
;T:55;T:6	-10.0413
;N:75;N:87;w:12;/N:75;/N:87	-10.0416
;N:59;N:63;N:66;N:71	-10.042
;N:40;w:21;/N:40;w:3	-10.042
;N:87;w:6	-10.0423
;N:74;w:12;/N:74;N:72;w:12;/N:72	-10.0423
;w:18;/N:73	-10.0426
;N:42;w:20;/N:42;w:4	-10.0427
;N:83;w:4;/N:83;w:2	-10.0428
;/N:83;w:4	-10.0428
;D:48;w:6;D:48	-10.0429
;N:87;N:92	-10.0434
6;/N:30	-10.0434
;N:51;N:56;N:59	-10.0436
;N:30;w:2	-10.0438
;N:79;w:48;/N:79	-10.044
;N:65;w:12;/N:65;N:68;w:12;/N:68	-10.0443
;w:24;D:36;D:42	-10.0444
;N:64;w:12;/N:64;N:66;w:12;/N:66	-10.0445
;N:62;w:6;/N:62;N:64;w:6;/N:64	-10.0447
;N:54;w:12;/N:54;N:57;w:12;/N:57	-10.0448
;N:69;w:6;/N:69;w:6;N:69;w:6;/N:69	-10.0449
;N:87;w:6;/N:87;w:6	-10.045
;N:27;w:9;/N:27;w:3	-10.0452
;D:69;w:8;D:69	-10.0457
;N:30;w:8;/N:30;w:4	-10.0469
;N:75;w:12;/N:75;N:73;w:12;/N:73	-10.0476
;N:71;w:12;/N:71;N:73	-10.0476
0;/N:58	-10.0478
;N:75;w:12;/N:75;N:73	-10.0478
;/N:50;/N:58	-10.0479
;w:48;/N:62	-10.048
;N:40;N:44	-10.0482
;w:5;/N:45	-10.049
;N:63;w:6;/N:63;N:65;w:6;/N:65	-10.0496
;N:73;N:77;w:6;/N:73;/N:77	-10.05
;N:83;w:2;/N:83	-10.0501
;T:44;T:5	-10.0505
;N:35;w:12;/N:35;N:35;w:12;/N:35	-10.0509
;N:70;w:12;/N:70;N:72;w:12;/N:72	-10.051
;N:31;N:43;w:12;/N:31;/N:43	-10.0511
;N:73;N:77;w:12;/N:73;/N:77	-10.0514
;/N:80;w:2	-10.0515
;N:70;w:12;/N:70;N:68;w:12;/N:68	-10.0521
;N:50;N:55;w:6;/N:50;/N:55	-10.0521
;w:2;/N:41	-10.0525
;/N:56;/N:63;/N:68	-10.0528
;D:36;D:69	-10.053
;D:45;w:6;D:45	-10.0541
;N:75;N:78;w:12;/N:75;/N:78	-10.0546
;w:12;N:76;w:12;/N:76	-10.0547
;N:57;w:15;/N:57	-10.0548
;w:8;/N:57	-10.0551
;w:20;/N:56	-10.0552
;N:69;N:74;w:12;/N:69;/N:74	-10.0557
;D:70;w:12;D:42	-10.0557
;w:6;D:51	-10.0565
;T:56;T:61	-10.057
;N:72;N:76;w:6;/N:72;/N:76	-10.0572
;N:89;w:3;/N:89;w:3	-10.0574
;w:3;/N:71;w:9	-10.0579
;N:61;w:4	-10.058
;w:2;/N:73	-10.0581
;T:67;T:72	-10.0583
;w:18;N:61	-10.0586
;N:41;N:53;w:6;/N:41;/N:53	-10.0588
;w:3;/N:73;w:9	-10.0593
;w:24;N:75	-10.0597
;N:64;w:7	-10.06
;w:12;N:42;w:12;/N:42	-10.0604
;N:62;N:65;N:67	-10.0605
;/N:80;w:6	-10.0607
;N:72;w:12;/N:72;N:74;w:12;/N:74	-10.0607
;N:50;w:6;/N:50;N:52;w:6;/N:52	-10.0609
;N:31;N:43;w:6;/N:31;/N:43	-10.0613
;/N:81;w:6	-10.0614
;N:57;w:6;/N:57;N:60;w:6;/N:60	-10.062
;N:84;w:36;/N:84	-10.0624
;w:6;N:62;w:6;/N:62	-10.0624
;N:70;N:75;w:12;/N:70;/N:75	-10.0625
;N:39;w:2;/N:39	-10.0627
;T:42;T:4	-10.0628
;N:77;w:12;/N:77;N:77;w:12;/N:77	-10.0629
;N:65;w:12;/N:65;N:63	-10.063
0;/N:77	-10.0632
;N:80;w:8;/N:80;w:4	-10.0632
;w:12;D:38;D:39;D:42	-10.0634
;N:61;w:1;/N:61	-10.0634
;N:59;w:20;/N:59;w:4	-10.0636
;w:36;/N:60	-10.0638
;w:18;/N:48	-10.064
;w:18;N:57	-10.0641
;N:69;w:12;/N:69;N:67;w:12;/N:67	-10.0643
;N:61;w:8;/N:61;w:4	-10.0644
;N:63;w:12;/N:63;N:65;w:12;/N:65	-10.0647
;N:71;w:6;/N:71;w:6;N:71;w:6;/N:71	-10.065
;w:2;/N:69;w:4	-10.0651
;w:48;/N:58	-10.0655
;N:78;w:4;/N:78;w:8	-10.0656
;w:9;/N:41	-10.0656
;/N:87;/N:92	-10.0658
;/N:77;/N:85	-10.0658
;N:57;w:12;/N:57;N:59;w:12;/N:59	-10.0662
;N:48;N:51;N:56	-10.0663
;N:76;w:20;/N:76;w:4	-10.0665
;N:39;w:21;/N:39;w:3	-10.0667
;N:70;N:75;N:78	-10.0667
;/N:83;w:2	-10.0669
;/N:54;/N:61;/N:66	-10.067
;w:8;/N:55	-10.0671
;N:64;w:12;/N:64;N:62	-10.0674
;N:33;w:4;/N:33;w:8	-10.0677
;N:38;w:21;/N:38;w:3	-10.0678
;w:2;/N:40	-10.0679
;N:66;w:12;/N:66;N:69;w:12;/N:69	-10.0682
;N:59;w:12;/N:59;N:62;w:12;/N:62	-10.0686
;/N:47;/N:56	-10.0688
;N:71;w:12;/N:71;N:73;w:12;/N:73	-10.0689
;N:68;w:12;/N:68;N:71;w:12;/N:71	-10.0689
;/N:64;w:2	-10.0689
;N:28;w:2	-10.069
;w:18;/N:72	-10.0691
;w:5;/N:48	-10.0693
;N:63;N:66;N:69	-10.0697
;w:20;/N:2	-10.0697
;D:70;w:6;D:36	-10.07
;D:38;D:39;D:42	-10.07
;N:66;w:12;/N:66;N:68	-10.0702
;N:53;N:58;w:12;/N:53;/N:58	-10.0702
;w:18;N:60	-10.0705
;N:80;w:2	-10.0706
;w:6;D:36;w:6;D:42	-10.0713
;N:72;w:12;/N:72;N:70;w:12;/N:70	-10.0722
;N:92;w:3	-10.0727
;N:85;w:1	-10.073
;N:54;w:48;/N:54	-10.0734
;D:51;w:24;D:51	-10.0734
2;/N:56	-10.0738
;N:84;w:9;/N:84	-10.0751
;w:9;/N:65	-10.0753
;N:48;N:56	-10.0755
;N:73;w:12;/N:73;N:71;w:12;/N:71	-10.0755
;w:6;N:69;w:6;/N:69;w:6	-10.0756
8;/N:37	-10.0757
;w:3;/N:63;w:3	-10.0758
;N:45;N:50;N:54	-10.076
;N:54;N:59;w:12;/N:54;/N:59	-10.0761
;N:89;w:4	-10.0762
;N:76;/N:76	-10.0767
;T:71;T:75	-10.0769
;N:42;N:46	-10.0771
;D:48;D:49	-10.0771
;/N:76;/N:85	-10.0773
;N:43;w:20;/N:43;w:4	-10.0774
;N:79;w:8;/N:79;w:4	-10.0777
;N:62;N:66;w:6;/N:62;/N:66	-10.0778
;N:64;w:12;/N:64;N:66	-10.0781
;N:65;w:12;/N:65;N:67	-10.0781
;N:75;N:78;N:82	-10.0789
;N:48;w:12;/N:48;N:50;w:12;/N:50	-10.079
;/N:75;N:75	-10.0791
;/N:76;N:76	-10.0792
;N:70;w:12;/N:70;N:72	-10.0794
;w:12;/N:71;N:71	-10.0796
;N:36;w:4;/N:36;w:2	-10.0803
;w:8;/N:56	-10.0804
;w:48;/N:59	-10.0807
;N:63;w:1;/N:63	-10.0809
;N:56;w:6;/N:56;N:59;w:6;/N:59	-10.081
;N:76;N:79;N:84	-10.081
;w:6;D:36;D:42;D:45	-10.0813
0;/N:42	-10.0817
;N:92;w:6;/N:92;w:6	-10.0817
;T:63;T:67	-10.0818
;N:34;w:6;/N:34;N:34;w:6;/N:34	-10.082
;w:2;/N:59;w:4	-10.0824
;T:56;T:59	-10.0828
;N:91;w:1	-10.0831
;w:20;/N:55	-10.0832
;T:54;T:57	-10.0839
;N:102;w:12;/N:102	-10.0839
;w:1;/N:38	-10.084
;N:73;w:1	-10.0843
;N:82;w:12;/N:82;N:84;w:12;/N:84	-10.0845
;N:51;N:58;w:6;/N:51;/N:58	-10.0846
;/N:47;/N:52;/N:56	-10.0853
;N:65;w:2	-10.0857
;N:63;w:12;/N:63;N:66;w:12;/N:66	-10.0861
2;/N:34	-10.0864
;w:48;/N:63	-10.0867
;w:3;/N:72;w:9	-10.0869
;w:72;/N:8	-10.0872
;N:56;N:59;w:6;/N:56;/N:59	-10.0873
;w:12;D:38;w:6;D:38	-10.0873
;N:57;/N:57	-10.0876
;/N:74;/N:77;/N:81	-10.0878
;N:77;w:20;/N:77;w:4	-10.0885
;N:85;w:9;/N:85;w:3	-10.0887
;N:79;N:81	-10.0891
;N:76;w:12;/N:76;N:74	-10.0896
;w:6;N:59;w:6;/N:59	-10.09
;/N:63;/N:70;/N:75	-10.0904
;w:8;/N:43	-10.0906
;w:6;N:76;w:6;/N:76;w:6	-10.0907
;N:75;w:6;/N:75;N:73;w:6;/N:73	-10.0921
;w:24;N:45	-10.0921
;/N:29;w:3	-10.0925
;w:6;N:58;w:6;/N:58	-10.0926
;N:80;w:48;/N:80	-10.0927
;D:36;D:42;D:48	-10.0928
;N:68;w:12;/N:68;N:66;w:12;/N:66	-10.0928
;N:79;w:5	-10.0929
;N:41;w:21;/N:41;w:3	-10.093
;N:78;w:1;/N:78	-10.093
;N:29;w:6;/N:29;w:6	-10.0932
;w:18;N:58	-10.0933
;w:3;/N:61;w:3	-10.0937
;N:47;N:55	-10.0938
;w:5;/N:44	-10.0939
;/N:71;/N:77	-10.094
;w:8;D:42	-10.0952
;N:52;N:57;w:12;/N:52;/N:57	-10.0952
;/N:58;w:1	-10.0952
;N:54;w:12;/N:54;N:52;w:12;/N:52	-10.0953
;N:32;w:15;/N:32	-10.0955
;/N:65;w:2	-10.0956
;w:48;/N:40	-10.0958
;N:45;w:15;/N:45	-10.096
;w:4;/N:61;w:2	-10.0961
;N:65;N:72;N:77	-10.0963
;T:43;T:4	-10.0966
;N:55;w:12;/N:55;N:53;w:12;/N:53	-10.0968
;w:4;/N:38	-10.0971
;N:39;N:51;w:6;/N:39;/N:51	-10.0974
2;/N:51	-10.0975
;T:58;T:61	-10.0984
;N:63;N:67;N:70;N:75	-10.0985
;w:6;D:38;D:45	-10.0985
;N:58;w:5;/N:58	-10.0985
;N:53;w:12;/N:53;N:55;w:12;/N:55	-10.0988
;w:3;/N:64;w:3	-10.0988
;N:72;N:78	-10.0989
;N:80;w:6;/N:80;N:80;w:6;/N:80	-10.0996
;N:35;w:4;/N:35;w:2	-10.0998
;N:57;N:60;N:62	-10.0999
;T:57;T:62	-10.1003
;D:36;D:39	-10.1006
;N:41;w:20;/N:41;w:4	-10.1006
;w:5;/N:49	-10.1007
;D:38;D:53	-10.1011
;D:54;w:6;D:38	-10.1014
;N:86;w:6	-10.1015
;N:54;N:57;N:60	-10.1016
;T:70;T:74	-10.1016
;N:76;w:12;/N:76;N:74;w:12;/N:74	-10.1028
;N:53;w:48;/N:53	-10.1031
;N:71;w:6;/N:71;N:69;w:6;/N:69	-10.1031
6;/N:28	-10.1035
;w:12;/N:31	-10.1037
;N:21;w:12;/N:21	-10.1039
;N:53;w:12;/N:53;N:56;w:12;/N:56	-10.1041
;N:39;w:4	-10.1047
;D:70;w:3	-10.1048
;N:76;w:5;/N:76	-10.1049
;w:6;D:36;D:39;D:42	-10.1056
;/N:55;/N:62;/N:67	-10.106
;/N:54;w:1	-10.1063
45	-10.1075
;w:3;/N:60;w:3	-10.1075
;N:64;N:71;N:76	-10.1084
;w:9;D:38	-10.1087
;w:4;/N:63;w:2	-10.1091
;D:36;w:24;D:36	-10.1093
;N:28;w:3	-10.1098
;w:18;N:63	-10.1102
;/N:57;w:2	-10.1104
;/N:79;/N:81	-10.1107
;w:2;/N:70;w:4	-10.1109
;w:12;N:40;w:12;/N:40	-10.1111
;w:12;/N:1	-10.1111
;w:5;/N:46	-10.1112
;/N:60;/N:64;/N:67;/N:72	-10.1116
;w:3;/N:32	-10.1118
;/N:70;w:4	-10.1123
;N:40;w:20;/N:40;w:4	-10.1125
;N:67;w:12;/N:67;N:70;w:12;/N:70	-10.1125
;w:36;/N:63	-10.1126
;w:3;/N:60;w:1	-10.1133
;w:3;/N:31	-10.1138
;w:12;N:41;w:12;/N:41	-10.1141
0;/N:41	-10.1146
;w:6;D:36;D:42;D:43	-10.1147
;N:49;w:6;/N:49;N:51;w:6;/N:51	-10.1155
;N:80;w:21;/N:80	-10.1155
;w:3;/N:69;w:9	-10.1161
;D:49;D:50	-10.1163
;w:6;D:50	-10.1166
;N:74;w:6;/N:74;N:72;w:6;/N:72	-10.1166
;w:12;N:77;w:12;/N:77	-10.1171
;N:56;w:15;/N:56	-10.1171
;N:93;w:24;/N:93	-10.1173
;N:32;w:6;/N:32;N:32;w:6;/N:32	-10.1173
;w:12;/N:47;N:47	-10.1174
;/N:63;w:2	-10.1177
;N:74;w:6;/N:74;N:76;w:6;/N:76	-10.1177
2;/N:79	-10.1183
;/N:56;w:2	-10.1184
;N:27;w:3;/N:27	-10.1186
;T:65;T:68	-10.1187
;N:53;w:12;/N:53;N:51;w:12;/N:51	-10.1187
;N:58;w:12;/N:58;N:60;w:12;/N:60	-10.119
;w:18;N:62	-10.1193
;N:29;w:9;/N:29	-10.1193
;N:63;w:7	-10.1197
;N:51;N:56;w:6;/N:51;/N:56	-10.1203
;N:72;w:12;/N:72;N:74	-10.1207
;w:48;/N:54	-10.121
;N:79;w:15;/N:79	-10.1214
;N:39;w:20;/N:39;w:4	-10.1218
;N:43;w:21;/N:43;w:3	-10.1219
;w:4;/N:65;w:2	-10.1221
;N:55;w:12;/N:55;N:57;w:12;/N:57	-10.1222
;N:53;N:60;w:6;/N:53;/N:60	-10.1225
;N:72;w:6;/N:72;N:70;w:6;/N:70	-10.1226
;N:55;N:58;N:61	-10.1227
;w:12;N:78;w:12;/N:78	-10.1228
;N:36;w:21;/N:36;w:3	-10.1228
;w:4;/N:62;w:2	-10.1229
;N:32;w:4;/N:32;w:2	-10.1236
;N:37;w:21;/N:37;w:3	-10.1237
;/N:80;/N:87	-10.1239
;N:80;N:82	-10.1239
;N:45;N:54	-10.1243
;N:67;w:6;/N:67;N:65;w:6;/N:65	-10.1245
;T:55;T:57	-10.1245
;N:56;N:63;w:6;/N:56;/N:63	-10.1246
;w:36;/N:66	-10.1249
;N:79;w:12;/N:79;N:77;w:12;/N:77	-10.1251
;w:6;N:78;w:6;/N:78;w:6	-10.1252
;N:48;w:6;/N:48;N:50;w:6;/N:50	-10.1258
;N:44;w:20;/N:44;w:4	-10.1258
;w:2;/N:33	-10.1264
;D:69;w:12;D:38	-10.1272
6;/N:87	-10.1273
;/N:106;N:10	-10.1274
;/N:85;w:1	-10.1275
;N:62;w:1;/N:62	-10.1275
;w:36;D:36	-10.1279
;N:60;w:21;/N:60;w:3	-10.1284
;N:70;w:6;/N:70;N:68;w:6;/N:68	-10.1285
;N:50;w:8;/N:50;w:4	-10.1286
;N:56;N:60;w:6;/N:56;/N:60	-10.1286
8;/N:84	-10.1288
;N:64;w:3;/N:64;w:9	-10.1288
;N:73;w:12;/N:73;N:75	-10.1288
;N:73;w:6;/N:73;N:71;w:6;/N:71	-10.1289
;N:61;w:12;/N:61;N:63;w:12;/N:63	-10.1295
;w:20;/N:62	-10.1298
;w:3;/N:62;w:3	-10.1299
;w:6;N:57;w:6;/N:57	-10.1299
;w:24;D:37;D:42	-10.1301
;T:66;T:70	-10.1302
;w:36;/N:65	-10.1305
;w:6;/N:32	-10.1305
;/N:91;/N:9	-10.1307
;N:77;N:86	-10.131
;w:3;/N:57;w:9	-10.1311
;/N:46;/N:51;/N:55	-10.1312
;N:45;w:20;/N:45;w:4	-10.1314
;w:6;D:36;D:37;D:42	-10.1314
;w:18;N:53	-10.1316
;w:18;/N:49	-10.1317
;w:36;/N:64	-10.1318
;N:52;N:54	-10.1319
;/N:41;/N:48;/N:53	-10.132
;D:36;D:42;D:53	-10.1324
;w:18;D:42	-10.1325
;N:58;w:20;/N:58;w:4	-10.133
;D:45;D:70	-10.1332
;N:84;w:4;/N:84;w:2	-10.1333
;D:46;w:6;D:42	-10.1333
;N:45;w:6;/N:45;w:6;N:45;w:6;/N:45	-10.1334
;N:77;w:5;/N:77	-10.1335
;/N:78;w:4	-10.1341
;N:47;N:50;N:55	-10.1341
;w:21;/N:69	-10.1342
;w:8;/N:58	-10.1342
;N:77;w:12;/N:77;N:75	-10.1344
;w:8;/N:42	-10.1345
;N:59;w:8;/N:59;w:4	-10.1349
0;/N:57	-10.1355
;N:89;w:9;/N:89	-10.1356
;N:77;w:8;/N:77;w:4	-10.1357
;N:54;N:61;w:6;/N:54;/N:61	-10.1357
;N:35;N:42;N:47	-10.1358
;w:6;/N:76	-10.1366
;/N:60;w:2	-10.1367
;N:54;w:12;/N:54;N:56;w:12;/N:56	-10.1372
;N:101;w:3;/N:101	-10.1387
;N:47;N:51;N:54;N:59	-10.1389
;/N:82;N:82	-10.1391
;N:62;w:7	-10.1391
;w:12;D:36;D:42;w:12;D:42	-10.1392
;N:37;N:49;w:6;/N:37;/N:49	-10.1398
;w:6;N:58;w:6;/N:58;w:6	-10.1398
;N:72;N:77;w:6;/N:72;/N:77	-10.1399
;w:3;/N:75;w:9	-10.1401
;N:56;w:12;/N:56;N:59;w:12;/N:59	-10.1401
;w:3;/N:63;w:1	-10.1406
;w:36;/N:61	-10.1409
;w:9;/N:66	-10.1411
;N:88;w:1	-10.1412
;D:36;D:48	-10.1415
;N:64;N:67;N:70	-10.1422
;N:77;N:80;N:85	-10.1423
;N:83;w:16;/N:83	-10.1426
;w:6;N:52;w:6;/N:52	-10.1429
;/N:59;w:2	-10.1435
;N:46;w:15;/N:46	-10.1437
;N:52;N:59;w:6;/N:52;/N:59	-10.1438
;N:60;w:12;/N:60;N:62;w:12;/N:62	-10.1439
;w:6;N:56;w:6;/N:56	-10.1439
;N:62;w:12;/N:62;N:64	-10.1444
8;/N:36	-10.1445
;N:56;/N:56	-10.1446
;N:78;/N:78	-10.1447
;D:42;D:48	-10.1448
;w:48;/N:55	-10.1451
;N:103;w:6;/N:103	-10.1451
;/N:50;/N:54;/N:59	-10.1454
;N:46;w:20;/N:46;w:4	-10.1456
;/N:62;/N:69;/N:74	-10.1461
;N:54;N:57;w:12;/N:54;/N:57	-10.1466
;N:78;w:12;/N:78;N:78;w:12;/N:78	-10.1476
;N:50;N:55;N:58	-10.1477
;N:34;w:12;/N:34;N:34;w:12;/N:34	-10.1479
;N:27;w:2	-10.1479
;N:79;w:2	-10.148
;w:6;N:52;w:6;/N:52;w:6	-10.1485
;w:12;D:39;D:42	-10.1485
;N:75;w:7	-10.1485
;N:55;N:60;N:64;N:67	-10.1486
;N:74;w:12;/N:74;N:77;w:12;/N:77	-10.1487
;w:9;/N:39	-10.1487
;N:38;w:2;/N:38	-10.1489
;D:51;w:16;D:51	-10.1489
;N:62;N:66;N:69;N:74	-10.149
;w:3;/N:64;w:1	-10.149
;N:66;N:73;N:78	-10.1497
;w:36;/N:59	-10.1502
8;/N:35	-10.1503
;N:81;N:88	-10.1504
;w:48;/N:60	-10.1507
2;/N:35	-10.1513
;/N:88;/N:92	-10.1513
;w:18;N:55	-10.1514
;N:84;w:2;/N:84	-10.1516
0;/N:36	-10.1518
;D:69;D:70;w:6	-10.1521
;N:75;w:12;/N:75;N:77;w:12;/N:77	-10.1524
;N:91;w:2	-10.1532
;D:39;D:46	-10.1532
;N:55;N:58;N:60	-10.1535
;w:8;D:38	-10.1536
;N:51;w:6;/N:51;N:53;w:6;/N:53	-10.1538
;N:69;w:12;/N:69;N:72;w:12;/N:72	-10.1545
;N:95;w:4;/N:95	-10.1545
;w:48;/N:57	-10.1548
;w:3;/N:65;w:3	-10.155
;w:4;/N:64;w:2	-10.1556
;D:54;D:69;w:6;D:54;D:69	-10.1562
;w:21;/N:46	-10.1571
;w:12;N:81;w:12;/N:81	-10.1574
;N:52;w:12;/N:52;N:50;w:12;/N:50	-10.1575
;T:65;T:69	-10.1577
;/N:54;w:3	-10.1582
;w:21;/N:47	-10.1586
;D:51;w:1	-10.159
0;/N:85	-10.1599
;D:69;w:6;D:69;w:6;D:36	-10.1608
;N:31;w:4;/N:31;w:2	-10.161
;N:65;w:7	-10.1612
;N:47;N:50;N:54	-10.1613
;N:108;w:	-10.1616
;/N:36;/N:41	-10.1621
;w:18;N:56	-10.1624
;N:73;w:12;/N:73;N:75;w:12;/N:75	-10.1625
;N:63;w:12;/N:63;N:65	-10.1626
;N:51;N:58;N:63;N:67	-10.1629
;w:18;N:64	-10.1631
;w:12;D:42;w:12;D:38;D:42	-10.1634
;N:67;w:12;/N:67;N:65;w:12;/N:65	-10.1635
;w:6;N:63;w:6	-10.1641
;N:73;N:78;w:6;/N:73;/N:78	-10.1643
;N:77;w:12;/N:77;N:75;w:12;/N:75	-10.1644
;w:48;/N:53	-10.1648
;D:53;w:6;D:36	-10.1648
;w:12;D:42;w:12;D:36;D:42	-10.1649
;/N:93;w:3	-10.1655
;D:48;D:70	-10.1655
;w:6;N:60;w:6	-10.1656
;N:69;w:6;/N:69;N:67;w:6;/N:67	-10.1658
1;/N:82	-10.1662
;T:57;T:61	-10.1662
;N:94;w:3	-10.1667
;N:61;w:6;/N:61;N:63;w:6;/N:63	-10.167
;N:85;w:36;/N:85	-10.1673
;N:58;/N:58	-10.1676
;w:3;/N:59;w:3	-10.1677
2;/N:54	-10.1679
;D:42;D:47	-10.168
2;/N:50	-10.1685
;w:12;N:38;w:12;/N:38	-10.1687
;N:49;w:8;/N:49;w:4	-10.1687
;w:8;D:38;D:42	-10.169
;N:75;w:6;/N:75;N:77;w:6;/N:77	-10.1694
;N:72;w:12;/N:72;N:75;w:12;/N:75	-10.1695
;w:3;/N:66;w:3	-10.1695
;N:79;w:1;/N:79	-10.1697
;/N:68;/N:73;/N:76	-10.1699
;N:37;w:2;/N:37	-10.1701
;w:6;N:53;w:6;/N:53;w:6	-10.1704
;w:8;/N:59	-10.1708
2;/N:36	-10.1709
;w:48;/N:52	-10.1713
;N:57;w:8;/N:57;w:4	-10.1716
;w:36;/N:58	-10.1717
;T:52;T:56	-10.1717
;N:64;N:67;N:69	-10.172
;w:3;/N:74;w:9	-10.1721
;N:92;w:1	-10.1722
;N:33;w:12;/N:33;N:33;w:12;/N:33	-10.1724
2;/N:77	-10.1724
;N:38;w:20;/N:38;w:4	-10.1737
;w:18;/N:45	-10.1738
;w:3;/N:67;w:3	-10.1741
;N:76;N:79;w:6;/N:76;/N:79	-10.1741
;D:43;D:50	-10.1742
;N:52;w:12;/N:52;N:54;w:12;/N:54	-10.1749
;w:8;/N:61	-10.175
;N:71;N:75;N:80	-10.1754
;N:35;w:21;/N:35;w:3	-10.1756
;w:4;/N:60;w:2	-10.1759
;w:6;N:53;w:6;/N:53	-10.1762
;w:6;N:74;w:6;/N:74;w:6	-10.1767
;N:51;N:56;w:12;/N:51;/N:56	-10.1768
;w:16;D:42	-10.1769
;w:20;/N:54	-10.1772
;N:75;w:12;/N:75;N:78;w:12;/N:78	-10.1772
;N:59;w:21;/N:59;w:3	-10.1773
;N:80;w:1;/N:80	-10.1776
;N:28;w:9;/N:28	-10.178
;/N:56;w:3	-10.178
;w:6;N:59;w:6	-10.1782
;N:52;w:48;/N:52	-10.1782
;w:24;D:5	-10.1784
;N:59;w:6;/N:59;w:6;N:59;w:6;/N:59	-10.1786
;w:6;N:61;w:6	-10.1786
;N:28;w:6;/N:28;w:6	-10.1791
;N:57;N:64;w:12;/N:57;/N:64	-10.1792
;w:8;/N:41	-10.1797
;N:54;N:58;w:12;/N:54;/N:58	-10.1801
;N:63;N:66;N:68	-10.1801
;N:74;w:12;/N:74;N:76;w:12;/N:76	-10.1804
;N:31;w:15;/N:31	-10.1805
;w:12;D:36;D:43	-10.1807
;/N:55;w:3	-10.181
;/N:63;w:6	-10.1811
8;/N:89	-10.1818
;N:39;N:43	-10.1826
;N:80;/N:80	-10.183
;N:76;w:21;/N:76;w:3	-10.1831
;N:90;w:4	-10.1834
;w:2;/N:66;w:1	-10.1835
;N:59;w:6;/N:59;N:62;w:6;/N:62	-10.1837
;N:47;w:12;/N:47;N:49;w:12;/N:49	-10.1839
;N:80;w:15;/N:80	-10.1839
;N:80;w:5	-10.1845
;/N:84;w:4	-10.1845
;N:24;w:3;/N:24	-10.1852
;N:60;w:6;/N:60;N:62;w:6;/N:62	-10.1853
;N:76;w:6;/N:76;N:74;w:6;/N:74	-10.1853
;N:32;w:4;/N:32;w:8	-10.1854
2;/N:53	-10.1857
;D:51;D:56	-10.1861
;N:81;w:20;/N:81	-10.1863
;N:32;w:36;/N:32	-10.1869
;T:40;T:4	-10.187
;N:87;w:18;/N:87	-10.1877
;N:58;w:8;/N:58;w:4	-10.188
;/N:40;/N:47;/N:52	-10.1881
;N:70;w:21;/N:70	-10.1882
;D:49;D:52	-10.1884
2;/N:52	-10.1885
;N:47;w:15;/N:47	-10.1887
;w:3;/N:61;w:1	-10.1892
;N:57;N:64;w:6;/N:57;/N:64	-10.1892
;N:67;w:20;/N:67	-10.1893
;N:93;w:8;/N:93	-10.1893
;D:42;w:24;D:42	-10.1894
;N:60;w:1;/N:60	-10.1902
;N:37;w:20;/N:37;w:4	-10.1902
;w:2;/N:58;w:4	-10.1905
;N:35;w:6;/N:35;N:35;w:6;/N:35	-10.1906
;N:58;N:65;w:12;/N:58;/N:65	-10.1906
;w:4;/N:66	-10.1906
;/N:46;/N:55	-10.1907
;N:47;w:20;/N:47;w:4	-10.1909
;/N:51;w:3	-10.1909
;N:57;w:5;/N:57	-10.1912
;/N:53;w:3	-10.1912
;N:68;w:20;/N:68	-10.1912
;N:52;w:12;/N:52;N:55;w:12;/N:55	-10.192
;N:68;w:21;/N:68	-10.1921
;w:48;/N:56	-10.1924
;N:56;N:59;N:61	-10.1925
;N:67;w:4;/N:67;w:4	-10.1926
;N:55;N:62;w:12;/N:55;/N:62	-10.1926
;N:63;w:12;/N:63;N:61	-10.1927
;N:57;w:20;/N:57;w:4	-10.1927
;N:55;N:62;w:6;/N:55;/N:62	-10.193
;w:18;/N:46	-10.1933
;w:12;D:36;D:45	-10.194
;w:8;/N:60	-10.1946
;w:3;/N:69;w:3	-10.1946
;N:50;N:55;w:12;/N:50;/N:55	-10.1948
;N:56;w:12;/N:56;N:54;w:12;/N:54	-10.1949
;N:33;w:6;/N:33;N:33;w:6;/N:33	-10.1952
;w:2;/N:57;w:4	-10.1958
;w:1;/N:37	-10.196
;D:76;w:12;D:42	-10.1961
;w:6;D:38;D:43	-10.1962
;/N:43;N:43	-10.1962
;w:3;/N:70;w:3	-10.1963
;N:32;w:12;/N:32;N:32;w:12;/N:32	-10.1964
;N:54;w:6;/N:54;N:57;w:6;/N:57	-10.1964
;/N:74;/N:79;/N:83	-10.1967
;/N:77;/N:81;/N:84	-10.1971
;N:76;N:88;w:6;/N:76;/N:88	-10.1973
;N:32;w:16;/N:32	-10.1976
;w:6;N:73;w:6;/N:73;w:6	-10.198
;w:3;/N:81	-10.198
;/N:70;/N:74;/N:79	-10.1985
;w:12;D:38;D:42;w:12;D:42	-10.1986
;w:36;/N:57	-10.1987
;w:2;/N:71;w:4	-10.1989
;N:41;N:44	-10.199
;w:3;/N:68;w:3	-10.1991
;N:34;N:41;N:46	-10.1993
;N:65;w:1	-10.2
;/N:44;N:44	-10.2001
;w:6;N:63;w:6;/N:63	-10.2001
;/N:77;N:77	-10.2004
;N:78;w:12;/N:78;N:76;w:12;/N:76	-10.2004
;N:74;w:1	-10.201
;N:55;N:62;N:67;N:71	-10.201
;N:56;w:5;/N:56	-10.2015
;N:55;w:3;/N:55;w:9	-10.2019
;w:21;/N:70	-10.2019
;N:74;w:7	-10.202
;N:74;N:78;w:6;/N:74;/N:78	-10.2021
;N:68;w:6;/N:68;N:66;w:6;/N:66	-10.2022
;N:76;w:12;/N:76;N:78;w:12;/N:78	-10.2025
;N:56;N:63;w:12;/N:56;/N:63	-10.2027
;w:6;N:64;w:6;/N:64;w:6	-10.2028
;D:36;D:50	-10.2032
;w:3;/N:68;w:1	-10.2035
;N:77;w:6;/N:77;N:75;w:6;/N:75	-10.2037
;N:59;N:66;w:6;/N:59;/N:66	-10.2038
;N:66;w:12;/N:66;N:64;w:12;/N:64	-10.204
;w:3;/N:59;w:1	-10.2044
;/N:72;/N:78	-10.2045
;N:30;w:4;/N:30	-10.2049
;w:6;N:56;w:6;/N:56;w:6	-10.2049
;N:55;N:59;w:6;/N:55;/N:59	-10.2052
;N:25;w:8;/N:25	-10.2056
;/N:82;w:6	-10.206
;/N:80;/N:82	-10.2061
;N:77;N:89;w:6;/N:77;/N:89	-10.2061
;N:78;w:20;/N:78;w:4	-10.2063
;D:53;w:12;D:53	-10.2066
;N:30;w:3;/N:30;w:3	-10.2069
;D:38;D:48	-10.2073
;N:68;w:1	-10.2075
;/N:39;/N:46;/N:51	-10.2076
;/N:79;w:6	-10.2079
;N:71;w:12;/N:71;N:68;w:12;/N:68	-10.208
;w:1;/N:79	-10.2083
;N:71;w:12;/N:71;N:74;w:12;/N:74	-10.2083
;N:76;N:88;w:12;/N:76;/N:88	-10.2083
;N:66;w:6;/N:66;N:69;w:6;/N:69	-10.2084
;/N:81;/N:88	-10.2085
;D:51;w:12;D:42	-10.2092
;N:60;w:12;/N:60;N:62	-10.2096
;N:79;/N:79	-10.2097
;D:47;D:70	-10.2098
;N:30;N:42;w:12;/N:30;/N:42	-10.21
;N:88;w:6	-10.2101
;w:8;D:37	-10.2101
;w:28;/N:5	-10.2103
;w:18;N:54	-10.2104
;w:9;/N:38	-10.2112
;/N:46;/N:50;/N:53	-10.212
;N:49;w:20;/N:49;w:4	-10.2123
;D:51;w:2	-10.2123
8;/N:34	-10.2125
;D:43;D:70	-10.2128
;w:4;/N:67	-10.2131
;w:3;/N:67;w:1	-10.2131
;N:56;N:61;N:65;N:68	-10.2133
;N:58;N:63;N:67;N:70	-10.2134
;D:49;w:12;D:36	-10.2137
;N:79;w:12;/N:79;N:79;w:12;/N:79	-10.2139
;N:67;w:12;/N:67;N:72;w:12;/N:72	-10.2143
;N:71;N:76;w:12;/N:71;/N:76	-10.2144
;w:2;/N:72;w:4	-10.2144
;w:2;/N:39	-10.2145
;N:56;w:12;/N:56;N:58;w:12;/N:58	-10.2148
0;/N:38	-10.2149
;N:70;w:20;/N:70	-10.2152
;D:36;D:42;D:56	-10.2154
;N:58;N:65;w:6;/N:58;/N:65	-10.2155
;N:55;w:15;/N:55	-10.2156
;T:52;T:55	-10.2156
;w:3;/N:82	-10.216
;w:18;N:66	-10.216
;D:36;D:42;D:70	-10.2161
;N:66;w:6;/N:66;N:64;w:6;/N:64	-10.2167
;N:78;w:8;/N:78;w:4	-10.2168
;N:55;w:6;/N:55;N:58;w:6;/N:58	-10.2168
;/N:86;w:2	-10.217
;w:20;/N:63	-10.2171
;w:3;/N:65;w:1	-10.2171
;D:49;D:53	-10.2171
;N:44;w:21;/N:44;w:3	-10.2174
;w:18;N:65	-10.2178
;/N:86;w:1	-10.2179
;N:61;w:7	-10.2181
;N:49;N:55	-10.2184
;w:18;/N:74	-10.219
;N:69;w:20;/N:69	-10.2193
;N:67;w:21;/N:67	-10.2193
;N:66;w:20;/N:66	-10.2195
;w:3;/N:62;w:1	-10.2199
;N:55;w:8;/N:55;w:4	-10.2202
;N:49;N:54;w:6;/N:49;/N:54	-10.2213
;D:54;w:6;D:36	-10.2219
;w:3;/N:66;w:1	-10.2224
2;/N:49	-10.2226
;N:29;w:8;/N:29;w:4	-10.2227
;w:6;N:58;w:6	-10.2228
;N:85;w:9;/N:85	-10.2229
;w:24;N:67;w:12;/N:67	-10.2232
2;/N:37	-10.2233
;N:71;w:21;/N:71	-10.2235
;N:47;w:6;/N:47;N:49;w:6;/N:49	-10.2238
;w:6;N:68;w:6;/N:68;w:6	-10.2241
;w:4;/N:59;w:2	-10.2245
;N:65;w:12;/N:65;N:63;w:12;/N:63	-10.2247
;/N:61;/N:64;/N:66	-10.2248
;N:55;/N:55	-10.2249
;N:49;N:56;N:61;N:65	-10.225
;N:44;N:48;N:51	-10.2252
;N:64;w:12;/N:64;N:62;w:12;/N:62	-10.2258
;N:59;w:1;/N:59	-10.2259
;N:25;w:24;/N:25	-10.2259
;T:67;T:70	-10.2262
;w:16;D:38	-10.2262
;/N:49;/N:53;/N:56;/N:61	-10.227
;N:60;N:64;N:67;w:6;/N:60;/N:64;/N:67	-10.227
;N:84;w:12;/N:84;N:82;w:12;/N:82	-10.228
;N:69;w:21;/N:69	-10.2281
;w:6;N:71;w:6;/N:71;w:6	-10.2281
;/N:50;/N:56	-10.2282
;D:36;D:42;w:12;D:36;D:42	-10.2284
;w:20;/N:53	-10.2289
;N:85;w:2;/N:85	-10.2294
;/N:49;/N:52;/N:56	-10.2294
;D:43;w:12;D:43	-10.2298
;w:24;N:44	-10.2302
;N:76;N:79;w:12;/N:76;/N:79	-10.2302
;/N:92;w:3	-10.2303
;N:78;N:86	-10.2304
;N:66;w:21;/N:66	-10.2305
;w:20;/N:65	-10.2309
;D:50;D:53	-10.2311
;D:36;D:42;w:6;D:42;w:6;D:42	-10.2316
;N:76;w:6;/N:76;N:78;w:6;/N:78	-10.232
;D:36;w:2	-10.2326
0;/N:40	-10.2327
;N:51;w:48;/N:51	-10.233
;/N:47;N:47	-10.233
;D:36;D:49;w:24;D:38	-10.2331
8;/N:33	-10.2332
;N:47;N:54;N:59;N:63	-10.2338
;N:31;w:16;/N:31	-10.2338
;N:94;w:24;/N:94	-10.2343
;D:46;D:50	-10.2343
;/N:54;/N:58;/N:61;/N:66	-10.2344
;N:36;N:48;w:6;/N:36;/N:48	-10.2345
;N:74;w:12;/N:74;N:76	-10.2345
;w:24;N:69;w:12;/N:69	-10.2346
;w:6;D:42;w:6;D:36	-10.235
;/N:42;/N:46	-10.2352
;w:9;D:42	-10.2354
;N:76;N:79;N:83	-10.2354
;N:78;w:6;/N:78;N:76;w:6;/N:76	-10.2356
;w:4;/N:57;w:2	-10.2363
;N:31;w:36;/N:31	-10.2367
;N:56;w:8;/N:56;w:4	-10.2373
;N:54;w:8;/N:54;w:4	-10.2379
;N:70;w:12;/N:70;N:73;w:12;/N:73	-10.238
;w:6;N:70;w:6;/N:70;w:6	-10.238
;N:34;N:46;w:6;/N:34;/N:46	-10.2381
;N:68;w:12;/N:68;N:68	-10.2383
;N:81;w:8;/N:81;w:4	-10.2383
;N:77;w:12;/N:77;N:79;w:12;/N:79	-10.2385
0;/N:79	-10.2387
;w:18;N:64;w:6;/N:64	-10.2389
;N:66;w:12;/N:66;N:66	-10.2391
;N:36;w:20;/N:36;w:4	-10.2393
;N:24;w:9;/N:24	-10.2393
;w:2;/N:65;w:1	-10.2398
;N:31;w:20;/N:31	-10.24
;N:85;w:12;/N:85;N:83;w:12;/N:83	-10.2404
;w:3;D:36	-10.2404
;w:12;D:69	-10.2406
;N:50;w:48;/N:50	-10.2406
;/N:43;w:3	-10.2406
;w:2;/N:38	-10.2414
;w:6;N:75;w:6;/N:75;w:6	-10.2417
;w:8;/N:40	-10.2418
;w:6;N:67;w:6;/N:67;w:6	-10.2419
;w:9;D:36	-10.2427
;D:45;w:12;D:45	-10.2427
;w:2;/N:74	-10.2428
;N:71;w:4;/N:71;w:4	-10.243
;N:54;w:5;/N:54	-10.2434
;/N:33;/N:40	-10.2434
;w:24;N:43	-10.2436
;w:6;N:57;w:6	-10.2437
;N:56;w:20;/N:56;w:4	-10.2444
;N:57;w:12;/N:57;N:62;w:12;/N:62	-10.2444
;w:12;/N:69;N:69	-10.2453
;N:85;w:4;/N:85;w:2	-10.2454
;N:56;w:6;/N:56;w:6;N:56;w:6;/N:56	-10.2456
;N:48;w:20;/N:48;w:4	-10.2457
;N:26;w:9;/N:26;w:3	-10.246
;N:73;N:79	-10.246
;/N:50;/N:57;/N:62;/N:66	-10.2463
;D:69;w:3	-10.2468
7;/N:65	-10.2469
;w:18;N:66;w:6;/N:66	-10.2476
;N:45;w:6;/N:45;N:47;w:6;/N:47	-10.248
;N:83;w:12;/N:83;N:85;w:12;/N:85	-10.2481
;N:59;w:12;/N:59;N:61	-10.2481
;N:62;w:12;/N:62;N:60	-10.2482
;N:67;w:12;/N:67;N:67	-10.2483
;/N:53;w:1	-10.2484
;D:51;w:6;D:51	-10.2485
;N:57;N:62;N:66;N:69	-10.2485
;N:48;N:64	-10.249
;N:64;w:21;/N:64	-10.2491
;N:65;w:4;/N:65;w:4	-10.2491
;D:38;w:6;D:38	-10.2492
;w:3;/N:58;w:3	-10.2493
;N:77;w:21;/N:77;w:3	-10.2494
;N:59;w:12;/N:59;N:64;w:12;/N:64	-10.2497
;N:54;w:20;/N:54;w:4	-10.2498
;/N:36;/N:43;/N:48	-10.25
;N:54;w:6;/N:54;w:6;N:54;w:6;/N:54	-10.2504
;D:54;w:12;D:38	-10.2504
;N:55;w:6;/N:55;w:6;N:55;w:6;/N:55	-10.2506
;T:69;T:74	-10.2506
;w:12;N:39;w:12;/N:39	-10.2507
;N:69;w:3;/N:69;w:9	-10.2509
;N:76;w:7	-10.251
;w:8;D:38;w:8;D:38	-10.2512
;w:5;D:42	-10.2514
;/N:75;/N:78;/N:82	-10.2514
;N:70;w:4;/N:70;w:4	-10.2514
;w:6;N:79;w:6;/N:79;w:6	-10.2514
;N:46;w:12;/N:46;N:48;w:12;/N:48	-10.2515
;N:47;N:52;w:6;/N:47;/N:52	-10.2516
;N:31;w:4;/N:31;w:8	-10.2518
;N:49;w:15;/N:49	-10.252
;w:6;N:51;w:6;/N:51;w:6	-10.2522
;T:57;T:60	-10.2523
;/N:84;w:2	-10.2523
;N:29;N:41;w:12;/N:29;/N:41	-10.2527
6;/N:29	-10.2528
;N:81;w:48;/N:81	-10.2532
;/N:57;w:3	-10.2536
;w:18;N:69;w:6;/N:69	-10.2538
;D:51;w:6;D:38	-10.2541
;w:20;/N:64	-10.2544
8;/N:26	-10.2545
;N:44;N:60	-10.2548
;N:45;w:21;/N:45;w:3	-10.2548
;w:15;D:42	-10.2549
;N:59;N:64;N:68;N:71	-10.2552
;/N:107;N:10	-10.2552
;N:81;w:6;/N:81;N:81;w:6;/N:81	-10.2552
;N:59;N:66;w:12;/N:59;/N:66	-10.2554
;w:18;N:65;w:6;/N:65	-10.2555
;D:43;w:6;D:43	-10.2561
;T:64;T:68	-10.2561
;w:21;/N:45	-10.2562
;N:81;w:12;/N:81;N:83;w:12;/N:83	-10.2562
;D:54;w:6;D:54;w:6;D:36	-10.2563
;/N:56;w:1	-10.2564
;w:4;/N:66;w:2	-10.2564
;N:60;N:67;w:12;/N:60;/N:67	-10.2567
;N:61;w:6;/N:61;N:64;w:6;/N:64	-10.2567
;w:8;D:36	-10.2568
6;/N:88	-10.2568
;T:54;T:58	-10.2571
;w:12;N:82;w:12;/N:82	-10.2573
;/N:63;/N:66;/N:68	-10.2578
;N:68;w:4;/N:68;w:4	-10.2579
;N:58;w:1;/N:58	-10.2582
;w:24;N:76	-10.2586
;N:80;w:12;/N:80;N:80;w:12;/N:80	-10.2589
;/N:37;/N:44;/N:49	-10.2594
;D:38;D:69	-10.2594
;D:36;D:38;D:46	-10.2597
;N:64;w:6;/N:64;N:62;w:6;/N:62	-10.2598
;w:8;/N:62	-10.2599
;w:24;N:66;w:12;/N:66	-10.2605
;N:56;w:3;/N:56;w:9	-10.261
;N:37;w:4	-10.2613
;w:3;/N:56;w:9	-10.2616
;N:58;w:21;/N:58;w:3	-10.2617
;N:56;N:63;N:68;N:72	-10.2618
;D:38;D:41	-10.2619
;w:2;/N:63;w:1	-10.262
;N:35;w:4	-10.262
;N:61;w:12;/N:61;N:66;w:12;/N:66	-10.2623
;N:65;w:6;/N:65;N:63;w:6;/N:63	-10.2627
;w:24;N:68;w:12;/N:68	-10.2627
;N:67;w:6;/N:67;N:70;w:6;/N:70	-10.263
;N:65;w:20;/N:65	-10.263
;N:65;w:12;/N:65;N:65	-10.2633
;N:65;N:68;N:71	-10.2636
;N:45;w:12;/N:45;N:47;w:12;/N:47	-10.2637
;N:65;w:21;/N:65	-10.264
;N:78;w:12;/N:78;N:76	-10.2644
;w:6;N:72;w:6;/N:72;w:6	-10.2646
;/N:57;w:1	-10.2648
0;/N:44	-10.2652
;N:77;N:80;w:6;/N:77;/N:80	-10.2653
;N:49;N:54;N:57	-10.2653
;D:53;w:12;D:38	-10.2654
;N:86;w:9;/N:86;w:3	-10.2655
;N:82;w:20;/N:82	-10.2655
;N:69;w:12;/N:69;N:74;w:12;/N:74	-10.2658
;w:6;N:66;w:6;/N:66;w:6	-10.2658
;N:36;w:4	-10.2659
;N:48;w:15;/N:48	-10.2664
;N:77;N:89;w:12;/N:77;/N:89	-10.2664
;N:61;N:68;w:6;/N:61;/N:68	-10.2665
;/N:35;/N:40	-10.267
;D:56;w:12;D:42	-10.2672
;N:48;/N:48	-10.2681
;/N:64;/N:67;/N:69	-10.2683
;N:81;w:1;/N:81	-10.2683
;w:6;N:62;w:6	-10.2688
;N:73;w:12;/N:73;N:76;w:12;/N:76	-10.2692
;N:64;w:12;/N:64;N:64	-10.2694
;D:37;D:46	-10.2695
;w:48;/N:65	-10.2696
;N:28;w:8;/N:28;w:4	-10.2696
;w:6;N:64;w:6;/N:64	-10.2698
;N:27;w:18;/N:27	-10.27
;N:92;w:2	-10.2709
0;/N:55	-10.271
;D:45;w:8	-10.271
;N:53;w:8;/N:53;w:4	-10.2712
;D:42;D:49	-10.2714
;N:76;N:81;N:85	-10.2722
2;/N:39	-10.2722
;w:6;D:36;D:41;D:42	-10.2724
;w:8;D:36;D:42	-10.2729
;/N:61;w:6	-10.273
;N:74;N:78;w:12;/N:74;/N:78	-10.2731
;N:76;w:12;/N:76;N:79;w:12;/N:79	-10.2731
;D:47;w:6;D:47	-10.2731
;N:79;w:6;/N:79;N:77;w:6;/N:77	-10.2736
0;/N:34	-10.2737
;w:2;/N:69;w:1	-10.2738
;w:18;N:62;w:6;/N:62	-10.2741
;N:69;w:4;/N:69;w:4	-10.2743
2;/N:47	-10.2743
;N:61;N:68;w:12;/N:61;/N:68	-10.2743
;w:2;/N:62;w:1	-10.2754
;N:56;w:12;/N:56;N:61;w:12;/N:61	-10.2758
;w:18;N:61;w:6;/N:61	-10.2763
;N:59;N:61;N:64	-10.2763
;w:2;/N:64;w:1	-10.2765
;D:69;w:8	-10.2766
;w:4;/N:68	-10.2767
;D:69;w:2	-10.2768
;w:6;N:57;w:6;/N:57;w:6	-10.2769
;N:77;w:12;/N:77;N:74;w:12;/N:74	-10.277
;N:55;N:58;w:6;/N:55;/N:58	-10.2771
;D:36;D:42;w:6;D:42;w:6;D:46	-10.2771
;N:82;w:48;/N:82	-10.2779
;/N:45;/N:54	-10.2782
;N:60;w:12;/N:60;N:58;w:12;/N:58	-10.2787
;N:62;w:12;/N:62;N:67;w:12;/N:67	-10.2791
;N:36;w:2;/N:36	-10.2795
;N:93;w:2	-10.28
;N:63;w:12;/N:63;N:68;w:12;/N:68	-10.2802
;w:1;/N:83	-10.2804
;w:1;/N:62;w:3	-10.2804
;w:2;/N:67;w:1	-10.2805
;/N:45;/N:49;/N:52	-10.2809
;N:38;w:4	-10.2809
;/N:45;/N:50;/N:54	-10.2811
;w:6;D:36;w:6	-10.2813
;N:80;w:12;/N:80;N:78;w:12;/N:78	-10.2813
;N:52;w:20;/N:52;w:4	-10.2815
;N:55;w:20;/N:55;w:4	-10.2817
;N:57;w:3;/N:57;w:9	-10.2819
;N:70;w:12;/N:70;N:70	-10.2821
;N:62;w:4;/N:62;w:4	-10.2823
0;/N:56	-10.2824
;N:78;w:5;/N:78	-10.2825
;N:33;N:45;w:6;/N:33;/N:45	-10.2826
;w:18;/N:75	-10.2826
;/N:83;w:6	-10.2827
;N:47;N:63	-10.2828
;N:55;w:5;/N:55	-10.2828
;w:1;/N:66;w:3	-10.2829
;D:36;D:39;D:42	-10.2836
;N:63;w:12;/N:63;N:61;w:12;/N:61	-10.2836
;N:61;w:12;/N:61;N:63	-10.2838
;N:60;w:7	-10.284
;N:75;w:12;/N:75;N:77	-10.284
;N:60;w:6;/N:60;N:63;w:6;/N:63	-10.2841
;N:48;N:55;N:60;N:64	-10.2842
;/N:59;/N:62;/N:64	-10.2842
;N:69;w:12;/N:69;N:69	-10.2856
;w:18;N:68;w:6;/N:68	-10.2857
;w:6;N:50;w:6;/N:50;w:6	-10.2864
;N:94;w:8;/N:94	-10.2865
;w:36;/N:55	-10.2865
;w:21;/N:44	-10.287
;N:30;N:42;w:6;/N:30;/N:42	-10.2878
;/N:76;/N:79;/N:84	-10.288
;N:58;w:12;/N:58;N:63;w:12;/N:63	-10.2882
;N:72;w:20;/N:72	-10.2883
;N:50;N:74	-10.2885
;w:4;/N:37	-10.2885
;N:82;w:1;/N:82	-10.2886
;N:84;w:16;/N:84	-10.2887
;N:51;w:20;/N:51;w:4	-10.2889
;w:24;N:70;w:12;/N:70	-10.289
;w:24;N:64;w:12;/N:64	-10.2898
;/N:60;/N:63;/N:65	-10.2898
;w:3;D:42;w:3	-10.2901
;N:72;w:12;/N:72;N:69;w:12;/N:69	-10.2901
;w:24;N:65;w:12;/N:65	-10.2902
;N:50;w:20;/N:50;w:4	-10.2906
;N:80;w:12;/N:80;N:82;w:12;/N:82	-10.2907
0;/N:43	-10.2908
;D:38;D:47	-10.2908
;N:67;N:74;N:79	-10.2909
;N:66;w:4;/N:66;w:4	-10.2914
0;/N:80	-10.2916
;N:62;w:12;/N:62;N:62	-10.2921
;N:49;w:48;/N:49	-10.2924
;N:91;N:9	-10.2925
;N:58;w:12;/N:58;N:60	-10.293
;w:24;N:63;w:12;/N:63	-10.2938
;/N:77;/N:86	-10.2942
0;/N:33	-10.2946
;/N:69;/N:74;/N:77	-10.2947
;N:75;N:79;w:12;/N:75;/N:79	-10.2948
;/N:48;/N:52;/N:55;/N:60	-10.2949
;N:60;N:67;w:6;/N:60;/N:67	-10.2956
;N:69;w:6;/N:69;N:72;w:6;/N:72	-10.2956
;w:24;N:71;w:12;/N:71	-10.2958
;N:64;w:20;/N:64	-10.2959
;w:6;N:64;w:6	-10.2959
;/N:62;w:6	-10.2959
;N:71;w:12;/N:71;N:71	-10.296
;N:53;N:57;w:12;/N:53;/N:57	-10.2963
2;/N:78	-10.2967
;N:86;N:9	-10.2967
;N:48;N:53;w:6;/N:48;/N:53	-10.2967
;N:46;N:62	-10.2968
;N:72;w:21;/N:72	-10.297
;w:6;N:65;w:6;/N:65;w:6	-10.2971
;N:71;N:76;N:79	-10.2972
;N:43;N:47;N:50	-10.2972
;N:60;N:62;N:65	-10.2973
;/N:78;/N:82;/N:85	-10.2973
;/N:78;N:78	-10.2978
;N:63;w:6;/N:63;N:66;w:6;/N:66	-10.2979
;N:75;w:12;/N:75;N:72;w:12;/N:72	-10.298
;N:78;w:6;/N:78;N:81;w:6;/N:81	-10.2981
;w:12;N:79;w:12;/N:79	-10.2982
;N:73;w:20;/N:73	-10.2983
;N:59;w:6;/N:59;N:61;w:6;/N:61	-10.2984
;N:102;w:3;/N:102	-10.2989
;w:6;N:83;w:6;/N:83;w:6	-10.299
;N:82;w:6;/N:82;N:82;w:6;/N:82	-10.2992
;w:20;/N:52	-10.2992
;D:76;w:6;D:36	-10.2996
;/N:86;/N:9	-10.3001
;N:51;w:15;/N:51	-10.3004
;N:34;w:21;/N:34;w:3	-10.3005
;w:6;D:36;D:42;w:6;D:42	-10.3008
;N:46;w:21;/N:46;w:3	-10.3008
;N:77;w:6;/N:77;N:79;w:6;/N:79	-10.3009
;T:58;T:62	-10.3015
;w:2;/N:68;w:1	-10.3016
;D:54;D:69;w:6	-10.3023
;w:6;N:84;w:6;/N:84;w:6	-10.3024
;/N:61;/N:65;/N:68;/N:73	-10.3025
;w:1;/N:65;w:3	-10.3026
;w:18;N:70;w:6;/N:70	-10.3027
;w:36;/N:67	-10.3029
;w:6;D:42;w:6;D:38	-10.3033
;N:93;w:1	-10.3034
;N:69;w:1	-10.3036
;N:50;w:12;/N:50;N:53;w:12;/N:53	-10.3041
;N:53;w:15;/N:53	-10.3044
;N:54;w:15;/N:54	-10.3044
;N:77;N:82;N:86	-10.3047
;w:12;D:38;w:6;D:38;w:6;D:38	-10.3047
;N:74;w:12;/N:74;N:71;w:12;/N:71	-10.3048
;N:57;w:12;/N:57;N:55;w:12;/N:55	-10.3048
;N:91;w:3;/N:91;w:3	-10.3053
;D:69;w:6;D:42;D:69	-10.3053
;N:31;w:6;/N:31;N:31;w:6;/N:31	-10.3056
;N:77;N:80;w:12;/N:77;/N:80	-10.3059
;D:76;w:12;D:36	-10.3062
;/N:47;/N:51;/N:54	-10.3065
;N:51;w:12;/N:51;N:49;w:12;/N:49	-10.3076
;w:3;/N:76;w:9	-10.3077
;N:81;N:83	-10.3077
;/N:87;w:2	-10.3079
;N:53;w:20;/N:53;w:4	-10.308
;N:96;w:24;/N:96	-10.3081
;w:6;N:49;w:6;/N:49;w:6	-10.3082
;D:38;D:50	-10.3088
;w:12;/N:32	-10.3092
;w:24;N:77	-10.3098
;w:3;/N:58;w:1	-10.3099
;N:62;N:69;w:6;/N:62;/N:69	-10.3101
2;/N:80	-10.3102
;w:12;/N:74	-10.3103
;N:60;w:12;/N:60;N:65;w:12;/N:65	-10.3108
;N:77;w:12;/N:77;N:79	-10.3108
;D:53;D:70	-10.3108
;N:56;w:1;/N:56	-10.3114
;/N:41;/N:45	-10.3115
;w:4;/N:67;w:2	-10.3116
;N:67;w:12;/N:67;N:64;w:12;/N:64	-10.3119
;N:75;N:79;w:6;/N:75;/N:79	-10.3121
;/N:86;N:86	-10.3123
;w:18;N:63;w:6;/N:63	-10.3124
;N:93;w:6;/N:93;w:6	-10.3125
;N:51;w:12;/N:51;N:54;w:12;/N:54	-10.3133
;N:72;w:1	-10.3144
;N:71;w:20;/N:71	-10.315
;T:58;T:62;T:65	-10.3152
;N:73;w:12;/N:73;N:70;w:12;/N:70	-10.3153
;w:4;/N:58;w:2	-10.3154
;N:50;/N:50	-10.3155
8;/N:90	-10.3155
;w:12;N:51;w:12	-10.3155
;w:48;/N:64	-10.3156
;/N:75;/N:80;/N:84	-10.3159
;N:63;w:20;/N:63	-10.316
;N:74;N:79;w:6;/N:74;/N:79	-10.3164
;N:63;w:12;/N:63;N:63	-10.3166
;w:6;N:50;w:6;/N:50	-10.3166
;w:36;/N:56	-10.3166
;w:18;N:67;w:6;/N:67	-10.3168
0;/N:86	-10.317
;w:2;/N:73;w:4	-10.3171
;/N:48;/N:56	-10.3171
;N:27;w:3;/N:27;w:3	-10.3172
;w:9;/N:67	-10.3176
;N:48;N:55;w:6;/N:48;/N:55	-10.318
;w:1;/N:64;w:3	-10.318
;/N:85;w:4	-10.3181
;N:65;w:12;/N:65;N:70;w:12;/N:70	-10.3181
;D:37;D:39	-10.3185
;N:66;w:3;/N:66;w:3;N:66;w:3;/N:66;w:3	-10.3197
;/N:81;/N:83	-10.3199
;N:35;w:20;/N:35;w:4	-10.32
;N:49;N:65	-10.3201
;N:104;w:6;/N:104	-10.3203
;N:57;w:21;/N:57;w:3	-10.3204
;N:87;w:12;/N:87;N:85;w:12;/N:85	-10.3205
;w:18;N:67	-10.3205
;N:64;w:12;/N:64;N:69;w:12;/N:69	-10.3207
;D:69;w:12;D:42;D:69	-10.3207
;N:88;w:18;/N:88	-10.3207
;N:91;w:4	-10.3207
;N:46;w:6;/N:46;N:48;w:6;/N:48	-10.322
;N:72;w:4;/N:72;w:4	-10.3223
;N:66;w:12;/N:66;N:71;w:12;/N:71	-10.3224
;N:63;N:70;w:6;/N:63;/N:70	-10.3225
;N:63;N:70;w:12;/N:63;/N:70	-10.3226
;N:65;N:68;N:70	-10.3226
;N:52;w:15;/N:52	-10.3227
;w:1;/N:63;w:3	-10.3229
;w:1;/N:61;w:3	-10.3236
;T:76;T:7	-10.3238
;N:76;w:12;/N:76;N:78	-10.3246
;N:50;w:15;/N:50	-10.3249
;N:45;N:61	-10.3256
;w:12;D:36;D:42;D:43	-10.3257
;w:12;/N:46;N:46	-10.3259
;w:18;/N:44	-10.326
;N:43;N:59	-10.3262
;N:35;w:2;/N:35	-10.3262
;N:67;w:1	-10.3265
;/N:36;/N:43	-10.3273
;D:53;w:6;D:53;w:6	-10.328
;/N:65;/N:72;/N:77	-10.3282
;N:78;w:6;/N:78;N:80;w:6;/N:80	-10.329
;w:6;N:66;w:6;/N:66	-10.3298
;w:48;/N:50	-10.3298
;N:73;N:77;N:82	-10.3299
;w:18;N:3	-10.3299
;N:72;N:76;N:81	-10.3301
;N:51;N:75	-10.3303
;w:1;/N:60;w:3	-10.3303
;N:46;N:53;N:58;N:62	-10.3304
;N:54;N:59;N:63;N:66	-10.3305
;w:3;/N:55;w:9	-10.3308
;/N:52;w:1	-10.3308
;/N:47;/N:55	-10.3309
;w:9;/N:68	-10.331
;N:47;w:21;/N:47;w:3	-10.331
;w:20;/N:66	-10.331
;D:46;D:70	-10.3311
;w:6;N:80;w:6;/N:80;w:6	-10.332
;N:52;/N:52	-10.332
;w:20;/N:51	-10.332
;N:31;w:12;/N:31;N:31;w:12;/N:31	-10.3322
0;/N:54	-10.3323
;w:24;N:42	-10.3324
;N:49;N:56;w:6;/N:49;/N:56	-10.3327
;D:36;D:49;w:12	-10.3328
;N:62;N:69;w:12;/N:62;/N:69	-10.3334
;N:58;w:6;/N:58;N:61;w:6;/N:61	-10.3337
;w:2;/N:56;w:4	-10.3338
0;/N:78	-10.3341
;/N:51;/N:53	-10.3342
;w:4;/N:56;w:2	-10.3345
;/N:83;N:83	-10.3347
;N:49;w:12;/N:49;N:56;w:12;/N:56	-10.3348
;/N:79;N:79	-10.335
;/N:59;/N:62;/N:65	-10.3354
;N:72;w:12;/N:72;N:72	-10.3355
;N:30;w:21;/N:30	-10.3358
;N:86;w:12;/N:86;N:84;w:12;/N:84	-10.3361
;w:21;/N:71	-10.3361
;N:66;w:1	-10.3364
;N:77;w:6;/N:77;w:6;N:77;w:6;/N:77	-10.3366
;N:51;N:53	-10.3366
;w:6;D:36;D:42;w:6;D:38;D:42	-10.3368
;N:70;w:1	-10.3376
;N:79;w:12;/N:79;N:77	-10.3383
;N:72;N:77;w:12;/N:72;/N:77	-10.3385
;w:12;D:36;D:38;D:46	-10.3385
;N:64;w:1	-10.3385
;N:29;N:41;w:6;/N:29;/N:41	-10.3386
;/N:85;w:2	-10.3398
;N:61;N:65;N:68;w:6;/N:61;/N:65;/N:68	-10.3399
0;/N:45	-10.3401
;w:18;D:4	-10.3401
;N:57;w:1;/N:57	-10.3403
;w:18;/N:47	-10.3406
;D:56;w:6;D:42	-10.341
;N:64;N:68;N:71;N:76	-10.3411
;w:18;N:68	-10.3411
;N:71;w:6;/N:71;N:70;w:6;/N:70	-10.3416
;/N:87;w:1	-10.3417
;N:75;N:80;w:6;/N:75;/N:80	-10.342
;w:6;D:38;w:6;D:42	-10.342
2;/N:33	-10.3421
;N:53;N:58;N:62;N:65	-10.3425
;/N:51;/N:56;/N:59	-10.3425
;N:46;/N:46	-10.3433
;w:3;/N:69;w:1	-10.3442
;N:45;N:52;N:57;N:61	-10.345
;N:59;N:63;N:66;w:6;/N:59;/N:63;/N:66	-10.345
;w:3;/N:71;w:3	-10.3458
;w:3;/N:54;w:9	-10.3465
;N:65;N:68;w:24;/N:65;/N:68	-10.3471
;N:89;N:9	-10.3474
;N:53;N:56;w:12;/N:53;/N:56	-10.3475
;N:55;w:1;/N:55	-10.3476
;w:6;N:56;w:6	-10.3478
;w:5;/N:3	-10.3481
;N:47;w:48;/N:47	-10.3483
;D:69;w:6;D:43	-10.3484
;N:61;w:12;/N:61;N:59	-10.3484
;D:37;D:38	-10.3484
;/N:86;w:4	-10.3488
;/N:88;w:4	-10.3492
;w:12;/N:73;N:73	-10.3503
;w:3;/N:57;w:1	-10.3503
;N:59;w:4;/N:59;w:4	-10.3504
;N:62;N:65;w:24;/N:62;/N:65	-10.3504
;N:52;w:6;/N:52;N:54;w:6;/N:54	-10.3509
;w:6;N:51;w:6;/N:51	-10.351
;w:12;N:80;w:12;/N:80	-10.3511
;N:71;w:1	-10.3513
;N:69;w:12;/N:69;N:66;w:12;/N:66	-10.3516
;N:78;w:12;/N:78;N:80;w:12;/N:80	-10.3517
;N:61;N:63;N:66	-10.3519
;w:3;/N:57;w:3	-10.3525
;N:97;w:4;/N:9	-10.3526
;D:48;D:56	-10.353
;N:48;w:48;/N:48	-10.3533
;w:12;D:36;D:42;w:12;D:36;D:42	-10.3534
;D:54;w:4	-10.3537
;N:56;w:21;/N:56;w:3	-10.3547
;w:12;N:37;w:12;/N:37	-10.3547
;N:54;N:57;N:59	-10.355
;N:62;w:6;/N:62;N:65;w:6;/N:65	-10.355
;N:43;N:55;w:24;/N:43;/N:55	-10.3551
;N:64;w:4;/N:64;w:4	-10.3551
;w:2;/N:74;w:4	-10.3552
;N:75;w:1	-10.3552
;N:33;w:21;/N:33;w:3	-10.3554
;D:70;w:6;D:36;D:42	-10.3555
;T:44;T:4	-10.3556
;N:33;w:4	-10.3558
;/N:34;/N:41;/N:46	-10.3563
;/N:68;w:4	-10.3565
;N:70;w:6;/N:70;N:73;w:6;/N:73	-10.3569
;/N:77;/N:80;/N:85	-10.357
;w:6;D:36;D:42;w:6;D:36;D:42	-10.357
;N:70;w:12;/N:70;N:75;w:12;/N:75	-10.3573
;w:18;N:52	-10.3574
;N:73;w:21;/N:73	-10.3578
;w:2;/N:55;w:4	-10.3588
;D:42;w:9;D:42	-10.359
;D:38;D:42;D:54	-10.3592
;N:41;N:53;w:24;/N:41;/N:53	-10.3596
;N:62;w:20;/N:62	-10.3597
;N:78;w:21;/N:78;w:3	-10.3601
;N:65;N:72;w:6;/N:65;/N:72	-10.3603
;D:42;w:6;D:42	-10.3604
;N:43;w:12;/N:43;N:50;w:12;/N:50	-10.3605
;N:70;w:12;/N:70;N:67;w:12;/N:67	-10.3608
;N:49;N:53;N:58	-10.361
;N:79;w:20;/N:79;w:4	-10.3616
;N:62;w:21;/N:62	-10.3618
;N:51;w:12;/N:51;N:56;w:12;/N:56	-10.3619
;w:24;N:62;w:12;/N:62	-10.3621
;w:48;/N:51	-10.3623
;N:47;N:54;w:12;/N:47;/N:54	-10.3629
;D:56;w:6	-10.3639
;N:44;w:12;/N:44;N:46;w:12;/N:46	-10.364
;N:85;w:12	-10.3645
;N:72;w:12;/N:72;N:67;w:12;/N:67	-10.3647
;N:52;w:12;/N:52;N:57;w:12;/N:57	-10.3652
;/N:30;w:4	-10.3653
;T:58;T:59;T:6	-10.3662
;N:73;w:4;/N:73;w:4	-10.3663
;D:54;w:6;D:38;D:54	-10.3663
;N:86;w:1	-10.3665
;N:68;w:12;/N:68;N:65;w:12;/N:65	-10.3667
;N:42;N:54;w:24;/N:42;/N:54	-10.3667
;/N:78;/N:87	-10.3667
;T:53;T:57	-10.3668
;w:6;D:38;w:6	-10.3668
;w:4;/N:68;w:2	-10.3669
;N:76;w:12;/N:76;N:73;w:12;/N:73	-10.3669
;N:53;w:6;/N:53;N:51;w:6;/N:51	-10.3672
;/N:78;/N:86	-10.3675
;N:96;w:4;/N:9	-10.3678
;N:70;w:12;/N:70;N:66;w:12;/N:66	-10.368
;N:63;w:21;/N:63	-10.3682
;/N:87;w:4	-10.3683
;/N:65;/N:68;/N:70	-10.3685
;/N:73;/N:79	-10.3686
;N:87;w:9;/N:87;w:3	-10.3687
;w:24;N:72;w:12;/N:72	-10.3687
;N:78;N:90;w:6;/N:78;/N:90	-10.3688
;N:72;w:6;/N:72;N:71;w:6;/N:71	-10.369
;N:49;w:12;/N:49;N:52;w:12;/N:52	-10.3698
;w:12;D:38;w:12;D:36	-10.3699
;w:18;N:71;w:6;/N:71	-10.3699
;N:59;w:7	-10.3701
;w:3;/N:72;w:3	-10.3704
;N:77;w:12;/N:77;N:80;w:12;/N:80	-10.3715
;N:61;N:64;w:24;/N:61;/N:64	-10.3719
;/N:66;/N:73;/N:78	-10.3719
;N:65;w:3;/N:65;w:3;N:65;w:3;/N:65;w:3	-10.3719
;N:69;w:6;/N:69;N:70;w:6;/N:70	-10.3723
;w:18;N:58;w:6;/N:58	-10.3734
;w:12;D:36;D:42;D:45	-10.3737
;N:71;w:12;/N:71;N:76;w:12;/N:76	-10.3738
;N:49;N:54;w:12;/N:49;/N:54	-10.3739
;N:52;N:57;N:61;N:64	-10.3739
;D:36;D:42;w:12;D:42;w:12;D:38;D:42;w:12;D:42	-10.3741
;N:54;N:57;w:6;/N:54;/N:57	-10.3743
;/N:62;/N:65;/N:67	-10.3744
;N:63;N:66;w:24;/N:63;/N:66	-10.3748
;N:44;N:53	-10.3749
;N:68;w:12;/N:68;N:72;w:12;/N:72	-10.375
;N:37;w:18;/N:37;w:6	-10.3751
;w:3;/N:73;w:3	-10.3753
;N:81;w:12;/N:81;N:81;w:12;/N:81	-10.3755
;N:47;/N:47	-10.3755
;w:2;/N:70;w:1	-10.3757
;N:80;w:12;/N:80;N:78	-10.3759
;w:18;N:60;w:6;/N:60	-10.376
;w:18;/N:43	-10.3761
;w:24;/N:48;/N:5	-10.3761
;N:54;w:12;/N:54;N:59;w:12;/N:59	-10.3764
;D:54;D:69;D:70	-10.3766
;N:64;N:71;w:12;/N:64;/N:71	-10.377
;N:81;w:12;/N:81;N:79;w:12;/N:79	-10.3771
;N:60;w:12;/N:60;N:60	-10.3774
;N:80;w:6;/N:80;N:78;w:6;/N:78	-10.3776
9;/N:74	-10.3777
;/N:69;w:4	-10.3777
;N:26;w:3;/N:26	-10.378
;w:3;/N:70;w:1	-10.3791
;N:63;w:4;/N:63;w:4	-10.3792
;w:21;/N:43	-10.3793
;w:12;N:36;w:12;/N:36	-10.3797
;N:55;w:12;/N:55;N:60;w:12;/N:60	-10.3798
;N:70;w:6;/N:70;N:71;w:6;/N:71	-10.3806
;w:18;N:72;w:6;/N:72	-10.3806
;N:61;w:12;/N:61;N:61	-10.3808
;w:18;N:51	-10.3809
;N:45;N:50;w:6;/N:45;/N:50	-10.3813
;N:48;w:21;/N:48;w:3	-10.3814
;w:6;N:81;w:6;/N:81;w:6	-10.3814
;w:1;/N:67;w:3	-10.3821
;N:53;/N:53	-10.3822
;N:61;w:12;/N:61;N:59;w:12;/N:59	-10.3828
;N:64;N:67;w:24;/N:64;/N:67	-10.383
;N:54;/N:54	-10.3831
;N:66;N:69;N:71	-10.3832
;N:62;N:64;N:67	-10.3833
;N:40;N:52;w:24;/N:40;/N:52	-10.3835
;N:48;N:53;w:12;/N:48;/N:53	-10.3841
;N:78;w:12;/N:78;N:75;w:12;/N:75	-10.3847
;/N:71;/N:75;/N:80	-10.3847
;N:58;N:62;N:65;w:6;/N:58;/N:62;/N:65	-10.3848
;N:53;w:6;/N:53;N:55;w:6;/N:55	-10.3849
;N:64;w:12;/N:64;N:61;w:12;/N:61	-10.3849
;/N:70;/N:75;/N:78	-10.385
;N:48;w:12;/N:48;N:55;w:12;/N:55	-10.385
;N:65;N:69;N:72;N:77	-10.3853
;N:54;N:58;w:6;/N:54;/N:58	-10.3853
;w:24;/N:37	-10.3859
;w:4;D:38;D:42	-10.3859
;N:68;w:7	-10.3862
;w:6;/N:77	-10.3862
;N:78;w:6;/N:78;N:75;w:6;/N:75	-10.3862
;N:58;w:6;/N:58;N:60;w:6;/N:60	-10.3862
;N:62;w:12;/N:62;N:60;w:12;/N:60	-10.3868
;N:77;N:80;N:84	-10.3869
;N:74;w:21;/N:74	-10.387
;D:51;D:69;w:6	-10.3874
;N:69;w:6;/N:69;N:68;w:6;/N:68	-10.3876
;N:34;w:20;/N:34;w:4	-10.3876
;/N:61;/N:64;/N:67	-10.3878
;N:86;w:6;/N:86;N:88;w:6;/N:88	-10.3879
;N:50;w:12;/N:50;N:57;w:12;/N:57	-10.3879
;N:43;N:67	-10.3884
;N:66;w:12;/N:66;N:62;w:12;/N:62	-10.3891
;N:94;w:6	-10.3895
;/N:49;/N:55	-10.3898
;N:73;N:78;w:12;/N:73;/N:78	-10.3899
;N:30;w:6;/N:30;N:30;w:6;/N:30	-10.3901
;N:58;N:60;N:63	-10.3902
8;/N:32	-10.3903
;N:82;w:8;/N:82;w:4	-10.3904
;D:53;D:69;w:6	-10.3905
;N:83;w:12;/N:83;N:81;w:12;/N:81	-10.3906
;N:43;w:12;/N:43;N:45;w:12;/N:45	-10.3906
;N:57;w:6;/N:57;N:59;w:6;/N:59	-10.3908
;w:6;D:36;D:39	-10.3911
;N:68;w:6;/N:68;N:69;w:6;/N:69	-10.3913
;N:46;N:70	-10.3921
;N:73;w:6;/N:73;N:72;w:6;/N:72	-10.3922
;D:36;D:42;w:12;D:42;w:12;D:38;D:42	-10.3929
;N:62;w:12;/N:62;N:59;w:12;/N:59	-10.3931
;N:63;N:65;N:68	-10.3931
;N:64;w:6;/N:64;N:67;w:6;/N:67	-10.3935
;w:2;/N:61;w:1	-10.3937
;/N:55;w:1	-10.3938
;N:63;w:6;/N:63;N:61;w:6;/N:61	-10.3939
;N:34;w:4	-10.3943
;N:80;N:84;N:87	-10.3944
;/N:58;/N:61;/N:63	-10.3946
;N:71;w:6;/N:71;N:74;w:6;/N:74	-10.3948
;/N:60;/N:63;/N:66	-10.3952
;N:45;N:52;w:12;/N:45;/N:52	-10.3956
;/N:41;/N:44	-10.3958
;N:74;w:6;/N:74;N:73;w:6;/N:73	-10.3959
;N:94;w:6;/N:94;w:6	-10.3959
;N:65;w:6;/N:65;N:68;w:6;/N:68	-10.396
0;/N:46	-10.3963
;N:71;w:6;/N:71;N:72;w:6;/N:72	-10.3964
;N:61;w:4;/N:61;w:4	-10.397
;N:53;w:6;/N:53;N:56;w:6;/N:56	-10.3971
;w:18;N:50	-10.3971
;/N:59;/N:63;/N:66;/N:71	-10.3973
;/N:66;/N:69;w:3	-10.3974
;w:6;D:38;w:6;D:36;D:38	-10.3979
8;/N:31	-10.3981
;N:55;w:21;/N:55;w:3	-10.3983
;D:36;D:42;w:24;D:42	-10.3991
;N:52;w:6;/N:52;N:50;w:6;/N:50	-10.3991
;D:53;w:6;D:42	-10.3993
;N:95;w:24;/N:95	-10.3998
;w:3;/N:53;w:9	-10.4003
;D:38;D:43	-10.4004
;N:59;N:63;N:71	-10.4006
;w:2;/N:75;w:4	-10.4007
;w:3;/N:1	-10.4011
;N:53;w:12;/N:53;N:58;w:12;/N:58	-10.4013
;N:76;w:6;/N:76;N:79;w:6;/N:79	-10.4014
;N:30;w:4;/N:30;w:2	-10.4018
;N:48;w:12;/N:48;N:51;w:12;/N:51	-10.4018
;N:70;w:6;/N:70;N:67;w:6;/N:67	-10.4025
;N:65;w:12;/N:65;N:62;w:12;/N:62	-10.4025
;N:51;N:67	-10.4027
;w:6;/N:78	-10.4028
;N:56;w:6;/N:56;N:58;w:6;/N:58	-10.4028
;w:6;N:82;w:6;/N:82;w:6	-10.4029
;N:46;N:50;N:53;N:58	-10.4032
;N:26;w:3;/N:26;w:3	-10.4033
;N:93;w:4	-10.4035
;/N:94;w:3	-10.4036
;w:6;N:55;w:6	-10.4036
;N:81;w:4;/N:81;w:8	-10.4038
;N:64;N:71;w:6;/N:64;/N:71	-10.4038
;N:72;N:77;N:80	-10.4041
;w:3;/N:56;w:3	-10.4048
;N:45;N:69	-10.4054
;/N:60;w:6	-10.4056
;N:70;w:6;/N:70;N:69;w:6;/N:69	-10.4059
;D:69;w:12;D:37	-10.406
;D:45;D:49	-10.4062
;D:36;D:42;D:47	-10.4062
;w:6;D:41;D:42	-10.4062
;N:81;w:1	-10.4067
;w:6;D:38;w:6;D:38;w:6;D:38;w:6;D:38	-10.4068
;D:42;D:50	-10.4069
;N:63;N:67;N:70;w:6;/N:63;/N:67;/N:70	-10.4071
;N:50;w:12;/N:50;N:48;w:12;/N:48	-10.4071
;N:68;N:75;N:80	-10.4074
;N:68;w:12;/N:68;N:64;w:12;/N:64	-10.4079
;N:45;w:12;/N:45;N:52;w:12;/N:52	-10.4084
;N:44;N:56;w:24;/N:44;/N:56	-10.4084
;/N:52;/N:59;/N:64;/N:68	-10.4087
;/N:57;/N:61;/N:64;/N:69	-10.4087
;w:2;/N:71;w:1	-10.4088
;w:18;N:59;w:6;/N:59	-10.4091
;w:8;/N:39	-10.4091
;w:36;/N:54	-10.4092
;/N:60;w:4	-10.4093
;N:59;w:12;/N:59;N:59	-10.41
;w:24;N:73;w:12;/N:73	-10.4101
;w:1;/N:59;w:3	-10.4104
;/N:57;/N:60;/N:63	-10.4106
;N:48;N:54	-10.4107
;D:36;D:41;D:42	-10.4108
;/N:64;/N:71;/N:76	-10.4109
;D:50;w:12;D:50	-10.411
;w:12;N:83;w:12;/N:83	-10.411
;N:71;w:12;/N:71;N:67;w:12;/N:67	-10.4114
;w:24;N:41	-10.4115
;N:44;w:6;/N:44;N:46;w:6;/N:46	-10.4119
;w:6;N:65;w:6;/N:65	-10.4122
;D:46;w:12;D:36	-10.4122
;N:67;N:70;w:4	-10.4127
;/N:56;/N:60;/N:63;/N:68	-10.413
;/N:53;/N:60;/N:65;/N:69	-10.413
;D:70;w:6;D:45	-10.4135
;N:66;N:78;w:3;/N:66;/N:78	-10.4138
;N:28;N:40;w:12;/N:28;/N:40	-10.4139
;N:72;w:12;/N:72;N:68;w:12;/N:68	-10.4144
;N:79;N:83;N:86	-10.4148
2;/N:43	-10.4148
;w:36;/N:53	-10.4152
;N:56;N:60;N:68	-10.416
0;/N:32	-10.4161
;/N:48;/N:51;/N:56	-10.4168
;N:73;w:12;/N:73;N:73	-10.4169
;D:54;w:1	-10.4172
;N:62;N:66;N:69;w:6;/N:62;/N:66;/N:69	-10.4174
;N:47;w:12;/N:47;N:54;w:12;/N:54	-10.4177
;N:45;N:57;w:24;/N:45;/N:57	-10.4177
;N:71;w:6;/N:71;N:68;w:6;/N:68	-10.4178
;N:42;/N:42	-10.418
;w:20;/N:50	-10.418
;N:76;N:80;w:6;/N:76;/N:80	-10.4188
;/N:55;/N:59;/N:62;/N:67	-10.419
;D:54;w:6;D:42;D:54	-10.4193
;D:42;w:16;D:42	-10.4194
;N:57;N:61;N:64;w:6;/N:57;/N:61;/N:64	-10.4194
;w:6;D:38;D:48	-10.4195
;N:61;N:66;N:70;w:6;/N:61;/N:66;/N:70	-10.4197
;N:58;N:63;N:67;w:6;/N:58;/N:63;/N:67	-10.4198
;N:74;w:4;/N:74;w:4	-10.4199
;N:51;N:58;w:12;/N:51;/N:58	-10.4199
;N:72;w:12;/N:72;N:71;w:12;/N:71	-10.42
;N:58;N:60;N:64	-10.4208
;N:72;w:6;/N:72;N:69;w:6;/N:69	-10.421
;N:73;w:6;/N:73;N:70;w:6;/N:70	-10.4213
;w:24;N:61;w:12;/N:61	-10.4214
;N:63;w:1	-10.4215
3;/N:68	-10.4215
;w:9;/N:62;w:3	-10.4223
;N:69;w:12;/N:69;N:73;w:12;/N:73	-10.4223
;N:74;N:80	-10.4224
;w:18;N:73;w:6;/N:73	-10.4227
;N:74;w:12;/N:74;N:69;w:12;/N:69	-10.4228
;N:26;w:2	-10.4229
;N:74;w:20;/N:74	-10.423
;N:68;w:6;/N:68;w:6;N:68;w:6;/N:68	-10.4231
;T:52;T:57	-10.4236
;N:42;N:46;N:49	-10.424
;N:52;w:6;/N:52;N:55;w:6;/N:55	-10.424
;N:39;N:51;w:24;/N:39;/N:51	-10.4241
;N:42;w:12;/N:42;N:49;w:12;/N:49	-10.4245
;w:24;/N:54;/N:58	-10.4248
;N:27;w:6;/N:27;w:6	-10.4249
;w:1;/N:68;w:3	-10.4253
;N:76;w:1	-10.4255
;N:62;w:6;/N:62;N:60;w:6;/N:60	-10.4257
;w:9;/N:61;w:3	-10.4271
;N:61;w:20;/N:61	-10.4271
;/N:83;/N:85	-10.4274
;N:66;N:69;N:72	-10.4275
;/N:51;/N:55;/N:58;/N:63	-10.4275
;N:44;N:51;N:56;N:60	-10.4276
;N:67;w:12;/N:67;N:63;w:12;/N:63	-10.4281
;N:30;w:12;/N:30;N:30;w:12;/N:30	-10.4282
;D:54;w:3	-10.4284
;w:48;/N:67	-10.4285
;w:6;N:47;w:6;/N:47;w:6	-10.429
;N:66;N:69;w:24;/N:66;/N:69	-10.4294
;N:77;w:1	-10.4297
;w:8;/N:38	-10.4297
;w:2;/N:37	-10.4298
;w:24;/N:36	-10.4299
;w:6;N:48;w:6;/N:48;w:6	-10.43
;D:54;w:12;D:36;D:42	-10.4301
;N:46;N:51;w:6;/N:46;/N:51	-10.4304
;N:59;N:61;N:65	-10.4304
;w:24;N:60;w:12;/N:60	-10.4304
;N:47;N:52;w:12;/N:47;/N:52	-10.4305
;N:44;w:12;/N:44;N:51;w:12;/N:51	-10.4306
0;/N:50	-10.4309
;w:1;/N:80	-10.431
;N:53;w:12;/N:53;N:60;w:12;/N:60	-10.4313
;N:25;w:1	-10.4318
;D:38;w:12;D:38	-10.432
;N:42;w:12;/N:42;N:44;w:12;/N:44	-10.432
;w:4;/N:36	-10.4322
;N:27;w:3	-10.4328
;N:52;N:56;w:12;/N:52;/N:56	-10.4328
;w:48;/N:49	-10.4329
;w:18;N:69	-10.433
;w:6;N:49;w:6;/N:49	-10.4332
;/N:87;N:87	-10.4332
;N:65;N:72;w:12;/N:65;/N:72	-10.4333
;N:58;N:64;N:67	-10.4333
;w:24;/N:52;/N:59	-10.4334
;w:24;/N:78	-10.4335
;/N:28;w:3	-10.4335
;w:24;/N:50;/N:57	-10.4337
;N:75;N:81	-10.4338
;D:53;w:6;D:38	-10.4338
;N:63;N:67;w:24;/N:63;/N:67	-10.4341
;N:84;w:12;/N:84;N:86;w:12;/N:86	-10.4343
;N:80;w:20;/N:80;w:4	-10.4344
;w:12;D:38;D:49	-10.4345
;N:69;w:6;/N:69;N:66;w:6;/N:66	-10.4346
;w:24;/N:49;/N:56	-10.4346
;N:94;w:2	-10.4346
;N:66;w:6;/N:66;N:67;w:6;/N:67	-10.4346
;N:68;N:71;w:4	-10.4347
;N:55;w:6;/N:55;N:57;w:6;/N:57	-10.4347
;N:61;N:65;w:24;/N:61;/N:65	-10.4348
;/N:67;w:4	-10.435
;N:40;/N:40	-10.435
;w:18;N:70	-10.4351
;N:79;w:12;/N:79;N:81;w:12;/N:81	-10.4351
;N:68;w:12;/N:68;N:73;w:12;/N:73	-10.4355
;N:72;w:6;/N:72;N:73;w:6;/N:73	-10.4357
;D:53;w:12	-10.4359
;N:61;w:12;/N:61;N:65;w:12;/N:65	-10.436
;/N:37;N:37	-10.4362
;N:58;N:62;N:70	-10.4362
;N:60;N:64;w:24;/N:60;/N:64	-10.4365
;N:70;w:6;/N:70;N:72	-10.4368
;N:78;N:81;w:6;/N:78;/N:81	-10.4374
;/N:88;w:2	-10.4377
;/N:58;/N:62;/N:65;/N:70	-10.438
;N:73;w:6;/N:73;N:74;w:6;/N:74	-10.4383
;N:56;N:62;N:65	-10.4388
;N:57;N:62;N:66;w:6;/N:57;/N:62;/N:66	-10.4391
;/N:84;w:6	-10.4391
;N:68;w:6;/N:68;N:70	-10.4392
;N:52;w:12;/N:52;N:59;w:12;/N:59	-10.4392
;N:61;N:66;w:3;/N:61;/N:66	-10.4405
;w:4;/N:55;w:2	-10.4405
;w:8;D:36;w:4	-10.4406
;N:86;w:9;/N:86	-10.4406
;N:67;w:6;/N:67;N:68;w:6;/N:68	-10.4408
;N:103;w:12;/N:103	-10.441
;N:78;w:6;/N:78;N:77;w:6;/N:77	-10.4411
;N:75;w:12;/N:75;N:70;w:12;/N:70	-10.4413
;w:2;/N:34	-10.4414
;w:24;/N:48;/N:55	-10.4415
;N:48;N:58	-10.4415
;w:12;D:36;D:51	-10.4416
;N:60;w:4;/N:60;w:4	-10.4425
;N:54;N:78	-10.4429
;/N:48;/N:51;/N:55	-10.4429
6;/N:27	-10.4429
;N:82;w:12;/N:82;N:80;w:12;/N:80	-10.4431
;N:42;w:6;/N:42;N:44;w:6;/N:44	-10.4431
;N:66;N:73;w:6;/N:66;/N:73	-10.4432
;/N:65;/N:68;w:3	-10.4433
;w:21;/N:42	-10.4439
;N:51;w:12;/N:51;N:58;w:12;/N:58	-10.4439
;D:69;w:6;D:36;D:42	-10.444
;D:38;w:24;D:38	-10.4441
;/N:89;w:4	-10.4442
;D:38;D:45	-10.4445
;N:49;N:73	-10.4446
;N:86;w:4;/N:86;w:2	-10.445
;w:18;N:57;w:6;/N:57	-10.4451
;N:90;N:9	-10.4451
;N:87;w:6;/N:87;N:89;w:6;/N:89	-10.4451
;T:52;T:5	-10.4451
;/N:35;/N:42;/N:47	-10.4453
;N:84;w:12	-10.4457
;N:62;N:64;N:68	-10.4458
;D:36;w:12;D:36	-10.4461
;w:24;N:78	-10.4462
;w:1;/N:65;w:2	-10.4463
;/N:63;/N:66;/N:69	-10.4463
;D:36;D:42;D:50	-10.4464
;/N:66;/N:69;/N:71	-10.4468
;N:67;N:70;w:24;/N:67;/N:70	-10.4469
;N:63;w:12;/N:63;N:60;w:12;/N:60	-10.4472
;N:68;N:71;w:24;/N:68;/N:71	-10.4474
;N:57;N:61;N:69	-10.4476
;N:71;w:6;/N:71;N:73	-10.4477
;D:49;w:12;D:38	-10.4485
;/N:46;N:46	-10.4486
;N:75;w:20;/N:75	-10.4487
;w:6;N:45;w:6;/N:45;w:6	-10.4487
;w:3;/N:58;/N:62	-10.4488
;N:60;N:65;N:69;w:6;/N:60;/N:65;/N:69	-10.4489
;D:42;w:12;D:36;D:42	-10.4493
;N:59;w:12;/N:59;N:63;w:12;/N:63	-10.4493
;N:51;N:56;N:60;N:63	-10.4498
;N:48;w:12;/N:48;N:46;w:12;/N:46	-10.45
;N:39;w:18;/N:39;w:6	-10.4501
2;/N:38	-10.4502
;w:12;N:59;w:12;N:6	-10.4506
;N:54;w:6;/N:54;N:56;w:6;/N:56	-10.4507
;N:64;N:68;w:3;/N:64;/N:68	-10.4511
;N:60;w:12;/N:60;N:58	-10.4513
;N:59;N:62;N:67;w:6;/N:59;/N:62;/N:67	-10.4515
;D:36;D:49;w:12;D:36	-10.4515
;N:66;w:12;/N:66;N:63;w:12;/N:63	-10.4515
;/N:62;/N:65;/N:68	-10.4516
;N:69;w:12;/N:69;N:65;w:12;/N:65	-10.4519
;/N:36;N:36	-10.452
;w:6;D:37;D:38	-10.4521
;N:74;N:79;w:12;/N:74;/N:79	-10.4521
;N:47;N:71	-10.4522
;N:64;N:68;w:24;/N:64;/N:68	-10.4522
;D:51;w:12;D:38	-10.4523
;N:43;w:6;/N:43;N:45;w:6;/N:45	-10.4525
;N:48;N:55;w:12;/N:48;/N:55	-10.4525
;N:73;w:12;/N:73;N:69;w:12;/N:69	-10.4527
;N:29;w:6;/N:29;N:29;w:6;/N:29	-10.4533
;w:4;/N:69;w:2	-10.4533
0;/N:53	-10.4535
;w:6;N:47;w:6;/N:47	-10.4536
;N:61;w:21;/N:61	-10.4537
;/N:73;/N:77;/N:82	-10.4541
;N:65;N:68;w:3;/N:65;/N:68	-10.4544
;N:82;w:12;/N:82;N:82;w:12;/N:82	-10.4545
;w:20;/N:68	-10.4546
;N:48;N:72	-10.4549
;/N:50;/N:52	-10.4551
;N:50;w:12;/N:50;N:55;w:12;/N:55	-10.4553
;D:36;D:70	-10.4555
;N:43;N:52	-10.4558
;N:52;N:59;w:12;/N:52;/N:59	-10.4559
7;/N:75	-10.456
;N:66;N:69;w:4	-10.4564
;N:51;w:6;/N:51;N:49;w:6;/N:49	-10.4564
;N:53;w:12;/N:53;N:57;w:12;/N:57	-10.4567
;N:49;N:64	-10.4569
;/N:58;/N:61;/N:64	-10.4577
;w:24;N:3	-10.4578
;N:60;N:65;N:69;N:72	-10.4589
;N:74;w:6;/N:74;N:70;w:6;/N:70	-10.4592
;N:55;N:59;N:62;w:6;/N:55;/N:59;/N:62	-10.4596
;N:60;N:64;N:72	-10.4598
;N:49;w:21;/N:49;w:3	-10.4603
;N:68;w:6;/N:68;N:65;w:6;/N:65	-10.4607
;N:72;w:6;/N:72;N:68;w:6;/N:68	-10.4609
;w:12;/N:45;N:45	-10.461
;w:24;/N:53;/N:60	-10.4614
;N:67;w:6;/N:67;N:69	-10.4614
;w:2;/N:60;w:1	-10.4614
;N:50;N:66	-10.4621
;N:58;w:4;/N:58;w:4	-10.4625
;N:28;N:40;w:6;/N:28;/N:40	-10.4626
;N:60;w:12;/N:60;N:64;w:12;/N:64	-10.4626
;N:92;w:3;/N:92;w:3	-10.4627
;N:78;N:81;w:12;/N:78;/N:81	-10.4628
;/N:62;/N:66;/N:69;/N:74	-10.4628
;w:1;/N:63;w:2	-10.4631
;/N:82;/N:84	-10.4632
;N:65;N:68;w:4	-10.4635
;/N:76;/N:79;/N:83	-10.4635
;w:24;/N:76;/N:8	-10.4641
;w:6;D:42;w:6;D:36;D:38;D:42	-10.4645
;/N:61;w:4	-10.4645
;N:72;w:6;/N:72;N:75;w:6;/N:75	-10.4646
;N:68;w:6;/N:68;N:71;w:6;/N:71	-10.4647
;N:33;w:20;/N:33;w:4	-10.4652
;N:65;N:69;w:4	-10.4654
;/N:41;w:3	-10.4657
;N:89;w:6;/N:89;N:87;w:6;/N:87	-10.4659
;N:55;w:6;/N:55;N:60;w:6;/N:60	-10.466
;w:12;D:42;D:47	-10.4662
;D:38;w:4;D:38	-10.4664
;w:3;/N:59;/N:63	-10.4666
;/N:84;N:84	-10.4667
;N:49;w:12;/N:49;N:47;w:12;/N:47	-10.4667
;N:76;N:80;w:12;/N:76;/N:80	-10.4671
;w:6;N:65;w:6	-10.4672
;N:52;N:55;w:12;/N:52;/N:55	-10.4672
;N:66;w:6;/N:66;w:6;N:66;w:6;/N:66	-10.4673
;/N:49;w:3	-10.4681
;N:74;w:12;/N:74;N:70;w:12;/N:70	-10.4684
;N:49;N:56;w:12;/N:49;/N:56	-10.4685
;w:2;/N:77	-10.4685
;N:79;w:6;/N:79;N:81;w:6;/N:81	-10.469
;N:75;w:6;/N:75;N:72;w:6;/N:72	-10.469
;D:70;w:6;D:70;w:6;D:36	-10.4691
;N:74;w:12;/N:74;N:73;w:12;/N:73	-10.4693
;N:76;w:4;/N:76;w:4	-10.4693
;N:72;w:6;/N:72;N:74	-10.4694
;w:20;/N:49	-10.4696
;w:2;/N:75	-10.47
;D:36;D:42;w:24;D:38;D:42	-10.4703
;N:81;w:6;/N:81;N:79;w:6;/N:79	-10.4708
;N:68;N:71;w:3;/N:68;/N:71	-10.4709
;w:3;/N:77;w:9	-10.4712
;w:1;/N:66;w:2	-10.4712
;/N:55;w:2	-10.4716
;N:66;N:70;N:73;N:78	-10.4721
;N:	-10.4723
;N:60;N:63;w:24;/N:60;/N:63	-10.4724
;w:12;D:36;D:38;D:49	-10.4725
;N:83;w:6;/N:83;N:83;w:6;/N:83	-10.4729
;/N:50;/N:55;/N:58	-10.4732
;N:50;w:21;/N:50;w:3	-10.4733
;T:66;T:68	-10.4734
;w:24;/N:53;/N:57	-10.4735
;N:69;N:76;N:81	-10.4735
79;w:12;/N:79	-10.4737
;D:46;w:12;D:36;D:42	-10.4738
;N:75;w:6;/N:75;N:74;w:6;/N:74	-10.474
;N:65;w:6;/N:65;N:66;w:6;/N:66	-10.4741
;/N:63;/N:67;/N:70;/N:75	-10.4744
;N:55;w:12;/N:55;N:62;w:12;/N:62	-10.4746
;/N:57;/N:62;/N:66;/N:69	-10.4746
;w:6;N:67;w:6;/N:67	-10.4746
;/N:52;w:3	-10.4749
;w:8;/N:65	-10.4749
;w:6;D:38;D:42;D:48	-10.4751
;w:6;D:36;D:38;D:46	-10.4756
;N:60;N:62;N:66	-10.4757
;N:57;N:59;N:62	-10.4757
;N:88;w:6;/N:88;N:86;w:6;/N:86	-10.4758
0;/N:49	-10.4758
;w:24;/N:54;/N:61	-10.4761
;N:60;N:65;w:3;/N:60;/N:65	-10.4762
;N:75;w:21;/N:75	-10.4765
;N:65;N:69;w:24;/N:65;/N:69	-10.4767
2;/N:81	-10.4769
;N:74;N:86;w:3	-10.4772
;N:52;w:21;/N:52;w:3	-10.4772
;N:53;w:21;/N:53;w:3	-10.4774
;N:74;w:6;/N:74;N:75;w:6;/N:75	-10.4776
;/N:72;/N:76;/N:81	-10.4776
;/N:63;/N:67;w:3	-10.4777
;N:42;N:66	-10.4778
5;/N:76	-10.4779
;w:12;D:53	-10.478
;N:79;w:12;/N:79;N:76;w:12;/N:76	-10.4786
;/N:40;/N:44	-10.4789
;w:6;N:54;w:6	-10.4793
;w:21;N:4	-10.4797
;N:32;w:2	-10.4798
;N:69;w:6;/N:69;N:71	-10.4799
;w:18;/N:42	-10.4803
;N:81;w:6;/N:81;N:78;w:6;/N:78	-10.4807
;w:9;/N:60;w:3	-10.4809
;/N:59;w:6	-10.4809
;N:58;w:12;/N:58;N:55;w:12;/N:55	-10.4814
;N:29;w:12;/N:29;N:29;w:12;/N:29	-10.4815
;D:51;w:16;D:36	-10.4818
;w:3;/N:57;/N:61	-10.482
;N:67;w:6;/N:67;N:66;w:6;/N:66	-10.482
;N:62;N:66;w:24;/N:62;/N:66	-10.482
;N:70;w:6;/N:70;N:66;w:6;/N:66	-10.4824
;N:64;w:12;/N:64;N:60;w:12;/N:60	-10.483
;/N:33;/N:40;/N:45	-10.4833
;N:68;w:6;/N:68;N:67;w:6;/N:67	-10.4833
;N:75;w:6;/N:75;N:76;w:6;/N:76	-10.4837
;T:69;T:71;T:7	-10.4837
;N:54;N:58;N:66	-10.4839
;N:54;w:12;/N:54;N:61;w:12;/N:61	-10.484
;N:32;w:4	-10.4841
;w:18;/N:76	-10.4842
;N:54;w:12;/N:54;N:58;w:12;/N:58	-10.4842
;/N:36;w:3	-10.4844
;N:63;N:66;w:4	-10.4848
;N:60;w:20;/N:60	-10.4848
;N:63;w:12;/N:63;N:59;w:12;/N:59	-10.4851
;N:81;w:12;/N:81;N:79	-10.4851
;N:47;N:57	-10.4852
;N:59;w:12;/N:59;N:57;w:12;/N:57	-10.4852
;N:76;N:79;w:3	-10.4853
;D:70;w:12;D:38	-10.4857
;w:1;/N:69;w:3	-10.4858
;N:71;w:12;/N:71;N:70;w:12;/N:70	-10.4858
;w:24;N:40	-10.486
;N:77;w:3;/N:77;w:9	-10.4861
;N:48;N:52;N:57	-10.4862
;N:64;N:68;N:71;w:6;/N:64;/N:68;/N:71	-10.4866
;/N:53;/N:57;/N:60;/N:65	-10.4866
;D:43;D:49	-10.4866
;N:62;w:3;/N:62;w:9	-10.4871
;/N:47;/N:50;/N:55	-10.4871
;N:61;N:66;N:70;N:73	-10.4873
;N:79;w:6;/N:79;N:82;w:6;/N:82	-10.4874
;N:85;w:12;/N:85;N:87;w:12;/N:87	-10.4875
;w:21;/N:72	-10.488
;/N:67;/N:70;w:3	-10.488
;w:6;N:48;w:6;/N:48	-10.4881
;N:50;N:57;w:12;/N:50;/N:57	-10.4881
;/N:54;/N:61;/N:66;/N:70	-10.4882
;N:53;N:56;w:6;/N:53;/N:56	-10.4882
8;/N:85	-10.4886
;w:9;/N:59;w:3	-10.4887
;N:57;w:12;/N:57;N:59	-10.4888
;D:38;D:42;D:47	-10.489
;N:54;w:21;/N:54;w:3	-10.4892
;N:46;N:54	-10.4893
;N:61;N:67;N:70	-10.4897
;/N:31;/N:3	-10.4901
;N:49;w:12;/N:49;N:54;w:12;/N:54	-10.4906
;N:74;w:12;/N:74;N:74	-10.4906
;w:12;D:36;D:38;D:39;D:42	-10.4913
2;/N:45	-10.4913
;w:36;/N:50	-10.4914
;w:1;/N:62;w:2	-10.4921
;w:3;/N:84	-10.4922
;N:70;w:12;/N:70;N:74;w:12;/N:74	-10.4924
;w:2;/N:54;w:4	-10.4927
;N:36;w:18;/N:36;w:6	-10.4928
;N:47;w:12;/N:47;N:50;w:12;/N:50	-10.4928
;N:75;w:12;/N:75;N:71;w:12;/N:71	-10.4929
;w:3;/N:43;/N:55	-10.493
;N:69;w:12;/N:69;N:70;w:12;/N:70	-10.4931
;w:3;/N:71;w:1	-10.4932
;w:36;/N:52	-10.494
;w:12;D:36;D:37;D:42	-10.4942
;N:45;N:49;N:52;N:57	-10.4945
;N:59;N:65;N:68	-10.4946
;N:67;N:70;w:3;/N:67;/N:70	-10.4947
;N:62;N:74;w:3;/N:62;/N:74	-10.4952
;T:65;T:67	-10.4952
;w:4;D:46	-10.4953
;N:61;N:65;N:73	-10.4954
;w:6;N:68;w:6;/N:68	-10.4954
;w:18;N:49	-10.4955
;N:78;N:81;N:86	-10.4955
;N:63;N:67;w:4	-10.4956
;N:84;w:6;/N:84;N:86;w:6;/N:86	-10.4957
;N:32;w:21;/N:32;w:3	-10.4957
;N:56;w:12;/N:56;N:58	-10.4959
;N:65;N:69;w:3;/N:65;/N:69	-10.496
;N:55;N:71	-10.4961
;N:44;N:68	-10.4961
;N:68;N:75;w:6;/N:68;/N:75	-10.4961
;N:53;N:56;N:59	-10.4964
;N:64;w:12;/N:64;N:68;w:12;/N:68	-10.4965
;N:77;w:6;/N:77;N:76;w:6;/N:76	-10.4969
;N:53;N:57;w:6;/N:53;/N:57	-10.497
;N:30;w:4;/N:30;w:8	-10.4971
;N:78;w:12;/N:78;N:73;w:12;/N:73	-10.4975
;N:95;w:3	-10.4976
;N:64;N:66;N:69	-10.4977
;N:73;w:6;/N:73;N:76;w:6;/N:76	-10.4977
;D:36;D:49;D:51	-10.498
;N:77;w:6;/N:77;N:74;w:6;/N:74	-10.498
0;/N:52	-10.4985
;N:41;w:12;/N:41;N:43;w:12;/N:43	-10.4986
;N:60;N:63;N:68;w:6;/N:60;/N:63;/N:68	-10.4989
;w:1;/N:64;w:2	-10.4989
;D:69;w:6;D:69;w:6;D:42	-10.499
;N:50;N:65	-10.4991
;N:46;N:58;w:24;/N:46;/N:58	-10.4992
;w:24;/N:56;/N:61	-10.4995
;w:3;/N:55;w:1	-10.4998
;/N:52;/N:56;/N:59;/N:64	-10.5002
;T:68;T:70;T:7	-10.5006
;N:66;N:73;w:12;/N:66;/N:73	-10.5006
0;/N:48	-10.5006
;N:38;N:50;w:24;/N:38;/N:50	-10.501
;w:48;/N:68	-10.501
;N:51;N:66	-10.5011
;N:78;N:90;w:12;/N:78;/N:90	-10.5013
;/N:74;/N:80	-10.5013
;N:47;N:54;w:6;/N:47;/N:54	-10.5014
;N:62;w:12;/N:62;N:66;w:12;/N:66	-10.5015
;N:92;w:4	-10.5019
;w:12;/N:49;/N:53	-10.5022
;D:49;w:12;D:42	-10.5025
;w:18;N:74;w:6;/N:74	-10.5026
;N:82;w:1	-10.5026
;N:39;N:46;w:12;/N:39;/N:46	-10.5026
;w:3;/N:74;w:3	-10.5031
;w:2;/N:59;w:1	-10.5034
;N:47;N:62	-10.5035
;T:55;T:60;T:6	-10.5036
;N:73;w:6;/N:73;N:75	-10.5037
;N:63;N:66;w:3;/N:63;/N:66	-10.5039
;w:9;/N:66;w:3	-10.504
;N:41;w:12;/N:41;N:48;w:12;/N:48	-10.5041
;w:18;N:56;w:6;/N:56	-10.5042
;N:77;N:81;w:6;/N:77;/N:81	-10.5043
6;/N:89	-10.5045
;/N:44;/N:48;/N:51	-10.5046
;N:52;N:68	-10.505
;N:59;N:64;w:3;/N:59;/N:64	-10.505
;w:9;/N:58;w:3	-10.5054
;N:67;N:74;w:6;/N:67;/N:74	-10.5058
;N:76;w:12;/N:76;N:72;w:12;/N:72	-10.5059
;w:6;D:38;w:6;D:36;D:42	-10.506
;D:42;D:53	-10.5062
;N:56;w:12;/N:56;N:63;w:12;/N:63	-10.5064
;/N:76;/N:81;/N:85	-10.5065
;N:66;w:12;/N:66;N:67;w:12;/N:67	-10.5066
;/N:56;/N:59;/N:62	-10.507
;w:1;/N:68;w:2	-10.5072
;N:64;N:68;w:4	-10.5074
;D:36;w:12;D:38	-10.5076
;N:87;w:4;/N:87;w:2	-10.5076
;N:73;w:12;/N:73;N:72;w:12;/N:72	-10.5079
;N:38;N:45;w:6;/N:38;/N:45	-10.508
;N:59;N:62;w:24;/N:59;/N:62	-10.5081
;N:48;N:63	-10.5083
;N:47;N:59;w:24;/N:47;/N:59	-10.5085
;N:71;w:12;/N:71;N:66;w:12;/N:66	-10.5089
;N:45;N:52;w:6;/N:45;/N:52	-10.5091
;N:50;N:57;w:6;/N:50;/N:57	-10.5092
;N:67;w:6;/N:67;N:64;w:6;/N:64	-10.5093
;w:6;D:36;w:6;D:38;D:42	-10.5095
;N:52;N:76	-10.5095
;N:85;w:12;/N:85;N:85;w:12;/N:85	-10.5097
;/N:75;/N:81	-10.5097
;w:18;/N:41	-10.51
;N:53;N:77	-10.5105
;N:64;N:69;w:3;/N:64;/N:69	-10.5108
;w:12;N:35;w:12;/N:35	-10.511
;w:6;D:38;D:41	-10.5112
;w:6;D:41;w:6;D:41	-10.5113
;N:56;w:6;/N:56;N:61;w:6;/N:61	-10.5113
;N:50;w:6;/N:50;N:48;w:6;/N:48	-10.5115
;N:64;w:6;/N:64;w:6;N:64;w:6;/N:64	-10.5116
;N:53;N:68	-10.5117
;w:24;N:59;w:12;/N:59	-10.512
;N:51;w:21;/N:51;w:3	-10.512
;/N:67;/N:74;/N:79	-10.512
;N:25;w:9;/N:25;w:3	-10.5125
;N:62;N:66;N:69;w:4	-10.5127
;N:64;N:67;w:4	-10.5129
;w:4;/N:35	-10.513
0;/N:47	-10.513
;w:12;D:36;D:42;w:12;D:38;D:42	-10.513
;N:79;w:21;/N:79;w:3	-10.5133
;N:68;w:12;/N:68;N:69;w:12;/N:69	-10.5136
;N:46;N:53;w:12;/N:46;/N:53	-10.5139
;w:3;/N:78;w:9	-10.514
;/N:51;w:1	-10.5144
;N:42;N:58	-10.5145
;N:48;N:53;N:56	-10.515
;w:6;D:50;w:6	-10.5156
;N:27;w:9;/N:27	-10.5159
;w:9;/N:63;w:3	-10.5162
;/N:104;N:10	-10.5162
;N:74;N:77;w:3	-10.5163
;N:80;w:1	-10.5165
3;/N:65	-10.5167
;N:87;w:9;/N:87	-10.517
;/N:68;/N:71;w:3	-10.5172
;N:49;N:59	-10.5173
;/N:85;w:6	-10.5175
;w:18;N:55;w:6;/N:55	-10.5178
;N:75;w:6;/N:75;N:78;w:6;/N:78	-10.5179
;N:76;w:12;/N:76;N:71;w:12;/N:71	-10.518
;N:73;N:78;N:81	-10.518
;w:1;/N:67;w:2	-10.5183
;N:44;N:49;w:6;/N:44;/N:49	-10.5186
;N:50;N:60	-10.5189
;N:45;N:53	-10.519
;N:39;N:46;w:6;/N:39;/N:46	-10.5191
;N:76;w:6;/N:76;N:75;w:6;/N:75	-10.5195
8;/N:30	-10.52
;w:9;/N:67;w:3	-10.5204
;w:24;/N:54;/N:57	-10.5204
;N:73;w:12;/N:73;N:78;w:12;/N:78	-10.5206
;w:6;N:46;w:6;/N:46	-10.5209
;D:51;w:12;D:36;D:51	-10.5211
;w:24;N:75;w:12;/N:75	-10.5212
;N:40;w:12;/N:40;N:42;w:12;/N:42	-10.5222
;N:58;w:12;/N:58;N:58	-10.5223
;N:62;w:1	-10.5226
;N:74;w:6;/N:74;N:77;w:6;/N:77	-10.5226
;/N:66;N:64	-10.5226
;w:6;N:66;w:6	-10.5229
;N:86;w:6;/N:86;N:84;w:6;/N:84	-10.5229
;N:75;w:4;/N:75;w:4	-10.523
;N:77;w:12;/N:77;N:72;w:12;/N:72	-10.523
;N:63;w:12;/N:63;N:67;w:12;/N:67	-10.5232
;N:52;N:55;N:58	-10.5236
;N:58;N:61;N:65;N:70	-10.5242
;N:43;N:48;w:6;/N:43;/N:48	-10.5242
0;/N:31	-10.5249
;N:28;w:6;/N:28;N:28;w:6;/N:28	-10.5251
;N:67;w:12;/N:67;N:68;w:12;/N:68	-10.5251
;N:73;w:12;/N:73;N:68;w:12;/N:68	-10.5256
;N:52;N:67	-10.5258
;N:84;w:1	-10.5261
;N:63;N:68;w:3;/N:63;/N:68	-10.5262
;w:20;/N:67	-10.5263
;N:56;w:3;/N:56;w:3;N:56;w:3;/N:56;w:3	-10.5265
;N:71;w:3;/N:71;N:73;w:3;/N:73	-10.5267
;w:24;N:74;w:12;/N:74	-10.5268
;/N:49;w:1	-10.5271
;N:66;N:70;w:3;/N:66;/N:70	-10.5271
;N:62;w:6;/N:62;N:67;w:6;/N:67	-10.5275
;/N:57;/N:60;/N:62	-10.5278
;N:66;N:70;w:4	-10.5283
;D:51;w:6;D:36	-10.5283
;D:36;D:42;D:51;w:12;D:42	-10.5284
;N:54;N:69	-10.5287
;w:18;N:54;w:6;/N:54	-10.5289
;w:8;D:36;D:38	-10.5292
2;/N:42	-10.5293
;w:1;/N:61;w:2	-10.5293
;N:79;w:1	-10.5296
;N:54;N:61;w:12;/N:54;/N:61	-10.5299
;N:69;N:72;w:4	-10.53
;/N:50;w:3	-10.5302
;w:24;/N:76	-10.5302
;N:74;w:6;/N:74;N:78;w:6;/N:78	-10.5304
;N:87;w:12	-10.5307
;w:1;/N:58;w:3	-10.5309
;N:60;w:6;/N:60;N:65;w:6;/N:65	-10.531
;w:21;/N:41	-10.5311
;N:65;w:12;/N:65;N:66;w:12;/N:66	-10.5319
;w:8;/N:64	-10.5321
;N:62;N:65;w:4	-10.5321
;w:18;N:71	-10.5321
;N:56;w:12;/N:56;N:57;w:12;/N:57	-10.5323
;w:48;/N:47	-10.5324
;N:52;w:12;/N:52;N:56;w:12;/N:56	-10.5324
;/N:61;/N:63;/N:66	-10.5324
;D:76;w:3	-10.5326
;N:77;w:12;/N:77;N:73;w:12;/N:73	-10.5327
;D:51;w:24;D:36	-10.5328
;D:50;D:69;w:6	-10.5328
;N:67;N:71;w:4	-10.5329
;D:69;w:6;D:37	-10.533
;N:72;w:12;/N:72;N:77;w:12;/N:77	-10.533
;N:31;w:21;/N:31;w:3	-10.5335
;w:2;/N:72;w:1	-10.5339
;N:66;N:70;w:24;/N:66;/N:70	-10.5339
;w:6;N:43;w:6;/N:43;w:6	-10.534
;N:56;w:12;/N:56;N:55;w:12;/N:55	-10.5343
;w:2;/N:76;w:4	-10.5345
;N:67;N:70;N:73	-10.5349
;w:6;D:36;D:42;D:48	-10.535
;w:12;D:42;w:12;D:36	-10.5352
;N:66;N:69;w:3;/N:66;/N:69	-10.5352
;N:81;w:12;/N:81;N:80;w:12;/N:80	-10.5353
;N:31;w:2	-10.5357
;w:24;/N:77	-10.5357
;w:3;/N:52;w:9	-10.5359
;N:70;w:12;/N:70;N:69;w:12;/N:69	-10.5361
;/N:58;w:6	-10.5364
;w:24;/N:77;/N:8	-10.5364
;N:72;w:6;/N:72;w:6;N:72;w:6;/N:72	-10.5365
;N:63;w:6;/N:63;N:64;w:6;/N:64	-10.5365
;N:38;N:45;w:12;/N:38;/N:45	-10.5366
;N:57;N:60;N:65;N:69	-10.5372
;w:1;/N:57;w:3	-10.5372
;N:48;w:12;/N:48;N:53;w:12;/N:53	-10.5374
;N:84;w:6;/N:84;N:84;w:6;/N:84	-10.5374
;N:58;w:12;/N:58;N:62;w:12;/N:62	-10.5376
;w:6;/N:61;N:61;w:6	-10.5378
;D:51;w:8;D:36;D:51	-10.5381
;N:43;N:50;N:55;N:59	-10.5386
;N:66;w:6;/N:66;N:68	-10.5386
;N:61;N:63;N:67	-10.5388
;N:65;w:6;/N:65;w:6;N:65;w:6;/N:65	-10.5388
;N:65;N:70;w:3;/N:65;/N:70	-10.5389
;N:59;N:63;w:24;/N:59;/N:63	-10.5389
;D:49;w:24;D:36	-10.539
;/N:59;/N:63;/N:71	-10.5391
;N:59;w:20;/N:59	-10.5395
;N:53;N:60;w:12;/N:53;/N:60	-10.54
;N:76;w:12;/N:76;N:75;w:12;/N:75	-10.5402
;w:6;/N:61;N:61	-10.5404
;D:48;w:6;D:42	-10.5405
;N:55;w:12;/N:55;N:57	-10.5407
;N:68;w:12;/N:68;w:12;N:68;w:12;/N:68	-10.5408
;w:2;/N:36	-10.5408
;N:75;w:6;/N:75;N:71;w:6;/N:71	-10.5409
3;/N:66	-10.541
;N:70;w:6;/N:70;w:6;N:70;w:6;/N:70	-10.541
;N:31;w:4	-10.5416
;N:49;w:3;/N:49;w:3;N:49;w:3;/N:49;w:3	-10.5417
;N:59;N:64;N:68;w:6;/N:59;/N:64;/N:68	-10.5421
;N:59;w:12;/N:59;N:57	-10.5421
;N:68;N:72;w:3;/N:68;/N:72	-10.5423
;N:56;N:58;N:62	-10.5424
;N:62;w:6;/N:62;w:6;N:62;w:6;/N:62	-10.5427
;N:43;N:50;w:12;/N:43;/N:50	-10.5428
;w:9;/N:57;w:3	-10.543
;w:3;/N:56;w:1	-10.5431
;N:46;N:53;w:6;/N:46;/N:53	-10.5432
;N:57;N:63;N:66	-10.544
;w:20;/N:48	-10.5442
;w:24;/N:75;/N:8	-10.5443
;N:79;w:12;/N:79;N:81	-10.5445
;N:64;N:76;w:24;/N:64;/N:76	-10.5445
;D:39;D:51	-10.5446
;N:77;N:80;w:3	-10.5448
;w:12;D:46;w:12;D:36	-10.5459
;N:64;w:12;/N:64;N:65;w:12;/N:65	-10.5462
;T:53;T:58;T:6	-10.5462
;/N:59;/N:64;/N:68;/N:71	-10.5464
;N:78;w:12;/N:78;N:80	-10.5465
;N:62;w:12;/N:62;N:58;w:12;/N:58	-10.5465
;N:54;w:12;/N:54;N:53;w:12;/N:53	-10.5467
;N:65;N:77;w:3;/N:65;/N:77	-10.5469
;/N:38;w:3	-10.5472
;N:77;w:12;/N:77;N:76;w:12;/N:76	-10.5472
;w:6;N:46;w:6;/N:46;w:6	-10.5473
;w:12;N:84;w:12;/N:84	-10.5475
;w:9;/N:64;w:3	-10.5476
;N:62;N:65;w:3;/N:62;/N:65	-10.5477
;N:80;w:6;/N:80;N:82;w:6;/N:82	-10.5479
;N:58;w:12;/N:58;N:56;w:12;/N:56	-10.548
;N:61;N:65;w:4	-10.548
;w:1;/N:59;w:2	-10.5484
;w:2;/N:79	-10.5485
;N:66;w:6;/N:66;N:65;w:6;/N:65	-10.5489
;N:65;w:12;/N:65;N:69;w:12;/N:69	-10.5493
;N:60;w:12;/N:60;N:57;w:12;/N:57	-10.5495
;w:18;N:75;w:6;/N:75	-10.5495
;N:51;w:6;/N:51;N:54;w:6;/N:54	-10.5495
;N:66;w:6;/N:66;N:70;w:6;/N:70	-10.5496
;N:74;w:6;/N:74;N:76	-10.5496
;N:67;w:12;/N:67;N:62;w:12;/N:62	-10.5497
;N:70;N:73;w:4	-10.5497
;w:4;/N:54;w:2	-10.5498
;N:75;w:12;/N:75;N:75	-10.5503
0;/N:51	-10.5504
;N:57;N:60;N:66	-10.5505
;w:3;/N:55;w:3	-10.5505
;/N:65;/N:69;w:3	-10.5506
6;/N:26	-10.5507
;N:51;w:12;/N:51;N:55;w:12;/N:55	-10.5507
;N:53;w:12;/N:53;N:54;w:12;/N:54	-10.5508
;w:9;/N:69	-10.5509
;w:36;/N:69	-10.5512
;w:36;/N:51	-10.5514
;N:67;w:12;/N:67;w:12;N:67;w:12;/N:67	-10.5517
;/N:89;w:1	-10.5517
;N:58;N:61;N:66;N:70	-10.5517
;/N:71;/N:76;/N:79	-10.5517
;N:43;w:6;/N:43;w:6;N:43;w:6;/N:43	-10.5521
;w:6;N:44;w:6;/N:44;w:6	-10.5522
;T:89;	-10.5522
;/N:47;/N:50;/N:54	-10.5526
;N:65;w:6;/N:65;N:64;w:6;/N:64	-10.5528
;N:29;w:4;/N:29;w:2	-10.5528
;N:64;w:6;/N:64;N:65;w:6;/N:65	-10.5528
;w:48;/N:66	-10.5529
T:9	-10.553
;N:57;w:12;/N:57;N:57	-10.5531
;N:47;w:12;/N:47;N:45;w:12;/N:45	-10.554
;w:3;/N:47;/N:59	-10.554
2;/N:41	-10.5545
;/N:60;/N:64;/N:72	-10.5545
;N:76;w:6;/N:76;N:77;w:6;/N:77	-10.5545
;N:68;w:12;/N:68;N:67;w:12;/N:67	-10.5547
;D:51;w:6;D:51;w:6	-10.5553
;N:80;w:12;/N:80;N:77;w:12;/N:77	-10.5554
;w:12;D:38;D:41	-10.5554
;N:55;N:60;N:67	-10.5554
;D:38;D:39;D:42;D:54	-10.5555
;N:72;N:76;w:3	-10.5555
;N:63;w:6;/N:63;N:67;w:6;/N:67	-10.5559
;N:37;N:49;w:24;/N:37;/N:49	-10.5559
;N:63;N:67;N:70;w:12;/N:63;/N:67;/N:70	-10.5563
;N:53;w:6;/N:53;N:54;w:6;/N:54	-10.5563
;w:9;/N:37	-10.5565
;N:51;N:55;w:12;/N:51;/N:55	-10.5567
0;/N:81	-10.5575
;N:52;N:56;N:64	-10.5576
;T:55;T:58;T:6	-10.5576
;D:36;D:42;D:49;w:12;D:42	-10.5582
;w:12;N:57;w:12;N:6	-10.5582
;N:82;w:6;/N:82;N:80;w:6;/N:80	-10.5583
;D:37;D:51	-10.5585
80;w:12;/N:80	-10.5587
;N:61;w:12;/N:61;N:56;w:12;/N:56	-10.5587
;/N:70;/N:73;w:3	-10.5587
;/N:39;w:3	-10.5589
;w:12;N:34;w:12;/N:34	-10.559
;N:69;w:12;/N:69;N:64;w:12;/N:64	-10.559
;N:71;w:12;/N:71;N:75;w:12;/N:75	-10.5591
;N:61;w:6;/N:61;N:59;w:6;/N:59	-10.5594
;D:51;D:76	-10.5595
;N:57;w:12;/N:57;N:61;w:12;/N:61	-10.5596
;/N:40;w:3	-10.5596
;w:4;D:36	-10.5599
;w:36;/N:70	-10.56
;D:69;w:6;D:38;D:42	-10.56
;w:8;/N:63	-10.5602
;N:85;w:16;/N:8	-10.5605
;N:58;N:62;w:24;/N:58;/N:62	-10.5606
;w:6;D:42;D:53	-10.5612
;N:55;N:58;N:63;N:67	-10.5612
;N:65;w:6;/N:65;N:67	-10.5613
;N:67;w:12;/N:67;N:71;w:12;/N:71	-10.5614
3;/N:67	-10.5615
;w:6;/N:59;N:59;w:6	-10.562
;w:6;N:42;w:6;/N:42;w:6	-10.5624
;w:12;D:36;D:39	-10.5627
;D:50;w:6;D:50	-10.563
;w:6;/N:60;N:60;w:6	-10.563
;N:63;N:75;w:3;/N:63;/N:75	-10.5632
;/N:64;/N:67;/N:70	-10.5634
;N:77;w:6;/N:77;N:78;w:6;/N:78	-10.5635
;D:48;D:50;D:69	-10.5635
;N:62;N:66;N:69;w:12;/N:62;/N:66;/N:69	-10.5635
;N:55;N:60;N:64;w:6;/N:55;/N:60;/N:64	-10.5636
;N:62;w:6;/N:62;N:66;w:6;/N:66	-10.5638
;N:77;w:4;/N:77;w:4	-10.5639
;N:39;w:12;/N:39;N:41;w:12;/N:41	-10.5642
;N:41;N:57	-10.5646
;N:65;N:67;N:70	-10.5647
;w:6;/N:60;N:60	-10.5647
;N:93;N:9	-10.5652
;N:63;N:67;w:3;/N:63;/N:67	-10.5654
;N:66;w:12;/N:66;N:70;w:12;/N:70	-10.5655
;w:6;D:36;w:6;D:36;D:38	-10.5657
;N:57;N:62;N:69	-10.5663
;N:44;N:51;w:6;/N:44;/N:51	-10.5664
;w:24;/N:71;/N:75	-10.5664
;w:24;/N:55;/N:60	-10.5666
;N:55;N:59;N:67	-10.5668
;w:24;/N:52;/N:56	-10.5671
;N:46;N:49;N:54	-10.5676
;w:24;/N:43;/N:50	-10.5677
;N:85;w:6;/N:85;N:87;w:6;/N:87	-10.568
;N:51;N:56;N:63	-10.568
;N:65;w:6;/N:65;N:62;w:6;/N:62	-10.5681
;N:67;w:6;/N:67;N:63;w:6;/N:63	-10.5686
;w:4;/N:70;w:2	-10.5687
;N:66;w:12;/N:66;w:12;N:66;w:12;/N:66	-10.5688
;N:26;w:6;/N:26;w:6	-10.5688
;w:6;/N:62;N:62;w:6	-10.569
;N:80;w:6;/N:80;N:77;w:6;/N:77	-10.5692
;N:32;w:20;/N:32;w:4	-10.5696
;N:70;N:82;w:3;/N:70;/N:82	-10.5696
;N:36;N:48;w:24;/N:36;/N:48	-10.5697
;w:2;D:38	-10.5698
;N:72;w:12;/N:72;N:73;w:12;/N:73	-10.5698
;N:53;w:6;/N:53;N:52;w:6;/N:52	-10.5699
;N:45;w:6;/N:45;N:57;w:6;/N:57	-10.57
;N:64;N:76;w:3;/N:64;/N:76	-10.5703
;/N:55;/N:58;/N:61	-10.5705
;/N:44;/N:53	-10.5707
;w:24;/N:67;/N:72	-10.5709
;D:70;w:6;D:69	-10.5714
2;/N:82	-10.5716
;w:6;D:45;w:6;D:45	-10.5717
;N:93;w:12	-10.5718
;w:1;/N:85	-10.5719
;N:70;w:12;/N:70;N:71;w:12;/N:71	-10.5719
;N:79;N:91;w:6;/N:79;/N:91	-10.572
;N:56;N:72	-10.5726
;w:6;D:36;w:6;D:36;D:42	-10.5726
;/N:58;/N:62;/N:70	-10.5726
;D:36;D:38;D:42;D:49	-10.5729
;N:40;w:6;/N:40;N:42;w:6;/N:42	-10.5729
;N:59;N:63;N:66;w:4	-10.5729
;N:68;w:6;/N:68;N:64;w:6;/N:64	-10.5734
;w:24;N:79	-10.5734
;w:12;N:61;w:12;N:6	-10.5735
;D:49;w:4	-10.5739
;w:6;/N:50;/N:53	-10.574
;w:6;D:36;D:49	-10.5742
;N:39;N:63	-10.5742
3;/N:64	-10.5744
;w:12;/N:74;N:74	-10.5746
;/N:77;/N:80;/N:84	-10.575
;N:67;N:71;w:24;/N:67;/N:71	-10.5751
;/N:55;/N:60;/N:64;/N:67	-10.5751
;/N:69;N:67	-10.5754
;N:94;w:1	-10.5758
;N:62;N:67;w:3;/N:62;/N:67	-10.5761
;N:76;w:20;/N:76	-10.5761
;N:77;w:6;/N:77;N:73;w:6;/N:73	-10.5762
;/N:50;/N:54;/N:57;/N:62	-10.5763
;D:76;w:12;D:76	-10.5765
;w:24;/N:47;/N:54	-10.5766
;N:53;w:12;/N:53;N:52;w:12;/N:52	-10.5767
5;/N:81	-10.5767
;N:73;N:74	-10.5767
;T:49;T:	-10.5768
;w:5;/N:62	-10.5769
;N:45;N:64	-10.5771
;N:57;N:60;N:64;N:69	-10.5772
;w:1;/N:70;w:3	-10.5772
;N:58;N:63;N:70	-10.5774
;N:61;N:64;N:69;w:6;/N:61;/N:64;/N:69	-10.5774
;N:85;w:12;/N:85;N:84;w:12;/N:84	-10.5775
0;/N:87	-10.5776
;/N:56;/N:60;/N:68	-10.5777
;w:6;/N:59;N:59	-10.5777
;N:28;w:12;/N:28;N:28;w:12;/N:28	-10.5778
;N:82;w:6;/N:82;N:79;w:6;/N:79	-10.5779
;w:24;N:39	-10.5779
;N:54;w:6;/N:54;N:53;w:6;/N:53	-10.5783
;w:3;/N:45;/N:57	-10.5786
;N:61;w:12;/N:61;N:62;w:12;/N:62	-10.5787
;w:8;D:42;w:4	-10.5787
;/N:50;w:1	-10.5788
;N:45;N:48;N:53	-10.5791
;N:40;w:18;/N:40;w:6	-10.5791
;D:45;w:4	-10.5793
;w:20;/N:69	-10.5799
;N:46;w:6;/N:46;w:6;N:46;w:6;/N:46	-10.58
;T:58;T:60	-10.5801
;N:74;w:6;/N:74;N:71;w:6;/N:71	-10.5801
3;/N:61	-10.5803
;D:53;w:2	-10.5805
;w:1;/N:60;w:2	-10.5806
;N:74;w:6;/N:74;N:79;w:6;/N:79	-10.5807
;N:67;w:6;/N:67;N:72;w:6;/N:72	-10.5808
;/N:48;w:1	-10.5808
;N:50;N:52	-10.581
;N:54;w:6;/N:54;N:55;w:6;/N:55	-10.5811
;w:18;N:52;w:6;/N:52	-10.5814
;w:6;D:51;w:6	-10.5815
;w:1;/N:69;w:2	-10.5815
;N:45;N:55	-10.582
;/N:34;N:34	-10.5821
;/N:	-10.5824
;w:18;N:51;w:6;/N:51	-10.5824
;N:43;N:50;w:6;/N:43;/N:50	-10.5825
;w:9;/N:36	-10.5827
;N:72;w:3;/N:72;N:74;w:3;/N:74	-10.5827
;D:42;D:56	-10.5829
;N:58;N:61;w:24;/N:58;/N:61	-10.583
;w:6;/N:58;N:58;w:6	-10.5832
;N:55;w:12;/N:55;N:54;w:12;/N:54	-10.5835
;N:56;N:59;N:65	-10.5837
;N:77;N:81;w:12;/N:77;/N:81	-10.584
;/N:80;N:80	-10.5842
;D:69;w:12;D:36;D:42	-10.5843
;w:12;/N:40;/N:52	-10.5844
;w:24;N:58;w:12;/N:58	-10.5845
;N:54;w:12;/N:54;N:55;w:12;/N:55	-10.5846
;D:47;w:12;D:47	-10.5853
;N:52;w:12;/N:52;N:53;w:12;/N:53	-10.5854
;N:79;N:82;w:6;/N:79;/N:82	-10.5856
;N:58;w:12;N:63	-10.5857
;N:60;w:12;/N:60;N:67;w:12;/N:67	-10.5857
;N:60;N:63;w:4	-10.5858
;w:3;/N:41;/N:53	-10.5858
;N:26;w:3	-10.5858
;w:6;/N:57;N:57	-10.586
;N:60;w:21;/N:60	-10.586
;N:63;N:68;w:4	-10.5863
;w:3;/N:46;/N:58	-10.5863
;N:67;w:12;/N:67;N:66;w:12;/N:66	-10.5863
;N:67;N:79;w:24;/N:67;/N:79	-10.5864
;N:48;N:60;w:24;/N:48;/N:60	-10.5869
;N:80;w:6;/N:80;N:83;w:6;/N:83	-10.587
;N:47;w:6;/N:47;w:6;N:47;w:6;/N:47	-10.5875
;N:78;w:12;/N:78;N:81;w:12;/N:81	-10.5875
;w:6;D:42;D:51	-10.5877
;/N:70;N:68	-10.5877
;w:18;N:50;w:6;/N:50	-10.5879
;N:58;N:63;w:3;/N:58;/N:63	-10.5882
;N:46;N:56	-10.5884
;N:46;w:12;/N:46;N:49;w:12;/N:49	-10.5885
;N:64;w:6;/N:64;N:68;w:6;/N:68	-10.5885
;w:3;/N:51;w:9	-10.5885
;N:70;w:12;/N:70;N:65;w:12;/N:65	-10.5885
;N:67;N:71;w:3;/N:67;/N:71	-10.5887
;N:78;N:82;w:6;/N:78;/N:82	-10.5889
;w:3;/N:79;w:9	-10.5891
;N:60;w:6;/N:60;N:57;w:6;/N:57	-10.5893
;w:12;/N:48;/N:52	-10.5895
;N:69;w:6;/N:69;N:74;w:6;/N:74	-10.5903
;N:50;N:55;N:59;N:62	-10.5906
;N:79;w:6;/N:79;N:76;w:6;/N:76	-10.5909
;N:40;w:12;/N:40;N:47;w:12;/N:47	-10.5909
2;/N:46	-10.5911
;/N:59;/N:61;/N:64	-10.5911
;w:6;N:67;w:6	-10.5914
;N:56;N:58;N:61	-10.5915
;N:62;N:65;N:70;w:6;/N:62;/N:65;/N:70	-10.5919
;/N:42;w:3	-10.5925
;N:60;w:6;/N:60;N:58;w:6;/N:58	-10.5926
;D:41;w:12;D:41	-10.593
;N:47;w:6;/N:47;N:59;w:6;/N:59	-10.5935
;w:9;/N:65;w:3	-10.5937
;N:69;N:72;w:24;/N:69;/N:72	-10.5937
;w:9;/N:70	-10.5939
;w:6;N:69;w:6;/N:69	-10.5942
;N:82;w:12;/N:82;N:81;w:12;/N:81	-10.5943
;w:24;/N:70;/N:74	-10.5944
;N:46;w:12;/N:46;N:53;w:12;/N:53	-10.5944
;N:60;N:66;N:69	-10.5944
;N:49;w:6;/N:49;N:47;w:6;/N:47	-10.5945
;N:76;N:81;w:6;/N:76;/N:81	-10.5945
;/N:68;N:66	-10.5947
;N:24;w:6;/N:24;w:6	-10.5948
;N:83;w:8;/N:83;w:4	-10.5948
;N:52;N:56;w:6;/N:52;/N:56	-10.5949
;N:83;w:12;/N:83;N:81	-10.595
;/N:68;/N:72;w:3	-10.5951
;N:59;N:62;N:68	-10.5953
;N:69;w:6;/N:69;N:67	-10.5953
;/N:39;/N:43	-10.5953
;N:68;N:80;w:24;/N:68;/N:80	-10.5953
;N:66;w:6;/N:66;N:63;w:6;/N:63	-10.5954
;/N:88;w:1	-10.5955
;D:69;w:6;D:69;w:6;D:38	-10.5955
;N:76;w:21;/N:76	-10.5963
;N:46;w:6;/N:46;N:58;w:6;/N:58	-10.5966
;w:24;D:51	-10.5966
;N:78;w:12;/N:78;N:77;w:12;/N:77	-10.5968
;/N:60;/N:62;/N:65	-10.5971
;N:57;w:12;/N:57;N:64;w:12;/N:64	-10.5972
;D:51;w:16;D:38	-10.5974
;/N:89;N:89	-10.5974
;N:64;N:67;w:3;/N:64;/N:67	-10.5975
;w:6;D:36;D:51	-10.5978
;N:60;N:65;N:72	-10.5979
;/N:64;/N:68;w:3	-10.5979
;N:58;N:70;w:3;/N:58;/N:70	-10.5979
;N:73;w:12;/N:73;N:74;w:12;/N:74	-10.5979
;N:42;N:47;w:6;/N:42;/N:47	-10.598
;w:18;N:72	-10.5981
;N:57;w:4;/N:57;w:4	-10.5982
;/N:33;w:3	-10.5982
;w:6;D:38;D:42;D:45	-10.5982
;N:59;w:6;/N:59;N:64;w:6;/N:64	-10.5983
;w:3;D:36;w:3;D:36	-10.5984
;N:74;w:12;/N:74;N:75;w:12;/N:75	-10.5986
;w:24;/N:68;/N:73	-10.5986
;N:41;w:6;/N:41;N:43;w:6;/N:43	-10.599
;N:72;w:6;/N:72;N:76;w:6;/N:76	-10.599
;N:67;N:79;w:3;/N:67;/N:79	-10.5992
;/N:89;w:2	-10.5995
;N:61;N:73;w:3;/N:61;/N:73	-10.5996
;N:58;w:12;/N:58;N:56	-10.5997
;N:79;w:6;/N:79;N:78;w:6;/N:78	-10.5998
;w:6;D:38;D:49	-10.5999
;N:58;N:61;N:66;w:6;/N:58;/N:61;/N:66	-10.5999
;w:6;D:37;D:38;D:42	-10.6
;N:54;w:4;/N:54;w:4	-10.6001
;N:52;w:12;/N:52;N:51;w:12;/N:51	-10.6002
;w:3;/N:38;/N:50	-10.6002
;N:53;N:56;N:61;N:65	-10.6002
;N:57;w:12;/N:57;N:54;w:12;/N:54	-10.6004
;N:27;N:39;w:12;/N:27;/N:39	-10.6006
;N:67;N:70;N:72	-10.6008
;N:57;w:12;/N:57;N:55	-10.6013
;N:72;N:75;w:4	-10.6015
;/N:65;/N:66	-10.6016
;N:80;w:12;/N:80;N:81;w:12;/N:81	-10.6017
;w:6;D:36;D:38;D:39	-10.6017
;N:65;w:12;/N:65;N:61;w:12;/N:61	-10.6017
;N:59;w:21;/N:59	-10.6018
;N:68;N:71;N:74	-10.6019
;N:66;N:78;w:24;/N:66;/N:78	-10.6019
;/N:36;/N:43;N:36;N:43	-10.6023
;N:55;w:4;/N:55;w:4	-10.6023
;N:53;N:56;N:58	-10.6026
;N:73;w:6;/N:73;w:6;N:73;w:6;/N:73	-10.6026
;N:71;w:12;/N:71;N:72;w:12;/N:72	-10.6027
;N:69;w:12;/N:69;N:68;w:12;/N:68	-10.6028
;D:48;w:12;D:48	-10.603
;N:54;N:57;N:61;N:66	-10.6032
;w:12;N:85;w:12;/N:85	-10.6033
;w:3;/N:75;w:3	-10.6035
;N:57;N:59;N:63	-10.6037
;N:80;w:6;/N:80;N:75;w:6;/N:75	-10.6039
;N:69;w:12;/N:69;w:12;N:69;w:12;/N:69	-10.6039
;N:64;w:6;/N:64;N:66	-10.604
;N:58;N:61;N:67	-10.604
;N:64;w:12;/N:64;w:12;N:64;w:12;/N:64	-10.604
;N:68;w:32;/N:6	-10.6041
;N:69;w:6;/N:69;N:73;w:6;/N:73	-10.6042
;N:41;w:21;/N:41	-10.6043
;w:24;/N:55;/N:62	-10.6045
;w:12;D:38;D:42;w:12;D:36;D:42	-10.6045
;N:66;w:6;/N:66;N:62;w:6;/N:62	-10.6046
;D:70;w:6;D:48	-10.6047
;N:56;N:61;N:68	-10.6047
;w:12;/N:49;/N:52	-10.6048
;w:2;/N:73;w:1	-10.6048
;w:48;/N:69	-10.605
;N:55;N:57;N:61	-10.605
;D:42;w:6;D:42;w:6;D:46	-10.6051
;D:36;D:42;D:46	-10.6054
;/N:40;/N:43	-10.6055
;N:68;w:12;/N:68;N:63;w:12;/N:63	-10.6057
;N:43;N:62	-10.6061
;N:65;N:77;w:24;/N:65;/N:77	-10.6068
;/N:77;/N:82;/N:86	-10.607
;w:24;/N:53;/N:56	-10.6071
;N:73;N:76;w:2	-10.6071
;/N:68;/N:75;/N:80	-10.6071
;/N:47;w:1	-10.6072
;N:75;w:12;/N:75;N:74;w:12;/N:74	-10.6074
;N:61;w:6;/N:61;N:65;w:6;/N:65	-10.6075
;D:42;w:2	-10.6077
;N:52;N:57;N:64	-10.6079
;T:55;T:59;T:6	-10.6079
;N:49;N:61;w:24;/N:49;/N:61	-10.608
;N:90;w:3;/N:90;w:3	-10.6082
;N:76;w:6;/N:76;N:72;w:6;/N:72	-10.6082
;N:38;w:12;/N:38;N:40;w:12;/N:40	-10.6082
;/N:43;/N:47;/N:50	-10.6083
;N:80;N:83;w:6;/N:80;/N:83	-10.6085
;/N:51;/N:58;/N:63;/N:67	-10.6087
;w:6;D:42;w:6;D:36;D:46	-10.6089
;N:53;N:57;N:65	-10.609
;N:78;w:6;/N:78;N:74;w:6;/N:74	-10.6091
;D:51;w:6;D:42	-10.6092
;N:56;w:4;/N:56;w:4	-10.6094
;N:75;N:80;w:12;/N:75;/N:80	-10.6099
;N:79;w:12;/N:79;N:74;w:12;/N:74	-10.61
;w:9;N:70;w:3;/N:70	-10.61
;N:66;N:70;N:73;w:6;/N:66;/N:70;/N:73	-10.6101
;N:67;N:74;w:12;/N:67;/N:74	-10.6101
;N:80;w:12;/N:80;N:82	-10.6101
;N:81;w:12;/N:81;N:78;w:12;/N:78	-10.6106
2;/N:32	-10.6109
;N:59;N:64;N:68;w:4	-10.6109
;w:6;D:36;D:42;D:51	-10.6109
;/N:71;N:69	-10.6112
;D:36;D:51;w:12;D:51	-10.6114
;N:49;w:6;/N:49;w:6;N:49;w:6;/N:49	-10.6125
;w:36;/N:49	-10.6126
;N:55;N:58;N:62;N:67	-10.613
;w:8;/N:66	-10.613
2;/N:89	-10.6132
;D:69;D:70;w:6;D:42	-10.6132
;N:48;N:53;N:60	-10.6134
;N:36;w:21;/N:36	-10.6135
;N:63;N:75;w:24;/N:63;/N:75	-10.6135
;N:55;w:12;/N:55;N:59;w:12;/N:59	-10.6136
;N:89;w:6	-10.6136
;N:40;w:21;/N:40	-10.6137
;w:2;/N:77;w:4	-10.6137
;N:75;w:12;/N:75;N:80;w:12;/N:80	-10.6137
;N:79;w:6;/N:79;N:74;w:6;/N:74	-10.6138
;/N:55;/N:58;/N:60	-10.6139
;T:54;T:6	-10.6139
;N:64;w:6;/N:64;N:61;w:6;/N:61	-10.6141
;/N:62;/N:64;/N:67	-10.6142
;N:88;w:12;/N:88;N:86;w:12;/N:86	-10.6142
;/N:54;/N:57;/N:60	-10.6144
;/N:57;/N:61;/N:69	-10.6151
;w:3;/N:50;/N:62	-10.6151
;N:52;N:55;N:60;N:64	-10.6152
;N:52;N:55;w:6;/N:52;/N:55	-10.6155
7;/N:67	-10.6157
;D:42;D:46	-10.6158
;/N:34;w:3	-10.616
;/N:67;/N:70;/N:72	-10.6162
;N:61;w:12;/N:61;N:58;w:12;/N:58	-10.6162
;N:86;w:36;/N:86;N:	-10.6165
;N:70;w:12;/N:70;w:12;N:70;w:12;/N:70	-10.6167
;N:33;w:18;/N:33;w:6	-10.6167
;N:56;N:59;N:64;N:68	-10.6169
;N:55;N:61;N:64	-10.6171
;/N:85;N:85	-10.6172
;w:18;/N:9	-10.6174
;N:75;w:6;/N:75;N:79;w:6;/N:79	-10.6174
;w:8;D:42;w:4;D:42	-10.6175
;N:65;w:12;/N:65;w:12;N:65;w:12;/N:65	-10.6175
;w:12;/N:42;/N:54	-10.6177
;N:72;w:12;/N:72;N:76;w:12;/N:76	-10.6177
;N:60;N:62;N:67	-10.6178
;N:95;w:6;/N:95;w:6	-10.6179
;N:70;w:12;/N:70;N:69	-10.6181
;w:8;D:42;w:8;D:42	-10.6185
;D:36;D:42;w:12;D:46	-10.6187
;T:63;T:67;T:7	-10.6187
;w:3;/N:55;/N:67	-10.619
;/N:66;w:4	-10.6191
;/N:55;/N:62;/N:67;/N:71	-10.6192
;N:78;N:82;w:12;/N:78;/N:82	-10.6193
;N:72;w:24;/N:72;N:70	-10.6197
;/N:70;w:8	-10.6197
;N:50;w:6;/N:50;N:53;w:6;/N:53	-10.6199
;N:70;w:6;/N:70;N:68	-10.6199
;N:60;N:63;w:3;/N:60;/N:63	-10.62
;N:62;N:66;w:4	-10.6202
;N:57;N:61;w:24;/N:57;/N:61	-10.6206
;N:68;w:12;/N:68;N:67	-10.6208
;N:56;N:59;N:63;N:68	-10.6208
;w:2;/N:58;w:1	-10.6208
;N:50;N:54;w:12;/N:50;/N:54	-10.6209
;N:61;w:12;/N:61;N:57;w:12;/N:57	-10.621
;w:24;N:80	-10.621
;N:71;w:12;/N:71;w:12;N:71;w:12;/N:71	-10.621
;N:30;w:1	-10.6211
;w:2;/N:53;w:4	-10.6214
;N:68;N:72;w:24;/N:68;/N:72	-10.6215
3;/N:70	-10.6216
;N:55;w:12;/N:55;N:56;w:12;/N:56	-10.6217
;N:83;w:6;/N:83;N:80;w:6;/N:80	-10.6217
;N:82;w:12;/N:82;N:80	-10.6218
;w:9;/N:68;w:3	-10.622
;N:60;N:63;N:69	-10.6221
;N:50;N:55;N:62	-10.6221
;w:18;N:48;w:6;/N:48	-10.6224
;N:93;w:6	-10.6226
;w:18;N:76;w:6;/N:76	-10.6227
;D:38;D:42;D:49	-10.6228
;N:76;N:80;w:3	-10.6228
;/N:69;/N:72;w:3	-10.6229
;N:47;N:52;N:59	-10.6229
;N:69;N:72;w:3;/N:69;/N:72	-10.6232
;w:3;/N:37;/N:49	-10.6233
;N:51;N:61	-10.6234
;w:2;/N:78	-10.6234
;w:24;N:76;w:12;/N:76	-10.6245
;N:65;w:12;/N:65;N:60;w:12;/N:60	-10.6246
;/N:90;N:90	-10.6251
;N:50;w:12;/N:50;N:54;w:12;/N:54	-10.6252
;w:24;/N:74;/N:8	-10.6252
;N:54;N:57;N:62;N:66	-10.6253
;N:62;N:67;N:71;w:12;/N:62;/N:67;/N:71	-10.6253
;N:97;w:24;/N:97;N:	-10.6254
;w:9;N:72;w:3;/N:72	-10.6256
;w:2;/N:80	-10.6258
;N:77;w:20;/N:77	-10.6259
;N:62;N:74;w:24;/N:62;/N:74	-10.6259
;w:12;/N:41;/N:53	-10.6261
;N:56;w:12;/N:56;N:56	-10.6262
;/N:58;/N:63;/N:67;/N:70	-10.6264
;N:78;w:4;/N:78;w:4	-10.6265
;N:72;w:12;/N:72;N:71	-10.6267
;N:79;N:82;w:12;/N:79;/N:82	-10.6268
;D:46;w:8	-10.627
;w:6;N:53;w:6	-10.6274
;w:3;/N:49;/N:61	-10.6274
7;/N:70	-10.6276
;N:61;N:66;N:70;w:4	-10.6277
;N:39;w:21;/N:39	-10.6278
;/N:72;N:70	-10.6278
;w:36;/N:68	-10.628
;N:61;w:6;/N:61;N:66;w:6;/N:66	-10.6281
;N:45;N:60	-10.6282
;w:24;N:57;w:12;/N:57	-10.6285
;N:45;N:50;w:12;/N:45;/N:50	-10.6285
;N:72;w:6;/N:72;N:70	-10.6287
;N:68;N:72;w:4	-10.6288
;N:63;N:68;N:72;w:12;/N:63;/N:68;/N:72	-10.6294
;N:73;w:3;/N:73;N:75;w:3;/N:75	-10.6295
;w:3;/N:50;w:9	-10.6295
;/N:56;/N:59;/N:61	-10.6295
7;/N:66	-10.6296
;N:75;N:79;w:3	-10.6297
;N:44;N:51;N:56;N:60;N:63	-10.6299
;N:65;N:69;N:72;w:12;/N:65;/N:69;/N:72	-10.63
;w:6;/N:62;N:62	-10.63
;N:70;N:73;w:3;/N:70;/N:73	-10.6301
;N:60;w:6;/N:60;w:6;N:60;w:6;/N:60	-10.6305
;w:4;/N:69	-10.6305
;N:42;w:20;/N:42	-10.6306
;N:56;N:71	-10.6309
;N:49;N:51	-10.6309
;N:68;w:6;/N:68;N:66	-10.6309
;w:3;/N:72;w:1	-10.6309
;D:54;D:69;w:6;D:54	-10.631
;N:88;w:6;/N:88;N:90;w:6;/N:90	-10.6311
;w:16;D:38;w:8;D:38	-10.6313
;N:68;N:73;w:3;/N:68;/N:73	-10.6314
;/N:41;N:41	-10.6314
;w:6;/N:65;N:65;w:6	-10.6314
;N:66;w:6;/N:66;N:71;w:6;/N:71	-10.6316
;N:55;w:6;/N:55;N:59;w:6;/N:59	-10.6318
;N:64;w:12;/N:64;N:59;w:12;/N:59	-10.6321
;w:24;/N:44;/N:51	-10.6322
;D:42;w:8;D:42	-10.6325
;w:12;/N:75;N:75	-10.6325
;N:63;N:68;N:72;N:75	-10.6329
;N:35;w:21;/N:35	-10.6331
;T:56;T:59;T:6	-10.6332
;w:6;/N:64;N:64;w:6	-10.6333
;/N:75;N:73	-10.6333
;D:69;w:3;D:69	-10.6335
;w:24;/N:56;/N:63	-10.6335
;N:35;N:47;w:24;/N:35;/N:47	-10.6338
;/N:81;N:81	-10.6339
;N:48;w:6;/N:48;w:6;N:48;w:6;/N:48	-10.6343
;N:54;N:59;N:66	-10.6344
;/N:54;/N:58;/N:66	-10.6345
;N:104;w:12;/N:104	-10.6345
;N:75;w:3;/N:75;N:77;w:3;/N:77	-10.6346
;w:3;/N:52;/N:64	-10.6347
;N:57;N:60;N:65;w:6;/N:57;/N:60;/N:65	-10.6347
;w:2;/N:52;w:4	-10.635
;N:78;w:12;/N:78;N:74;w:12;/N:74	-10.6351
;N:55;N:70	-10.6352
;N:53;N:69	-10.6354
;/N:29;w:4	-10.6355
;N:71;w:6;/N:71;N:69	-10.6356
;N:37;w:12;/N:37;N:39;w:12;/N:39	-10.6356
;N:63;N:66;N:71;w:12;/N:63;/N:66;/N:71	-10.6357
;/N:66;/N:70;w:3	-10.6359
;N:57;w:12;/N:57;N:56;w:12;/N:56	-10.636
;N:35;w:1	-10.6361
;N:68;w:12;/N:44	-10.6361
7;/N:63	-10.6361
;N:59;N:64;N:71	-10.6361
;N:54;N:70	-10.6363
;N:54;w:6;/N:54;N:59;w:6;/N:59	-10.6363
;N:66;N:71;w:3;/N:66;/N:71	-10.6365
;w:12;/N:43;N:43	-10.6367
;N:60;N:64;w:4	-10.637
;N:41;N:65	-10.637
;w:24;/N:81	-10.6373
;/N:49;/N:51	-10.6376
;N:64;w:6;/N:64;N:69;w:6;/N:69	-10.6377
;N:63;N:67;N:70;w:4	-10.6378
;N:69;w:24;/N:69;N:67	-10.6378
;/N:63;/N:66;w:3	-10.6379
;N:61;N:64;N:70	-10.6386
;/N:88;N:88	-10.6387
;/N:32;/N:39	-10.6387
2;/N:44	-10.6388
;N:61;N:66;N:73	-10.6391
;w:48;/N:48	-10.6393
;/N:80;/N:84;/N:87	-10.6396
;N:76;w:6;/N:76;N:78	-10.6398
;w:6;N:45;w:6;/N:45	-10.6399
;N:75;w:6;/N:75;N:77	-10.6401
;N:74;w:12;/N:74;N:79;w:12;/N:79	-10.6402
;N:51;N:54;w:12;/N:51;/N:54	-10.6404
;T:61;T:63	-10.6406
;/N:73;N:71	-10.6407
;N:65;w:6;/N:65;N:70;w:6;/N:70	-10.6408
;N:61;w:12;/N:61;w:12;N:61;w:12;/N:61	-10.6409
;N:38;w:12;/N:38;N:45;w:12;/N:45	-10.6409
;N:36;w:1	-10.6411
;N:53;w:6;/N:53;N:58;w:6;/N:58	-10.6411
;/N:33;N:33	-10.6412
;N:68;N:75;w:12;/N:68;/N:75	-10.6412
;/N:63;/N:68;w:3	-10.6418
;N:62;w:6;/N:62;N:63;w:6;/N:63	-10.6419
;N:60;N:65;N:67	-10.6423
;N:69;N:81;w:3;/N:69;/N:81	-10.6428
;/N:58;w:4	-10.6429
;/N:48;/N:54	-10.6429
7;/N:69	-10.643
;w:3;/N:57;/N:60	-10.6431
;N:62;w:12;/N:62;N:63;w:12;/N:63	-10.6433
;/N:64;/N:65	-10.6435
;w:12;/N:30	-10.6437
;N:56;w:12;/N:56;N:60;w:12;/N:60	-10.6437
;N:61;N:70;w:12;/N:61;/N:70	-10.6437
;N:63;N:72;w:12;/N:63;/N:72	-10.6437
;N:58;N:63;N:65	-10.6439
;N:65;w:24;/N:65;N:65;w:24;/N:65	-10.644
;w:1;/N:70;w:2	-10.644
;D:76;w:6;D:38	-10.6441
;N:59;w:12;/N:59;N:56;w:12;/N:56	-10.6441
;N:56;w:12;/N:56;N:54	-10.6441
;N:60;N:72;w:3;/N:60;/N:72	-10.6442
3;/N:56	-10.6442
;N:43;w:12;/N:43;N:46;w:12;/N:46	-10.6443
;N:64;w:6;/N:64;N:63;w:6;/N:63	-10.6447
;/N:63;w:4	-10.6451
;w:6;N:41;w:6;/N:41;w:6	-10.6452
;w:4;/N:53;w:2	-10.6453
;w:4;/N:65;w:8	-10.6455
;w:3;/N:48;/N:60	-10.6456
;w:9;N:66;w:3;/N:66	-10.6459
;N:46;N:51;w:12;/N:46;/N:51	-10.646
;N:58;w:12;/N:58;N:65;w:12;/N:65	-10.6462
;w:5;/N:57	-10.6464
;w:4;/N:71;w:2	-10.6465
;D:39;D:54	-10.6468
;N:55;w:12;/N:55;N:53	-10.6469
;N:70;N:74;w:3;/N:70;/N:74	-10.6471
;N:79;N:84;w:6	-10.6472
;N:37;w:6;/N:37;w:6;N:37;w:6;/N:37	-10.6474
;/N:47;/N:51;/N:54;/N:59	-10.6474
;N:70;N:73;w:24;/N:70;/N:73	-10.6476
;N:72;N:77;w:3	-10.6476
;/N:69;/N:76;/N:81	-10.6479
;N:74;w:6;/N:74;N:69;w:6;/N:69	-10.6479
;D:51;w:6;D:42;D:51	-10.6482
;N:43;w:6;/N:43;N:55;w:6;/N:55	-10.6483
;N:58;N:62;N:65;w:4	-10.6485
;N:45;w:12;/N:45;N:43;w:12;/N:43	-10.6494
;N:57;N:60;w:24;/N:57;/N:60	-10.6497
;D:50;w:6;D:42	-10.6497
;N:63;N:66;N:71;w:6;/N:63;/N:66;/N:71	-10.6499
;w:2;/N:57;w:1	-10.6501
;N:53;N:58;N:65	-10.6502
;/N:67;/N:71;w:3	-10.6505
;N:61;N:64;w:3;/N:61;/N:64	-10.6506
;/N:68;w:8	-10.6506
;/N:67;N:65	-10.6507
;N:68;w:6;/N:68;N:68	-10.6509
;w:6;/N:58;N:58	-10.6511
;N:69;N:73;w:3;/N:69;/N:73	-10.6511
;N:64;N:68;N:71;w:4	-10.6513
;N:62;w:6;/N:62;N:64	-10.6517
;N:58;w:20;/N:58	-10.652
;N:67;N:72;w:3;/N:67;/N:72	-10.6524
;N:81;N:84;w:6	-10.6526
;N:37;w:21;/N:37	-10.6527
;N:71;w:12;/N:71;N:72	-10.6528
;/N:56;/N:63;/N:68;/N:72	-10.6528
;N:76;w:6;/N:76;N:80;w:6;/N:80	-10.6531
;w:24;/N:52;/N:55	-10.6533
;N:70;w:12;/N:70;N:73	-10.6534
;N:46;N:53;N:58;N:62;N:65	-10.6534
;N:69;w:12;/N:69;N:68	-10.6534
;N:61;N:66;N:68	-10.6536
;w:6;D:43;w:6;D:43	-10.6537
76;w:24;/N:76	-10.6538
;/N:64;/N:67;w:3	-10.6538
;N:76;w:12;/N:76;N:77;w:12;/N:77	-10.6538
;D:48;D:54;D:69	-10.654
;/N:43;w:1	-10.6541
;N:69;N:81;w:24;/N:69;/N:81	-10.6541
;w:12;/N:43;/N:55	-10.6543
;N:76;w:12;/N:76;N:76	-10.6543
;N:66;w:3;/N:64	-10.6545
;N:46;N:58;N:62;N:65	-10.6546
;D:42;w:3;D:36	-10.655
;w:6;D:36;D:47	-10.6551
;D:49;w:24;D:38	-10.6551
;N:69;w:12;/N:69;N:66	-10.6554
;/N:59;/N:63;w:3	-10.6554
8;/N:91	-10.6557
;w:3;/N:80;w:9	-10.6557
;N:68;N:71;N:73	-10.6558
;T:63;T:65	-10.656
8;/N:25	-10.656
;N:51;w:12;/N:51;N:52;w:12;/N:52	-10.6562
;N:59;N:64;N:66	-10.6564
[...]
