<unk>	0
<s>	0
</s>	0
<pad>	0
;B:0	0
;B:1	0
;B:2	0
;B:3	0
;B:4	0
;B:5	0
;B:6	0
;B:7	0
;M:0	0
;M:1	0
;M:2	0
;M:3	0
;M:4	0
;M:5	0
;M:6	0
;M:7	0
;L:1	0
;L:2	0
;L:3	0
;L:4	0
;L:5	0
;L:6	0
;L:7	0
;L:8	0
;L:9	0
;L:10	0
;L:11	0
;L:12	0
;L:13	0
;L:14	0
;L:15	0
;L:16	0
;L:17	0
;L:18	0
;L:19	0
;L:20	0
;L:21	0
;L:22	0
;L:23	0
;L:24	0
;L:25	0
;L:26	0
;L:27	0
;L:28	0
;L:29	0
;L:30	0
;L:31	0
;L:32	0
;L:33	0
;L:34	0
;L:35	0
;L:36	0
;L:37	0
;L:38	0
;L:39	0
;L:40	0
;L:41	0
;L:42	0
;L:43	0
;L:44	0
;L:45	0
;L:46	0
;L:47	0
;L:48	0
;L:49	0
;L:50	0
;L:51	0
;L:52	0
;L:53	0
;L:54	0
;L:55	0
;L:56	0
;L:57	0
;L:58	0
;L:59	0
;L:60	0
;L:61	0
;L:62	0
;L:63	0
;L:64	0
;L:65	0
;L:66	0
;L:67	0
;L:68	0
;L:69	0
;L:70	0
;L:71	0
;L:72	0
;L:73	0
;L:74	0
;L:75	0
;L:76	0
;L:77	0
;L:78	0
;L:79	0
;L:80	0
;L:81	0
;L:82	0
;L:83	0
;L:84	0
;L:85	0
;L:86	0
;L:87	0
;L:88	0
;L:89	0
;L:90	0
;L:91	0
;L:92	0
;L:93	0
;L:94	0
;L:95	0
;L:96	0
;L:97	0
;L:98	0
;L:99	0
;L:100	0
;L:101	0
;L:102	0
;L:103	0
;L:104	0
;L:105	0
;L:106	0
;L:107	0
;L:108	0
;L:109	0
;L:110	0
;L:111	0
;L:112	0
;L:113	0
;L:114	0
;L:115	0
;L:116	0
;L:117	0
;L:118	0
;L:119	0
;L:120	0
;L:121	0
;L:122	0
;L:123	0
;L:124	0
;L:125	0
;L:126	0
;L:127	0
;L:128	0
;L:129	0
;L:130	0
;L:131	0
;L:132	0
;L:133	0
;L:134	0
;L:135	0
;L:136	0
;L:137	0
;L:138	0
;L:139	0
;L:140	0
;L:141	0
;L:142	0
;L:143	0
;L:144	0
;L:145	0
;L:146	0
;L:147	0
;L:148	0
;L:149	0
;L:150	0
;L:151	0
;L:152	0
;L:153	0
;L:154	0
;L:155	0
;L:156	0
;L:157	0
;L:158	0
;L:159	0
;L:160	0
;L:161	0
;L:162	0
;L:163	0
;L:164	0
;L:165	0
;L:166	0
;L:167	0
;L:168	0
;L:169	0
;L:170	0
;L:171	0
;L:172	0
;L:173	0
;L:174	0
;L:175	0
;L:176	0
;L:177	0
;L:178	0
;L:179	0
;L:180	0
;L:181	0
;L:182	0
;L:183	0
;L:184	0
;L:185	0
;L:186	0
;L:187	0
;L:188	0
;L:189	0
;L:190	0
;L:191	0
;L:192	0
;I:0	0
;I:1	0
;I:2	0
;I:3	0
;I:4	0
;I:5	0
;I:6	0
;I:7	0
;I:8	0
;I:9	0
;I:10	0
;I:11	0
;I:12	0
;I:13	0
;I:14	0
;I:15	0
;I:16	0
;I:17	0
;I:18	0
;I:19	0
;I:20	0
;I:21	0
;I:22	0
;I:23	0
;I:24	0
;I:25	0
;I:26	0
;I:27	0
;I:28	0
;I:29	0
;I:30	0
;I:31	0
;I:32	0
;I:33	0
;I:34	0
;I:35	0
;I:36	0
;I:37	0
;I:38	0
;I:39	0
;I:40	0
;I:41	0
;I:42	0
;I:43	0
;I:44	0
;I:45	0
;I:46	0
;I:47	0
;I:48	0
;I:49	0
;I:50	0
;I:51	0
;I:52	0
;I:53	0
;I:54	0
;I:55	0
;I:56	0
;I:57	0
;I:58	0
;I:59	0
;I:60	0
;I:61	0
;I:62	0
;I:63	0
;I:64	0
;I:65	0
;I:66	0
;I:67	0
;I:68	0
;I:69	0
;I:70	0
;I:71	0
;I:72	0
;I:73	0
;I:74	0
;I:75	0
;I:76	0
;I:77	0
;I:78	0
;I:79	0
;I:80	0
;I:81	0
;I:82	0
;I:83	0
;I:84	0
;I:85	0
;I:86	0
;I:87	0
;I:88	0
;I:89	0
;I:90	0
;I:91	0
;I:92	0
;I:93	0
;I:94	0
;I:95	0
;I:96	0
;I:97	0
;I:98	0
;I:99	0
;I:100	0
;I:101	0
;I:102	0
;I:103	0
;I:104	0
;I:105	0
;I:106	0
;I:107	0
;I:108	0
;I:109	0
;I:110	0
;I:111	0
;I:112	0
;I:113	0
;I:114	0
;I:115	0
;I:116	0
;I:117	0
;I:118	0
;I:119	0
;I:120	0
;I:121	0
;I:122	0
;I:123	0
;I:124	0
;I:125	0
;I:126	0
;I:127	0
;I:128	0
;I:129	0
;I:130	0
;I:131	0
;I:132	0
;I:133	0
;I:134	0
;I:135	0
;I:136	0
;I:137	0
;I:138	0
;I:139	0
;I:140	0
;I:141	0
;I:142	0
;I:143	0
;I:144	0
;I:145	0
;I:146	0
;I:147	0
;I:148	0
;I:149	0
;I:150	0
;I:151	0
;I:152	0
;I:153	0
;I:154	0
;I:155	0
;I:156	0
;I:157	0
;I:158	0
;I:159	0
;I:160	0
;I:161	0
;I:162	0
;I:163	0
;I:164	0
;I:165	0
;I:166	0
;I:167	0
;I:168	0
;I:169	0
;I:170	0
;I:171	0
;I:172	0
;I:173	0
;I:174	0
;I:175	0
;I:176	0
;I:177	0
;I:178	0
;I:179	0
;I:180	0
;I:181	0
;I:182	0
;I:183	0
;I:184	0
;I:185	0
;I:186	0
;I:187	0
;I:188	0
;I:189	0
;I:190	0
;I:191	0
;I:192	0
;I:193	0
;I:194	0
;I:195	0
;I:196	0
;I:197	0
;I:198	0
;I:199	0
;I:200	0
;I:201	0
;I:202	0
;I:203	0
;I:204	0
;I:205	0
;I:206	0
;I:207	0
;I:208	0
;I:209	0
;I:210	0
;I:211	0
;I:212	0
;I:213	0
;I:214	0
;I:215	0
;I:216	0
;I:217	0
;I:218	0
;I:219	0
;I:220	0
;I:221	0
;I:222	0
;I:223	0
;I:224	0
;I:225	0
;I:226	0
;I:227	0
;I:228	0
;I:229	0
;I:230	0
;I:231	0
;I:232	0
;I:233	0
;I:234	0
;I:235	0
;I:236	0
;I:237	0
;I:238	0
;I:239	0
;I:240	0
;I:241	0
;I:242	0
;I:243	0
;I:244	0
;I:245	0
;I:246	0
;I:247	0
;I:248	0
;I:249	0
;I:250	0
;I:251	0
;I:252	0
;I:253	0
;I:254	0
;I:255	0
;I:256	0
;I:257	0
;R:1	0
;R:2	0
;R:3	0
;R:4	0
;R:5	0
;R:6	0
;R:7	0
;R:8	0
;R:9	0
;R:10	0
;R:11	0
;R:12	0
;R:13	0
;R:14	0
;R:15	0
;R:16	0
;R:17	0
;R:18	0
;R:19	0
;R:20	0
;R:21	0
;R:22	0
;R:23	0
;R:24	0
;R:25	0
;R:26	0
;R:27	0
;R:28	0
;R:29	0
;R:30	0
;R:31	0
;R:32	0
;R:33	0
;R:34	0
;R:35	0
;R:36	0
;R:37	0
;R:38	0
;R:39	0
;R:40	0
;R:41	0
;R:42	0
;R:43	0
;R:44	0
;R:45	0
;R:46	0
;R:47	0
;R:48	0
;R:49	0
;R:50	0
;R:51	0
;R:52	0
;R:53	0
;R:54	0
;R:55	0
;R:56	0
;R:57	0
;R:58	0
;R:59	0
;R:60	0
;R:61	0
;R:62	0
;R:63	0
;<extra_id_0>	0
;<extra_id_1>	0
;<extra_id_2>	0
;<extra_id_3>	0
;<extra_id_4>	0
;<extra_id_5>	0
;<extra_id_6>	0
;<extra_id_7>	0
;<extra_id_8>	0
;<extra_id_9>	0
;<extra_id_10>	0
;<extra_id_11>	0
;<extra_id_12>	0
;<extra_id_13>	0
;<extra_id_14>	0
;<extra_id_15>	0
;<extra_id_16>	0
;<extra_id_17>	0
;<extra_id_18>	0
;<extra_id_19>	0
;<extra_id_20>	0
;<extra_id_21>	0
;<extra_id_22>	0
;<extra_id_23>	0
;<extra_id_24>	0
;<extra_id_25>	0
;<extra_id_26>	0
;<extra_id_27>	0
;<extra_id_28>	0
;<extra_id_29>	0
;<extra_id_30>	0
;<extra_id_31>	0
;<extra_id_32>	0
;<extra_id_33>	0
;<extra_id_34>	0
;<extra_id_35>	0
;<extra_id_36>	0
;<extra_id_37>	0
;<extra_id_38>	0
;<extra_id_39>	0
;<extra_id_40>	0
;<extra_id_41>	0
;<extra_id_42>	0
;<extra_id_43>	0
;<extra_id_44>	0
;<extra_id_45>	0
;<extra_id_46>	0
;<extra_id_47>	0
;<extra_id_48>	0
;<extra_id_49>	0
;<extra_id_50>	0
;<extra_id_51>	0
;<extra_id_52>	0
;<extra_id_53>	0
;<extra_id_54>	0
;<extra_id_55>	0
;<extra_id_56>	0
;<extra_id_57>	0
;<extra_id_58>	0
;<extra_id_59>	0
;<extra_id_60>	0
;<extra_id_61>	0
;<extra_id_62>	0
;<extra_id_63>	0
;<extra_id_64>	0
;<extra_id_65>	0
;<extra_id_66>	0
;<extra_id_67>	0
;<extra_id_68>	0
;<extra_id_69>	0
;<extra_id_70>	0
;<extra_id_71>	0
;<extra_id_72>	0
;<extra_id_73>	0
;<extra_id_74>	0
;<extra_id_75>	0
;<extra_id_76>	0
;<extra_id_77>	0
;<extra_id_78>	0
;<extra_id_79>	0
;<extra_id_80>	0
;<extra_id_81>	0
;<extra_id_82>	0
;<extra_id_83>	0
;<extra_id_84>	0
;<extra_id_85>	0
;<extra_id_86>	0
;<extra_id_87>	0
;<extra_id_88>	0
;<extra_id_89>	0
;<extra_id_90>	0
;<extra_id_91>	0
;<extra_id_92>	0
;<extra_id_93>	0
;<extra_id_94>	0
;<extra_id_95>	0
;<extra_id_96>	0
;<extra_id_97>	0
;<extra_id_98>	0
;<extra_id_99>	0
;<extra_id_100>	0
;<extra_id_101>	0
;<extra_id_102>	0
;<extra_id_103>	0
;<extra_id_104>	0
;<extra_id_105>	0
;<extra_id_106>	0
;<extra_id_107>	0
;<extra_id_108>	0
;<extra_id_109>	0
;<extra_id_110>	0
;<extra_id_111>	0
;<extra_id_112>	0
;<extra_id_113>	0
;<extra_id_114>	0
;<extra_id_115>	0
;<extra_id_116>	0
;<extra_id_117>	0
;<extra_id_118>	0
;<extra_id_119>	0
;<extra_id_120>	0
;<extra_id_121>	0
;<extra_id_122>	0
;<extra_id_123>	0
;<extra_id_124>	0
;<extra_id_125>	0
;<extra_id_126>	0
;<extra_id_127>	0
;<extra_id_128>	0
;<extra_id_129>	0
;<extra_id_130>	0
;<extra_id_131>	0
;<extra_id_132>	0
;<extra_id_133>	0
;<extra_id_134>	0
;<extra_id_135>	0
;<extra_id_136>	0
;<extra_id_137>	0
;<extra_id_138>	0
;<extra_id_139>	0
;<extra_id_140>	0
;<extra_id_141>	0
;<extra_id_142>	0
;<extra_id_143>	0
;<extra_id_144>	0
;<extra_id_145>	0
;<extra_id_146>	0
;<extra_id_147>	0
;<extra_id_148>	0
;<extra_id_149>	0
;<extra_id_150>	0
;<extra_id_151>	0
;<extra_id_152>	0
;<extra_id_153>	0
;<extra_id_154>	0
;<extra_id_155>	0
;<extra_id_156>	0
;<extra_id_157>	0
;<extra_id_158>	0
;<extra_id_159>	0
;<extra_id_160>	0
;<extra_id_161>	0
;<extra_id_162>	0
;<extra_id_163>	0
;<extra_id_164>	0
;<extra_id_165>	0
;<extra_id_166>	0
;<extra_id_167>	0
;<extra_id_168>	0
;<extra_id_169>	0
;<extra_id_170>	0
;<extra_id_171>	0
;<extra_id_172>	0
;<extra_id_173>	0
;<extra_id_174>	0
;<extra_id_175>	0
;<extra_id_176>	0
;<extra_id_177>	0
;<extra_id_178>	0
;<extra_id_179>	0
;<extra_id_180>	0
;<extra_id_181>	0
;<extra_id_182>	0
;<extra_id_183>	0
;<extra_id_184>	0
;<extra_id_185>	0
;<extra_id_186>	0
;<extra_id_187>	0
;<extra_id_188>	0
;<extra_id_189>	0
;<extra_id_190>	0
;<extra_id_191>	0
;<extra_id_192>	0
;<extra_id_193>	0
;<extra_id_194>	0
;<extra_id_195>	0
;<extra_id_196>	0
;<extra_id_197>	0
;<extra_id_198>	0
;<extra_id_199>	0
;<extra_id_200>	0
;<extra_id_201>	0
;<extra_id_202>	0
;<extra_id_203>	0
;<extra_id_204>	0
;<extra_id_205>	0
;<extra_id_206>	0
;<extra_id_207>	0
;<extra_id_208>	0
;<extra_id_209>	0
;<extra_id_210>	0
;<extra_id_211>	0
;<extra_id_212>	0
;<extra_id_213>	0
;<extra_id_214>	0
;<extra_id_215>	0
;<extra_id_216>	0
;<extra_id_217>	0
;<extra_id_218>	0
;<extra_id_219>	0
;<extra_id_220>	0
;<extra_id_221>	0
;<extra_id_222>	0
;<extra_id_223>	0
;<extra_id_224>	0
;<extra_id_225>	0
;<extra_id_226>	0
;<extra_id_227>	0
;<extra_id_228>	0
;<extra_id_229>	0
;<extra_id_230>	0
;<extra_id_231>	0
;<extra_id_232>	0
;<extra_id_233>	0
;<extra_id_234>	0
;<extra_id_235>	0
;<extra_id_236>	0
;<extra_id_237>	0
;<extra_id_238>	0
;<extra_id_239>	0
;<extra_id_240>	0
;<extra_id_241>	0
;<extra_id_242>	0
;<extra_id_243>	0
;<extra_id_244>	0
;<extra_id_245>	0
;<extra_id_246>	0
;<extra_id_247>	0
;<extra_id_248>	0
;<extra_id_249>	0
;<extra_id_250>	0
;<extra_id_251>	0
;<extra_id_252>	0
;<extra_id_253>	0
;<extra_id_254>	0
;<extra_id_255>	0
;<mono>	0
;<poly>	0
;<instruction_0>	0
;<instruction_1>	0
;<instruction_2>	0
;<instruction_3>	0
;<instruction_4>	0
;<instruction_5>	0
;<instruction_6>	0
;<instruction_7>	0
;<instruction_8>	0
;<instruction_9>	0
;<instruction_10>	0
;<instruction_11>	0
;<instruction_12>	0
;<instruction_13>	0
;<instruction_14>	0
;<instruction_15>	0
;<instruction_16>	0
;<instruction_17>	0
;<instruction_18>	0
;<instruction_19>	0
;<instruction_20>	0
;<instruction_21>	0
;<instruction_22>	0
;<instruction_23>	0
;<instruction_24>	0
;<instruction_25>	0
;<instruction_26>	0
;<instruction_27>	0
;<instruction_28>	0
;<instruction_29>	0
;<instruction_30>	0
;<instruction_31>	0
;<instruction_32>	0
;<instruction_33>	0
;<instruction_34>	0
;<instruction_35>	0
;<instruction_36>	0
;<instruction_37>	0
;<instruction_38>	0
;<instruction_39>	0
;<instruction_40>	0
;<instruction_41>	0
;<instruction_42>	0
;<instruction_43>	0
;<instruction_44>	0
;<instruction_45>	0
;<instruction_46>	0
;<instruction_47>	0
;<instruction_48>	0
;<instruction_49>	0
;<instruction_50>	0
;<instruction_51>	0
;<instruction_52>	0
;<instruction_53>	0
;<instruction_54>	0
;<instruction_55>	0
;<instruction_56>	0
;<instruction_57>	0
;<instruction_58>	0
;<instruction_59>	0
;<instruction_60>	0
;<instruction_61>	0
;<instruction_62>	0
;<instruction_63>	0
;<instruction_64>	0
;<instruction_65>	0
;<instruction_66>	0
;<instruction_67>	0
;<instruction_68>	0
;<instruction_69>	0
;<instruction_70>	0
;<instruction_71>	0
;<instruction_72>	0
;<instruction_73>	0
;<instruction_74>	0
;<instruction_75>	0
;<instruction_76>	0
;<instruction_77>	0
;<instruction_78>	0
;<instruction_79>	0
;<instruction_80>	0
;<instruction_81>	0
;<instruction_82>	0
;<instruction_83>	0
;<instruction_84>	0
;<instruction_85>	0
;<instruction_86>	0
;<instruction_87>	0
;<instruction_88>	0
;<instruction_89>	0
;<instruction_90>	0
;<instruction_91>	0
;<instruction_92>	0
;<instruction_93>	0
;<instruction_94>	0
;<instruction_95>	0
;<instruction_96>	0
;<instruction_97>	0
;<instruction_98>	0
;<instruction_99>	0
;<instruction_100>	0
;<instruction_101>	0
;<instruction_102>	0
;<instruction_103>	0
;<instruction_104>	0
;<instruction_105>	0
;<instruction_106>	0
;<instruction_107>	0
;<instruction_108>	0
;<instruction_109>	0
;<instruction_110>	0
;<instruction_111>	0
;<instruction_112>	0
;<instruction_113>	0
;<instruction_114>	0
;<instruction_115>	0
;<instruction_116>	0
;<instruction_117>	0
;<instruction_118>	0
;<instruction_119>	0
;<instruction_120>	0
;<instruction_121>	0
;<instruction_122>	0
;<instruction_123>	0
;<instruction_124>	0
;<instruction_125>	0
;<instruction_126>	0
;<instruction_127>	0
;<instruction_128>	0
;<instruction_129>	0
;<instruction_130>	0
;<instruction_131>	0
;<instruction_132>	0
;<instruction_133>	0
;<instruction_134>	0
;<instruction_135>	0
;<instruction_136>	0
;<instruction_137>	0
;<instruction_138>	0
;<instruction_139>	0
;<instruction_140>	0
;<instruction_141>	0
;<instruction_142>	0
;<instruction_143>	0
;<instruction_144>	0
;<instruction_145>	0
;<instruction_146>	0
;<instruction_147>	0
;<instruction_148>	0
;<instruction_149>	0
;<instruction_150>	0
;<instruction_151>	0
;<instruction_152>	0
;<instruction_153>	0
;<instruction_154>	0
;<instruction_155>	0
;<instruction_156>	0
;<instruction_157>	0
;<instruction_158>	0
;<instruction_159>	0
;<instruction_160>	0
;<instruction_161>	0
;<instruction_162>	0
;<instruction_163>	0
;<instruction_164>	0
;<instruction_165>	0
;<instruction_166>	0
;<instruction_167>	0
;<instruction_168>	0
;<instruction_169>	0
;<instruction_170>	0
;<instruction_171>	0
;<instruction_172>	0
;<instruction_173>	0
;<instruction_174>	0
;<instruction_175>	0
;<instruction_176>	0
;<instruction_177>	0
;<instruction_178>	0
;<instruction_179>	0
;<instruction_180>	0
;<instruction_181>	0
;<instruction_182>	0
;<instruction_183>	0
;<instruction_184>	0
;<instruction_185>	0
;<instruction_186>	0
;<instruction_187>	0
;<instruction_188>	0
;<instruction_189>	0
;<instruction_190>	0
;<instruction_191>	0
;<instruction_192>	0
;<instruction_193>	0
;<instruction_194>	0
;<instruction_195>	0
;<instruction_196>	0
;<instruction_197>	0
;<instruction_198>	0
;<instruction_199>	0
;<instruction_200>	0
;<instruction_201>	0
;<instruction_202>	0
;<instruction_203>	0
;<instruction_204>	0
;<instruction_205>	0
;<instruction_206>	0
;<instruction_207>	0
;<instruction_208>	0
;<instruction_209>	0
;<instruction_210>	0
;<instruction_211>	0
;<instruction_212>	0
;<instruction_213>	0
;<instruction_214>	0
;<instruction_215>	0
;<instruction_216>	0
;<instruction_217>	0
;<instruction_218>	0
;<instruction_219>	0
;<instruction_220>	0
;<instruction_221>	0
;<instruction_222>	0
;<instruction_223>	0
;<instruction_224>	0
;<instruction_225>	0
;<instruction_226>	0
;<instruction_227>	0
;<instruction_228>	0
;<instruction_229>	0
;<instruction_230>	0
;<instruction_231>	0
;<instruction_232>	0
;<instruction_233>	0
;<instruction_234>	0
;<instruction_235>	0
;<instruction_236>	0
;<instruction_237>	0
;<instruction_238>	0
;<instruction_239>	0
;<instruction_240>	0
;<instruction_241>	0
;<instruction_242>	0
;<instruction_243>	0
;<instruction_244>	0
;<instruction_245>	0
;<instruction_246>	0
;<instruction_247>	0
;<instruction_248>	0
;<instruction_249>	0
;<instruction_250>	0
;<instruction_251>	0
;<instruction_252>	0
;<instruction_253>	0
;<instruction_254>	0
;<instruction_255>	0
;<instruction_256>	0
;<instruction_257>	0
;<instruction_258>	0
;<instruction_259>	0
;<instruction_260>	0
;<instruction_261>	0
;<instruction_262>	0
;<instruction_263>	0
;<instruction_264>	0
;<instruction_265>	0
;<instruction_266>	0
;<instruction_267>	0
;<instruction_268>	0
;<instruction_269>	0
;<instruction_270>	0
;<instruction_271>	0
;<instruction_272>	0
;<instruction_273>	0
;<instruction_274>	0
;<instruction_275>	0
;<instruction_276>	0
;<instruction_277>	0
;<instruction_278>	0
;<instruction_279>	0
;<instruction_280>	0
;<instruction_281>	0
;<instruction_282>	0
;<instruction_283>	0
;<instruction_284>	0
;<instruction_285>	0
;<instruction_286>	0
;<instruction_287>	0
;<instruction_288>	0
;<instruction_289>	0
;<instruction_290>	0
;<instruction_291>	0
;<instruction_292>	0
;<instruction_293>	0
;<instruction_294>	0
;<instruction_295>	0
;<instruction_296>	0
;<instruction_297>	0
;<instruction_298>	0
;<instruction_299>	0
;<instruction_300>	0
;<instruction_301>	0
;<instruction_302>	0
;<instruction_303>	0
;<instruction_304>	0
;<instruction_305>	0
;<instruction_306>	0
;<instruction_307>	0
;<instruction_308>	0
;<instruction_309>	0
;<instruction_310>	0
;<instruction_311>	0
;<instruction_312>	0
;<instruction_313>	0
;<instruction_314>	0
;<instruction_315>	0
;<instruction_316>	0
;<instruction_317>	0
;<instruction_318>	0
;<instruction_319>	0
;<instruction_320>	0
;<instruction_321>	0
;<instruction_322>	0
;<instruction_323>	0
;<instruction_324>	0
;<instruction_325>	0
;<instruction_326>	0
;<instruction_327>	0
;<instruction_328>	0
;<instruction_329>	0
;<instruction_330>	0
;<instruction_331>	0
;<instruction_332>	0
;<instruction_333>	0
;<instruction_334>	0
;<instruction_335>	0
;<instruction_336>	0
;<instruction_337>	0
;<instruction_338>	0
;<instruction_339>	0
;<instruction_340>	0
;<instruction_341>	0
;<instruction_342>	0
;<instruction_343>	0
;<instruction_344>	0
;<instruction_345>	0
;<instruction_346>	0
;<instruction_347>	0
;<instruction_348>	0
;<instruction_349>	0
;<instruction_350>	0
;<instruction_351>	0
;<instruction_352>	0
;<instruction_353>	0
;<instruction_354>	0
;<instruction_355>	0
;<instruction_356>	0
;<instruction_357>	0
;<instruction_358>	0
;<instruction_359>	0
;<instruction_360>	0
;<instruction_361>	0
;<instruction_362>	0
;<instruction_363>	0
;<instruction_364>	0
;<instruction_365>	0
;<instruction_366>	0
;<instruction_367>	0
;<instruction_368>	0
;<instruction_369>	0
;<instruction_370>	0
;<instruction_371>	0
;<instruction_372>	0
;<instruction_373>	0
;<instruction_374>	0
;<instruction_375>	0
;<instruction_376>	0
;<instruction_377>	0
;<instruction_378>	0
;<instruction_379>	0
;<instruction_380>	0
;<instruction_381>	0
;<instruction_382>	0
;<instruction_383>	0
;<instruction_384>	0
;<instruction_385>	0
;<instruction_386>	0
;<instruction_387>	0
;<instruction_388>	0
;<instruction_389>	0
;<instruction_390>	0
;<instruction_391>	0
;<instruction_392>	0
;<instruction_393>	0
;<instruction_394>	0
;<instruction_395>	0
;<instruction_396>	0
;<instruction_397>	0
;<instruction_398>	0
;<instruction_399>	0
;<instruction_400>	0
;<instruction_401>	0
;<instruction_402>	0
;<instruction_403>	0
;<instruction_404>	0
;<instruction_405>	0
;<instruction_406>	0
;<instruction_407>	0
;<instruction_408>	0
;<instruction_409>	0
;<instruction_410>	0
;<instruction_411>	0
;<instruction_412>	0
;<instruction_413>	0
;<instruction_414>	0
;<instruction_415>	0
;<instruction_416>	0
;<instruction_417>	0
;<instruction_418>	0
;<instruction_419>	0
;<instruction_420>	0
;<instruction_421>	0
;<instruction_422>	0
;<instruction_423>	0
;<instruction_424>	0
;<instruction_425>	0
;<instruction_426>	0
;<instruction_427>	0
;<instruction_428>	0
;<instruction_429>	0
;<instruction_430>	0
;<instruction_431>	0
;<instruction_432>	0
;<instruction_433>	0
;<instruction_434>	0
;<instruction_435>	0
;<instruction_436>	0
;<instruction_437>	0
;<instruction_438>	0
;<instruction_439>	0
;<instruction_440>	0
;<instruction_441>	0
;<instruction_442>	0
;<instruction_443>	0
;<instruction_444>	0
;<instruction_445>	0
;<instruction_446>	0
;<instruction_447>	0
;<instruction_448>	0
;<instruction_449>	0
;<instruction_450>	0
;<instruction_451>	0
;<instruction_452>	0
;<instruction_453>	0
;<instruction_454>	0
;<instruction_455>	0
;<instruction_456>	0
;<instruction_457>	0
;<instruction_458>	0
;<instruction_459>	0
;<instruction_460>	0
;<instruction_461>	0
;<instruction_462>	0
;<instruction_463>	0
;<instruction_464>	0
;<instruction_465>	0
;<instruction_466>	0
;<instruction_467>	0
;<instruction_468>	0
;<instruction_469>	0
;<instruction_470>	0
;<instruction_471>	0
;<instruction_472>	0
;<instruction_473>	0
;<instruction_474>	0
;<instruction_475>	0
;<instruction_476>	0
;<instruction_477>	0
;<instruction_478>	0
;<instruction_479>	0
;<instruction_480>	0
;<instruction_481>	0
;<instruction_482>	0
;<instruction_483>	0
;<instruction_484>	0
;<instruction_485>	0
;<instruction_486>	0
;<instruction_487>	0
;<instruction_488>	0
;<instruction_489>	0
;<instruction_490>	0
;<instruction_491>	0
;<instruction_492>	0
;<instruction_493>	0
;<instruction_494>	0
;<instruction_495>	0
;<instruction_496>	0
;<instruction_497>	0
;<instruction_498>	0
;<instruction_499>	0
;<instruction_500>	0
;<instruction_501>	0
;<instruction_502>	0
;<instruction_503>	0
;<instruction_504>	0
;<instruction_505>	0
;<instruction_506>	0
;<instruction_507>	0
;<instruction_508>	0
;<instruction_509>	0
;<instruction_510>	0
;<instruction_511>	0
;w:12	-3.90379
;w:6	-4.04332
;w:3	-4.55619
;w:4	-4.88548
;w:8	-4.94754
;w:2	-5.35497
;N:68	-5.47609
;N:69	-5.47947
;N:67	-5.48383
;N:70	-5.48905
;N:71	-5.50704
;N:66	-5.51984
;N:72	-5.5212
;w:16	-5.52768
;N:73	-5.54338
;N:65	-5.55539
;N:74	-5.59043
0	-5.59222
;N:64	-5.62396
2	-5.62579
;N:75	-5.6302
;N:63	-5.65332
;N:62	-5.69557
;w:9	-5.69766
;N:61	-5.72015
;N:76	-5.73028
;N:60	-5.78393
;N:77	-5.80092
;N:59	-5.81929
;N:58	-5.86938
4	-5.88373
8	-5.88873
;N:57	-5.90115
;N:78	-5.90269
6	-5.90618
;w:1	-5.91369
;N:56	-5.9298
;N:55	-5.93895
;N:54	-5.9779
;N:79	-5.99364
;w:5	-5.99487
;N:53	-6.02222
;N:80	-6.0604
;N:52	-6.07274
;N:51	-6.09638
3	-6.10012
;w:7	-6.13459
;N:50	-6.13541
;N:48	-6.1624
;N:49	-6.16883
;N:81	-6.19157
;w:15	-6.21998
7	-6.22016
;N:47	-6.23872
;N:82	-6.2729
;N:46	-6.273
;N:45	-6.31127
;N:83	-6.36223
;N:44	-6.38667
;w:12;N:59	-6.40006
;w:12;N:58	-6.42227
;w:12;N:63	-6.42355
;w:12;N:56	-6.42537
;w:12;N:55	-6.43009
;w:12;N:61	-6.43114
1	-6.4361
5	-6.43868
;w:12;N:62	-6.44237
;w:12;N:60	-6.44269
;w:12;N:57	-6.44309
;N:43	-6.45987
;w:12;N:54	-6.46082
;w:12;N:53	-6.47619
;w:12;N:64	-6.47752
;w:12;N:51	-6.48196
;w:12;N:65	-6.48454
9	-6.48629
;w:12;N:66	-6.4872
;N:84	-6.49627
;w:12;N:52	-6.51897
;w:12;N:50	-6.52166
;N:42	-6.5279
;w:12;N:67	-6.53297
;w:12;N:68	-6.54274
;w:12;N:48	-6.5536
;N:85	-6.55529
;w:12;N:49	-6.56869
;N:41	-6.57751
;w:12;N:69	-6.59019
;w:12;N:47	-6.6139
;w:12;N:70	-6.64563
;N:40	-6.64774
;w:12;N:46	-6.668
;N:86	-6.68561
;w:12;N:71	-6.69283
;N:38	-6.69695
;w:12;N:45	-6.69776
;N:39	-6.70223
;w:12;N:44	-6.74414
;N:87	-6.74801
;w:12;N:72	-6.75687
;w:12;N:43	-6.75847
;w:12;N:42	-6.8032
;w:6;N:66	-6.80545
;w:6;N:62	-6.81458
;N:88	-6.82382
;w:6;N:67	-6.83171
;w:6;N:61	-6.83362
;w:12;N:73	-6.8339
;w:6;N:65	-6.84421
;w:6;N:64	-6.85275
;N:37	-6.85532
;w:6;N:63	-6.85658
;w:12;N:41	-6.86382
;w:6;N:68	-6.86471
;w:6;N:60	-6.86484
;w:6;N:69	-6.87285
;D:36	-6.87776
;w:6;N:70	-6.88237
;w:12;N:74	-6.89046
;w:6;N:59	-6.90134
;D:36;D:42	-6.90457
;w:24;N:57	-6.90612
;N:36	-6.91491
;w:6;N:71	-6.91529
;w:12;N:40	-6.94332
;w:24;N:58	-6.9679
;w:6;N:58	-6.97208
;w:12;N:75	-6.98007
;w:24;N:59	-6.98043
;N:89	-6.98534
;w:24;N:56	-6.98549
;w:24;N:60	-6.98844
;w:24;N:55	-6.99276
;w:24;N:50	-6.99541
;w:6;N:57	-6.99773
;w:24;N:54	-6.99802
;w:24;N:49	-6.99836
;w:24;N:51	-7.01843
;w:6;N:56	-7.02498
;w:24;N:52	-7.02571
;w:24;N:53	-7.02677
;w:24;N:61	-7.02872
;w:12;N:39	-7.03828
;w:6;N:54	-7.04171
;w:24;N:62	-7.04517
;w:6;N:72	-7.04869
;w:6;N:55	-7.04959
;w:12;N:76	-7.06084
;w:6;N:73	-7.06426
;w:24;N:48	-7.07526
;w:6;N:53	-7.08294
;w:24;N:47	-7.08876
;w:24;N:45	-7.08996
;N:35	-7.09159
;N:90	-7.10145
;w:24;N:63	-7.10237
;w:6;N:52	-7.1056
;w:12;N:38	-7.12352
;w:24;N:68	-7.13157
;w:24;N:66	-7.13793
;w:12;N:77	-7.13855
;w:24;N:64	-7.14454
;w:24;N:46	-7.14975
;w:24;N:65	-7.15985
;w:24;N:67	-7.16106
;w:6;N:51	-7.16511
;w:24;N:69	-7.17364
;w:6;N:74	-7.17443
;w:6;N:50	-7.17693
;w:11	-7.19397
;w:6;N:49	-7.19417
;w:24;N:44	-7.19958
;w:24;N:43	-7.19982
;w:24;N:70	-7.20549
;w:6;N:75	-7.20765
;w:24;N:42	-7.21008
;w:10	-7.21344
;w:12;N:37	-7.24112
;w:6;N:48	-7.24574
;N:92	-7.24748
;N:34	-7.24916
;w:24;N:71	-7.25571
;w:6;N:47	-7.26137
;w:12;N:78	-7.27034
;w:24;N:41	-7.27036
;w:6;N:46	-7.27899
;w:6;N:45	-7.28026
;N:91	-7.28449
;w:24;N:40	-7.2971
;w:6;N:76	-7.29891
;w:24;N:72	-7.30755
;N:33	-7.31047
;w:24;N:73	-7.3123
;w:13	-7.35397
;w:6;N:44	-7.35524
;w:12;N:36	-7.36514
;w:12;N:79	-7.36632
;N:93	-7.36659
;w:24;N:39	-7.37969
;w:24;N:74	-7.38624
;w:6;N:43	-7.39135
;D:54	-7.40078
;w:6;N:77	-7.40129
;N:31	-7.40246
;w:24;N:75	-7.42522
;w:24;N:76	-7.42619
;w:12;N:80	-7.4275
;w:24;N:38	-7.42836
;D:49	-7.44395
;w:6;N:42	-7.4485
;N:32	-7.45299
;w:12;N:35	-7.45538
;w:24;N:77	-7.48127
;w:6;N:41	-7.49945
;w:6;N:78	-7.51702
;w:18;N:68	-7.53526
;D:51	-7.54101
;D:36;D:49	-7.54794
;w:6;N:40	-7.54879
;w:24;N:37	-7.54894
;w:24;N:78	-7.55738
;w:12;N:81	-7.55977
;w:12;N:34	-7.56648
;w:18;N:66	-7.56885
;N:94	-7.57719
;w:18;N:65	-7.5924
;w:18;N:67	-7.59797
;w:12;N:82	-7.59848
;w:18;N:63	-7.60193
;w:18;N:64	-7.61414
;w:18;N:69	-7.61779
;w:6;N:39	-7.61893
;w:18;N:61	-7.62063
;D:46	-7.62086
;w:24;N:36	-7.6234
;w:6;D:38	-7.63157
;D:53	-7.63216
;w:18;N:70	-7.63359
;D:76	-7.63565
;w:12;N:33	-7.63656
;w:6;N:79	-7.64089
;w:18;N:62	-7.64175
;w:18;N:71	-7.67451
;w:24;N:80	-7.68412
;w:6;N:38	-7.68458
;w:24;N:79	-7.69108
;D:69	-7.69137
;w:18;N:60	-7.69595
;N:30	-7.69669
;w:12;N:83	-7.69757
;w:18;N:72	-7.7078
;D:42	-7.71823
;w:24;N:35	-7.7243
;N:95	-7.72606
;w:14	-7.72667
;w:6;N:80	-7.74783
;w:18;N:59	-7.75515
;w:6;D:36	-7.75662
;N:29	-7.76839
;w:6;N:37	-7.77027
;w:24;N:81	-7.77316
;N:65;N:68	-7.7788
;N:65;N:69	-7.78308
;N:67;N:70	-7.79248
;w:18;N:56	-7.7945
;N:62;N:66	-7.80203
;w:6;N:81	-7.8042
;N:96	-7.8056
;D:52	-7.80592
;N:68;N:71	-7.81373
;w:6;N:36	-7.81908
;N:63;N:67	-7.81909
;w:18;N:73	-7.82008
;N:63;N:66	-7.82169
;N:66;N:69	-7.82173
;w:18;N:58	-7.8221
;w:24;N:83	-7.82342
;N:97	-7.82524
;N:64;N:67	-7.83079
;w:18;N:57	-7.83344
;w:18;N:74	-7.8403
;N:60;N:64	-7.8424
;w:24;N:82	-7.84702
;N:64;N:68	-7.84938
;N:61;N:65	-7.85057
;w:18;N:55	-7.85215
;w:12;N:32	-7.85228
;w:24;N:34	-7.85529
;w:18;N:75	-7.85755
;N:70;N:73	-7.86476
;N:62;N:65	-7.86642
;N:69;N:72	-7.86935
;w:36;N:65	-7.87094
;N:67;N:71	-7.87695
;N:71;N:74	-7.8791
;w:6;N:35	-7.88082
;N:28	-7.88947
;w:6;D:42	-7.89007
;N:66;N:70	-7.89311
;w:6;N:82	-7.90133
;N:72;N:75	-7.90298
;w:36;N:63	-7.90639
;w:36;N:62	-7.91307
;N:68;N:72	-7.91332
;N:61;N:64	-7.91452
;w:12;N:84	-7.91642
;w:36;N:66	-7.91666
;w:18;N:54	-7.91936
;w:36;N:67	-7.9208
;w:24;N:33	-7.92093
;w:36;N:64	-7.92277
;w:36;N:61	-7.92352
;w:24;N:84	-7.92792
;w:12;D:38	-7.92843
;w:36;N:69	-7.92985
;D:47	-7.93182
;N:69;N:73	-7.93537
;w:18;N:51	-7.94
;w:12;N:31	-7.94013
;w:36;N:68	-7.94254
;N:59;N:63	-7.94528
;w:36;N:70	-7.94733
;w:18;N:52	-7.94804
;D:70	-7.94923
;w:18;N:53	-7.95021
;w:18;N:50	-7.95704
;w:36;N:71	-7.95796
;N:99	-7.96912
;N:60;N:63	-7.9692
;D:48	-7.97424
;N:58;N:62	-7.97485
;N:73;N:76	-7.98823
;w:36;N:60	-7.99193
;w:36;N:59	-7.99508
;D:73	-7.99662
;w:18;N:77	-7.99724
;w:24;N:85	-7.99749
;w:6;D:38;D:42	-7.99799
;D:38	-8.00033
;w:18;N:76	-8.00605
;w:12;N:86	-8.01086
;N:57;N:61	-8.01394
;w:36;N:72	-8.01498
;D:43	-8.01708
;D:45	-8.01824
;N:98	-8.01939
;w:18;N:49	-8.02818
;N:70;N:74	-8.02927
;N:59;N:62	-8.03634
;D:36;D:38	-8.03639
;w:6;N:33	-8.04014
;w:8;N:50	-8.04437
;N:27	-8.04623
;D:50	-8.04848
;w:36;N:58	-8.06079
;w:6;N:34	-8.06294
;w:36;N:57	-8.07029
;w:6;N:83	-8.07068
;w:36;N:55	-8.07569
;w:36;N:73	-8.0808
;w:8;N:51	-8.0814
;w:36;N:54	-8.08314
;w:12;N:85	-8.08342
;N:100	-8.0924
;N:74;N:77	-8.09751
;N:58;N:61	-8.09772
;D:36;D:42;D:49	-8.09801
;w:36;N:53	-8.09865
;w:12;D:36	-8.10309
;w:36;N:56	-8.10399
;w:12;N:30	-8.11413
;D:56	-8.11419
;N:72;N:76	-8.11886
;w:36;N:52	-8.12915
;N:75;N:78	-8.12919
;w:8;N:49	-8.13984
;N:71;N:75	-8.14026
;w:8;N:55	-8.14271
;w:18;N:48	-8.14279
;w:36;N:74	-8.14479
;w:12;N:87	-8.1463
;w:24;N:32	-8.14921
;w:8;N:56	-8.1515
;w:6;D:36;D:42	-8.15528
;N:57;N:60	-8.15795
;w:18;N:78	-8.15836
;N:56;N:60	-8.15875
;N:66;N:71	-8.16363
;N:67;N:72	-8.16582
;N:61;N:66	-8.16671
;w:18;N:47	-8.16701
;w:24;N:86	-8.16809
;N:26	-8.16884
;N:56;N:59	-8.17015
;w:12;D:46	-8.17089
;w:8;N:48	-8.17303
;w:12;D:42	-8.18058
;N:63;N:68	-8.18557
;N:62;N:67	-8.18756
;w:36;N:51	-8.18901
;N:55;N:59	-8.19141
;N:58;N:63	-8.19157
;w:6;N:84	-8.1936
;w:24;N:87	-8.19889
;N:65;N:70	-8.19925
;N:73;N:77	-8.20682
;N:60;N:65	-8.2098
;w:24;D:36	-8.21247
;N:68;N:80	-8.21778
;w:18;N:79	-8.22394
;w:24;D:38	-8.22765
;w:36;N:75	-8.22823
;w:18;N:43	-8.22843
;w:36;N:50	-8.22941
;D:36;D:46	-8.23031
;w:18;N:44	-8.23242
;w:6;N:31	-8.23317
;N:59;N:64	-8.2333
;N:76;N:79	-8.2342
;w:18;N:45	-8.2369
;N:77;N:80	-8.23762
;w:18;N:41	-8.24846
;w:12;N:29	-8.24876
;w:18;N:46	-8.25047
;N:68;N:73	-8.25056
;N:55;N:58	-8.25261
;N:42;N:54	-8.25339
;w:24;N:31	-8.25384
;N:64;N:69	-8.25588
;N:57;N:62	-8.25627
;w:8;N:47	-8.2624
;N:66;N:78	-8.26246
;N:70;N:82	-8.26296
;N:101	-8.26526
;w:8;N:58	-8.26627
;N:69;N:81	-8.26979
;w:12;N:88	-8.27139
;N:67;N:79	-8.28652
;w:6;N:32	-8.28834
;N:55;N:60	-8.28912
;w:12;D:38;D:42	-8.2949
;N:65;N:77	-8.29665
;w:36;N:77	-8.29815
;w:36;N:49	-8.30533
;w:6;N:85	-8.3061
;N:41;N:53	-8.30738
;D:36;D:51	-8.31042
;w:18;N:40	-8.31783
;N:69;N:74	-8.31936
;w:36;N:48	-8.32062
;w:36;N:76	-8.32401
;N:74;N:78	-8.32626
;w:8;N:59	-8.32932
;N:39;N:51	-8.33157
;N:54;N:57	-8.33631
;w:24;N:88	-8.33871
;w:8;N:60	-8.33873
;w:8;N:64	-8.34759
;w:18;N:42	-8.34883
;w:12;N:28	-8.35256
;w:8;N:68	-8.35303
;w:24;D:42	-8.35507
;D:36;D:42;w:12;D:42	-8.35537
;w:48;N:61	-8.35906
;N:71;N:83	-8.36311
;N:40;N:52	-8.36414
;N:64;N:76	-8.36576
;N:58;N:62;N:65	-8.3668
;N:44;N:56	-8.36689
;w:16;N:59	-8.36702
;N:56;N:61	-8.36713
;N:102	-8.3673
;N:43;N:55	-8.36778
;N:62;N:66;N:69	-8.36958
;w:48;N:60	-8.37246
;w:36;N:47	-8.37278
;w:8;N:63	-8.37348
;N:63;N:75	-8.37793
;N:45;N:57	-8.37836
;N:38;N:50	-8.37908
;N:70;N:75	-8.37986
;w:48;N:69	-8.37991
;w:48;N:67	-8.38044
;w:8;N:67	-8.38112
;w:18;N:39	-8.38705
;w:8;N:65	-8.38719
;w:8;N:46	-8.38965
;w:8;N:54	-8.39
;w:12;N:89	-8.39635
;N:25	-8.39682
;N:60;N:64;N:67	-8.39895
;w:48;N:68	-8.39938
;w:36;N:78	-8.4003
;w:48;N:63	-8.40272
;w:16;N:61	-8.40386
;w:48;N:64	-8.40475
;N:62;N:74	-8.40497
;w:8;N:66	-8.40615
;w:8;N:62	-8.40618
;N:75;N:79	-8.40896
;w:16;N:57	-8.41378
;w:24;N:89	-8.41494
;N:54;N:58	-8.41999
;w:6;D:36;D:38;D:42	-8.42127
;w:48;N:65	-8.42303
;N:63;N:67;N:70	-8.42331
;N:61;N:73	-8.42536
;w:16;N:62	-8.42833
;N:73;N:85	-8.42963
;w:48;N:62	-8.43036
;w:48;N:66	-8.43085
;w:48;N:70	-8.43288
;w:8;N:45	-8.43469
;N:61;N:65;N:68	-8.43558
;w:16;N:58	-8.43902
;w:36;N:46	-8.44172
;w:6;N:30	-8.44457
;w:36;N:45	-8.44558
;w:6;D:38;D:46	-8.45016
;N:54;N:66	-8.45159
;N:72;N:84	-8.45192
;w:24;N:30	-8.45434
;w:12;N:27	-8.45459
;N:47;N:59	-8.45618
;w:8;N:57	-8.45922
;w:6;D:37	-8.46031
;N:78;N:81	-8.46271
;N:60;N:72	-8.46488
;N:73;N:78	-8.4669
;w:18;N:38	-8.46907
;N:53;N:57	-8.46992
;N:77;N:81	-8.4702
;w:3;N:62	-8.47068
;w:6;N:86	-8.47278
;N:59;N:63;N:66	-8.47342
;N:37;N:49	-8.47527
;N:59;N:71	-8.47636
;w:16;N:67	-8.47674
;w:3;N:65	-8.47723
;w:12;D:37	-8.47752
;w:8;N:53	-8.47759
;w:8;N:61	-8.4781
;N:48;N:60	-8.47843
;N:56;N:68	-8.47965
;w:48;N:57	-8.47969
;N:72;N:77	-8.48193
;N:51;N:63	-8.48279
;N:36;N:48	-8.48417
;N:46;N:58	-8.48456
;w:16;N:56	-8.48541
;N:52;N:64	-8.48632
;w:12;D:36;D:38	-8.48735
;N:103	-8.49038
;N:71;N:76	-8.49273
;N:54;N:59	-8.49526
;w:9;N:65	-8.49538
;w:48;N:71	-8.49552
;N:50;N:62	-8.49755
;D:41	-8.49817
;N:53;N:65	-8.5008
;w:6;D:46	-8.50466
;w:6;D:38;w:6;D:38	-8.50693
;w:36;N:44	-8.50894
;w:3;N:63	-8.51109
;N:49;N:61	-8.51206
;w:16;N:55	-8.5128
;w:18;N:37	-8.51385
;w:48;N:59	-8.51395
;w:16;N:63	-8.51919
;w:48;N:53	-8.51979
;w:8;N:44	-8.52059
;w:6;D:36;D:38	-8.52147
;w:48;N:56	-8.52209
;N:53;N:56	-8.52304
;N:78;N:82	-8.52587
;w:48;N:73	-8.52615
;w:16;N:64	-8.52621
;N:64;N:68;N:71	-8.52704
;w:8;N:52	-8.52797
;w:8;N:43	-8.52825
;w:36;N:43	-8.53012
;N:57;N:61;N:64	-8.53045
;N:57;N:69	-8.5309
;w:9;N:63	-8.53217
;w:9;N:59	-8.53298
;N:80;N:83	-8.53346
;N:35;N:47	-8.53411
;N:55;N:67	-8.53998
;w:9;N:64	-8.54002
;w:48;N:72	-8.54011
;w:16;N:68	-8.54046
;w:3;N:64	-8.54177
;N:59;N:66	-8.54259
;w:8;N:69	-8.54325
;w:36;N:79	-8.54362
;w:24;N:29	-8.54473
;N:79;N:82	-8.54587
;N:74;N:86	-8.5461
;w:6;D:42;w:6;D:42	-8.54824
;w:9;N:60	-8.54952
;N:58;N:70	-8.55461
;w:9;N:68	-8.55571
;w:9;N:69	-8.55986
;N:66;N:70;N:73	-8.5601
;N:75;N:87	-8.56174
;w:48;N:58	-8.5619
;w:18;N:80	-8.56254
;w:48;N:55	-8.56314
;w:9;N:61	-8.56351
;w:3;N:54	-8.56356
;w:9;N:67	-8.56524
;w:18;N:36	-8.56857
;w:6;N:29	-8.56877
;D:39	-8.56921
;w:9;N:62	-8.57196
;N:76;N:80	-8.57238
;w:16;N:54	-8.57476
;w:6;N:87	-8.57765
;w:16;N:69	-8.57892
;w:9;N:66	-8.58027
;N:24	-8.58374
;D:37	-8.58393
;N:75;N:80	-8.58411
;w:48;N:52	-8.58533
;N:74;N:79	-8.58622
;w:3;N:58	-8.58629
;D:38;D:42	-8.58706
;w:3;N:61	-8.58748
;w:9;N:70	-8.58796
;N:53;N:58	-8.58973
;w:12;N:26	-8.5934
;w:12;D:36;D:42	-8.59475
;N:56;N:60;N:63	-8.59584
;w:36;N:42	-8.59857
;N:58;N:65	-8.59949
;w:3;N:66	-8.60181
;w:8;N:70	-8.60356
;w:48;N:74	-8.60405
;N:52;N:55	-8.60477
;N:57;N:64	-8.60615
;N:34;N:46	-8.60736
;N:52;N:56	-8.60783
;w:42;N:6	-8.609
;w:72;N:5	-8.61014
;w:48;N:54	-8.61251
;w:36;N:41	-8.61352
;w:8;N:42	-8.61352
;N:56;N:63	-8.61481
;w:16;N:53	-8.61567
;w:3;N:60	-8.61592
;w:3;N:67	-8.61777
;N:104	-8.61872
;N:59;N:64;N:68	-8.61901
;w:6;N:88	-8.62049
;w:8;N:71	-8.6255
;w:20;N:6	-8.62989
;N:55;N:62	-8.632
;w:36;N:80	-8.63213
;w:3;N:59	-8.63335
;N:55;N:59;N:62	-8.63515
;D:48;D:50	-8.63835
;N:57;N:62;N:66	-8.63915
;N:59;N:62;N:67	-8.64263
;w:6;D:42;w:6;D:46	-8.64412
;w:12;D:36;D:46	-8.64413
;N:60;N:65;N:69	-8.64701
;N:62;N:69	-8.64979
;D:38;D:49	-8.65252
;w:27;N:6	-8.65591
;w:8;N:40	-8.65702
;w:48;N:51	-8.65741
;N:61;N:66;N:70	-8.65876
;N:54;N:61	-8.65984
;w:48;N:75	-8.6614
;w:16;N:52	-8.66326
;N:76;N:88	-8.66455
;w:3;N:68	-8.6664
;N:52;N:57	-8.66714
;w:24;N:90	-8.66987
;N:53;N:57;N:60	-8.67023
;w:3;N:52	-8.67099
;N:60;N:67	-8.67166
;w:18;N:35	-8.67179
;D:36;D:38;D:49	-8.6719
;w:3;N:53	-8.67511
;N:65;N:69;N:72	-8.67604
;w:18;N:81	-8.67604
;w:12;D:36;D:38;D:42	-8.67638
;N:54;N:58;N:61	-8.67681
;w:9;N:58	-8.67752
;N:76;N:81	-8.67863
;N:56;N:61;N:65	-8.67881
;w:3;N:55	-8.68289
;w:6;N:28	-8.68883
;w:12;N:90	-8.69155
;w:36;N:40	-8.69335
;w:12;N:68;w:12;N:68	-8.69368
;w:12;N:64;N:67	-8.69424
;w:9;N:71	-8.69595
;w:36;N:81	-8.69709
;w:12;N:42;N:54	-8.69763
;w:48;N:50	-8.6978
;N:61;N:68	-8.69844
;N:33;N:45	-8.69868
;w:72;N:7	-8.70168
;w:12;N:65;w:12;N:65	-8.70187
;N:53;N:60	-8.70259
;w:24;N:28	-8.70333
;w:12;N:61;N:64	-8.70378
;w:12;N:66;w:12;N:66	-8.70652
;N:54;N:59;N:63	-8.70835
;w:12;N:43;N:55	-8.70848
;w:36;N:82	-8.71036
;N:60;N:63;N:68	-8.71225
;w:12;N:44;N:56	-8.71298
;N:81;N:84	-8.71393
;w:3;N:57	-8.71476
;w:12;D:38;D:46	-8.71604
;N:58;N:63;N:67	-8.72259
;N:63;N:70	-8.72299
;w:12;N:66;N:69	-8.7278
;w:12;N:65;N:68	-8.72823
;w:12;N:70;w:12;N:70	-8.72875
;D:53;D:54	-8.72913
;N:67;N:71;N:74	-8.7294
;w:15;N:59	-8.73028
;N:77;N:82	-8.73098
;D:36;D:38;D:42	-8.73098
;w:3;N:56	-8.73152
;w:12;N:67;w:12;N:67	-8.7316
;w:8;N:72	-8.73425
;w:12;N:63;N:66	-8.73594
;w:12;N:91	-8.73733
;N:57;N:60;N:65	-8.73903
;N:62;N:67;N:71	-8.7411
;w:9;N:57	-8.74117
;N:64;N:71	-8.74125
;w:16;N:51	-8.74171
;w:12;N:62;N:65	-8.74382
;w:12;N:41;N:53	-8.74574
;w:8;N:41	-8.74597
;D:51;D:54	-8.74608
;w:16;N:60	-8.74632
;w:12;N:45;N:57	-8.74653
;w:6;D:37;D:42	-8.74653
;w:12;N:40;N:52	-8.74725
;w:16;N:50	-8.7475
;w:15;N:61	-8.74996
;w:18;N:34	-8.75292
;N:23	-8.75326
;w:12;N:64;w:12;N:64	-8.75467
;w:12;N:63;w:12;N:63	-8.75844
;N:78;N:90	-8.75899
;N:79;N:83	-8.75939
;w:18;D:38	-8.75947
;w:12;N:48;N:60	-8.7595
;N:58;N:61;N:66	-8.76031
;w:12;N:46;N:58	-8.76195
;N:56;N:59;N:64	-8.76242
;w:3;N:69	-8.76311
;w:16;N:70	-8.76355
;w:9;N:56	-8.7636
;w:15;N:67	-8.76596
;N:52;N:59	-8.76683
;N:77;N:89	-8.76687
;w:15;N:58	-8.7682
;N:63;N:66;N:71	-8.76907
;w:12;N:55;N:58	-8.76933
;w:12;N:62;w:12;N:62	-8.76979
;w:3;N:50	-8.7715
;N:82;N:85	-8.77171
;N:1	-8.77555
;w:12;N:69;w:12;N:69	-8.77564
;w:48;N:76	-8.77709
;w:12;N:60;N:63	-8.77957
;w:12;N:55;N:67	-8.77998
;w:12;N:61;w:12;N:61	-8.78028
;N:61;N:64;N:69	-8.78051
;w:9;N:54	-8.78065
;N:68;N:72;N:75	-8.78125
;N:55;N:58;N:63	-8.78366
;w:15;N:60	-8.78389
;w:12;N:71;w:12;N:71	-8.78395
;w:3;N:71	-8.78446
;w:12;N:59;N:62	-8.78573
;w:3;N:70	-8.7896
;w:12;N:25	-8.7912
;w:15;N:68	-8.79171
;w:42;N:5	-8.7918
;w:6;N:63;w:6;N:63	-8.79291
;N:50;N:55	-8.794
;N:63;N:68;N:72	-8.79404
;w:15;N:62	-8.79415
;w:12;N:68;w:12;N:70	-8.79469
;w:9;N:55	-8.79491
;N:51;N:55	-8.79508
;N:50;N:57	-8.79543
;N:80;N:84	-8.79922
;w:6;D:42;w:6;D:36;D:42	-8.7999
;w:12;N:50;N:62	-8.80016
;N:55;N:60;N:64	-8.801
;N:52;N:57;N:61	-8.80268
;N:11	-8.80466
;w:12;N:54;N:66	-8.80487
;w:12;N:47;N:59	-8.80558
;w:12;N:51;N:63	-8.81052
;w:15;N:64	-8.8132
;w:3;N:51	-8.81361
;w:15;N:66	-8.81406
;w:9;N:72	-8.81462
;w:48;N:48	-8.81555
;w:12;N:59;N:63	-8.81729
;w:12;N:49;N:61	-8.81766
;w:12;N:39;N:51	-8.81867
;w:48;N:49	-8.81945
;w:36;N:39	-8.82058
;w:15;N:63	-8.82076
;w:12;N:63;N:75	-8.82282
;w:12;N:60;w:12;N:60	-8.82417
;w:3;D:38	-8.82458
;w:15;N:57	-8.82495
;w:12;N:72;w:12;N:72	-8.82627
;N:54;N:57;N:62	-8.82662
;N:65;N:72	-8.82748
;w:12;N:53;N:65	-8.82774
;w:21;N:3	-8.82917
;w:12;N:38;N:50	-8.83019
;w:12;N:70;w:12;N:72	-8.83072
;w:6;N:65;w:6;N:65	-8.83228
;w:12;N:58;N:61	-8.83531
;w:8;N:38	-8.83628
;w:12;N:67;N:70	-8.83662
;w:12;N:73;w:12;N:73	-8.83727
;w:15;N:65	-8.83823
;N:105	-8.83938
;N:32;N:44	-8.83948
;w:9;N:53	-8.84104
;w:24;N:10	-8.8416
;N:51;N:56	-8.84176
;N:62;N:65;N:70	-8.84385
;w:15;N:69	-8.84557
;N:49;N:56	-8.84601
;w:12;D:45	-8.84621
;N:51;N:58	-8.84633
;D:69;w:6;D:69	-8.84699
;N:53;N:58;N:62	-8.8479
;w:12;N:52;N:64	-8.84801
;w:18;D:36	-8.84932
;w:12;N:92	-8.85007
;w:48;N:77	-8.85024
;w:6;N:64;w:6;N:64	-8.85394
;w:36;N:38	-8.85509
;w:24;N:62;N:65	-8.85776
;w:12;N:59;w:12;N:59	-8.85852
;w:12;N:57;N:69	-8.85905
;N:52;N:56;N:59	-8.85988
;w:21;N:4	-8.86045
;w:6;D:42;w:6;D:42;w:6;D:42	-8.86235
;w:12;N:93	-8.86265
;w:6;N:90	-8.8628
;w:6;N:68;w:6;N:68	-8.86611
;w:12;N:66;w:12;N:68	-8.86626
;N:79;N:91	-8.86761
;w:12;N:64;N:76	-8.86882
;w:16;N:49	-8.86902
;w:9;N:52	-8.87015
;D:51;D:53	-8.87022
;w:6;N:89	-8.87065
;N:66;N:73	-8.87319
;w:12;N:37;N:49	-8.87331
;w:12;N:62;N:74	-8.87454
;w:8;N:39	-8.87561
;N:47;N:54	-8.87753
;w:6;N:71;w:6;N:71	-8.87797
;w:6;N:61;w:6;N:61	-8.87913
;w:24;N:26	-8.87955
;w:9;N:73	-8.88083
;w:16;N:48	-8.88525
;w:12;D:37;D:42	-8.88602
;w:12;N:94	-8.88713
;w:6;N:62;w:6;N:62	-8.88748
;w:12;N:57;w:12;N:57	-8.88884
;w:12;N:56;N:68	-8.89015
;w:12;N:65;w:12;N:67	-8.89042
;w:12;N:67;w:12;N:69	-8.89238
;N:64;N:67;N:72	-8.8925
;w:15;N:70	-8.89492
;w:16;N:66	-8.8953
;w:6;N:66;w:6;N:66	-8.89556
;w:15;N:56	-8.89657
;w:6;N:67;w:6;N:67	-8.8969
;w:18;N:33	-8.8972
;w:6;N:60;w:6;N:60	-8.89768
;w:12;N:72;w:12;N:74	-8.90075
;w:12;N:58;w:12;N:58	-8.90078
;w:9;N:75	-8.90126
;w:72;N:6	-8.90131
;w:9;N:78	-8.90782
;N:50;N:54	-8.90868
;w:3;N:49	-8.9117
;w:6;D:48	-8.91222
;w:8;N:73	-8.91257
;w:6;N:27	-8.91257
;w:36;N:83	-8.91429
;N:31;N:43	-8.91474
;w:18;N:9	-8.91612
;w:6;N:59;w:6;N:59	-8.91618
;w:24;N:61;N:64	-8.91699
;w:24;N:63;N:66	-8.91787
;w:12;N:69;w:12;N:71	-8.91829
;w:12;N:67;w:12;N:65	-8.91844
;N:65;N:68;N:73	-8.91901
;w:12;N:74;w:12;N:74	-8.91979
;w:18;N:82	-8.92229
;w:24;N:27	-8.9228
;w:12;N:73;w:12;N:71	-8.92425
;w:12;N:73;w:12;N:75	-8.92455
;w:16;N:71	-8.9266
;w:12;N:57;N:61	-8.92681
;w:48;N:47	-8.9269
;w:21;N:8	-8.92702
;w:12;N:36;N:48	-8.92731
;w:12;N:57;N:60	-8.92779
;w:6;N:72;w:6;N:72	-8.92828
;w:16;N:65	-8.92934
;w:12;N:63;N:67	-8.93032
;D:36;D:42;D:51	-8.93124
;w:36;N:37	-8.9335
;w:12;N:62;w:12;N:64	-8.93386
;w:6;N:73;w:6;N:73	-8.93404
;w:6;N:69;w:6;N:69	-8.93439
;w:15;N:55	-8.9351
;w:48;N:78	-8.93522
;w:12;N:63;w:12;N:65	-8.93619
;w:12;D:42;w:6;D:42	-8.93832
;w:12;N:60;N:64	-8.93851
;w:12;N:58;N:62	-8.93906
;w:12;N:69;w:12;N:67	-8.93996
;N:48;N:55	-8.94068
;w:12;N:61;w:12;N:63	-8.94449
;w:24;N:91	-8.94531
;N:106	-8.946
;w:24;N:60;N:63	-8.94679
;N:67;N:74	-8.9482
;w:6;D:36;w:6;D:36	-8.95088
;w:12;N:60;N:72	-8.95093
;w:6;N:70;w:6;N:70	-8.95152
;w:12;N:56;w:12;N:56	-8.95156
;w:6;D:36;D:38;D:39;D:42	-8.95223
;w:12;N:75;w:12;N:75	-8.9532
;w:6;N:58;w:6;N:58	-8.95613
;w:9;N:74	-8.95715
;N:64;N:69;N:73	-8.96093
;w:12;N:57;N:62	-8.962
;N:65;N:70;N:74	-8.96346
;w:12;N:62;N:66	-8.96366
;w:12;N:68;N:71	-8.96443
;D:48;D:51	-8.96501
;w:42;N:4	-8.96546
;w:12;N:95	-8.96585
;w:12;N:35;N:47	-8.96642
;w:12;D:43	-8.96669
;w:9;N:51	-8.96739
;w:12;N:55;w:12;N:55	-8.96775
;w:6;D:45	-8.96798
;w:12;D:48	-8.96958
;w:12;N:71;w:12;N:69	-8.96987
;w:8;N:77	-8.97028
;w:12;N:71;w:12;N:73	-8.97114
;N:44;N:51	-8.9728
;w:12;N:60;w:12;N:62	-8.97336
;w:12;N:65;N:77	-8.97581
;w:12;N:61;N:65	-8.97664
;N:81;N:85	-8.97712
;w:12;N:61;N:73	-8.98188
;N:51;N:54	-8.98449
;N:80;N:92	-8.98453
;D:54;D:70	-8.98518
;N:69;N:73;N:76	-8.98699
;w:6;N:56;w:6;N:56	-8.98714
;w:8;N:37	-8.98717
;w:12;N:59;N:71	-8.98889
;w:3;N:72	-8.98981
;w:48;N:46	-8.98994
;w:15;N:54	-8.99046
;N:22	-8.99218
;w:12;N:58;N:63	-8.9927
;w:6;N:57;w:6;N:57	-8.99361
;N:68;N:75	-8.99428
;w:16;N:47	-8.9949
;w:6;N:54;w:6;N:54	-8.99519
;w:12;N:58;N:70	-8.99639
;w:12;N:64;N:68	-8.99967
;w:16;N:73	-9.00007
;w:9;N:77	-9.00057
;N:48;N:53	-9.00078
;w:12;N:65;w:12;N:63	-9.00121
;w:12;N:75;w:12;N:77	-9.00372
;N:78;N:83	-9.00502
;w:9;N:50	-9.0055
;N:49;N:54	-9.00662
;w:12;N:64;w:12;N:66	-9.00668
;w:24;N:59;N:62	-9.00889
;D:69;D:73	-9.00908
;w:3;N:46	-9.01007
;w:3;N:48	-9.01036
;D:46;D:54	-9.01123
;w:12;N:53;w:12;N:53	-9.01153
;w:12;N:70;w:12;N:68	-9.01446
;w:16;N:46	-9.0159
;w:6;N:52;w:6;N:52	-9.01671
;N:63;N:66;N:70	-9.01925
;w:6;D:36;w:6;D:38	-9.0193
;w:6;N:75;w:6;N:75	-9.01966
;w:6;N:55;w:6;N:55	-9.02193
;N:46;N:53	-9.02483
;w:12;N:72;w:12;N:70	-9.02489
;w:6;N:74;w:6;N:74	-9.02546
;w:12;N:74;w:12;N:72	-9.02619
;w:12;N:74;w:12;N:76	-9.02632
;w:12;N:66;N:78	-9.02672
;w:15;N:71	-9.02697
;w:27;N:7	-9.02725
;w:6;D:36;D:46	-9.02733
;w:6;D:41	-9.02758
;D:51;D:69	-9.02796
;N:83;N:86	-9.02829
;w:12;N:59;w:12;N:61	-9.02915
;w:12;N:76;w:12;N:76	-9.03102
;w:36;N:9	-9.03146
;N:62;N:65;N:69	-9.03311
;w:12;N:56;N:61	-9.03316
;w:36;N:84	-9.03356
;D:69;D:70	-9.03403
;w:15;N:72	-9.03593
;D:38;D:46	-9.03676
;w:16;N:72	-9.03679
;N:61;N:64;N:68	-9.03724
;w:12;N:64;w:12;N:62	-9.03735
;D:48;D:69	-9.03808
;w:12;N:68;w:12;N:66	-9.03863
;w:8;N:52;w:8	-9.0391
;w:6;N:53;w:6;N:53	-9.03967
;w:9;N:76	-9.04001
;D:54;w:12;D:42	-9.04142
;w:36;N:36	-9.04238
;w:12;N:65;N:69	-9.04321
;w:16;N:45	-9.04485
;N:69;N:76	-9.04557
;w:12;N:66;w:12;N:64	-9.04698
;w:12;D:39	-9.04815
;w:36;N:35	-9.05011
;N:53;N:56;N:61	-9.0522
;w:3;N:47	-9.05337
;w:9;N:49	-9.05347
;w:18;N:83	-9.0536
;w:12;D:41	-9.055
;w:6;D:42;w:6;D:38;D:42	-9.05501
;w:12;N:56;N:60	-9.05506
;w:18;N:32	-9.05551
;w:12;N:61;N:66	-9.05556
;w:27;N:5	-9.05627
;w:24;N:64;N:67	-9.06016
;N:51;N:55;N:58	-9.06054
;w:9;N:48	-9.06058
;w:48;N:45	-9.06163
;w:12;N:56;N:59	-9.06204
;N:21	-9.06237
;N:84;N:87	-9.06276
;w:12;N:54;w:12;N:54	-9.06289
;N:52;N:55;N:60	-9.06336
;N:107	-9.06341
;w:6;N:51;w:6;N:51	-9.06374
;w:12;N:51;w:12;N:51	-9.06478
;w:12;N:59;N:64	-9.06493
;N:30;N:42	-9.06635
;w:12;N:76;w:12;N:78	-9.06694
;w:24;N:57;N:60	-9.06807
;w:12;N:55;N:59	-9.0685
;N:43;N:50	-9.06898
;w:12;N:69;N:81	-9.06925
;w:12;N:58;w:12;N:60	-9.06982
;w:12;D:47	-9.07134
;D:48;D:54	-9.07137
;N:60;N:63;N:67	-9.07311
;N:70;N:74;N:77	-9.07328
;w:8;N:36	-9.07359
;w:6;N:76;w:6;N:76	-9.07378
;w:9;N:79	-9.07464
;w:24;D:37	-9.07478
;w:12;D:36;w:12;D:36	-9.07556
;w:6;N:68;w:6;N:70	-9.07711
;w:24;N:65;N:68	-9.07848
;w:15;N:53	-9.07886
;w:12;N:52;w:12;N:52	-9.07936
;N:45;N:52	-9.0797
;w:12;N:77;w:12;N:77	-9.08006
;w:6;D:43	-9.08011
;w:12;D:42;w:12;D:42	-9.08062
;w:12;N:48;w:12;N:48	-9.08283
;D:50;D:51	-9.08283
;N:47;N:52	-9.08324
;N:66;N:69;N:74	-9.08459
;w:12;N:68;N:80	-9.08469
;N:51;N:56;N:60	-9.08559
;w:6;D:39	-9.0864
;w:6;N:71;w:6;N:73	-9.08717
;w:6;D:47	-9.08793
;w:12;N:55;N:60	-9.08881
;w:12;N:50;w:12;N:50	-9.0891
;w:6;N:67;w:6;N:69	-9.09009
;N:59;N:62;N:66	-9.09078
;w:6;D:38;D:39;D:42	-9.09101
;w:48;N:79	-9.09355
;w:8;N:74	-9.09422
;w:24;N:58;N:61	-9.0947
;N:79;N:84	-9.09515
;w:6;N:78;w:6;N:78	-9.09578
;w:6;N:70;w:6;N:72	-9.0961
;w:24;N:60;N:64	-9.09763
;D:49;D:51	-9.09893
;D:54;D:69	-9.09957
;w:16;N:44	-9.09957
;w:12;N:63;w:12;N:61	-9.09961
;w:6;N:65;w:6;N:67	-9.10037
;N:58;N:61;N:65	-9.1008
;D:46;D:51	-9.10213
;w:12;N:34;N:46	-9.1027
;N:66;N:71;N:75	-9.10333
;N:42;N:49	-9.104
;w:18;N:29	-9.10454
;w:6;N:79;w:6;N:79	-9.10613
;w:15;N:73	-9.10799
;w:12;N:43;w:12;N:43	-9.10907
;w:18;N:31	-9.1108
;w:12;N:41;w:12;N:41	-9.11235
;w:12;N:46;w:12;N:46	-9.11317
;w:6;N:69;w:6;N:71	-9.11519
;w:6;N:91	-9.11566
;w:24;N:61;N:65	-9.11643
;D:45;D:48	-9.11662
;w:6;N:26	-9.11665
;D:36;D:41	-9.1173
;w:15;N:52	-9.1173
;w:12;N:45;w:12;N:45	-9.11781
;w:12;N:24	-9.118
;w:48;N:44	-9.11813
;N:57;N:60;N:64	-9.11887
;w:24;N:62;N:66	-9.11895
;w:6;N:66;w:6;N:68	-9.11942
;w:6;N:72;w:6;N:74	-9.11955
;w:12;N:60;N:65	-9.12088
;N:65;w:12;N:65	-9.12112
;w:12;N:63;N:68	-9.12118
;w:9;N:47	-9.12487
;w:12;N:67;N:79	-9.12649
;w:24;N:58;N:62	-9.12887
;w:3;N:45	-9.13093
;w:12;N:40;w:12;N:40	-9.13118
;w:12;N:61;w:12;N:64	-9.13167
;w:12;N:42;w:12;N:42	-9.13208
;w:12;N:62;w:12;N:60	-9.13211
;w:6;N:50;w:6;N:50	-9.13222
;w:6;N:49;w:6;N:49	-9.13283
;w:12;N:44;w:12;N:44	-9.13284
;w:12;N:61;w:12;N:59	-9.13305
;w:24;D:38;D:42	-9.13386
;w:12;N:70;N:82	-9.13474
;w:24;D:36;D:38	-9.13552
;w:20;N:5	-9.13569
;w:3;N:74	-9.136
;w:24;N:63;N:67	-9.13605
;w:3;N:73	-9.13659
;w:24;N:59;N:63	-9.13702
;w:6;N:46;w:6;N:46	-9.13758
;D:54;D:56	-9.13814
;w:12;N:47;w:12;N:47	-9.13882
;w:12;N:77;w:12;N:79	-9.13964
;w:12;N:54;N:59	-9.14026
;w:12;N:62;N:67	-9.14178
;N:66;w:12;N:66	-9.14196
;w:8;N:76	-9.14712
;w:12;N:49;w:12;N:49	-9.14953
;N:50;N:53	-9.15091
;w:12;N:57;w:12;N:59	-9.15095
;N:68;w:12;N:68	-9.15133
;w:6;N:77;w:6;N:77	-9.15203
;w:9;N:80	-9.15263
;N:72;w:12;N:72	-9.15271
;w:8;N:78	-9.1558
;D:36;D:37	-9.15653
;w:12;N:75;w:12;N:73	-9.15821
;N:55;N:58;N:62	-9.15822
;N:71;N:75;N:78	-9.1593
;w:12;D:38;w:12;D:38	-9.16054
;N:64;N:67;N:71	-9.16067
;N:69;w:12;N:69	-9.16232
;w:36;N:34	-9.16304
;w:12;N:38;w:12;N:38	-9.16337
;w:6;N:73;w:6;N:75	-9.16449
;D:43;D:47	-9.16451
;w:32;N:6	-9.1649
;D:69;w:12;D:69	-9.16539
;N:41;N:48	-9.1661
;N:108	-9.16766
;N:70;w:12;N:70	-9.16855
;w:12;N:65;N:70	-9.16964
;w:12;N:69;N:72	-9.16966
;N:56;N:59;N:63	-9.16972
;N:67;N:70;N:75	-9.17223
;w:48;N:43	-9.17236
;D:56;D:69	-9.17337
;w:21;N:62	-9.17394
;w:17;N:6	-9.17483
;w:12;N:54;N:57	-9.17504
;w:12;D:42;D:45	-9.17577
;w:12;N:77;w:12;N:75	-9.17627
;w:6;N:64;w:6;N:66	-9.17787
;w:21;N:63	-9.17826
;D:36;D:42;D:43	-9.1783
;w:16;N:43	-9.1792
;N:54;N:57;N:61	-9.17924
;w:21;N:61	-9.18092
;w:48;N:80	-9.18101
;w:21;N:60	-9.18101
;N:29;N:41	-9.18114
;w:12;N:96	-9.18512
;D:53;D:69	-9.18532
;w:12;N:39;w:12;N:39	-9.18778
;w:24;N:66;N:69	-9.18936
;w:36;N:85	-9.19126
;w:12;N:78;w:12;N:78	-9.19136
;D:42;D:51	-9.19189
;N:82;N:87	-9.19194
;D:47;D:51	-9.19201
;N:82;N:86	-9.19391
;w:21;N:64	-9.1947
;N:71;w:12;N:71	-9.19535
;w:12;N:53;N:57	-9.19567
;w:12;N:78;w:12;N:76	-9.1964
;w:12;N:76;w:12;N:74	-9.19645
;w:24;N:25	-9.1968
;N:70;N:77	-9.19741
;N:12	-9.19885
;w:12;N:33;N:45	-9.19961
;w:12;N:79;w:12;N:77	-9.19967
;D:38;D:51	-9.1999
;N:81;N:93	-9.20237
;w:12;N:55;w:12;N:57	-9.20294
;w:42;N:7	-9.20343
;w:12;N:78;w:12;N:80	-9.20375
;w:8;N:53;w:8	-9.20384
;N:50;N:55;N:59	-9.20579
;w:8;N:35	-9.20767
;w:9;N:46	-9.2078
;w:12;N:58;w:12;N:61	-9.20787
;w:6;N:62;w:6;N:64	-9.20849
;N:80;N:85	-9.20886
;w:3;D:36	-9.20929
;N:73;N:77;N:80	-9.21002
;w:24;N:64;N:68	-9.21006
;D:36;D:42;D:54	-9.21055
;w:12;N:68;N:72	-9.21107
;D:42;w:12;D:42	-9.21213
;D:45;D:47	-9.21572
;w:3;N:75	-9.21627
;w:6;N:48;w:6;N:48	-9.21695
;D:36;D:37;D:42	-9.21808
;w:12;N:64;N:69	-9.21845
;N:61;N:70	-9.21877
;w:24;N:57;N:61	-9.22084
;N:18	-9.22087
;N:50;N:54;N:57	-9.22119
;D:70;D:73	-9.22274
;w:6;N:47;w:6;N:47	-9.22386
;w:12;D:42;D:43	-9.22549
;w:6;N:63;w:6;N:65	-9.22608
;N:67;w:12;N:67	-9.22713
;N:83;N:88	-9.22841
;D:37;D:42	-9.22855
;w:18;N:84	-9.22867
;w:9;N:45	-9.22902
;w:12;D:36;D:49	-9.22921
;w:8;N:75	-9.22927
;N:81;N:86	-9.22941
;w:21;N:65	-9.23008
;w:6;D:38;w:6;D:36	-9.23062
;w:21;N:66	-9.23181
;w:12;D:38;w:6;D:38	-9.23199
;N:53;N:56;N:60	-9.23224
;D:47;D:48	-9.2324
;w:12;N:71;N:83	-9.23392
;w:36;N:33	-9.23396
;w:6;N:45;w:6;N:45	-9.23423
;w:12;N:66;N:70	-9.23558
;w:15;N:51	-9.23613
;w:24;N:56;N:59	-9.23697
;w:21;N:59	-9.23706
;N:19	-9.23738
;w:12;N:56;w:12;N:58	-9.23793
;D:69;D:76	-9.23858
;w:6;N:74;w:6;N:76	-9.23898
;w:21;N:58	-9.23902
;w:12;N:60;w:12;N:58	-9.23934
;N:62;w:12;N:62	-9.24069
;w:6;N:92	-9.24103
;w:16;N:74	-9.24132
;w:21;N:57	-9.24264
;w:24;N:92	-9.24423
;w:21;N:68	-9.24518
;w:18;N:28	-9.24529
;N:109	-9.24556
;w:8;N:80	-9.24646
;N:85;N:88	-9.24774
;w:15;N:74	-9.24863
;w:8;N:83	-9.24956
;w:6;N:80;w:6;N:80	-9.24963
;N:73;w:12;N:73	-9.2501
;w:12;N:37;w:12;N:37	-9.25025
;w:24;D:36;D:42	-9.25172
;D:54;w:6;D:54	-9.25245
;w:15;N:75	-9.25304
;w:6;D:42;D:45	-9.25364
;w:12;N:54;N:58	-9.2541
;w:24;N:67;N:70	-9.2548
;w:24;N:65;N:69	-9.25484
;N:64;w:12;N:64	-9.25565
;w:15;N:50	-9.25796
;w:8;N:54;w:8	-9.25813
;w:12;N:62;w:12;N:65	-9.2598
;w:24;D:46	-9.25983
;w:6;N:60;w:6;N:62	-9.26
;N:65;N:68;N:72	-9.26069
;w:48;N:42	-9.26117
;w:6;N:61;w:6;N:63	-9.26164
;w:72;N:4	-9.26337
;w:36;D:36	-9.26393
;N:75;w:12;N:75	-9.26443
;w:12;N:60;w:12;N:63	-9.26451
;w:6;N:75;w:6;N:77	-9.26588
;D:36;D:43	-9.26622
;N:49;N:52	-9.26701
;w:12;N:53;N:58	-9.26733
;w:4;N:60;w:4	-9.26927
;w:8;D:38	-9.27001
;w:12;N:59;w:12;N:62	-9.27246
;N:40;N:47	-9.27388
;w:12;N:79;w:12;N:79	-9.27516
;w:12;N:70;N:73	-9.27517
;D:36;D:45	-9.27529
;N:48;N:52	-9.27541
;N:63;N:65	-9.27655
;w:18;D:42	-9.27824
;N:68;w:24;N:68	-9.27841
;w:12;N:67;N:71	-9.27841
;w:3;N:43	-9.27842
;w:21;N:67	-9.27851
;w:16;N:80	-9.27922
;N:83;N:87	-9.27931
;w:12;N:63;w:12;N:66	-9.28027
;N:66;w:24;N:66	-9.2805
;N:80;w:2	-9.28062
;D:51;D:70	-9.28076
;w:18;N:30	-9.28275
;w:9;N:44	-9.28354
;N:28;N:40	-9.28528
;w:4;D:42	-9.28634
;D:70;D:76	-9.28713
;D:46;D:49	-9.28778
;N:68;N:71;N:76	-9.28909
;w:12;N:67;w:12;N:70	-9.28992
;N:78;w:2	-9.29005
;w:24;N:55;N:58	-9.29054
;w:9;N:43	-9.29072
;N:67;w:24;N:67	-9.29144
;w:12;N:63;w:12;N:68	-9.2923
;w:48;N:41	-9.29258
;w:9;N:81	-9.29258
;w:6;N:44;w:6;N:44	-9.29406
;N:65;w:24;N:65	-9.29449
;N:69;w:24;N:69	-9.29539
;N:70;w:24;N:70	-9.29556
;w:45;N:6	-9.29623
;N:41;w:12;N:41	-9.29628
;w:8;N:84;w:8	-9.29727
;w:8;D:42	-9.29889
;N:49;N:53	-9.29976
;w:12;N:36;w:12;N:36	-9.29996
;N:52;N:55;N:59	-9.30025
;N:58;N:62;N:67	-9.30068
;w:12;N:59;w:12;N:57	-9.30069
;w:12;N:61;w:12;N:66	-9.30194
;N:84;N:96	-9.30331
;N:75;w:12;N:73	-9.30368
;N:63;w:12;N:63	-9.30391
;w:12;N:72;N:84	-9.30482
;N:71;N:78	-9.30532
;w:3;N:44	-9.30558
;D:47;D:54	-9.30561
;w:12;N:80;w:12;N:78	-9.30641
;N:83;N:95	-9.3065
;N:67;N:70;N:74	-9.30694
;w:16;N:42	-9.30827
;w:16;N:75	-9.30909
;w:18;N:85	-9.30935
;w:24;N:56;N:60	-9.30943
;N:71;w:24;N:71	-9.30955
;D:48;D:49	-9.30991
;w:24;N:40;N:52	-9.31001
;N:57;N:59	-9.31055
;w:6;N:76;w:6;N:78	-9.31103
;w:6;N:67;w:6;N:65	-9.31134
;w:6;N:41;w:6;N:41	-9.31421
;w:12;N:57;w:12;N:60	-9.31502
;w:12;N:76;N:88	-9.31547
;w:12;N:64;w:12;N:67	-9.31594
;w:24;N:41;N:53	-9.316
;N:39;w:12;N:39	-9.3176
;D:43;D:45	-9.31766
;w:24;N:60;N:65	-9.31774
;N:46;N:51	-9.31825
;w:24;N:67;N:71	-9.31938
;w:16;N:78	-9.31979
;w:12;N:68;w:12;N:71	-9.32069
;N:45;N:52;N:57	-9.32077
;N:67;N:72;N:76	-9.32118
;N:59;N:68	-9.32213
;w:24;N:43;N:55	-9.3232
;w:6;D:42;D:48	-9.32511
;w:12;N:65;w:12;N:68	-9.32546
;w:21;N:69	-9.32778
;w:6;N:71;w:6;N:69	-9.32784
;N:36;w:12;N:36	-9.32808
;w:12;N:32;N:44	-9.32832
;w:12;N:54;w:12;N:56	-9.32849
;N:69;N:72;N:76	-9.32878
;D:42;D:54	-9.33023
;w:18;N:88	-9.33102
;w:21;N:56	-9.33119
;N:62;N:70	-9.33138
;D:45;D:54	-9.33164
;w:12;N:66;w:12;N:63	-9.33285
;w:6;D:42;D:43	-9.33317
;w:6;N:69;w:6;N:67	-9.33398
;N:60;w:12;N:60	-9.33398
;w:42;N:3	-9.33407
;N:74;w:12;N:74	-9.33428
;w:24;N:66;N:70	-9.33504
;w:12;N:51;N:58	-9.3355
;N:65;N:67	-9.33568
;D:50;D:54	-9.33578
;w:16;N:41	-9.33658
;w:6;N:93	-9.33684
;w:12;N:72;w:12;N:69	-9.33695
;N:79;w:2	-9.33696
;w:24;N:55;N:59	-9.33778
;w:12;D:42;w:12;D:36;D:42	-9.33814
;N:72;N:76;N:79	-9.33916
;w:3;D:42	-9.33949
;N:64;N:66	-9.34018
;N:60;N:69	-9.34062
;w:24;N:42;N:54	-9.34101
;N:62;N:64	-9.34115
;D:54;w:12;D:36	-9.34207
;w:12;N:54;N:61	-9.34209
;w:48;N:81	-9.34215
;w:24;N:48;N:60	-9.34234
;w:12;N:52;N:59	-9.34278
;w:21;N:70	-9.34408
;N:68;N:71;N:75	-9.34445
;N:68;N:73;N:77	-9.34461
;N:64;w:24;N:64	-9.34528
;w:8;N:81	-9.34531
;w:24;N:68;N:71	-9.3456
;N:64;N:68;N:73	-9.34636
;N:38;w:12;N:38	-9.34724
;w:24;N:66;N:78	-9.34726
;N:85;N:89	-9.34746
;w:12;N:35;w:12;N:35	-9.34805
;w:18;D:4	-9.34808
;w:6;N:72;w:6;N:70	-9.3482
;N:59;N:63;N:68	-9.34821
;N:64;N:73	-9.34851
;w:33;N:6	-9.34866
;N:60;N:62	-9.34871
;w:6;N:81;w:6;N:81	-9.34902
;N:69;N:74;N:78	-9.34911
;w:12;N:59;w:12;N:64	-9.34932
;N:61;N:69	-9.34951
;D:51;w:12;D:51	-9.34969
;w:12;N:58;w:12;N:63	-9.35053
;N:60;N:64;N:69	-9.35168
;D:36;D:42;D:45	-9.35323
;w:12;N:97	-9.35335
;w:6;N:42;w:6;N:42	-9.35403
;D:50;D:69	-9.35441
;N:56;N:60;N:65	-9.35509
;w:4;N:59;w:4	-9.35522
;w:6;N:70;w:6;N:68	-9.3559
;N:48;N:52;N:55	-9.35653
;D:47;D:50	-9.35656
;N:63;N:71	-9.35726
;w:12;N:62;w:12;N:67	-9.35742
;w:24;N:44;N:56	-9.35753
;w:12;N:69;w:12;N:72	-9.35756
;w:6;D:38;D:39	-9.35761
;N:37;w:12;N:37	-9.35765
;w:6;N:58;w:6;N:60	-9.35797
;N:64;N:72	-9.35864
;w:24;N:59;N:64	-9.35899
;w:21;N:55	-9.35928
;w:12;N:60;w:12;N:65	-9.35935
;w:15;N:49	-9.36019
;N:70;N:73;N:77	-9.36047
;w:12;N:64;w:12;N:69	-9.36054
;w:18;N:86	-9.36091
;w:6;N:43;w:6;N:43	-9.36106
;N:81;w:2	-9.36156
;N:62;N:71	-9.36185
;w:9;N:42	-9.36224
;N:72;w:24;N:72	-9.36296
;N:69;w:12;N:67	-9.36321
;N:70;w:12;N:68	-9.36324
;w:4;N:58;w:4	-9.3636
;w:12;N:48;N:55	-9.36403
;N:82;N:94	-9.36409
;w:24;N:45;N:57	-9.36509
;N:63;N:72	-9.36519
;w:12;N:34;w:12;N:34	-9.36537
;N:66;N:69;N:73	-9.36597
;w:3;N:76	-9.36612
;w:6;N:77;w:6;N:79	-9.36666
;w:24;N:65;N:77	-9.3674
;w:4;N:70;w:4	-9.36821
;w:12;N:58;N:65	-9.36843
;w:12;N:68;w:12;N:65	-9.3693
;N:68;w:12;N:66	-9.36961
;N:72;N:75;N:80	-9.37007
;w:24;N:67;N:79	-9.37063
;w:12;N:65;w:12;N:62	-9.3716
;N:66;N:75	-9.37176
;w:24;N:93	-9.37182
;N:61;N:63	-9.37271
;D:47;D:69	-9.37369
;w:12;N:79;w:12;N:81	-9.37387
;w:18;N:87	-9.37404
;N:71;w:12;N:69	-9.37493
;N:40;w:12;N:40	-9.37569
;w:12;N:56;w:12;N:61	-9.37571
;w:24;N:61;N:66	-9.37599
;w:12;N:70;w:12;N:67	-9.37627
;w:8;N:82	-9.37634
;N:34;w:12;N:34	-9.37637
;w:16;N:40	-9.37705
;w:24;N:46;N:58	-9.37766
;w:12;N:53;N:56	-9.37814
;N:70;N:75;N:79	-9.37832
;N:74;N:78;N:81	-9.37834
;w:12;N:66;w:12;N:69	-9.37863
;w:12;N:57;w:12;N:62	-9.38003
;w:12;N:52;N:57	-9.38016
;w:36;N:86	-9.3807
;w:54;N:6	-9.38079
;w:12;N:81;w:12;N:79	-9.38105
;w:12;N:55;w:12;N:60	-9.38231
;w:24;N:38;N:50	-9.38237
;w:12;D:38;D:39;D:42	-9.38317
;w:16;N:81	-9.38326
;N:69;N:72;N:77	-9.38327
;w:24;N:63;N:75	-9.38378
;w:12;N:72;N:75	-9.384
;w:12;N:80;w:12;N:80	-9.38587
;N:82;w:2	-9.38588
;w:24;N:58;N:63	-9.38603
;w:12;N:67;w:12;N:72	-9.38679
;w:12;N:55;w:12;N:58	-9.38692
;w:9;N:82	-9.38723
;D:76;w:6	-9.38723
;N:44;w:12;N:44	-9.38728
;w:12;N:67;w:12;N:64	-9.38741
;D:46;D:53	-9.38773
;w:6;N:94	-9.38773
;w:21;N:71	-9.39235
;N:63;w:24;N:63	-9.39243
;w:15;N:48	-9.39443
;w:6;N:73;w:6;N:71	-9.39485
;w:24;N:39;N:51	-9.39554
;w:12;N:50;N:57	-9.39621
;w:12;N:70;w:12;N:73	-9.3965
;w:3;N:79	-9.39681
;w:6;N:66;w:6;N:64	-9.39733
;w:12;N:49;N:56	-9.3976
;N:73;w:24;N:73	-9.39786
;w:12;N:71;N:74	-9.39847
;w:16;N:79	-9.39882
;w:12;N:56;w:12;N:59	-9.39895
;w:24;N:61;N:73	-9.39895
;w:12;N:58;N:62;N:65	-9.39909
;w:12;N:80;w:12;N:82	-9.39965
;N:65;N:73	-9.40098
;N:66;N:68	-9.40132
;D:36;D:53	-9.40144
;w:8;N:34	-9.402
;w:48;N:40	-9.402
;w:12;N:47;N:54	-9.40292
;w:24;N:69;N:72	-9.403
;w:12;N:66;N:71	-9.40383
;w:12;N:65;w:12;N:70	-9.40401
;N:86;N:89	-9.40456
;N:45;N:50	-9.40457
;N:61;N:65;N:70	-9.40543
;w:12;D:50	-9.40563
;N:42;w:12;N:42	-9.40612
;w:12;D:42;D:48	-9.40642
;w:24;N:68;N:72	-9.40688
;w:12;D:51	-9.40723
;N:59;N:67	-9.40754
;N:84;N:89	-9.40943
;w:21;N:54	-9.40946
;w:12;N:68;w:12;N:73	-9.40974
;w:3;N:42	-9.40988
;w:12;N:62;w:12;N:59	-9.4099
;N:46;N:53;N:58	-9.41026
;N:55;N:59;N:64	-9.41037
;w:24;N:68;N:80	-9.41091
;w:6;N:40;w:6;N:40	-9.41133
;w:48;N:82	-9.41142
;w:18;N:89	-9.41148
;w:6;N:75;w:6;N:73	-9.41165
;w:12;N:53;N:60	-9.4117
;N:87;N:90	-9.41177
;N:72;w:12;N:70	-9.41325
;w:12;N:64;w:12;N:61	-9.41349
;N:59;N:61	-9.41365
;N:77;w:12;N:77	-9.41376
;w:6;N:74;w:6;N:72	-9.41408
;N:62;w:24;N:62	-9.41409
;w:48;N:9	-9.41432
;N:48;N:51	-9.41444
;D:54;w:6;D:42	-9.41448
;w:12;D:36;w:12;D:38	-9.41504
;N:59;w:12;N:59	-9.41535
;w:12;N:53;w:12;N:58	-9.41645
;w:12;N:58;w:12;N:56	-9.41686
;w:3;N:81;w:3	-9.41762
;w:12;N:82;w:12;N:80	-9.41822
;w:24;N:47;N:59	-9.41885
;w:36;N:32	-9.41928
;w:12;N:59;N:66	-9.41961
;w:6;N:68;w:6;N:66	-9.42064
;w:24;N:60;N:72	-9.42109
;w:24;N:72;N:75	-9.42156
;D:69;w:6;D:36	-9.42161
;N:58;N:67	-9.42183
;w:8;N:79	-9.42278
;N:85;N:97	-9.42304
;w:6;N:36;w:6;N:36	-9.42394
;N:76;w:12;N:74	-9.42407
;N:67;w:12;N:65	-9.42424
;N:57;N:61;N:66	-9.42427
;N:43;w:12;N:43	-9.42441
;w:12;N:73;N:85	-9.42445
;N:77;w:12;N:75	-9.42507
;w:16;N:77	-9.42668
;w:12;N:54;w:12;N:57	-9.42877
;w:12;D:39;D:42	-9.4292
;w:12;N:69;w:12;N:66	-9.42948
;w:12;N:55;N:62	-9.42999
;w:4;D:36	-9.43032
;w:12;N:71;w:12;N:68	-9.4306
;w:16;N:76	-9.43241
;w:24;N:50;N:62	-9.43256
;D:48;D:53	-9.43317
;w:12;N:52;N:55	-9.43322
;w:3;N:78	-9.43336
;w:6;N:57;w:6;N:59	-9.43358
;w:16;N:60;w:8	-9.43386
;w:15;N:77	-9.43387
;w:12;N:53;w:12;N:55	-9.4341
;N:35;w:12;N:35	-9.43418
;D:70;w:12;D:42	-9.43433
;N:67;N:69	-9.43492
;N:61;w:12;N:61	-9.43533
;D:48;D:70	-9.43545
;w:6;N:65;w:6;N:63	-9.4356
;N:62;N:66;N:71	-9.43573
;w:12;N:75;N:87	-9.43638
;D:69;w:12;D:42	-9.437
;N:65;N:74	-9.43743
;w:12;N:57;w:12;N:55	-9.4378
;w:12;D:38;D:39	-9.4379
;w:24;N:52;N:56	-9.43841
;w:4;N:57	-9.43861
;w:24;N:69;N:81	-9.43886
;w:21;N:72	-9.44081
;N:57;N:63	-9.44105
;w:24;N:57;N:62	-9.44116
;w:12;N:72;w:12;N:75	-9.44186
;w:6;N:64;w:6;N:62	-9.44251
;N:110	-9.44279
;N:70;N:73;N:78	-9.44304
;N:76;w:12;N:76	-9.44416
;w:24;N:24	-9.44441
;D:50;D:70	-9.44522
;N:79;w:12;N:77	-9.44548
;N:48;N:55;N:60	-9.44583
;N:72;N:79	-9.44646
;w:6;D:36;D:37	-9.44651
;w:6;N:78;w:6;N:80	-9.44669
;D:36;D:38;D:51	-9.44842
;N:71;N:74;N:79	-9.44868
;w:24;N:62;N:67	-9.44906
;N:73;w:12;N:71	-9.44957
;D:54;w:6;D:54;w:6	-9.45157
;w:24;N:54;N:57	-9.45168
;w:6;N:1	-9.45199
;N:74;w:12;N:72	-9.45215
;w:16;D:38	-9.45227
;w:18;N:27	-9.45254
;N:68;N:77	-9.45255
;w:24;N:51;N:63	-9.4531
;w:12;N:54;w:12;N:59	-9.45343
;w:24;N:59;N:63;N:66	-9.45373
;N:67;N:76	-9.45404
;w:9;N:41	-9.45407
;N:60;N:68	-9.45427
;w:12;N:61;w:12;N:58	-9.45453
;D:54;D:76	-9.4546
;w:12;N:69;N:73	-9.45786
;D:42;D:69	-9.45815
;w:12;N:31;N:43	-9.45834
;w:24;D:51	-9.45845
;w:12;N:71;w:12;N:74	-9.45928
;w:12;N:56;N:63	-9.45962
;w:12;N:52;w:12;N:54	-9.4607
;N:57;N:66	-9.46111
;N:63;N:67;N:72	-9.46173
;w:24;N:63;N:68	-9.46179
;w:12;N:63;w:12;N:60	-9.46265
;w:12;N:67;N:72	-9.46269
;N:57;N:65	-9.46337
0;N:54	-9.46415
;N:89;N:92	-9.4648
;w:6;D:38;w:6;D:38;w:6;D:38	-9.46503
;w:15;N:76	-9.46671
;w:6;N:76;w:6;N:74	-9.46835
;N:43;N:50;N:55	-9.46859
;N:47;N:54;N:59	-9.46912
;w:24;N:64;N:76	-9.46924
;D:42;D:45	-9.46944
;w:6;N:79;w:6;N:81	-9.47039
;D:45;D:51	-9.47073
;N:50;N:57;N:62	-9.4711
;w:4;D:38	-9.47118
;w:12;N:52;N:56	-9.47199
;w:12;N:57;N:61;N:64	-9.47202
;D:76;w:12;D:42	-9.47243
;w:24;N:53;N:57	-9.4726
;w:16;N:65;w:8	-9.47271
;w:24;N:59;N:71	-9.47287
;w:12;N:69;w:12;N:74	-9.47372
;N:74;w:24;N:74	-9.47388
;w:12;N:53;w:12;N:56	-9.47498
;D:36;D:46;D:49	-9.47506
;w:12;N:59;N:63;N:66	-9.47525
;w:12;N:78;N:90	-9.47641
;w:8;D:38;D:42	-9.47649
;w:12;N:77;N:89	-9.47661
;N:49;N:53;N:56	-9.47663
;D:49;D:52	-9.47676
;w:4;N:58	-9.4773
;w:21;N:73	-9.47772
;w:45;N:5	-9.47811
;w:12;N:73;N:77	-9.47828
;w:6;N:59;w:6;N:61	-9.47883
;w:24;N:37;N:49	-9.47909
;N:27;N:39	-9.48004
;N:45;w:12;N:45	-9.48047
;w:24;N:60;N:64;N:67	-9.48125
;w:12;N:52;w:12;N:57	-9.48166
;N:86;N:90	-9.48233
;w:8;D:36	-9.484
;N:56;N:58	-9.48444
;w:3;N:84;w:3	-9.4851
;D:69;w:6;D:38	-9.48616
;w:24;N:62;N:74	-9.48629
;w:3;N:77	-9.48636
;w:12;N:72;w:12;N:71	-9.48647
;N:58;N:60	-9.48673
;w:6;N:30;w:6;N:30	-9.48697
;w:24;N:70;N:82	-9.48699
;w:12;N:66;w:12;N:71	-9.48752
;N:71;N:76;N:80	-9.4881
;w:16;N:66;w:8	-9.4886
;w:12;N:70;w:12;N:69	-9.48896
;N:46;w:12;N:46	-9.4891
;N:44;N:51;N:56	-9.48925
;w:16;N:39	-9.48963
;w:12;N:61;N:65;N:68	-9.48987
;w:12;N:60;w:12;N:57	-9.49057
;w:12;N:81;w:12;N:81	-9.49161
;w:24;N:52;N:64	-9.49168
;N:58;N:66	-9.49193
;N:65;N:69;N:74	-9.49193
;w:6;N:62;w:6;N:60	-9.49239
;w:12;N:58;N:63;N:67	-9.49348
;w:6;N:95	-9.49375
;D:70;w:6;D:70;w:6	-9.49417
;w:12;N:73;w:12;N:70	-9.49476
;w:12;N:71;w:12;N:70	-9.49485
;w:21;N:53	-9.49494
;w:12;N:51;N:56	-9.495
;N:61;w:24;N:61	-9.49518
;w:12;N:68;w:12;N:67	-9.49555
;w:24;N:71;N:74	-9.49624
;w:6;N:70;w:6;N:73	-9.49625
;w:12;N:57;N:64	-9.4963
;w:36;N:31	-9.49646
;w:15;N:78	-9.49668
;w:3;N:80;w:3	-9.49742
;w:24;N:57;N:69	-9.49743
;N:75;N:79;N:82	-9.49797
;D:49;D:54	-9.498
;N:86;w:4	-9.49847
;w:12;N:70;w:12;N:75	-9.49876
;w:12;N:73;N:76	-9.49915
;w:6;N:39;w:6;N:39	-9.49923
;N:57;w:12;N:57	-9.50007
;w:12;N:46;N:53	-9.5001
;D:69;w:12;D:36	-9.50047
;w:48;N:39	-9.50055
;N:71;N:74;N:78	-9.50056
;N:66;N:74	-9.50112
;w:6;N:77;w:6;N:75	-9.50187
;w:6;N:82;w:6;N:82	-9.5023
;D:51;w:12;D:36	-9.50234
;w:3;D:38;w:3;D:38	-9.50264
;w:4;N:57;w:4	-9.50323
;w:8;N:33	-9.50376
;w:24;N:53;N:56	-9.50418
;w:24;N:58;N:70	-9.5046
;D:36;D:42;D:69	-9.50463
;w:12;N:33;w:12;N:33	-9.50537
;w:12;N:75;w:12;N:72	-9.50561
0;N:52	-9.50593
;N:47;N:51	-9.50661
;w:12;N:40;w:12;N:42	-9.50715
;w:24;N:49;N:61	-9.50716
;w:36;N:87	-9.50792
;w:3;N:82;w:3	-9.50838
;w:20;N:7	-9.50851
;N:73;N:80	-9.50877
;w:12;N:60;N:64;N:67	-9.5095
;w:1;N:59	-9.5099
;w:3;N:45;w:3	-9.51148
;N:78;w:12;N:76	-9.5122
;D:69;w:6;D:42	-9.51231
;w:3;N:41	-9.51291
;w:24;N:66;N:71	-9.51343
;w:24;N:52;N:55	-9.51384
;N:83;w:2	-9.514
;w:24;N:54;N:66	-9.51488
;N:65;w:12;N:63	-9.51513
;w:3;N:53;w:3	-9.51559
;w:6;D:36;D:43	-9.51583
;N:53;N:60;N:65	-9.51609
;w:6;N:64;w:6;N:67	-9.51707
;N:39;N:46	-9.51804
;w:4;N:67;w:4	-9.51835
;D:46;w:12;D:42	-9.51941
;N:68;N:76	-9.51991
;N:68;N:70	-9.52065
;D:46;D:47	-9.52092
;w:9;N:40	-9.52253
;w:6;N:62;w:6;N:65	-9.52287
;N:53;N:57;N:62	-9.52318
;w:6;N:66;w:6;N:69	-9.52345
;D:70;w:12;D:70	-9.52403
;w:9;D:36	-9.52452
;w:24;N:54;N:58	-9.52514
;w:15;N:47	-9.52574
;w:3;N:77;w:3	-9.52658
;N:51;N:58;N:63	-9.52674
;w:12;D:42;w:12;D:38;D:42	-9.52675
0;N:53	-9.52709
;w:24;N:69;N:73	-9.52783
;w:24;N:64;N:69	-9.52845
;D:45;D:46	-9.52951
;w:6;D:42;D:47	-9.53019
;w:12;N:43;N:50	-9.53077
;w:6;N:56;N:68	-9.53134
;N:48;w:12;N:48	-9.53137
;w:12;N:23	-9.53152
;w:6;N:67;w:6;N:70	-9.53189
;w:6;N:80;w:6;N:82	-9.53194
;w:6;N:25	-9.53198
;w:24;N:36;N:48	-9.53231
;w:4;N:81;w:4	-9.53241
;w:6;D:39;D:42	-9.53248
;w:6;D:50	-9.53279
;w:3;N:52;w:3	-9.53347
;w:12;N:74;w:12;N:77	-9.53352
;w:12;N:69;w:12;N:68	-9.5338
;w:12;N:73;w:12;N:72	-9.53431
;w:24;N:56;N:68	-9.53441
;w:12;N:73;w:12;N:76	-9.5347
;w:12;N:74;N:86	-9.53477
;N:33;w:12;N:33	-9.53512
;w:21;N:52	-9.53568
;D:36;D:42;D:48	-9.5371
;w:12;N:68;N:73	-9.53712
;w:24;N:71;N:83	-9.53725
;N:66;w:12;N:64	-9.53746
;w:12;N:38;w:12;N:40	-9.53794
;N:84;N:88	-9.53802
;w:12;N:50;w:12;N:52	-9.53831
;N:84;w:4	-9.53854
;w:2;N:57	-9.53869
;w:12;N:56;N:60;N:63	-9.53872
;w:16;N:82	-9.53943
;N:80;w:12;N:80	-9.53946
;w:6;D:36;w:6;D:42	-9.54087
;w:12;N:58;w:12;N:55	-9.54097
;w:48;N:38	-9.54115
;N:47;N:50	-9.54121
;N:51;N:54;N:59	-9.54179
;w:12;N:42;w:12;N:44	-9.54202
;w:36;D:38	-9.54226
;w:3;N:85;w:3	-9.54299
;w:3;N:83;w:3	-9.5431
;w:16;N:38	-9.54337
;w:24;N:73;N:76	-9.54489
;w:6;N:38;w:6;N:38	-9.54494
;N:58;N:64	-9.54516
;N:55;N:57	-9.54605
;w:12;N:71;w:12;N:76	-9.54634
;w:6;D:51	-9.54637
;w:12;N:50;w:12;N:55	-9.54644
;N:85;N:90	-9.54652
;D:73;w:6	-9.54653
;N:75;w:24;N:75	-9.54683
;N:49;N:56;N:61	-9.54713
;N:70;N:72	-9.5475
;w:12;D:36;D:37	-9.5476
;w:12;D:38;D:49	-9.5492
;D:76;w:6;D:42	-9.54965
;N:90;w:3	-9.54979
;D:36;D:42;w:6;D:42;w:6;D:42	-9.54983
;w:6;N:63;w:6;N:61	-9.5499
;w:12;N:50;N:55	-9.55083
;N:84;w:2	-9.55091
;N:55;N:62;N:67	-9.55165
;N:60;w:24;N:60	-9.55251
;w:6;D:36;D:39;D:42	-9.55269
;N:56;N:62	-9.5528
;w:12;N:39;w:12;N:41	-9.553
;N:67;N:75	-9.55336
;w:12;N:45;N:52	-9.55392
;w:4;N:59	-9.55505
;w:12;N:74;N:77	-9.55591
;N:111	-9.55597
;w:12;N:82;w:12;N:82	-9.55601
;w:2;D:38	-9.55616
;N:49;w:12;N:49	-9.55618
;D:54;w:12;D:54	-9.55681
;N:85;w:3	-9.55709
;N:71;N:73	-9.55735
;w:24;N:55;N:60	-9.5574
;D:43;D:48	-9.55744
;w:12;N:52;w:12;N:55	-9.55785
;w:12;N:74;w:12;N:71	-9.55858
;N:72;N:77;N:81	-9.55905
;N:78;w:12;N:78	-9.55921
;N:44;N:49	-9.55923
;N:37;N:44	-9.56067
;N:32;w:12;N:32	-9.56075
;w:3;N:40	-9.56158
;w:4;N:54	-9.56183
;w:12;N:50;w:12;N:53	-9.56202
;N:56;w:12;N:56	-9.56219
;w:24;D:39	-9.56226
;w:24;N:53;N:65	-9.56316
;w:12;N:56;N:61;N:65	-9.56317
;w:12;N:56;w:12;N:54	-9.56328
;w:24;N:56;N:61	-9.56397
;w:6;N:56;w:6;N:58	-9.56444
;w:12;N:60;w:12;N:64	-9.56448
;w:12;N:59;w:12;N:56	-9.5649
;w:12;N:67;w:12;N:66	-9.56495
;w:12;N:63;N:70	-9.56495
;w:6;N:37;w:6;N:37	-9.5653
;w:9;N:83	-9.56568
;w:24;N:74;N:77	-9.56583
;w:12;N:76;w:12;N:73	-9.56631
;N:56;N:64	-9.56753
;w:6;N:61;w:6;N:64	-9.56754
;N:75;w:4	-9.5681
;w:12;N:32;w:12;N:32	-9.56816
;w:16;D:42	-9.56834
;N:66;N:70;N:75	-9.56837
;D:45;D:50	-9.56934
;w:12;N:55;N:60;N:64	-9.56974
;w:12;N:70;N:75	-9.5699
;N:69;N:71	-9.57061
;D:54;w:6;D:38	-9.57145
;w:4;N:56;w:4	-9.5737
;w:9;N:39	-9.57386
;w:2;N:55	-9.57418
;w:12;N:55;N:59;N:62	-9.57504
;w:27;N:4	-9.57518
;w:8;N:85	-9.57519
;N:48;N:53;N:57	-9.57531
;w:6;N:68;w:6;N:71	-9.57566
;w:12;N:51;w:12;N:53	-9.57567
;N:69;N:78	-9.57567
;w:6;N:65;w:6;N:68	-9.57597
;N:85;w:4	-9.57613
;w:4;N:55;w:4	-9.57616
;w:12;N:46;N:51	-9.57702
;w:15;N:46	-9.57704
;w:4;N:61;w:4	-9.5773
;w:1;N:60	-9.57844
;w:24;N:55;N:67	-9.57861
;w:12;N:72;w:12;N:73	-9.57871
;w:12;N:67;w:12;N:62	-9.57875
;D:50;D:53	-9.58019
;w:6;N:59;w:6;N:62	-9.58023
;N:54;N:58;N:63	-9.58055
;w:12;N:75;w:12;N:78	-9.58056
;N:55;N:64	-9.58134
;N:45;N:49	-9.58223
;w:12;N:99	-9.58262
;N:86;N:91	-9.58267
;N:79;w:12;N:79	-9.583
;N:58;w:12;N:58	-9.58357
;w:6;D:36;D:42;D:45	-9.58362
;w:12;N:44;N:51	-9.58372
;w:24;N:65;N:70	-9.58431
;w:12;N:59;w:12;N:63	-9.58449
;w:6;D:36;D:42;D:43	-9.58461
;N:80;w:12;N:78	-9.58522
;D:70;w:6;D:70	-9.58639
;D:46;D:48	-9.58644
;w:3;N:48;w:3	-9.58661
;w:12;N:51;w:12;N:56	-9.58681
;w:3;N:81	-9.58771
;w:12;N:61;w:12;N:65	-9.58787
;w:24;N:67;N:72	-9.58835
;N:47;w:12;N:47	-9.58852
;w:21;N:74	-9.58918
;N:38;N:45	-9.58942
;N:54;N:62	-9.58997
;N:59;w:24;N:59	-9.59012
;D:54;w:12;D:38	-9.59026
;w:24;N:51;N:55	-9.59053
;w:12;N:57;N:62;N:66	-9.59285
;w:4;N:73;w:4	-9.59317
;w:12;N:70;w:12;N:71	-9.59359
;w:3;N:44;w:3	-9.59391
;w:12;N:68;w:12;N:69	-9.59397
;N:56;N:65	-9.59399
;w:4;N:86;w:4	-9.59418
;N:63;N:69	-9.59532
;N:77;N:81;N:84	-9.59638
;w:12;N:51;N:55	-9.59661
;w:2;N:58	-9.59678
;w:24;N:70;N:73	-9.59808
;D:42;D:48	-9.59844
;w:12;N:75;w:12;N:74	-9.59899
;D:56;D:70	-9.59921
;w:12;N:98	-9.59935
;w:48;N:83	-9.5995
;w:6;N:61;w:6;N:59	-9.60016
;w:24;N:35;N:47	-9.60186
;w:4;N:52	-9.60192
;D:41;D:45	-9.60205
;w:6;N:63;w:6;N:66	-9.603
;w:12;N:63;w:12;N:67	-9.60316
;w:4;N:56	-9.60345
;w:12;N:69;w:12;N:70	-9.60347
;N:75;N:82	-9.60365
;N:63;w:12;N:61	-9.60368
;N:71;N:80	-9.60371
;N:61;N:67	-9.60385
;N:81;w:12;N:79	-9.60403
;N:60;N:66	-9.60424
;w:12;N:62;w:12;N:66	-9.60426
;N:53;w:12;N:53	-9.60441
;N:54;w:12;N:54	-9.6048
;w:12;N:65;w:12;N:64	-9.60502
;w:6;D:42;w:6;D:36;D:46	-9.60606
;w:12;N:83;w:12;N:81	-9.60664
;D:49;D:50	-9.60682
;w:12;N:37;w:12;N:39	-9.60699
;N:74;N:79;N:83	-9.60749
;w:6;D:36;D:38;D:46	-9.6079
;w:6;N:60;w:6;N:63	-9.60794
;N:26;N:38	-9.60802
;w:6;D:42;w:6;D:38;D:46	-9.60808
;w:6;N:78;w:6;N:76	-9.60828
;w:12;N:77;N:80	-9.60872
;w:24;N:75;N:78	-9.60944
;w:12;N:70;N:74	-9.60958
;N:51;w:12;N:51	-9.60964
;D:70;w:6;D:42	-9.61027
;D:70;w:6;D:36	-9.61028
;w:4;N:53	-9.61067
;N:70;N:78	-9.61097
;N:85;w:2	-9.61115
;w:12;N:59;N:64;N:68	-9.61141
;w:12;N:48;w:12;N:53	-9.61169
;N:86;w:3	-9.61172
;N:70;N:79	-9.61246
;D:36;D:54	-9.61299
;D:43;D:69	-9.61359
;D:51;w:12;D:42	-9.61365
;D:46;D:69	-9.61412
;w:6;D:36;D:37;D:42	-9.61497
;w:12;D:38;D:42;w:12;D:42	-9.61581
;w:12;N:51;w:12;N:54	-9.61634
;w:12;N:49;w:12;N:54	-9.61722
;N:55;N:63	-9.61789
;N:59;N:65	-9.61888
;N:64;w:12;N:62	-9.619
;w:9;N:38	-9.62071
;w:12;N:75;N:78	-9.62076
;w:6;N:61;w:6;N:66	-9.62089
;w:12;N:67;w:12;N:68	-9.621
;w:12;N:72;w:12;N:77	-9.62174
;w:16;D:36	-9.62204
;w:12;N:71;N:75	-9.62208
;w:6;N:96	-9.62216
;D:69;w:2	-9.62233
;w:39;N:6	-9.62257
;D:36;D:42;w:12;D:42;w:12;D:38;D:42	-9.62274
;w:6;D:36;D:45	-9.62306
;N:87;N:92	-9.6231
;N:31;w:12;N:31	-9.62442
;w:15;N:79	-9.6247
;w:12;N:49;w:12;N:51	-9.62498
;w:3;N:51;w:3	-9.62501
;w:6;N:64;w:6;N:65	-9.62624
;w:12;N:65;w:12;N:66	-9.62636
;w:6;N:71;w:6;N:74	-9.62702
;w:6;N:58;w:6;N:61	-9.62729
;N:73;N:78;N:82	-9.62761
;w:12;N:30;N:42	-9.62766
;w:4;N:72;w:4	-9.6293
;w:8;D:42;w:8;D:42	-9.62947
;w:3;N:47;w:3	-9.63059
;w:18;N:90	-9.63143
;N:86;N:98	-9.63188
;w:12;N:68;w:12;N:63	-9.63189
;w:12;N:60;N:69	-9.63246
;N:62;N:68	-9.63249
;w:12;N:77;w:12;N:74	-9.63276
;N:76;w:24;N:76	-9.63288
;w:2;N:56	-9.63354
;w:12;D:36;D:38;D:49	-9.63366
;w:12;N:47;w:12;N:52	-9.63385
;w:3;N:49;w:3	-9.6339
;w:24;N:96	-9.63415
;D:36;w:24;D:38	-9.63445
;w:12;N:66;w:12;N:61	-9.63447
;w:3;N:86;w:3	-9.63503
;D:69;w:6;D:42;D:69	-9.63552
;w:9;D:42	-9.63564
;w:3;N:39	-9.63659
;w:12;N:63;N:67;N:70	-9.6377
;N:52;N:59;N:64	-9.6382
;w:12;N:55;w:12;N:53	-9.63832
;w:6;N:69;w:6;N:72	-9.63855
;w:3;N:74;w:3	-9.63889
;N:73;N:75	-9.6389
;w:12;D:49	-9.63914
;N:71;w:2	-9.64059
;w:12;N:78;w:12;N:75	-9.64076
;N:58;w:24;N:58	-9.6409
;w:24;N:94	-9.64097
;w:12;D:42;w:12;D:36;D:42;w:12;D:42	-9.64159
;w:21;N:51	-9.6417
;w:12;N:64;w:12;N:65	-9.64182
;w:1;N:57	-9.64205
;D:54;w:6;D:36	-9.64217
;D:45;D:69	-9.64316
;N:80;w:1	-9.64329
;w:12;N:71;N:76	-9.64342
;w:4;N:61	-9.64364
;w:12;D:36;D:38;D:46	-9.64364
;N:87;N:91	-9.6437
;N:50;w:12;N:50	-9.64489
;w:12;N:74;w:12;N:73	-9.64528
0;N:51	-9.64569
;w:4;N:60	-9.64693
;w:3;N:87;w:3	-9.64707
;w:32;N:5	-9.64725
;w:12;N:81;w:12;N:83	-9.64731
;w:12;N:66;w:12;N:67	-9.64793
;D:49;D:53	-9.64801
;w:12;N:42;N:49	-9.64843
;w:12;N:71;w:12;N:72	-9.64857
;w:12;D:36;D:42;w:12;D:36;D:42	-9.64942
;w:12;N:66;w:12;N:65	-9.64944
;N:84;w:3	-9.65069
;N:67;N:71;N:76	-9.65123
;D:43;D:54	-9.65215
;w:6;N:72;w:6;N:75	-9.6523
;w:12;N:62;N:71	-9.65293
;w:12;N:57;w:12;N:54	-9.65306
;w:6;D:36;D:42;w:6;D:42	-9.65315
;N:82;w:12;N:80	-9.65327
;w:12;N:76;w:12;N:75	-9.65366
;w:4;N:69;w:4	-9.65435
;N:51;N:54;N:58	-9.65487
;w:24;N:97	-9.65546
;w:12;D:42;D:47	-9.65574
;w:6;N:62;w:6;N:67	-9.6558
;w:18;N:26	-9.65582
;w:12;N:48;w:12;N:50	-9.65633
;N:74;N:77;N:81	-9.65667
;w:12;N:74;N:78	-9.6568
;N:62;w:12;N:60	-9.65695
;N:87;w:4	-9.65723
;w:12;N:45;w:12;N:47	-9.65743
;w:12;N:65;w:12;N:60	-9.65812
;w:12;N:62;w:12;N:61	-9.65925
;N:46;N:50	-9.65959
;w:12;N:56;w:12;N:53	-9.65991
;w:24;N:72;N:84	-9.66025
;w:12;D:36;D:43	-9.6605
;w:15;N:45	-9.66058
;w:12;N:64;w:12;N:68	-9.66076
0;N:49	-9.66138
;w:12;N:63;w:12;N:62	-9.66148
;w:12;N:60;N:67	-9.66166
;w:12;N:58;w:12;N:62	-9.66211
;w:3;N:76;w:3	-9.66229
;N:22;N:34	-9.66234
;w:6;N:35;w:6;N:35	-9.66256
0;N:76	-9.66264
;D:51;w:24;D:51	-9.66288
;w:4;D:46	-9.66313
;w:6;N:79;w:6;N:77	-9.66379
;w:12;N:54;N:59;N:63	-9.66445
;w:6;N:65;w:6;N:66	-9.66559
;N:69;N:77	-9.66621
;N:41;w:24;N:41	-9.6667
;N:59;N:64;N:67	-9.66745
;N:56;N:60;N:63;N:68	-9.66755
;N:68;w:12;N:56	-9.66787
;w:12;N:69;w:12;N:64	-9.66842
;N:69;w:2	-9.66913
;w:12;N:58;N:67	-9.66944
;w:8;N:85;w:8;N:8	-9.66998
;D:42;D:49	-9.67002
;w:12;N:70;w:12;N:65	-9.67006
;N:66;w:12;N:54	-9.6702
;D:36;D:48	-9.6705
;N:73;N:76;N:81	-9.67113
;w:6;N:55;w:6;N:57	-9.6712
;N:88;N:93	-9.67127
;N:57;w:24;N:57	-9.67145
;N:24;N:36	-9.6722
;w:1;N:58	-9.67237
;w:24;D:45	-9.67246
;w:24;N:70;N:74	-9.67247
;N:77;w:24;N:77	-9.67248
;w:6;N:70;w:6;N:71	-9.67263
;w:6;D:36;D:41	-9.67272
;D:39;D:42	-9.67279
;w:12;N:46;w:12;N:48	-9.67295
;N:80;w:4	-9.673
;w:6;N:73;w:6;N:76	-9.67348
;w:12;D:38;w:6;D:38;w:6;D:38	-9.6739
;N:72;w:4	-9.67419
;D:56;w:12;D:42	-9.67437
;N:88;N:92	-9.67442
;N:75;N:80;N:84	-9.67528
;w:12;N:62;N:66;N:69	-9.67547
;D:43;D:50	-9.67594
;w:6;N:60;w:6;N:58	-9.67596
;w:12;N:51;N:54	-9.67601
;w:12;N:41;w:12;N:43	-9.67618
;N:53;N:57;N:60;N:65	-9.67644
;w:24;N:34;N:46	-9.67652
;N:74;N:81	-9.67761
;w:24;N:50;N:54	-9.6777
;w:6;N:57;N:61	-9.67783
;w:12;N:61;N:66;N:70	-9.67796
;N:79;w:4	-9.67924
;N:70;w:2	-9.67958
;w:21;N:50	-9.67973
;N:55;w:12;N:55	-9.68111
;w:12;N:61;N:70	-9.68149
;w:8;N:31	-9.68153
;N:64;N:70	-9.68167
;w:6;D:36;w:6;D:36;D:42	-9.68185
;w:12;N:73;w:12;N:78	-9.68191
;w:3;N:75;w:3	-9.68202
;w:12;N:69;N:74	-9.68264
;w:21;N:75	-9.68273
;N:90;N:93	-9.68368
;w:12;N:82;w:12;N:84	-9.68396
;w:4;N:55	-9.68464
;w:12;N:73;w:12;N:74	-9.68497
;w:3;N:38	-9.68512
;w:6;N:67;w:6;N:64	-9.68512
;w:1;N:55	-9.68579
;N:92;w:3	-9.68583
;w:12;N:53;N:58;N:62	-9.68631
;N:78;N:82;N:85	-9.68652
;N:58;N:62;N:65;N:70	-9.68672
;N:52;w:12;N:52	-9.68686
;N:68;w:2	-9.68687
;N:76;w:4	-9.68692
;w:1;N:56	-9.68707
;D:36;D:39	-9.68751
;N:82;w:4	-9.68753
;w:12;N:63;w:12;N:64	-9.68796
;w:4;N:62;w:4	-9.68799
;w:12;N:79;N:91	-9.68831
;w:12;N:36;w:12;N:38	-9.68845
;w:12;N:49;N:54	-9.68899
;N:42;N:49;N:54	-9.68901
;w:12;D:36;D:42;D:45	-9.68909
;D:36;D:49;w:24;D:38	-9.68914
;w:3;N:43;w:3	-9.68957
;w:4;D:38;D:42	-9.68996
0;N:47	-9.69005
;w:3;N:69;w:3	-9.69072
;w:12;N:64;w:12;N:59	-9.6911
;N:43;N:48	-9.69154
;w:16;N:83	-9.6918
;w:3;N:80	-9.69183
;w:6;N:24	-9.69265
;w:12;N:54;N:58;N:61	-9.69314
;w:6;N:54;w:6;N:56	-9.69325
;w:6;N:63;w:6;N:68	-9.69452
;N:55;N:59;N:62;N:67	-9.69571
;w:12;N:77;w:12;N:80	-9.69579
;w:6;N:56;w:6;N:59	-9.69664
;w:6;D:42;w:6;D:36;D:38;D:42	-9.69726
;w:6;D:36;w:6;D:38;D:42	-9.69756
;w:3;N:54;w:3	-9.69765
;w:12;N:65;w:12;N:69	-9.69843
;D:43;D:46	-9.69931
;w:12;D:36;D:37;D:42	-9.69971
;w:8;D:38;w:8;D:38	-9.69975
;w:12;N:63;w:12;N:58	-9.70104
;D:49;w:12;D:36	-9.70107
;w:12;D:36;D:42;w:12;D:42	-9.70137
;N:20	-9.70151
;w:6;N:57;w:6;N:62	-9.70201
;N:55;N:61	-9.70208
;N:75;N:78;N:82	-9.70242
;w:6;D:42;w:6;D:36	-9.70243
;w:6;N:59;w:6;N:57	-9.70303
;w:24;N:68;N:73	-9.70375
;N:66;N:71;N:74	-9.70427
;w:24;N:57;N:61;N:64	-9.70491
;w:30;N:65	-9.70519
;w:12;N:66;w:12;N:70	-9.70557
;w:6;N:83;w:6;N:83	-9.70567
;N:73;w:2	-9.70576
;N:68;N:72;N:77	-9.70613
;w:9;N:84	-9.70673
;w:6;D:38;w:6;D:36;D:38	-9.7071
;w:6;N:66;w:6;N:71	-9.70747
;w:24;N:72;N:76	-9.7077
;w:12;N:63;N:72	-9.70798
;w:4;N:66	-9.70816
;D:54;w:6;D:38;D:54	-9.70855
;w:12;N:60;N:65;N:69	-9.70881
;w:15;N:80	-9.70921
;w:6;N:71;w:6;N:72	-9.70921
;D:46;w:6;D:42	-9.7095
;N:41;N:48;N:53	-9.70985
;w:12;N:59;N:68	-9.7102
;w:2;D:42	-9.71037
;N:56;w:24;N:56	-9.7106
;D:41;D:42	-9.71097
;w:12;N:57;w:12;N:61	-9.71106
;w:3;N:62;w:3	-9.71136
0;N:48	-9.71139
;D:43;D:51	-9.71153
0;N:42	-9.71191
;w:24;N:61;N:65;N:68	-9.71233
;N:39;w:24;N:39	-9.71242
;w:12;N:55;w:12;N:59	-9.7135
;w:24;N:54;N:59	-9.71369
;w:12;N:49;w:12;N:52	-9.71428
;w:12;D:36;D:41	-9.71485
;N:67;w:4	-9.71487
;w:6;N:42;N:54	-9.71497
;w:12;N:72;N:76	-9.71535
;D:36;D:47	-9.7164
;N:54;N:61;N:66	-9.71642
;N:67;w:2	-9.71651
;N:60;N:65;N:68	-9.71665
;w:12;N:76;N:79	-9.71688
;N:50;N:53;N:58	-9.71691
;w:12;N:72;N:77	-9.71718
;w:12;D:36;D:45	-9.71755
;w:4;N:68;w:4	-9.71763
;N:72;N:75;N:79	-9.71789
;w:3;N:46;w:3	-9.7179
;w:12;N:29;N:41	-9.71811
;w:12;N:48;N:53	-9.71819
;w:12;N:71;w:12;N:66	-9.71851
;N:89;w:3	-9.71931
;N:88;w:4	-9.7199
0;N:50	-9.72006
;w:4;N:65	-9.72013
;w:36;N:30	-9.72044
;w:15;N:44	-9.72069
;w:12;N:47;w:12;N:49	-9.72086
;w:6;N:44;w:6;N:46	-9.7214
;w:12;N:40;w:12;N:38	-9.72213
;w:12;N:48;N:52	-9.72219
;w:12;N:62;w:12;N:57	-9.72252
;w:12;N:70;w:24;N:70	-9.72253
;N:86;w:2	-9.72262
;w:12;N:42;w:12;N:40	-9.72272
;N:76;N:80;N:83	-9.72276
;w:12;D:38;w:12;D:36	-9.72369
;w:6;D:42;w:6;D:38	-9.72392
;w:3;N:83	-9.72396
;w:12;N:55;w:12;N:52	-9.72422
;w:12;N:44;w:12;N:46	-9.72453
;w:12;N:50;N:54	-9.72527
0;N:45	-9.72547
;w:12;N:84;w:12;N:82	-9.7257
;D:51;D:56	-9.72634
;w:12;N:22	-9.72671
;w:30;N:63	-9.72731
;w:24;N:32;N:44	-9.72791
;w:24;N:58;N:62;N:65	-9.72796
;w:24;N:73;N:85	-9.72803
;D:36;D:39;D:42	-9.72851
;w:3;N:73;w:3	-9.72853
;N:79;w:1	-9.72908
;w:6;D:37;D:38	-9.72909
;w:12;N:79;w:12;N:76	-9.73016
;w:36;N:88	-9.73032
;D:69;w:6;D:69;w:6;D:42	-9.73082
;w:12;N:59;N:62;N:67	-9.73184
;w:24;N:59;N:64;N:68	-9.73184
;w:12;N:64;w:12;N:63	-9.73197
;w:12;N:78;w:12;N:77	-9.73236
;w:12;N:77;w:12;N:76	-9.73236
;N:73;w:4	-9.73237
;N:49;N:54;N:58	-9.73263
;w:6;N:76;w:6;N:79	-9.73284
;N:65;N:70;N:73	-9.73314
;w:12;N:61;w:12;N:62	-9.73368
;w:6;N:71;w:6;N:68	-9.73371
;w:6;N:65;w:6;N:62	-9.73377
;w:6;N:60;w:6;N:61	-9.73377
;w:3;N:58;w:3	-9.73385
;N:73;N:76;N:80	-9.73388
;w:12;N:61;N:68	-9.73394
0;N:46	-9.73412
;w:3;N:50;w:3	-9.73433
;w:6;D:42;D:51	-9.73485
;w:3;D:38;w:3;D:38;w:3;D:38;w:3;D:38	-9.73517
;N:71;N:79	-9.73569
;D:45;D:49	-9.73578
;w:4;N:80;w:4	-9.73582
;w:12;N:43;w:12;N:45	-9.73602
;N:57;N:61;N:64;N:69	-9.73615
;N:88;N:91	-9.73634
;D:51;w:6;D:42	-9.73714
;w:12;N:52;w:12;N:56	-9.73724
;w:8;N:32	-9.73754
;N:70;w:12;N:58	-9.73759
;N:72;N:74	-9.73771
;w:12;N:80;w:12;N:77	-9.73787
;N:74;w:4	-9.73812
0;N:41	-9.73845
;N:37;w:24;N:37	-9.73859
;N:74;N:77;N:82	-9.73863
;w:24;N:55;N:59;N:62	-9.73874
;N:40;w:24;N:40	-9.73875
;w:6;D:38;w:6;D:42	-9.73913
;w:12;N:83;w:12;N:83	-9.73941
;w:6;N:71;w:6;N:70	-9.73962
;w:6;N:60;w:6;N:65	-9.74028
;D:42;D:43	-9.74029
;w:12;N:41;N:48	-9.74035
;N:57;N:62;N:65	-9.74041
;N:78;w:24;N:78	-9.74146
;w:6;D:36;D:41;D:42	-9.74153
;w:6;N:57;w:6;N:60	-9.74203
;w:16;N:37	-9.74228
;w:4;N:51	-9.74233
;w:4;N:88;w:4	-9.74236
;w:17;N:7	-9.74283
;N:42;N:47	-9.74337
;w:6;N:37;N:49	-9.74365
;w:24;N:57;N:62;N:66	-9.74381
0;N:43	-9.74386
;w:12;N:54;w:12;N:52	-9.74508
;D:54;w:6;D:42;D:54	-9.74557
;w:6;N:73;w:6;N:70	-9.74592
;w:6;N:64;w:6;N:69	-9.74593
;N:69;w:4	-9.74604
;N:43;N:47	-9.74619
;w:4;N:79;w:4	-9.74659
;w:3;N:61;w:3	-9.74691
;D:69;w:6;D:69;w:6;D:36	-9.74708
;w:12;N:31;w:12;N:31	-9.74716
;w:24;N:71;N:75	-9.74723
;w:24;N:23	-9.7478
;w:48;N:37	-9.74826
;w:6;N:53;w:6;N:55	-9.74937
;D:51;w:6;D:51	-9.7501
;w:4;N:63;w:4	-9.75049
;w:6;N:70;w:6;N:67	-9.75051
;w:12;N:35;w:12;N:37	-9.75109
;w:30;N:68	-9.75122
;w:24;N:56;N:61;N:65	-9.7513
;w:12;N:84;w:12;N:84	-9.7522
;N:42;w:24;N:42	-9.7523
;N:44;N:48	-9.75262
;D:36;D:41;D:42	-9.75271
;N:87;N:99	-9.75298
;w:60;N:65	-9.7531
;w:24;N:55;N:60;N:64	-9.75321
;w:6;N:82;w:6;N:84	-9.75336
;w:30;N:67	-9.75422
;w:30;N:64	-9.75428
;N:52;N:56;N:61	-9.75436
;w:30;N:66	-9.75459
;D:73;D:76	-9.7555
;w:6;D:42;w:6;D:36;D:42;w:6;D:42	-9.75577
;w:6;N:81;w:6;N:83	-9.75627
;w:60;N:68	-9.75637
;N:71;w:4	-9.75643
;w:12;N:75;N:79	-9.75731
;w:24;N:56;N:60;N:63	-9.75757
;N:53;N:62	-9.75781
;D:45;D:70	-9.75796
;w:4;N:52;w:4	-9.75802
;N:51;N:55;N:60	-9.75806
;N:38;w:24;N:38	-9.75868
;w:24;D:37;D:42	-9.75876
;w:24;N:51;N:58	-9.75972
;N:39;N:46;N:51	-9.75974
;N:55;w:24;N:55	-9.76006
;w:12;N:59;w:12;N:60	-9.76017
0;N:40	-9.76027
;N:21;N:33	-9.76042
;D:70;w:6;D:38	-9.7609
;w:12;N:64;N:68;N:71	-9.76143
;N:87;w:3	-9.76147
;w:6;D:41;D:42	-9.76189
;w:12;N:76;w:12;N:79	-9.76254
;N:69;w:12;N:57	-9.76291
;w:9;N:37	-9.76292
;w:6;D:38;w:6;D:38;D:42	-9.76312
;w:24;N:62;N:66;N:69	-9.76365
;N:48;w:24;N:48	-9.76385
;w:24;N:33;N:45	-9.76401
;w:12;N:64;w:24;N:64	-9.76475
;N:76;N:83	-9.76509
;D:47;D:49	-9.76534
;w:12;N:64;N:73	-9.76537
;w:21;N:76	-9.7654
;w:6;N:68;w:6;N:65	-9.76541
;w:12;N:62;N:69	-9.76582
;w:12;N:40;N:47	-9.76589
;D:54;w:12;D:36;D:42	-9.76602
;w:60;N:63	-9.76647
;w:12;N:57;N:66	-9.76649
;w:30;N:62	-9.76672
;w:8;D:36;D:38	-9.76783
;w:6;N:65;w:6;N:70	-9.76817
;w:24;D:43	-9.76832
;w:7;N:65	-9.76833
;w:6;N:74;w:6;N:77	-9.76866
;N:82;w:1	-9.76876
;w:60;N:66	-9.76894
;D:69;w:12;D:42;D:69	-9.76897
;w:12;N:62;w:12;N:58	-9.76918
;w:6;D:38;D:42;D:48	-9.76941
;w:12;N:60;w:12;N:55	-9.7703
;N:61;w:12;N:59	-9.77054
;D:47;D:70	-9.77071
;w:6;N:61;w:6;N:58	-9.77084
;w:4;N:78;w:4	-9.77103
;w:24;N:60;N:67	-9.77111
;w:12;N:85;w:12;N:85	-9.77114
;D:51;w:12;D:36;D:51	-9.77129
;w:48;N:84	-9.77137
;w:24;N:70;N:75	-9.77182
;w:12;N:69;w:12;N:65	-9.77185
;N:67;w:12;N:55	-9.7719
;w:4;N:64	-9.77206
;w:12;N:67;w:24;N:67	-9.77218
;w:12;N:69;w:24;N:69	-9.77234
;w:8;D:46	-9.77265
;N:43;w:24;N:43	-9.77265
0;N:44	-9.77275
;w:6;N:61;w:6;N:62	-9.77277
;w:4;N:50	-9.77311
;w:6;N:63;w:6;N:60	-9.77328
;w:4;N:71;w:4	-9.77359
;w:12;N:65;N:74	-9.7739
;D:38;D:41	-9.77437
;w:6;N:69;w:6;N:66	-9.77457
;w:6;D:36;D:42;w:6;D:36;D:42	-9.77464
;w:12;N:57;N:60;N:65	-9.77475
;w:12;N:49;w:12;N:50	-9.77495
;w:12;D:36;D:38;D:39;D:42	-9.77513
;w:12;N:62;w:12;N:63	-9.77523
;D:42;D:47	-9.77546
;w:60;N:64	-9.77562
;N:58;N:63;N:66	-9.7758
;w:6;N:59;w:6;N:64	-9.77602
;w:6;N:64;w:6;N:61	-9.77617
;w:12;N:47;N:54;N:59	-9.77634
;w:4;N:83;w:4	-9.77697
;w:6;N:77;w:6;N:78	-9.7772
;w:12;N:75;w:12;N:80	-9.77723
;w:12;N:56;N:59;N:64	-9.77799
;w:6;N:80;w:6;N:78	-9.77811
;w:12;N:65;w:24;N:65	-9.77856
;w:12;N:72;w:12;N:67	-9.77863
;N:36;w:24;N:36	-9.77929
;w:33;N:5	-9.77947
;N:54;N:60	-9.77966
;w:6;N:34;w:6;N:34	-9.7799
;w:6;D:38;w:6;D:36;D:42	-9.78028
;N:65;N:71	-9.78038
;w:6;N:82;w:6;N:80	-9.78112
;N:72;N:80	-9.7813
;w:12;N:80;N:92	-9.78189
;D:42;D:70	-9.78236
;w:1;N:54	-9.78263
;w:3;N:78;w:3	-9.78275
;w:6;N:63;w:6;N:64	-9.78288
;N:82;w:12;N:82	-9.78306
;N:53;w:24;N:53	-9.78316
;N:70;w:24;N:68	-9.78337
;w:3;N:64;w:3	-9.78341
;w:6;N:43;w:6;N:45	-9.7841
;w:24;N:58;N:63;N:67	-9.78553
;D:53;D:70	-9.78571
;w:6;N:45;w:6;N:47	-9.78588
;w:12;N:48;N:55;N:60	-9.7864
;w:6;N:34;N:46	-9.78666
;w:60;N:67	-9.78712
;w:12;N:53;N:57;N:60	-9.78712
;w:4;N:84;w:4	-9.78719
;w:12;N:41;w:12;N:39	-9.78721
;N:77;w:2	-9.78742
;N:71;w:12;N:59	-9.7877
;w:21;N:49	-9.78785
;w:12;N:66;w:24;N:66	-9.78804
;w:12;N:60;N:63;N:68	-9.78841
;w:12;N:53;w:12;N:57	-9.78886
;w:6;N:33;w:6;N:33	-9.78898
;N:59;N:63;N:66;N:71	-9.78951
;N:37;w:36;N:37	-9.7896
;D:76;w:6;D:76	-9.78963
;w:12;N:71;w:24;N:71	-9.78995
;w:12;N:60;w:12;N:61	-9.79004
;w:12;N:60;w:12;N:59	-9.79016
;N:65;w:12;N:53	-9.79016
;w:6;N:59;w:6;N:56	-9.7902
;w:12;N:68;w:24;N:68	-9.79038
;N:64;N:69;N:72	-9.79046
;w:6;N:55;w:6;N:58	-9.79057
;N:73;w:24;N:71	-9.79069
;w:32;N:4	-9.79172
;w:60;N:69	-9.79198
;w:12;N:19	-9.79227
;N:81;w:1	-9.79246
;N:74;w:2	-9.79259
;w:4;N:85;w:4	-9.79268
;w:12;N:39;w:12;N:37	-9.79283
;w:12;N:74;w:12;N:75	-9.79296
;w:48;N:36	-9.79311
;w:12;N:34;w:12;N:36	-9.79316
;N:85;w:1	-9.79346
;w:24;D:48	-9.79391
;w:12;N:67;w:12;N:71	-9.79394
;w:6;N:42;w:6;N:44	-9.79436
;w:12;N:58;N:61;N:66	-9.79502
;w:12;N:80;N:83	-9.79559
;w:54;N:5	-9.79573
;N:83;w:4	-9.7958
;w:6;N:81;w:6;N:79	-9.79641
;w:30;N:70	-9.7966
;w:12;N:65;w:12;N:61	-9.79674
;w:12;N:45;w:12;N:50	-9.79692
;N:75;N:77	-9.79699
;w:12;N:59;N:67	-9.79703
;N:40;N:47;N:52	-9.7971
;N:74;N:76	-9.79712
;w:6;N:40;N:52	-9.79793
;N:68;w:12;N:70	-9.7983
;w:12;N:61;N:69	-9.79867
;N:45;w:24;N:45	-9.79888
;w:6;N:69;w:6;N:70	-9.79902
;w:4;N:54;w:4	-9.79936
;w:12;N:52;N:57;N:61	-9.79968
;D:38;D:39	-9.79968
;w:4;N:62	-9.79972
;w:4;N:87;w:4	-9.79975
;w:12;N:55;N:64	-9.80021
;w:6;N:74;w:6;N:71	-9.80024
;w:30;N:69	-9.80059
;w:12;N:61;w:12;N:60	-9.80059
;N:91;w:3	-9.80079
;w:4;N:50;w:4	-9.80085
;w:54;N:7	-9.80092
;N:83;w:3	-9.80108
;w:4;N:65;w:4	-9.80111
;w:6;N:72;w:6;N:69	-9.80151
;D:36;D:42;D:49;w:12;D:42	-9.80152
;N:72;w:24;N:70	-9.80169
;N:87;w:2	-9.80182
;N:78;w:4	-9.80194
;N:54;N:63	-9.80227
;w:17;N:5	-9.80267
;w:12;N:54;w:12;N:61	-9.80283
;w:6;N:67;w:6;N:72	-9.80327
;w:6;N:75;w:6;N:74	-9.80365
;N:61;N:66;N:69	-9.80404
;w:12;N:73;w:12;N:68	-9.80416
;N:71;w:12;N:73	-9.80434
;N:54;N:58;N:61;N:66	-9.80497
;w:72;N:8	-9.80512
;D:48;w:6;D:48	-9.8052
;N:54;w:24;N:54	-9.80541
;w:12;N:57;w:12;N:58	-9.80582
;N:46;N:49	-9.80608
;w:3;N:66;w:3	-9.80622
;w:12;N:65;N:69;N:72	-9.80662
;w:30;N:61	-9.80663
;D:49;w:12;D:38	-9.80726
;w:15;N:43	-9.80748
;w:24;N:53;N:58	-9.80749
;w:16;N:84	-9.80775
;w:6;N:75;w:6;N:72	-9.80798
;w:12;N:64;w:12;N:60	-9.80802
;w:12;N:62;N:67;N:71	-9.80803
;w:12;N:56;w:12;N:63	-9.8083
;w:12;N:72;w:24;N:72	-9.80846
;N:70;w:4	-9.8085
;w:12;N:56;w:12;N:57	-9.80853
;w:7;N:66	-9.80922
;N:69;w:24;N:67	-9.8094
;N:69;N:73;N:78	-9.80954
;N:71;w:24;N:69	-9.80963
;w:6;N:66;w:6;N:63	-9.80982
;w:12;N:66;w:12;N:62	-9.8099
;w:6;N:62;w:6;N:63	-9.80994
;D:53;w:12;D:36	-9.81023
;N:84;w:1	-9.81045
;N:45;N:48	-9.81056
;D:36;D:69	-9.81148
;w:24;N:60;N:65;N:69	-9.8121
;N:72;w:2	-9.81255
;N:47;w:24;N:47	-9.81327
;w:12;N:53;w:12;N:51	-9.81351
;w:12;N:28;N:40	-9.81367
;w:12;N:77;w:12;N:78	-9.81369
;w:12;N:61;w:12;N:56	-9.81375
;w:21;N:48	-9.81416
;N:46;w:24;N:46	-9.81445
;w:8;N:86	-9.8147
;N:67;w:24;N:65	-9.8148
;w:12;N:38;w:12;N:36	-9.81612
;w:6;D:38;w:6;D:38;w:6;D:38;w:6;D:38	-9.81624
;w:6;N:74;w:6;N:75	-9.81625
;w:6;D:36;D:38;D:39	-9.81659
;D:36;D:42;w:12;D:36;D:42	-9.8174
;w:24;N:73;N:77	-9.81777
;w:6;D:36;D:39	-9.81815
;N:40;w:36;N:40	-9.81828
;w:12;N:54;w:12;N:55	-9.81889
;N:53;N:58;N:61	-9.81891
;w:60;N:62	-9.81995
;w:12;N:81;w:12;N:78	-9.82011
;w:12;N:68;w:12;N:72	-9.8203
;w:6;N:53;w:6;N:56	-9.82041
;w:8;N:87	-9.82055
;D:42;w:24;D:42	-9.82063
;N:89;N:94	-9.82079
;D:36;w:12;D:36	-9.82128
;w:6;N:49;w:6;N:52	-9.82158
0;N:77	-9.82271
;N:52;w:24;N:52	-9.8228
;w:6;N:60;w:6;N:57	-9.82352
;N:74;w:24;N:72	-9.8239
;N:73;w:12;N:75	-9.82415
;w:12;N:46;w:12;N:51	-9.82442
;w:6;N:84;w:6;N:84	-9.82443
;w:6;N:47;w:6;N:49	-9.82464
;w:12;N:78;w:12;N:79	-9.82561
;w:24;N:68;w:12;N:70	-9.82572
;w:12;N:64;N:71	-9.82607
;w:6;N:59;N:62	-9.82664
;w:12;N:51;w:12;N:55	-9.82666
;N:44;w:24;N:44	-9.82673
;w:3;N:82	-9.82752
;w:4;D:36;D:42	-9.82757
;w:12;N:73;w:24;N:73	-9.82771
;N:62;N:67;N:70	-9.82789
;w:12;N:58;w:12;N:59	-9.82796
;D:36;D:38;D:46	-9.82796
;N:36;N:43	-9.82801
;N:68;w:24;N:66	-9.82807
;w:12;N:74;w:12;N:69	-9.82807
;w:12;N:83;w:12;N:85	-9.82835
;w:12;N:63;w:12;N:59	-9.82841
;N:25;N:37	-9.82902
;w:24;N:95	-9.82909
;N:93;w:3	-9.82989
;N:68;w:4	-9.82995
;w:12;N:67;w:12;N:63	-9.8302
;w:6;N:44;N:56	-9.83073
;w:6;N:62;w:6;N:59	-9.83148
;w:6;N:59;w:6;N:60	-9.83213
;w:12;N:62;N:70	-9.83254
;w:12;N:87;w:12;N:89	-9.83279
;w:12;N:61;w:12;N:57	-9.83338
;w:6;N:86;w:6;N:86	-9.83372
;w:12;N:76;w:12;N:77	-9.83383
;N:72;w:12;N:60	-9.83389
;w:12;N:56;N:65	-9.83413
;N:51;N:58;N:63;N:67	-9.83463
;N:60;N:64;N:67;N:72	-9.83486
;w:12;N:70;w:12;N:66	-9.8349
;w:12;N:86;w:12;N:88	-9.83543
;w:6;N:49;w:6;N:51	-9.83554
;D:47;w:6;D:47	-9.83588
;N:81;w:4	-9.8362
;N:78;w:3	-9.8367
;w:24;N:65;N:69;N:72	-9.83677
;w:6;N:57;w:6;N:58	-9.83731
;D:38;w:12;D:38	-9.83775
;w:12;N:55;N:58;N:63	-9.83776
;w:6;N:46;w:6;N:48	-9.83789
;w:60;N:70	-9.83794
;D:51;D:76	-9.83824
;D:48;D:56	-9.83856
;N:40;N:45	-9.83916
;w:1;N:61	-9.83936
;N:38;w:36;N:38	-9.83975
;w:12;N:73;N:78	-9.83985
0;N:78	-9.83994
;w:12;N:68;w:12;N:64	-9.84006
;w:3;N:88;w:3	-9.84019
;w:12;N:76;w:12;N:81	-9.84028
;w:8;N:57;w:8	-9.84049
;N:80;w:24;N:80	-9.84157
;w:12;N:62;N:65;N:70	-9.84185
;N:35;w:24;N:35	-9.84211
;w:4;N:63	-9.84227
;w:12;N:75;w:12;N:76	-9.84254
;w:1;N:62	-9.84256
;w:12;N:60;w:24;N:60	-9.84259
;w:12;N:52;N:56;N:59	-9.84282
;D:49;w:12;D:42	-9.84288
;N:52;N:61	-9.84365
;w:12;N:61;N:64;N:69	-9.84402
;w:12;N:43;w:12;N:46	-9.84426
;D:54;D:69;D:70	-9.84458
;w:6;N:71;w:6;N:76	-9.84473
;N:42;w:36;N:42	-9.84497
;N:30;w:12;N:30	-9.84499
;D:70;w:12;D:36	-9.84513
;w:6;N:54;w:6;N:57	-9.84517
;w:4;N:82;w:4	-9.84529
;w:12;N:62;w:24;N:62	-9.84529
;w:6;D:37;D:38;D:42	-9.84599
;w:12;N:80;w:12;N:83	-9.84611
;N:56;N:61;N:64	-9.84627
;w:6;N:69;w:6;N:74	-9.84667
;w:12;N:56;w:12;N:60	-9.84703
;N:54;N:59;N:62	-9.8473
;w:24;N:51;N:54	-9.8475
;w:3;D:42;w:3	-9.84779
;w:60;N:61	-9.84787
;w:3;N:65;w:3	-9.848
;w:7;N:64	-9.84811
;N:77;w:4	-9.84851
;w:6;N:58;w:6;N:63	-9.84897
;N:64;w:12;N:52	-9.84918
;D:51;w:12;D:42;D:51	-9.84924
;w:12;N:53;w:12;N:54	-9.84932
;w:2;N:54	-9.84947
;w:12;N:47;N:52	-9.84955
;N:47;N:51;N:54	-9.84957
;w:12;N:78;N:81	-9.85049
;w:60;N:60	-9.8505
;w:12;N:74;w:12;N:79	-9.85126
;w:24;N:54;N:59;N:63	-9.85131
;N:72;N:81	-9.85139
;w:1;N:63	-9.85204
;w:24;N:69;w:12;N:67	-9.85213
;w:6;D:42;w:6;D:37;D:42	-9.85228
;w:60;N:71	-9.85229
;w:6;N:75;w:6;N:76	-9.85249
;w:6;N:72;w:12;N:72	-9.85328
;w:12;N:45;N:52;N:57	-9.85355
;N:23;N:35	-9.8537
;N:50;w:24;N:50	-9.85371
;N:75;w:2	-9.85388
;w:6;N:77;w:6;N:80	-9.85434
;N:49;w:24;N:49	-9.85436
;w:12;N:80;w:12;N:79	-9.85473
;w:16;N:36	-9.85476
;w:6;N:73;w:6;N:72	-9.85492
;N:70;N:74;N:79	-9.85494
;w:4;N:48	-9.85512
;w:24;N:74;N:78	-9.85519
;w:24;N:54;N:61	-9.85578
;w:12;N:57;w:12;N:64	-9.85586
;w:4;N:66;w:4	-9.85638
;w:24;N:69;w:12;N:71	-9.85697
;w:4;N:53;w:4	-9.85742
;w:24;N:61;N:68	-9.85763
;D:54;D:69;w:6;D:54;D:69	-9.85774
;w:9;N:36	-9.85801
;N:89;N:93	-9.85811
;N:83;w:12;N:81	-9.85813
;w:6;N:52;w:6;N:55	-9.85828
;w:30;N:3	-9.85831
;w:12;N:48;w:12;N:49	-9.85849
;w:6;N:75;w:6;N:78	-9.85862
;w:30;N:59	-9.85921
;w:12;N:42;w:12;N:43	-9.85961
;w:6;D:36;D:49	-9.85974
;N:39;w:36;N:39	-9.85992
;w:8;N:87;w:8;N:8	-9.86006
;w:12;N:52;w:12;N:50	-9.86025
;N:	-9.86106
;w:6;D:36;D:42;D:48	-9.86124
;w:24;N:53;N:60	-9.86144
;w:24;N:74;N:86	-9.86226
;N:75;w:24;N:73	-9.86236
;w:12;N:55;w:12;N:62	-9.86254
;w:6;D:36;w:6	-9.86278
;N:74;N:83	-9.86319
;w:6;N:41;N:48	-9.86388
;w:6;N:97	-9.86402
;w:6;N:41;w:6;N:43	-9.86433
;N:50;N:53;N:57	-9.86444
;N:54;N:56	-9.86447
;D:38;D:54	-9.86457
;w:12;N:63;w:24;N:63	-9.86467
;N:78;N:85	-9.86517
;N:94;w:3	-9.86546
;w:12;N:78;w:12;N:81	-9.86601
;w:30;N:60	-9.86612
;w:12;N:46;w:12;N:49	-9.8663
;N:76;w:2	-9.86647
;w:24;N:72;w:12;N:70	-9.86741
;w:24;N:67;w:12;N:69	-9.86748
;w:12;N:85;w:12;N:83	-9.86799
;w:6;N:43;N:55	-9.86879
;N:36;w:36;N:36	-9.86883
;N:48;N:55;N:60;N:64	-9.86906
;w:12;N:67;N:76	-9.86925
;w:24;D:49	-9.86938
;N:63;N:68;N:71	-9.86949
;w:3;N:35	-9.86961
;N:66;w:2	-9.87046
;w:6;N:23	-9.87056
;D:54;w:12;D:42;D:54	-9.87073
;w:12;N:66;N:75	-9.87091
;w:6;N:58;w:6;N:55	-9.87118
;N:79;w:24;N:79	-9.87166
;N:89;w:4	-9.87185
;w:12;N:75;w:12;N:70	-9.8719
;w:6;D:36;D:51	-9.87251
;w:1;N:66	-9.87259
;N:31;w:4	-9.87295
;w:6;N:50;N:55	-9.87314
;w:12;N:53;w:12;N:60	-9.87323
;w:3;N:63;w:3	-9.87383
;N:88;w:3	-9.87414
;w:4;N:74;w:4	-9.87465
;w:12;N:64;N:72	-9.87471
;w:6;N:52;w:6;N:54	-9.87474
;w:6;N:41;N:53	-9.87482
;w:6;N:39;N:51	-9.87497
;w:4;N:64;w:4	-9.87561
;w:7;N:63	-9.8757
;N:67;N:72;N:75	-9.87576
;N:86;w:1	-9.8759
;w:12;N:58;N:66	-9.87639
;w:12;N:46;N:53;N:58	-9.87667
;w:24;N:48;N:55	-9.87722
;w:8;D:36;D:42	-9.87736
;w:21;N:77	-9.87747
;N:51;N:55;N:58;N:63	-9.87768
;w:24;N:55;N:62	-9.87805
;w:12;N:44;w:12;N:42	-9.87836
;N:76;w:12;N:78	-9.87884
;N:81;w:24;N:81	-9.87911
0;N:39	-9.87918
;w:3;N:55;w:3	-9.87957
;w:12;N:47;w:12;N:48	-9.87958
;w:6;N:77;w:6;N:76	-9.87962
;D:53;w:12;D:42	-9.88072
;w:2;D:36	-9.8808
;w:24;N:68;w:12;N:66	-9.88097
;w:24;N:100	-9.88099
;N:52;N:56;N:59;N:64	-9.88152
;w:12;N:48;N:51	-9.88169
;N:66;w:12;N:68	-9.88177
;N:57;N:64;N:69	-9.8818
;w:8;N:75;w:8	-9.88218
;w:48;N:85	-9.88255
;w:24;N:49;N:56	-9.8827
;N:51;w:24;N:51	-9.88319
;w:4;N:49	-9.88338
;N:33;w:4	-9.88362
;w:6;N:68;w:6;N:73	-9.88366
;w:60;N:72	-9.88407
;w:6;D:38;D:42;D:45	-9.88418
;w:12;N:48;w:12;N:51	-9.88444
;N:41;w:36;N:41	-9.8846
;w:24;N:99	-9.88498
;w:24;N:69;N:74	-9.88543
;w:6;N:50;w:6;N:52	-9.88546
;N:77;N:84	-9.8857
;w:7;N:67	-9.88627
;w:12;D:36;D:42;D:43	-9.8864
;N:83;w:12;N:83	-9.88656
;D:36;D:38;D:42;D:49	-9.8866
;w:30;N:71	-9.88665
;w:24;N:70;w:12;N:72	-9.88774
;w:12;D:36;D:42;w:12;D:38;D:42	-9.88786
;w:24;N:76;N:79	-9.88815
;w:6;D:38;D:45	-9.88871
;w:12;N:58;w:12;N:65	-9.88873
;w:6;N:67;w:6;N:66	-9.88892
;N:35;w:36;N:35	-9.88976
;w:12;N:50;N:53	-9.88982
;w:24;N:71;w:12;N:73	-9.88993
;w:6;N:76;w:6;N:73	-9.89017
;N:83;w:1	-9.89028
;N:76;N:79;N:83	-9.89047
;w:1;N:65	-9.89068
;w:12;N:55;w:12;N:56	-9.89085
;w:12;N:68;w:6;N:68	-9.89087
;D:54;w:8;D:54;w:4	-9.89154
;w:6;D:45;w:6;D:45	-9.89186
;N:52;N:57;N:60	-9.89195
;w:6;N:66;w:12;N:66	-9.89201
;w:6;N:46;w:6;N:44	-9.89234
;w:6;N:66;w:6;N:67	-9.89237
;w:36;N:29	-9.89281
;N:29;w:12;N:29	-9.89291
;w:3;N:68;w:3	-9.89316
;w:6;N:72;w:6;N:73	-9.89321
;w:4;N:89;w:4	-9.89335
;w:24;N:53;N:58;N:62	-9.89345
;D:36;D:42;D:47	-9.89411
;N:52;N:60	-9.89425
;w:32;N:3	-9.89432
;N:66;N:72	-9.89441
;N:34;w:36;N:34	-9.89476
;w:24;N:61;N:66;N:70	-9.89525
;w:1;N:53	-9.89531
;w:7;N:62	-9.89537
;N:56;N:63;N:68	-9.8956
;w:12;N:59;w:12;N:54	-9.89562
;w:12;N:62;w:6;N:62	-9.8961
;w:6;N:78;w:6;N:77	-9.89635
;w:12;N:54;N:57;N:62	-9.89637
;w:12;N:49;w:12;N:47	-9.89649
;w:6;D:36;D:42;w:6;D:38;D:42	-9.89679
;w:6;N:85;w:6;N:85	-9.89751
;w:36;N:89	-9.89778
;w:6;N:40;w:6;N:42	-9.89782
;w:24;N:71;w:12;N:69	-9.89797
;w:24;N:98	-9.89845
;w:6;N:57;w:6;N:54	-9.89882
;N:73;w:12;N:61	-9.89907
;w:6;N:78;w:6;N:81	-9.8995
;w:12;D:53	-9.89977
;w:24;N:63;N:68;N:72	-9.90008
;w:12;N:52;w:12;N:53	-9.90016
;w:6;N:58;w:6;N:59	-9.90047
;N:49;N:56;N:61;N:65	-9.90132
;w:6;N:81;w:6;N:82	-9.90222
;w:6;N:45;N:57	-9.90276
;w:16;N:85	-9.90279
;N:55;N:60;N:63	-9.90368
;w:6;N:65;w:6;N:64	-9.90393
;w:18;N:91	-9.90414
;w:12;N:51;w:12;N:49	-9.90424
;w:60;N:59	-9.90531
;w:3;N:70;w:3	-9.90551
;w:12;N:33;w:12;N:35	-9.90584
;D:51;w:12;D:38	-9.90615
;w:12;N:59;w:24;N:59	-9.90713
;w:3;N:86	-9.90738
;w:3;N:90;w:3	-9.90819
;w:12;N:63;N:68;N:72	-9.90833
;w:24;N:73;w:12;N:71	-9.90838
;N:75;w:12;N:77	-9.90839
;N:60;N:67;N:72	-9.90917
;w:12;N:74;w:24;N:74	-9.90919
;w:3;N:59;w:3	-9.90923
;w:24;N:66;w:12;N:68	-9.90928
;w:24;N:63;N:67;N:70	-9.9098
;w:21;N:78	-9.91025
;N:43;w:36;N:43	-9.91072
;w:6;N:74;w:6;N:73	-9.91088
;w:24;N:67;w:12;N:65	-9.91096
;w:24;N:75;N:87	-9.9117
;w:6;N:50;w:6;N:53	-9.91194
;w:15;N:42	-9.912
;N:71;N:75;N:80	-9.91226
;w:12;N:79;w:12;N:80	-9.91257
;D:36;D:42;D:70	-9.91279
;w:24;N:62;N:65;N:70	-9.9131
;w:3;N:40;w:3	-9.91353
;w:6;N:72;w:6;N:71	-9.9139
;w:12;D:38;w:12;D:38;w:12;D:38	-9.91456
;w:12;N:79;N:83	-9.91512
;w:12;N:77;w:12;N:82	-9.91514
;w:6;N:84;w:6;N:82	-9.91542
;w:6;N:98	-9.91548
;w:24;N:44;N:51	-9.91556
;N:34;w:24;N:34	-9.91565
;w:6;N:19	-9.91573
;w:24;N:65;w:12;N:67	-9.91581
;w:12;N:71;w:12;N:67	-9.91589
;w:12;N:79;w:12;N:75	-9.91593
;w:6;N:69;w:6;N:68	-9.91595
;w:7;N:68	-9.91611
;N:75;N:78;N:83	-9.91631
;w:12;N:46;w:12;N:47	-9.91642
;w:24;N:62;N:69	-9.91735
;w:6;N:58;w:6;N:56	-9.9184
;w:12;N:57;N:65	-9.91842
;N:67;w:12;N:69	-9.91847
;w:6;N:70;w:6;N:69	-9.9191
;N:66;w:24;N:64	-9.91972
;w:24;N:47;N:54	-9.92048
;w:6;N:11	-9.92073
;w:12;N:37;w:12;N:35	-9.92077
;w:12;N:43;N:50;N:55	-9.92128
;w:5;N:67	-9.92152
;D:54;D:69;w:6;D:54	-9.92201
;N:59;N:66;N:71	-9.92202
;w:6;N:68;w:12;N:68	-9.92202
;w:24;N:66;w:12;N:64	-9.92222
;w:24;N:74;w:12;N:72	-9.92225
;w:12;N:81;N:84	-9.92235
;w:33;N:7	-9.92254
;w:6;N:76;w:6;N:75	-9.92263
;N:50;N:57;N:62;N:66	-9.92276
;w:12;N:79;w:12;N:78	-9.92296
;w:6;N:77;w:6;N:74	-9.92359
;D:69;w:8;D:69	-9.92373
;N:81;w:12;N:81	-9.92388
;w:24;N:70;w:12;N:68	-9.92437
;w:39;N:5	-9.92444
;w:12;N:69;w:12;N:73	-9.92447
;w:12;N:89;w:12;N:87	-9.92476
;w:18;N:10	-9.92494
;w:12;N:54;N:63	-9.92577
;w:6;N:54;N:66	-9.92612
;N:76;N:81;N:85	-9.92624
;w:6;N:48;w:6;N:51	-9.92656
;w:12;N:50;w:12;N:54	-9.92662
;w:3;N:41;w:3	-9.92665
;w:21;N:47	-9.92745
;w:15;D:36	-9.92781
;w:12;N:72;w:12;N:68	-9.92801
;w:12;N:47;w:12;N:45	-9.92836
;w:24;N:72;N:77	-9.92852
;D:36;D:42;w:12;D:42;w:12;D:38;D:42;w:12;D:42	-9.92854
;N:74;w:12;N:76	-9.92867
;N:51;N:60	-9.92867
;w:12;N:73;w:12;N:69	-9.92884
;N:73;N:81	-9.92886
;N:77;w:12;N:79	-9.92916
;w:8;N:74;w:8	-9.92945
;N:53;N:61	-9.92973
;N:63;w:12;N:51	-9.92989
;w:6;N:51;w:6;N:53	-9.93041
;w:8;D:43	-9.93051
;w:6;D:42;D:50	-9.93063
;w:48;N:35	-9.93072
;N:63;N:70;N:75	-9.93076
;N:33;w:24;N:33	-9.93077
;w:12;N:60;w:12;N:56	-9.93091
;w:24;N:56;N:63	-9.93096
;w:60;N:73	-9.93102
;w:2;N:59	-9.9311
;D:51;w:6;D:38	-9.93111
;D:45;w:6;D:45	-9.9313
;w:12;N:54;w:12;N:51	-9.9313
;N:76;N:78	-9.93142
;N:70;N:75;N:78	-9.93172
;w:12;D:42;w:12;D:38;D:42;w:12;D:42	-9.93205
;w:12;N:58;w:12;N:53	-9.93251
;N:69;w:12;N:71	-9.93307
;w:12;N:53;w:12;N:50	-9.9335
;w:12;N:50;w:12;N:48	-9.93359
;w:6;N:73;w:6;N:78	-9.93427
;w:24;N:54;N:58;N:61	-9.93446
;N:90;N:94	-9.93449
;N:77;w:24;N:75	-9.93458
;D:36;D:42;D:53	-9.93482
;w:6;N:68;w:6;N:67	-9.93578
;N:84;w:12;N:82	-9.93712
;w:12;N:65;N:73	-9.9374
;w:8;N:83;w:8;N:8	-9.93779
;N:76;w:24;N:74	-9.93797
;w:6;N:62;w:12;N:62	-9.93806
;w:12;N:45;w:12;N:46	-9.93817
;w:6;N:83;w:6;N:85	-9.93858
;w:24;D:41	-9.94027
;w:12;N:61;w:24;N:61	-9.94091
;w:12;N:79;w:12;N:82	-9.94156
;w:6;N:76;w:6;N:77	-9.94174
;w:12;N:81;w:12;N:80	-9.94177
;w:12;D:37;D:38;D:42	-9.94257
;w:6;N:56;w:6;N:61	-9.94263
;w:12;D:36;D:51	-9.94268
;w:15;N:81	-9.94269
0;N:38	-9.94277
;w:5;N:69	-9.94427
;w:30;N:58	-9.94429
;N:91;N:94	-9.94431
;w:12;N:100	-9.94437
;w:12;N:56;N:64	-9.94451
;w:6;N:67;w:6;N:68	-9.94465
;N:52;N:58	-9.94499
;w:12;N:65;N:72	-9.94506
;w:24;N:55;N:58;N:63	-9.94545
;w:6;D:45;D:46	-9.9461
;w:18;N:92	-9.94614
;w:12;N:79;N:82	-9.94617
;N:47;N:52;N:56	-9.94652
;N:37;N:44;N:49	-9.94772
;w:12;N:76;w:12;N:71	-9.9479
;w:12;D:42;D:51	-9.94793
;D:43;D:49	-9.94804
;w:6;N:80;w:6;N:77	-9.94813
;w:12;N:59;w:12;N:55	-9.94816
;w:12;N:40;w:12;N:41	-9.94833
;w:24;N:50;N:53	-9.94876
;w:12;D:36;D:41;D:42	-9.94902
;w:15;N:82	-9.94902
;w:12;N:30;w:12;N:30	-9.94917
;w:24;N:57;N:60;N:65	-9.94918
;w:16;N:31	-9.95006
;w:12;N:45;w:12;N:43	-9.95013
;N:33;w:36;N:33	-9.9502
;N:68;N:73;N:76	-9.95071
;w:12;N:40;w:12;N:43	-9.9513
;w:12;N:63;N:66;N:71	-9.9514
;N:44;w:36;N:44	-9.9517
;w:5;N:65	-9.95171
;w:12;N:51;w:12;N:52	-9.95179
;w:12;N:70;w:12;N:74	-9.95196
;w:24;N:58;N:61;N:66	-9.95213
;w:24;N:63;N:70	-9.95213
;N:46;N:50;N:53	-9.95227
;N:51;N:57	-9.95236
;N:72;w:6;N:72	-9.95252
;w:24;N:71;N:76	-9.95263
;w:24;N:77;N:80	-9.95308
;w:12;N:49;N:56;N:61	-9.95321
;w:12;N:82;w:12;N:79	-9.95361
;w:12;N:84;w:12;N:86	-9.95371
;w:24;N:64;N:68;N:71	-9.95395
;w:21;D:38	-9.95495
;N:88;w:2	-9.9551
;w:24;N:52;N:57	-9.95549
;w:6;N:60;w:6;N:59	-9.95556
;w:6;N:55;N:67	-9.95608
;N:82;w:3	-9.95655
;w:4;N:47	-9.95671
;w:12;N:57;w:12;N:52	-9.95676
;w:12;N:60;w:12;N:67	-9.95704
;w:12;N:29;w:12;N:29	-9.95706
;w:6;N:68;w:6;N:69	-9.95748
;D:53;w:4	-9.95752
;w:6;N:31;w:6;N:31	-9.9576
;D:36;D:42;w:6;D:42;w:6;D:46	-9.95819
;w:12;D:41;D:42	-9.95873
;w:8;N:86;w:8;N:8	-9.96006
;w:3;N:71;w:3	-9.96009
;w:3;N:92;w:3	-9.9601
;w:12;N:47;w:12;N:50	-9.96027
;w:24;N:52;N:59	-9.96088
;w:12;N:48;w:12;N:46	-9.96118
;D:69;D:76;w:6	-9.96176
;D:36;D:42;w:24;D:42	-9.9618
;N:50;N:54;N:57;N:62	-9.96222
;w:60;N:58	-9.96233
;w:12;N:59;w:12;N:58	-9.96237
;w:12;N:38;w:12;N:39	-9.96266
;w:12;N:41;w:12;N:42	-9.96334
;N:76;N:79;N:84	-9.96364
;w:6;N:48;N:60	-9.96385
;N:67;w:6;N:67	-9.96422
;w:24;N:75;N:79	-9.96435
;D:70;w:6;D:69	-9.96445
;w:12;D:38;D:42;w:12;D:36;D:42	-9.9654
;w:9;N:35	-9.96555
;w:3;N:57;w:3	-9.9658
;w:12;D:69	-9.9659
;w:12;N:76;N:80	-9.96598
;w:6;N:58;N:61	-9.96601
;w:5;N:68	-9.96605
;w:8;N:29	-9.96647
;w:3;N:72;w:3	-9.96649
;w:6;N:79;w:6;N:76	-9.96679
;w:6;N:99	-9.96715
;w:15;N:41	-9.96739
;N:61;N:65;N:68;N:73	-9.96769
;w:3;N:79;w:3	-9.96775
;w:12;N:81;w:12;N:84	-9.96813
;N:49;N:52;N:57	-9.96823
;w:12;D:54	-9.96841
;w:5;N:64	-9.96851
;w:30;N:57	-9.96934
;w:12;N:50;N:57;N:62	-9.96942
;w:6;N:47;w:6;N:52	-9.96943
;w:12;N:68;N:72;N:75	-9.96959
;w:24;N:64;w:12;N:66	-9.96988
;N:78;w:12;N:80	-9.96989
;w:6;N:67;w:12;N:67	-9.96997
;w:24;N:63;w:12;N:65	-9.97048
;w:3;N:84	-9.97051
;w:12;D:36;D:38;w:12;D:36;D:38	-9.97096
;w:12;N:86;w:12;N:84	-9.97107
;w:12;N:51;N:56;N:60	-9.9712
;w:12;N:75;w:24;N:75	-9.97129
;w:12;N:44;w:12;N:47	-9.97137
;w:12;N:41;w:12;N:44	-9.97164
;w:48;D:36	-9.97185
;N:41;N:46	-9.97233
;w:24;N:43;N:50	-9.97311
;w:12;D:36;D:39;D:42	-9.97316
;w:1;N:52	-9.97323
;w:12;N:68;N:77	-9.97325
;w:12;N:66;N:74	-9.97336
;D:70;w:6;D:42;D:70	-9.97414
;w:30;N:72	-9.9746
;w:12;N:59;w:12;N:66	-9.97479
;w:12;N:44;w:12;N:45	-9.9748
;w:6;N:57;w:6;N:55	-9.97487
;w:12;N:39;w:12;N:40	-9.97534
;N:32;w:4	-9.9756
;D:41;D:43	-9.97562
;w:24;N:53;N:57;N:60	-9.97572
;N:58;N:65;N:70	-9.97584
;w:12;N:47;N:50	-9.97588
;w:6;N:68;w:6;N:63	-9.97632
;w:3;N:37	-9.97656
;w:15;D:38	-9.97686
;w:12;N:43;w:12;N:41	-9.97728
;N:29;w:18;N:29	-9.97736
;D:76;w:12;D:76	-9.97737
;w:6;N:58;N:70	-9.97746
;w:30;N:73	-9.97749
;w:24;N:60;N:63;N:68	-9.97873
;w:6;N:83;w:6;N:81	-9.97886
;D:76;w:6;D:36	-9.97921
;w:6;N:64;w:12;N:64	-9.97938
;w:12;N:76;w:12;N:72	-9.97955
;w:12;D:38;D:51	-9.97976
;w:12;N:57;N:60;N:64	-9.98055
;w:6;N:66;w:6;N:65	-9.98085
;N:52;N:59;N:64;N:68	-9.98101
;w:12;N:47;N:51	-9.98103
;w:24;N:59;N:62;N:67	-9.98123
;N:60;w:12;N:58	-9.98124
0;N:37	-9.98136
;N:71;w:6;N:71	-9.98166
;N:73;N:82	-9.98204
;N:78;w:24;N:76	-9.98223
;w:12;D:37;D:38	-9.98237
;w:12;N:80;w:12;N:76	-9.98245
;N:85;w:12;N:83	-9.9829
;w:24;N:75;w:12;N:73	-9.98325
;w:18;N:63;N:66	-9.98341
;w:6;N:71;w:12;N:71	-9.9838
;w:12;N:21	-9.98429
;N:66;w:4	-9.98522
;w:24;N:66;N:70;N:73	-9.9855
;N:77;N:82;N:86	-9.98579
;w:24;N:	-9.98588
;w:12;D:42;w:12;D:42;w:12;D:42	-9.98598
;D:51;w:6;D:36	-9.98612
;N:26;w:12;N:26	-9.98664
;w:6;N:72;w:6;N:77	-9.9868
;w:5;N:63	-9.98693
;N:53;N:59	-9.98728
;N:66;N:73;N:78	-9.9873
;w:12;N:41;N:48;N:53	-9.98741
;w:12;N:88;w:12;N:90	-9.98799
;w:12;N:63;w:12;N:70	-9.98855
;N:70;w:12;N:72	-9.98901
;w:12;D:42;w:12;D:36	-9.98961
;N:46;N:53;N:58;N:62	-9.98993
;w:6;D:38;D:42;D:54	-9.99003
;N:77;N:79	-9.99009
;D:45;D:53	-9.99013
;w:36;N:26	-9.99036
;N:79;N:83;N:86	-9.99048
;w:18;N:64;N:67	-9.99108
;w:12;N:78;N:82	-9.99116
;w:7;N:69	-9.99156
;N:65;w:2	-9.9917
;w:6;N:62;w:6;N:66	-9.99175
;N:47;N:54;N:59;N:63	-9.99193
;N:66;w:6;N:66	-9.99221
;w:12;N:60;w:6;N:60	-9.99282
;D:46;w:12;D:36;D:42	-9.99286
;N:77;N:80;N:85	-9.99303
;w:12;N:58;w:12;N:57	-9.99303
;N:75;N:84	-9.99319
;w:24;N:46;N:53	-9.99331
;w:24;N:31;N:43	-9.99343
;N:45;N:52;N:57;N:61	-9.9935
;w:6;N:32;w:6;N:32	-9.99381
;N:65;w:6;N:65	-9.99391
;w:8;N:30	-9.99399
;w:18;N:25	-9.99402
;D:39;D:46	-9.99405
;w:12;N:78;w:12;N:73	-9.99412
;w:24;D:47	-9.9944
;w:12;N:57;w:24;N:57	-9.99475
;w:9;D:38	-9.99508
;w:6;N:72;w:6;N:67	-9.99557
;w:12;N:101	-9.99568
;w:18;N:60;N:63	-9.99569
;w:12;N:82;w:12;N:78	-9.9958
;N:64;w:2	-9.9959
;w:18;N:65;N:68	-9.99644
;w:24;N:62;w:12;N:64	-9.99651
;N:79;N:86	-9.99678
;w:3;N:60;w:3	-9.99733
;w:24;D:36;D:38;D:42	-9.99797
;w:12;N:85;w:12;N:87	-9.99814
;w:7;N:61	-9.99824
;N:65;w:24;N:63	-9.99858
;D:42;w:9;D:42	-9.99884
;w:8;D:48	-9.99894
;w:12;N:52;w:12;N:59	-9.99912
;w:12;N:40;w:12;N:45	-9.99913
;w:16;N:35	-9.99916
;D:46;D:50	-9.9995
;w:12;N:67;N:75	-9.99973
;N:92;N:95	-9.99979
;w:24;N:57;N:64	-9.99992
;w:12;N:53;N:62	-10.0001
;w:24;N:45;N:52	-10.0003
;w:12;N:83;w:12;N:80	-10.0004
;w:1;N:64	-10.0004
;w:60;N:74	-10.0006
;w:24;N:52;N:56;N:59	-10.0011
;w:6;N:66;w:6;N:70	-10.0011
;D:48;D:50;D:69	-10.0013
;w:12;N:42;N:49;N:54	-10.0013
;w:9;N:85	-10.0014
;w:12;N:61;w:12;N:68	-10.0014
;D:69;w:12;D:36;D:42	-10.003
;w:12;N:54;w:12;N:58	-10.003
;w:24;D:53	-10.0033
;N:69;w:6;N:69	-10.0036
;w:6;N:70;N:82;w:6	-10.0037
;w:6;N:53;w:6;N:58	-10.0038
;N:78;N:81;N:86	-10.0041
;N:75;w:12;N:63	-10.0045
;w:5;N:66	-10.0047
;N:80;w:3	-10.0056
;N:64;w:6;N:64	-10.006
;w:6;N:61;N:73	-10.0063
;w:12;N:55;N:63	-10.0065
;w:24;N:73;w:12;N:75	-10.0069
;w:24;N:61;N:64;N:69	-10.0086
;w:6;N:39;w:6;N:41	-10.0087
;D:76;w:12;D:36	-10.0091
;N:35;N:42;N:47	-10.0093
;w:24;N:72;w:12;N:74	-10.0094
;w:6;N:60;N:72	-10.0095
;w:12;N:75;w:12;N:71	-10.0098
;w:8;D:37;D:42	-10.0103
;w:6;N:70;w:12;N:70	-10.0104
;N:73;w:6;N:73	-10.0112
;w:12;D:42;D:54	-10.0129
;w:60;N:57	-10.0129
;D:56;w:6;D:42	-10.013
;w:12;N:76;w:12;N:80	-10.0138
;w:12;N:80;w:12;N:81	-10.0139
;w:12;N:71;w:12;N:75	-10.014
;w:6;N:70;w:6;N:75	-10.014
;w:24;N:73;N:78	-10.0147
;w:6;N:55;w:6;N:60	-10.0147
;N:28;w:12;N:28	-10.0151
;w:8;D:47	-10.0156
;N:38;N:45;N:50	-10.0161
;w:4;N:77;w:4	-10.0163
;w:12;N:44;w:12;N:49	-10.0163
;w:6;N:46;N:58	-10.0165
;w:6;D:43;D:46	-10.0171
;w:12;N:78;w:12;N:83	-10.0173
;w:24;N:65;w:12;N:63	-10.0174
;w:8;N:28	-10.0174
;w:6;N:56;w:6;N:57	-10.0174
;w:24;N:50;N:57	-10.0177
;w:30;N:56	-10.0183
;w:24;N:48;N:52	-10.0183
;w:6;N:48;w:6;N:50	-10.0186
;w:12;N:51;N:58;N:63	-10.0194
;N:64;w:24;N:62	-10.0196
;w:12;N:27;N:39	-10.0198
;N:63;w:2	-10.0209
;N:59;w:2	-10.0211
;w:12;N:66;w:6;N:66	-10.0215
;w:2;N:62	-10.0216
;w:30;N:55	-10.0221
;w:12;N:46;w:12;N:44	-10.0223
;N:82;w:24;N:82	-10.0226
;w:4;N:46	-10.0227
;w:12;N:36;w:12;N:34	-10.023
;w:6;N:63;w:12;N:63	-10.0233
0;N:79	-10.0236
;w:6;N:53;N:65	-10.0237
;w:3;N:36	-10.0239
;w:6;N:56;w:6;N:53	-10.024
;N:74;w:12;N:62	-10.024
;w:12;N:74;N:79	-10.0249
;N:89;w:2	-10.0251
;w:6;N:62;N:66	-10.0252
;w:5;N:62	-10.0257
;w:12;N:77;w:12;N:72	-10.0266
;N:87;w:1	-10.027
;N:72;w:12;N:74	-10.0277
;w:7;N:60	-10.0277
;w:6;N:73;w:12;N:73	-10.0278
;w:24;N:49;N:52	-10.0282
;w:12;D:36;D:39	-10.0284
;w:6;N:68;N:80;w:6	-10.0285
;w:6;N:62;N:74	-10.0286
;w:24;N:30;N:42	-10.0287
;w:12;N:63;w:6;N:63	-10.029
;w:4;N:76;w:4	-10.029
;w:6;N:53;w:6;N:57	-10.0291
;N:62;w:12;N:50	-10.0292
;w:12;N:43;w:12;N:48	-10.0295
;w:6;N:76;w:6;N:71	-10.0295
;w:6;N:81;w:6;N:78	-10.0303
;w:12;N:62;w:12;N:69	-10.0304
;D:54;w:6;D:54;w:6;D:54;w:6;D:54	-10.0306
;w:15;N:40	-10.0309
;w:36;N:28	-10.0309
;w:6;N:78;w:6;N:75	-10.0309
;w:21;N:46	-10.0321
;w:12;N:43;w:12;N:44	-10.0321
;w:27;N:3	-10.0322
;w:12;N:52;w:12;N:49	-10.0322
;w:12;N:35;w:12;N:33	-10.0322
;w:3;N:89;w:3	-10.0324
;D:43;D:70	-10.033
;w:12;N:50;w:12;N:51	-10.0332
;N:85;w:8	-10.0332
;D:38;D:43	-10.0333
;w:12;N:82;w:12;N:85	-10.0337
;D:69;w:6;D:69;w:6;D:42;D:69;w:6;D:69	-10.034
;w:6;N:55;w:6;N:56	-10.0341
;w:6;N:47;w:6;N:50	-10.0342
;D:54;D:69;w:6	-10.0346
;w:6;N:44;w:6;N:42	-10.0349
;N:63;w:6;N:63	-10.0352
;w:3;D:38;w:3;D:38;w:3;D:38;w:3;D:38;w:3;D:38;w:3;D:38;w:3;D:38;w:3;D:38	-10.0352
;N:65;w:12;N:67	-10.0353
;N:53;N:60;N:65;N:69	-10.0356
;w:12;N:80;N:84	-10.0358
;w:6;D:38;D:43	-10.0368
;w:6;N:75;w:6;N:70	-10.0371
;N:60;w:2	-10.0371
;N:59;w:12;N:57	-10.0373
;w:12;N:44;N:51;N:56	-10.0374
;w:3;D:38;w:3;D:38;w:3;D:38;w:3;D:38;w:3;D:38;w:3;D:38;w:3;D:38	-10.0379
;N:45;w:36;N:45	-10.0379
;w:12;N:66;N:70;N:73	-10.038
;w:12;N:81;N:93	-10.0384
;w:8;N:84	-10.0386
;w:4;N:45	-10.0388
;D:41;D:46	-10.0389
;w:24;N:51;N:56	-10.0393
;N:74;N:82	-10.0397
;w:3;N:42;w:3	-10.0399
;w:12;N:66;N:73	-10.0399
;D:69;w:12;D:38	-10.0405
;w:6;N:63;N:66	-10.0405
;w:48;N:34	-10.0406
;D:36;w:12;D:38	-10.0408
;w:6;N:63;w:6;N:67	-10.041
;w:12;N:55;w:12;N:50	-10.0411
;N:69;N:74;N:77	-10.0416
;w:12;N:68;N:76	-10.0418
;w:12;N:74;w:12;N:70	-10.0419
;w:12;N:45;w:12;N:48	-10.042
;N:81;w:3	-10.0422
;w:3;N:56;w:3	-10.0422
;w:3;N:67;w:9	-10.0424
;w:24;N:48;N:51	-10.0426
;w:12;N:88;w:12;N:86	-10.0427
;w:6;N:61;w:12;N:61	-10.0434
;w:12;D:38;D:45	-10.0434
;w:12;N:49;N:53	-10.0436
;w:6;N:73;w:6;N:74	-10.0438
;w:24;N:56;N:59;N:64	-10.044
;N:40;w:8;N:40	-10.044
;w:4;N:75;w:4	-10.0441
;w:36;N:27	-10.0445
;w:6;N:48;w:6;N:49	-10.0449
;w:24;N:49;N:53	-10.0461
;w:12;N:32;w:12;N:34	-10.0468
;N:43;w:2	-10.0471
;w:6;N:38;w:6;N:40	-10.0472
;w:6;N:51;w:6;N:54	-10.0473
;w:18;N:59;N:62	-10.0473
;D:53;w:6;D:36	-10.0475
;w:6;N:79;w:6;N:82	-10.0475
;D:70;w:4	-10.048
;N:50;N:54;N:59	-10.049
;D:42;w:12;D:36;D:42	-10.0493
;w:6;N:67;w:6;N:62	-10.0494
;w:6;N:75;w:12;N:75	-10.0496
;w:12;N:77;N:81	-10.0497
;D:69;w:6;D:36;D:42	-10.0498
;w:6;N:65;w:6;N:60	-10.05
;N:42;w:18;N:42	-10.05
;w:24;N:68;w:24;N:68	-10.0501
;w:8;D:37	-10.0502
;D:54;w:6;D:54;w:6;D:36	-10.0503
;N:82;w:12;N:75	-10.0505
;N:68;N:74	-10.0528
;w:12;N:50;N:55;N:59	-10.0542
;w:3;N:29	-10.0542
;D:38;w:6;D:38	-10.0546
;w:6;D:49	-10.0547
;N:62;w:6;N:62	-10.0547
;w:12;N:49;N:52	-10.0548
;w:8;D:41	-10.0551
;w:6;N:49;w:6;N:54	-10.0551
;N:80;N:84;N:87	-10.0551
;w:1;N:67	-10.0552
;w:6;N:98;w:6;N:9	-10.0552
;w:24;N:67;w:12;N:67	-10.0553
;N:53;N:55	-10.0553
;w:12;N:54;w:6;N:54	-10.0555
;D:47;D:53	-10.0558
;w:2;N:53	-10.0559
;w:12;N:64;w:12;N:71	-10.0561
;w:6;N:54;w:6;N:59	-10.0563
;w:3;N:97;w:3;N:9	-10.0565
;w:12;N:50;w:12;N:57	-10.0565
;w:2;N:61	-10.0565
;w:39;N:4	-10.0568
;D:36;D:49;D:51	-10.0569
;w:24;N:64;N:69;N:73	-10.0575
;w:24;N:22	-10.0575
;w:60;N:75	-10.0579
;N:63;w:12;N:65	-10.058
;D:69;w:3	-10.058
;w:30;N:74	-10.0583
;D:36;D:49;w:12;D:42	-10.059
;D:42;w:6;D:42	-10.0594
;w:12;N:67;N:74	-10.0598
;w:12;N:28;w:12;N:28	-10.06
;w:12;N:64;w:6;N:64	-10.0601
;w:6;N:82;w:6;N:83	-10.0602
;w:6;D:43;w:6;D:43	-10.0603
;w:12;D:36;D:42;w:12;D:36;D:42;w:12;D:42	-10.0604
;w:6;N:70;w:6;N:65	-10.0605
;w:6;N:45;w:6;N:43	-10.0607
;w:12;N:75;w:12;N:79	-10.0607
;w:21;N:45	-10.0611
;w:24;N:51;N:56;N:60	-10.0613
;w:24;N:68;w:24;N:66	-10.0619
;w:6;N:69;w:6;N:64	-10.062
;w:6;N:65;N:77	-10.0623
;w:12;N:72;w:6;N:72	-10.0625
;N:50;N:59	-10.0625
;w:6;N:64;w:6;N:63	-10.0633
;w:6;D:38;D:47	-10.064
;w:24;N:52;N:57;N:61	-10.0645
;w:6;N:69;w:12;N:69	-10.0648
;w:24;N:101	-10.0648
;N:76;w:6;N:76	-10.065
;N:60;w:6;N:60	-10.0659
;w:12;N:51;N:55;N:58	-10.0662
;w:24;N:64;N:71	-10.0664
;N:68;w:6;N:68	-10.067
;N:76;N:84	-10.0671
;w:24;N:67;w:24;N:67	-10.0676
;w:24;N:76;w:12;N:74	-10.0676
;w:3;N:85	-10.0677
;N:54;N:61;N:66;N:70	-10.0678
;w:6;N:46;w:6;N:47	-10.0679
;N:70;N:76	-10.0681
;w:12;N:76;w:24;N:76	-10.0685
;w:6;N:50;N:62	-10.0686
;w:24;N:76;N:88	-10.0688
;N:67;N:73	-10.0692
;w:24;N:77;w:12;N:75	-10.0693
;w:6;N:46;w:6;N:51	-10.0695
;w:12;N:82;w:12;N:81	-10.07
;w:12;N:79;w:12;N:84	-10.0705
;w:6;N:47;w:6;N:48	-10.0707
;w:15;N:39	-10.071
;w:7;N:70	-10.0712
;w:24;N:62;N:67;N:71	-10.0717
;w:1;N:68	-10.0727
;w:24;N:65;N:72	-10.0728
;w:6;N:65;w:6;N:69	-10.0729
;N:49;N:52;N:56	-10.0734
;D:70;w:6;D:36;D:42	-10.0743
;w:3;N:64;w:9	-10.0745
0;N:36	-10.0746
;D:46;w:12;D:36	-10.0747
;N:90;w:2	-10.0747
;w:1;N:51	-10.0749
;N:73;N:77;N:82	-10.0751
;w:36;N:90	-10.0753
;w:24;N:69;w:24;N:67	-10.0753
;w:32;N:7	-10.0755
;w:8;N:41;w:8	-10.0763
;w:6;N:66;w:6;N:61	-10.0771
;w:12;N:42;w:12;N:45	-10.0773
;w:24;N:72;w:24;N:70	-10.0773
;w:12;N:37;w:12;N:38	-10.0775
;N:90;N:95	-10.0776
;D:70;w:12;D:36;D:42	-10.0779
;w:6;D:38;D:42;D:43	-10.0781
;N:75;N:83	-10.0786
;w:24;N:65;w:24;N:65	-10.0787
;N:90;w:4	-10.0788
;D:70;w:12;D:42;D:70	-10.0789
;w:6;N:84;w:6;N:86	-10.079
;w:12;N:39;w:12;N:42	-10.0791
;w:6;N:57;N:69	-10.0792
;w:12;N:57;w:12;N:53	-10.0798
;w:6;N:45;w:6;N:50	-10.0806
;w:12;D:42;D:50	-10.0808
;w:24;N:29;N:41	-10.081
;w:2;N:60	-10.0815
;w:6;N:68;w:6;N:72	-10.0822
;N:89;N:101	-10.0823
;w:18;N:66;N:69	-10.0824
;w:6;N:63;w:6;N:62	-10.0826
;w:24;N:49;N:54	-10.0829
;w:8;N:27	-10.0829
;w:6;N:67;w:6;N:71	-10.0831
;N:32;w:24;N:32	-10.0832
;w:6;N:74;w:6;N:79	-10.0837
;N:51;N:59	-10.0837
;w:6;D:42;w:6;D:36;D:42;w:6;D:42;w:6;D:38;D:42	-10.0839
;w:24;N:71;w:24;N:69	-10.0841
;w:12;N:54;N:62	-10.0845
;w:24;N:64;w:12;N:64	-10.0846
;D:36;D:42;D:46	-10.0849
;w:6;N:61;w:6;N:56	-10.0854
;w:48;N:86	-10.0862
;w:6;N:75;w:6;N:80	-10.0866
;N:76;N:85	-10.087
;N:33;N:40;N:45	-10.0872
;w:12;N:64;N:67;N:72	-10.0877
;w:6;N:36;N:48	-10.0878
;w:6;N:48;w:6;N:53	-10.0882
;N:62;N:69;N:74	-10.0882
;w:12;N:78;w:12;N:74	-10.0884
;N:75;w:6;N:75	-10.0885
;N:77;N:80;N:84	-10.0887
;w:12;N:80;w:12;N:75	-10.0894
;w:12;N:78;w:12;N:82	-10.0899
;w:6;N:78;w:6;N:79	-10.0902
;w:6;N:63;N:75	-10.0902
;w:12;N:40;N:47;N:52	-10.0905
;w:12;N:51;w:12;N:48	-10.0905
;w:6;N:55;w:6;N:53	-10.0906
;w:6;N:52;w:6;N:53	-10.0907
;w:24;N:66;w:24;N:66	-10.0907
;w:12;N:90;w:12;N:88	-10.0907
;w:6;N:52;w:6;N:49	-10.0909
;w:12;N:82;N:85	-10.0909
;w:6;N:54;w:6;N:55	-10.0909
;w:6;N:66;N:78	-10.0917
;w:12;N:48;w:12;N:55	-10.0921
;w:6;D:38;D:51	-10.0921
;D:51;w:6;D:42;D:51	-10.0923
;w:6;N:64;w:6;N:68	-10.0929
;D:39;D:51	-10.0934
;N:70;w:6;N:70	-10.0934
;w:3;N:68;w:9	-10.0936
;w:6;N:73;w:6;N:68	-10.0936
;N:30;w:4	-10.094
;w:12;N:56;w:12;N:55	-10.094
;w:30;N:75	-10.0941
;w:12;N:56;w:12;N:51	-10.0944
;w:6;D:38;D:41	-10.0946
;w:12;N:68;N:75	-10.0947
;w:12;N:77;w:12;N:81	-10.095
;N:49;N:53;N:56;N:61	-10.0951
;w:6;N:64;N:76	-10.0951
;w:24;N:70;w:24;N:70	-10.0953
;w:12;N:69;w:24;N:67	-10.0954
;w:12;N:64;N:69;N:73	-10.0965
;w:6;N:42;w:6;N:40	-10.0969
;N:80;w:24;N:78	-10.0972
;w:2;N:63	-10.0972
;w:60;N:56	-10.0974
;w:21;N:79	-10.0974
;w:6;N:88;w:6;N:90	-10.0976
;w:18;N:58;N:61	-10.0981
;D:51;D:54;D:69	-10.0982
;w:8;N:88	-10.0987
;w:48;D:38	-10.099
;w:24;N:65;w:12;N:65	-10.0997
;N:36;N:43;N:48	-10.0998
;w:18;N:62;N:65	-10.0998
;w:6;N:65;w:12;N:65	-10.1001
;w:12;N:39;N:46	-10.1002
;w:18;N:67;N:70	-10.1004
;D:53;D:56	-10.1009
;N:67;N:74;N:79	-10.1011
;w:72;N:62	-10.1012
;w:6;D:38;D:48	-10.1015
;w:6;N:62;N:65	-10.1015
;w:3;N:66;w:9	-10.1017
;w:24;N:63;w:24;N:63	-10.1017
;N:61;N:68;N:73	-10.1018
;w:24;N:64;w:12;N:62	-10.1019
;N:64;w:12;N:66	-10.102
;w:3;D:36;w:3;D:36	-10.1021
;D:53;w:6;D:42	-10.1026
;w:6;N:56;w:6;N:54	-10.1027
;w:12;N:86;w:12;N:86	-10.1028
;w:6;N:35;N:47	-10.1031
;w:2;N:67;w:1	-10.1033
;w:5;N:70	-10.1036
;w:24;N:69;w:12;N:69	-10.1037
;w:12;N:38;w:12;N:41	-10.1038
;w:6;N:99;w:6;N:9	-10.1041
;w:12;N:81;w:12;N:77	-10.1043
;D:54;D:69;w:6;D:69	-10.1044
;w:12;N:51;w:12;N:58	-10.1044
;w:6;N:52;w:6;N:50	-10.1045
;D:69;w:6;D:69;w:6;D:69	-10.105
;w:24;N:68;w:12;N:68	-10.1053
;w:6;N:38;N:50	-10.1053
;w:12;D:38;w:12;D:36;D:38	-10.1057
;w:6;N:51;N:63	-10.1063
;w:6;N:55;w:6;N:52	-10.1063
;w:6;N:58;N:62	-10.1066
;w:12;N:36;w:12;N:37	-10.1068
;w:3;N:67;w:3	-10.1069
;w:6;N:56;w:6;N:60	-10.1072
;N:80;N:87	-10.1075
;w:24;N:69;w:24;N:69	-10.1076
;w:12;N:86;w:12;N:85	-10.1077
;N:63;N:67;N:70;N:75	-10.108
;w:12;N:80;w:12;N:85	-10.1084
;w:7;N:59	-10.1086
;w:6;N:71;w:6;N:66	-10.1086
;w:12;N:55;w:12;N:54	-10.1088
;w:12;N:58;w:24;N:58	-10.1088
;w:6;N:55;w:6;N:59	-10.1093
;w:72;N:61	-10.1096
;N:88;N:100	-10.1097
;w:12;N:52;N:61	-10.1099
;N:31;w:36;N:31	-10.1107
;w:24;D:50	-10.1108
;w:3;N:65;w:9	-10.1109
;w:12;N:57;w:12;N:56	-10.1109
;N:81;w:12;N:74	-10.111
;w:12;N:87;w:12;N:85	-10.1112
;w:6;N:54;N:59	-10.1116
;w:6;N:62;w:6;N:61	-10.1117
;w:12;N:31;w:12;N:33	-10.1118
;N:80;w:12;N:82	-10.1121
;w:4;N:41	-10.1122
;w:12;N:77;w:24;N:77	-10.1124
;w:6;N:80;w:6;N:83	-10.1124
;N:87;w:8	-10.1126
;N:28;w:18;N:28	-10.1128
;w:12;D:36;D:42;w:6;D:42	-10.1129
;w:12;N:65;w:12;N:72	-10.1131
;w:6;D:42;w:6;D:38;D:42;w:6;D:42	-10.1131
;w:6;D:36;D:42;D:47	-10.1131
;N:20;N:32	-10.1132
;N:71;w:12;N:68	-10.1133
;w:72;N:65	-10.114
;N:72;N:76;N:81	-10.114
;D:69;w:6;D:38;D:69	-10.1141
;w:8;N:39;w:8	-10.1149
;N:45;N:49;N:52	-10.1149
;w:6;N:77;w:6;N:72	-10.1149
;w:24;N:61;w:12;N:63	-10.1157
;N:46;w:36;N:46	-10.1163
;w:6;N:52;N:64	-10.1163
;w:6;N:43;w:6;N:41	-10.1164
;w:6;N:78;w:6;N:73	-10.1167
;w:6;N:61;w:6;N:65	-10.117
;w:12;N:49;w:12;N:53	-10.117
;D:37;D:38	-10.117
;N:78;w:12;N:77	-10.118
;w:3;N:63;w:9	-10.1182
;w:24;N:59;N:66	-10.1191
;N:80;w:12;N:73	-10.12
;w:12;N:37;N:44	-10.1203
;w:24;N:54;N:57;N:62	-10.1206
;w:6;N:37;w:12;N:37	-10.1214
;w:6;N:58;w:6;N:62	-10.1217
;w:6;N:33;N:45	-10.1217
;w:6;N:44;w:6;N:45	-10.1218
;w:24;N:70;w:24;N:68	-10.1222
;w:8;D:39	-10.1222
;w:6;N:81;w:6;N:84	-10.1223
;w:3;N:62;w:9	-10.1224
;N:76;w:12;N:64	-10.1225
;N:65;N:69;N:72;N:77	-10.1225
;N:58;N:62;N:65;w:12;N:58;N:62;N:65	-10.1231
;w:6;N:61;N:64	-10.1237
;N:78;N:80	-10.1237
;w:24;N:76;N:80	-10.1239
;w:24;N:66;w:24;N:64	-10.124
;N:80;N:82	-10.1245
;w:12;N:54;w:12;N:49	-10.1255
;w:6;N:60;w:6;N:64	-10.1256
;N:30;w:24;N:30	-10.1262
;w:12;N:41;w:12;N:46	-10.1265
;w:7;N:71	-10.1267
;w:16;N:86	-10.1272
;N:73;w:12;N:70	-10.1277
;w:6;N:59;w:6;N:58	-10.1278
;w:12;N:51;N:60	-10.1279
;w:12;N:89;w:12;N:91	-10.1279
;w:72;N:64	-10.1281
;w:6;N:63;w:6;N:58	-10.1281
;w:6;N:45;w:6;N:57	-10.1281
;D:54;w:8;D:38	-10.1282
;N:46;w:12;N:53	-10.1285
;N:83;w:24;N:83	-10.1287
;w:12;N:46;N:50	-10.1289
;w:24;N:66;w:12;N:66	-10.1291
;w:6;N:77;w:6;N:82	-10.1297
;w:12;N:74;w:12;N:78	-10.1298
;D:54;D:70;w:6;D:54;D:70	-10.1299
;w:6;N:64;w:6;N:60	-10.13
;N:86;w:8	-10.1306
;w:3;N:39;w:3	-10.1307
;D:48;D:54;D:69	-10.1307
;w:6;D:38;D:42;w:6;D:38;D:42	-10.1311
;w:6;D:42;w:6;D:42;w:6;D:36;D:42	-10.1316
;w:24;N:48;N:53	-10.1322
;w:6;N:64;w:6;N:59	-10.1326
;w:24;N:66;N:73	-10.1329
;N:74;w:12;N:73	-10.1329
;N:29;w:4	-10.1332
;w:24;N:62;w:24;N:62	-10.1339
;w:24;N:70;w:12;N:70	-10.1339
;w:4;D:37	-10.134
;N:81;N:88	-10.1341
;N:79;w:24;N:77	-10.1343
;w:24;N:49;N:53;N:56	-10.1346
0;N:35	-10.1346
;w:1;N:70;w:2	-10.1349
;N:79;w:12;N:81	-10.1356
;w:12;N:97;w:12;N:9	-10.1357
;w:6;N:97;w:6;N:9	-10.1359
;w:6;N:65;N:68	-10.1359
;w:24;N:67;w:24;N:65	-10.1362
;w:2;N:69;w:1	-10.1362
;w:6;N:82;w:6;N:81	-10.1363
;w:6;D:38;w:6	-10.1366
;w:18;N:61;N:64	-10.1367
;D:51;w:6;D:51;w:6	-10.137
;N:39;N:44	-10.137
;N:31;w:24;N:31	-10.137
;w:2;N:71;w:1	-10.1371
;w:6;N:82;w:6;N:79	-10.1374
;w:12;N:26;N:38	-10.1375
;w:12;N:79;w:12;N:74	-10.1378
;w:2;N:52	-10.138
;w:16;N:30	-10.138
;w:60;N:55	-10.1385
;w:24;N:63;w:12;N:63	-10.1386
;w:24;N:74;w:12;N:76	-10.1386
;w:12;N:53;N:60;N:65	-10.139
;N:79;w:12;N:78	-10.1391
;w:12;N:67;w:6;N:67	-10.1395
;w:12;N:38;w:12;N:43	-10.1399
;w:6;N:62;w:6;N:57	-10.14
;w:12;N:70;w:6;N:70	-10.14
;w:24;N:75;w:12;N:77	-10.1407
;w:6;N:22	-10.141
;w:12;N:53;N:56;N:61	-10.1413
;N:79;w:3	-10.1415
;w:12;N:50;N:54;N:57	-10.1424
;w:12;N:69;N:77	-10.1425
;w:8;D:42;w:4;D:42	-10.1425
;w:2;N:70;w:1	-10.1427
;w:12;N:99;w:12;N:9	-10.143
;N:48;N:52;N:55;N:60	-10.143
;w:6;N:100	-10.1431
;w:6;N:47;N:59	-10.1437
;w:6;N:50;w:6;N:55	-10.1441
;w:20;N:65	-10.1444
;w:6;D:38;D:42;w:6;D:42	-10.1445
;w:18;N:62;N:67	-10.1446
;w:6;N:84;w:6;N:87	-10.1446
;w:24;N:64;w:24;N:64	-10.1447
;w:6;N:37;w:6;N:39	-10.1448
;N:86;w:24;N:86	-10.1449
;w:6;N:68;N:80	-10.145
;D:53;w:12;D:53	-10.1453
;w:12;N:77;w:12;N:73	-10.1454
;w:4;N:42	-10.1457
;w:6;D:38;D:42;D:51	-10.1464
;w:1;N:69	-10.1469
;w:12;N:46;w:12;N:53	-10.1471
;w:12;N:56;w:24;N:56	-10.1472
;w:24;N:73;w:24;N:71	-10.1472
;N:47;w:36;N:47	-10.1473
;N:77;w:6;N:77	-10.1475
;D:69;D:70;w:6;D:69;D:70	-10.148
;w:12;N:66;w:12;N:73	-10.1487
;N:74;w:6;N:74	-10.1499
;N:44;N:47	-10.1504
;w:12;N:34;w:12;N:32	-10.1507
;w:12;N:75;N:80	-10.1508
;w:12;N:65;w:6;N:65	-10.1509
;w:6;N:53;w:6;N:54	-10.151
;w:24;N:50;N:55;N:59	-10.151
;w:45;N:7	-10.1514
0;N:80	-10.1514
;N:61;w:6;N:61	-10.1516
;D:42;w:3;D:42;w:3;D:42	-10.1518
;w:24;N:60;w:12;N:62	-10.152
;w:12;N:35;w:12;N:36	-10.1521
;N:79;N:82;N:87	-10.1523
;w:6;N:78;w:6;N:83	-10.1528
;w:12;N:72;w:12;N:76	-10.1528
;w:12;N:81;w:12;N:82	-10.1532
;w:6;N:60;w:12;N:60	-10.1534
;N:80;w:12;N:79	-10.1534
;D:51;w:2	-10.1534
;w:12;N:46;w:12;N:50	-10.1535
;w:6;N:52;w:6;N:59	-10.1536
;w:4;N:40	-10.1536
;w:24;N:63;w:12;N:61	-10.1541
;N:52;N:54	-10.1542
;w:1;N:70	-10.1543
;w:1;N:67;w:2	-10.1544
;w:6;N:57;N:60	-10.1546
;N:64;N:68;N:71;N:76	-10.1547
;w:12;N:49;w:12;N:56	-10.1548
;N:42;w:2	-10.155
;w:6;N:74;w:12;N:74	-10.1551
;D:51;w:16;D:51	-10.1554
;w:6;N:54;w:12;N:54	-10.1558
;D:56;D:73	-10.1561
;w:12;N:39;w:12;N:44	-10.1565
;D:36;D:52	-10.1566
;N:71;N:76;N:79	-10.1571
;D:51;D:52	-10.1572
;w:12;N:70;w:24;N:68	-10.1572
;N:73;w:12;N:72	-10.1574
;N:59;w:6;N:59	-10.1574
;w:6;N:60;N:65	-10.1575
;N:72;w:12;N:71	-10.1578
;w:12;N:58;w:12;N:54	-10.1579
;w:6;N:69;w:6;N:73	-10.1582
;w:24;N:50;N:55	-10.1589
;w:6;D:53	-10.159
;N:70;w:12;N:65	-10.1595
;w:12;N:44;w:12;N:51	-10.1597
;w:6;N:49;N:61	-10.1597
;D:50;D:56	-10.1605
;w:24;N:62;w:12;N:62	-10.1607
;w:6;N:52;w:6;N:57	-10.1612
;N:72;w:12;N:69	-10.1614
;N:27;w:12;N:27	-10.1616
;w:16;N:34	-10.1616
;w:12;N:71;w:12;N:69;w:12;N:71	-10.1619
;w:12;N:83;w:12;N:82	-10.162
;N:88;w:1	-10.1621
;w:6;N:60;N:63	-10.1621
;w:6;N:64;N:67	-10.1622
;w:12;N:41;w:12;N:53	-10.1623
;w:6;N:87;w:6;N:89	-10.1623
;w:6;N:51;w:6;N:56	-10.1624
;w:24;N:42;N:49	-10.1624
;w:12;N:91;w:12;N:89	-10.1624
;D:69;w:6;D:38;D:42	-10.1637
;w:24;N:63;N:66;N:71	-10.1639
;D:46;D:70	-10.1641
;N:78;w:6;N:78	-10.1641
;w:24;N:77;N:89	-10.1647
;w:4;D:38;w:4;D:38	-10.1659
;w:6;N:70;N:82	-10.166
;N:65;w:12;N:68	-10.1661
;N:64;N:71;N:76	-10.1665
;N:75;w:6;N:73	-10.1666
;N:32;w:36;N:32	-10.1667
;D:38;D:45	-10.1668
;N:77;w:6;N:75	-10.1671
;N:61;N:64;N:67	-10.1672
;w:12;N:42;w:12;N:41	-10.1673
;w:12;N:20	-10.1673
;N:69;w:36;N:69	-10.1675
;w:12;N:56;w:12;N:52	-10.1677
;w:6;N:59;N:71	-10.1678
;N:49;N:53;N:58	-10.168
;w:6;N:42;w:12;N:42	-10.1682
;w:8;D:42;w:8;D:36;D:42	-10.1684
;w:24;N:74;w:24;N:72	-10.1687
;w:12;N:45;N:50	-10.1689
;w:9;N:34	-10.1694
;w:24;N:65;w:24;N:63	-10.1696
;D:38;w:3;D:38	-10.1696
;N:34;w:4	-10.1697
;w:18;D:38;w:6;D:38	-10.1698
;w:48;N:33	-10.1699
;w:1;N:71;w:2	-10.17
;w:24;N:71;w:24;N:71	-10.17
;w:24;N:67;N:71;N:74	-10.17
0;N:34	-10.1702
;w:24;N:51;N:55;N:58	-10.1706
;D:50;w:6;D:50	-10.1708
;D:36;D:49;w:12;D:36	-10.1711
;w:24;N:53;N:56;N:61	-10.1712
;N:59;N:61;N:64	-10.1713
;N:62;w:12;N:64	-10.1714
;w:12;N:49;w:12;N:46	-10.1718
;N:60;N:62;N:65	-10.173
;w:5;N:71	-10.1737
;N:69;N:75	-10.1743
;w:4;N:51;w:4	-10.1744
;w:4;N:44	-10.1746
;w:3;N:38;w:3	-10.1748
;N:83;w:8	-10.175
;w:6;N:58;N:70;w:6	-10.1758
;w:3;N:34	-10.1758
;w:6;N:51;N:58	-10.176
;w:12;N:82;N:94	-10.1761
;w:3;D:38;w:3;D:38;w:3;D:38	-10.1765
;w:6;N:63;w:6;N:59	-10.1766
;N:72;N:77;N:80	-10.1768
;w:12;N:50;w:12;N:47	-10.177
;N:35;w:4	-10.177
;w:12;D:36;w:6;D:36	-10.1772
;w:2;N:72;w:1	-10.178
;w:24;N:61;w:24;N:61	-10.1782
;N:67;w:36;N:67	-10.1785
;w:24;N:47;N:50	-10.1789
;N:69;w:12;N:66	-10.1794
;N:75;w:12;N:72	-10.1795
;w:6;N:52;w:6;N:56	-10.1796
;w:6;N:60;w:6;N:55	-10.1798
;w:6;N:65;w:6;N:61	-10.1798
;w:6;N:76;w:6;N:81	-10.1801
;N:86;w:12;N:84	-10.1802
;D:42;w:12;D:36	-10.1802
;D:69;w:6;D:36;D:69	-10.1802
;w:24;N:71;w:12;N:71	-10.1802
;w:12;N:70;w:12;N:70;w:12;N:70	-10.1803
;w:24;D:38;D:46	-10.1806
;w:12;N:37;w:12;N:40	-10.1807
;w:18;N:24	-10.1809
;D:69;D:70;w:6	-10.1809
;N:55;N:62;N:67;N:71	-10.1812
;w:12;N:70;w:12;N:68;w:12;N:70	-10.1814
;w:6;N:74;w:6;N:69	-10.1814
;D:48;D:76	-10.1815
;w:24;N:78;N:81	-10.1815
;w:1;N:69;w:2	-10.1821
;N:85;w:12;N:85	-10.1821
;N:61;N:63;N:66	-10.1823
;w:1;N:50	-10.1823
;w:24;N:64;w:24;N:62	-10.1825
;w:6;N:36;w:6;N:38	-10.1826
;D:42;D:53	-10.1826
;w:5;N:61	-10.1832
;w:3;D:37	-10.1832
;N:68;N:75;N:80	-10.1833
;N:66;w:12;N:69	-10.1835
;D:36;D:50	-10.1838
;N:84;w:8	-10.1839
;w:12;N:38;N:45	-10.1845
;w:12;N:65;N:68;N:73	-10.1846
;N:84;w:12;N:84	-10.1848
;w:12;N:68;w:24;N:66	-10.1849
;D:38;w:24;D:38	-10.1854
;w:30;N:2	-10.1856
;w:6;N:20	-10.1856
;D:51;w:18;D:51	-10.1857
;w:12;N:72;w:24;N:70	-10.1859
;w:6;N:56;w:6;N:52	-10.1861
;w:6;N:89;w:6;N:91	-10.1867
;D:38;D:42;D:54	-10.1867
;N:58;w:6;N:58	-10.1868
;w:8;N:72;w:8	-10.1869
;w:6;N:60;N:72;w:6	-10.187
;N:87;w:12;N:85	-10.1873
;w:12;N:68;w:12;N:66;w:12;N:68	-10.1873
;D:69;w:6;D:69;w:6;D:38	-10.1874
;w:12;N:43;w:12;N:42	-10.1874
;w:24;N:50;N:54;N:57	-10.1875
;D:73;w:12;D:42	-10.1877
;w:6;N:58;N:63	-10.1881
;N:59;N:63;N:71	-10.1882
;N:48;N:51;N:56	-10.1885
;w:6;N:44;w:6;N:49	-10.1888
;w:24;N:58;N:65	-10.1888
;w:1;N:75;w:2	-10.189
;D:76;w:12;D:38	-10.189
;D:43;D:53	-10.1891
;w:15;N:38	-10.1893
;w:18;N:80;w:6	-10.1893
;w:3;D:36;D:42	-10.1896
;N:56;N:61;w:12;N:56;N:61	-10.1898
;w:6;N:79;w:6;N:84	-10.1898
;w:1;N:72;w:2	-10.1899
;D:54;w:6;D:36;D:54	-10.19
;N:91;N:95	-10.1901
;w:6;N:59;w:6;N:63	-10.1901
;w:5;N:60	-10.1901
;w:16;N:87	-10.1905
;D:36;w:12;D:42	-10.1906
;D:43;w:6;D:43	-10.1907
;w:6;D:38;w:6;D:38;D:42;w:6;D:38	-10.1909
;N:76;w:6;N:74	-10.1909
;D:69;w:6;D:70	-10.1915
;w:8;D:38;D:46	-10.1915
;w:12;N:73;w:12;N:77	-10.1916
;w:6;N:50;w:6;N:47	-10.1921
;N:41;w:2	-10.1927
;N:79;w:12;N:72	-10.1928
;N:37;w:4	-10.1932
;N:51;N:56;N:59	-10.1933
;w:6;N:59;N:64	-10.1933
;w:6;D:69	-10.1933
;w:12;N:48;w:12;N:52	-10.1936
;D:69;w:12;D:36;D:69	-10.1936
;w:6;N:70;w:6;N:66	-10.1937
;w:6;N:50;w:6;N:38	-10.194
;w:3;N:95;w:3;N:9	-10.1941
;w:6;N:84;w:6;N:80	-10.1946
;N:58;w:2	-10.1947
;w:24;N:67;N:74	-10.195
;w:12;N:66;w:12;N:66;w:12;N:66	-10.195
;w:12;N:83;w:12;N:86	-10.1951
;N:65;N:72;N:77	-10.1951
;N:62;N:64;N:67	-10.196
;N:35;w:18;N:35	-10.1963
;N:77;w:12;N:74	-10.1965
;w:18;N:68;N:71	-10.1965
;w:24;N:62;w:12;N:60	-10.1965
;w:12;N:68;w:6;N:70	-10.1965
;w:6;N:90;w:6;N:92	-10.1968
;N:79;w:6;N:79	-10.1969
;N:66;w:36;N:66	-10.1969
;N:41;N:44	-10.197
;w:18;N:63;N:68	-10.1972
;w:18;N:57;N:60	-10.1973
;N:58;w:12;N:56	-10.1989
;w:12;N:65;w:12;N:65;w:12;N:65	-10.1993
;w:6;N:45;w:6;N:46	-10.1994
;w:12;N:83;w:12;N:79	-10.1994
;w:12;N:84;w:12;N:81	-10.1995
;N:71;w:12;N:66	-10.1996
;w:12;N:52;N:59;N:64	-10.1998
;w:12;N:46;w:12;N:43	-10.2
;w:6;N:64;N:76;w:6	-10.2
0;N:33	-10.2002
;w:24;N:64;N:67;N:72	-10.2004
;w:33;N:4	-10.2006
;D:51;w:12;D:38;D:51	-10.2006
;w:6;N:47;w:6;N:59	-10.2007
;N:76;w:12;N:73	-10.2013
;w:12;N:69;N:78	-10.2013
;w:24;N:75;w:24;N:73	-10.2014
;w:6;D:36;D:42;D:51	-10.2014
;N:78;N:81;N:85	-10.2016
;N:26;w:24;N:26	-10.2017
;w:24;N:62;N:71	-10.2019
;w:6;N:43;w:12;N:43	-10.2023
;w:12;N:60;N:68	-10.2024
;D:54;w:6;D:54;w:6;D:42;D:54;w:6;D:54	-10.2025
;w:24;N:65;N:70;N:74	-10.2026
;w:12;N:69;w:12;N:69;w:12;N:69	-10.2027
;w:12;D:38;D:42;D:45	-10.2028
;w:6;N:80;w:6;N:79	-10.2028
;N:62;w:12;N:65	-10.2031
;N:81;N:83	-10.2031
;w:18;N:66;N:70	-10.2031
;w:6;D:36;D:48	-10.2035
;N:86;w:12;N:86	-10.2035
;w:6;N:83;w:6;N:86	-10.2038
;N:58;N:64;N:67	-10.2041
;N:87;w:12;N:87	-10.2041
;N:61;w:12;N:49	-10.2044
;N:71;w:36;N:71	-10.2047
;D:54;w:6;D:36;D:42	-10.2049
;D:36;D:42;w:12;D:46	-10.2052
;w:12;N:67;w:24;N:65	-10.2055
;N:68;w:12;N:63	-10.2056
;w:12;N:52;N:55;N:60	-10.2056
;N:64;w:12;N:67	-10.2057
;w:12;N:66;w:12;N:64;w:12;N:66	-10.2062
;w:2;N:66;w:1	-10.2067
;N:35;N:40	-10.2068
;w:2;N:73;w:1	-10.2072
;N:62;w:2	-10.2077
;w:6;N:51;N:56	-10.2078
;N:37;w:18;N:37	-10.2078
;w:6;N:79;w:6;N:78	-10.2084
;w:6;N:82;w:6;N:85	-10.2084
;w:24;N:74;N:79	-10.2084
;w:6;N:52;N:56	-10.2085
;N:69;w:12;N:64	-10.2089
;D:69;w:8	-10.209
;w:2;N:64	-10.2093
;N:66;N:70;N:73;N:78	-10.2094
;w:6;N:79;w:6;N:74	-10.2098
;w:39;N:3	-10.2099
;N:74;w:12;N:71	-10.2104
;N:64;w:36;N:64	-10.2104
;w:12;N:40;w:12;N:52	-10.2106
;w:6;N:54;w:6;N:52	-10.2106
;N:46;N:51;N:55	-10.2106
;w:6;N:40;w:12;N:40	-10.211
;D:36;D:49;w:12	-10.211
;D:54;w:8;D:54	-10.211
;w:6;N:47;N:52	-10.2111
;w:4;N:43	-10.2111
;w:4;D:39	-10.2112
;N:73;w:12;N:68	-10.2113
;N:44;w:12;N:51	-10.2113
;w:6;D:36;w:6;D:36;w:6;D:36;w:6;D:36	-10.2114
;w:3;N:70;w:9	-10.2115
;N:48;w:36;N:48	-10.2116
;N:49;w:36;N:49	-10.2117
;N:60;N:64;N:72	-10.2118
;w:12;N:45;w:12;N:44	-10.2121
;w:2;N:64;w:1	-10.2127
;D:69;w:6;D:69;w:6;D:69;w:6;D:69	-10.2129
;w:24;N:72;w:12;N:72	-10.2133
;w:3;N:69;w:9	-10.2134
;w:16;N:32	-10.2134
;N:60;N:63;N:66	-10.2137
;w:12;N:68;w:12;N:68;w:12;N:68	-10.2138
;w:1;N:68;w:2	-10.2139
;w:24;N:72;w:24;N:72	-10.214
;w:12;N:65;N:70;N:74	-10.214
;w:12;N:50;w:12;N:49	-10.2142
;N:63;w:24;N:61	-10.2144
;w:6;N:85;w:6;N:87	-10.2149
;w:12;N:50;N:59	-10.2149
;N:83;w:12;N:76	-10.2149
;N:68;w:12;N:68;w:12;N:68	-10.2152
;N:43;w:12;N:50	-10.2154
;N:81;w:6;N:81	-10.2157
;w:6;D:42;D:54	-10.2158
;w:12;N:54;w:24;N:54	-10.216
;w:1;N:49	-10.2162
;w:12;N:74;w:24;N:72	-10.2165
;N:70;w:12;N:67	-10.2169
;N:66;w:12;N:61	-10.2169
;w:12;N:67;w:12;N:67;w:12;N:67	-10.217
;D:76;w:6;D:38	-10.2171
;D:69;w:6;D:69;w:6;D:36;D:42	-10.2171
;w:6;N:88;w:6;N:87	-10.2175
;w:6;N:48;w:6;N:46	-10.2177
;w:6;N:87;w:6;N:87	-10.2177
;w:3;N:11	-10.2178
;w:12;N:47;w:12;N:46	-10.2183
;D:42;D:50	-10.2184
;w:6;N:46;w:6;N:49	-10.2185
;N:49;N:58	-10.2186
;w:6;N:77;w:12;N:77	-10.2188
;N:65;N:70;w:12;N:65;N:70	-10.2189
;w:12;N:73;w:12;N:71;w:12;N:73	-10.2189
;w:12;D:36;D:42;D:48	-10.219
;w:12;N:69;w:12;N:67;w:12;N:69	-10.2191
;N:58;N:62;N:70	-10.2195
;w:2;N:68;w:1	-10.2197
;w:6;N:38;w:12;N:38	-10.2197
;w:2;N:75;w:1	-10.2199
;w:6;N:85;w:6;N:83	-10.2201
;w:3;D:42;w:3;D:42	-10.2203
;w:8;N:90	-10.2205
;w:12;N:67;w:12;N:74	-10.2206
;N:57;w:12;N:55	-10.2208
;w:12;N:61;w:6;N:61	-10.2214
;w:24;N:61;N:70	-10.2215
;w:1;N:65;w:2	-10.2219
;w:6;N:43;w:6;N:48	-10.222
;N:55;N:60;N:64;N:67	-10.2221
;w:24;N:60;w:24;N:60	-10.2224
;D:53;w:6;D:53	-10.2225
;D:54;D:70;w:6	-10.2228
;w:6;N:58;w:6;N:57	-10.2229
;w:6;N:44;N:51	-10.223
;N:29;w:24;N:29	-10.2231
;w:3;N:33	-10.2233
;w:6;N:54;w:6;N:58	-10.2238
;w:3;N:78;w:3;N:76	-10.2241
;w:12;N:63;w:12;N:63;w:12;N:63	-10.2243
;N:28;w:24;N:28	-10.2244
;w:6;N:39;w:12;N:39	-10.2245
;w:6;N:40;N:47;N:52	-10.225
;w:18;N:65;N:70	-10.2251
;w:9;N:86	-10.2253
;N:38;w:4	-10.2255
;N:39;w:2	-10.2258
;w:6;N:59;w:12;N:59	-10.2263
;w:6;D:36;D:47	-10.2266
;w:6;N:81;w:6;N:86	-10.2267
;N:47;N:50;N:55	-10.2271
;w:12;N:40;N:45	-10.2271
;w:12;N:67;w:12;N:65;w:12;N:67	-10.2275
;w:12;N:69;N:76	-10.228
;w:12;N:54;w:12;N:53	-10.228
;N:57;w:2	-10.2281
;w:12;N:71;w:24;N:69	-10.2282
;w:6;D:45;w:6;D:43	-10.2282
;N:91;w:4	-10.2285
;w:12;N:73;w:24;N:71	-10.2287
;N:77;w:5	-10.2298
;w:6;N:76;w:12;N:76	-10.2299
;w:24;N:65;N:68;N:73	-10.23
;N:60;w:12;N:48	-10.2304
;w:6;N:95;w:6	-10.2307
;D:50;w:12;D:50	-10.2308
;N:88;w:8	-10.2309
;N:70;w:12;N:69	-10.2312
;w:12;N:36;w:12;N:39	-10.2312
;N:47;w:12;N:54	-10.2313
;N:64;N:67;N:70	-10.2316
;w:6;D:38;D:49	-10.2316
;N:62;N:66;N:69;N:74	-10.2318
;N:52;N:56;N:64	-10.2318
;w:6;N:35;w:6;N:37	-10.2318
;N:77;N:86	-10.2321
;N:68;w:12;N:71	-10.2321
;w:12;N:53;w:12;N:48	-10.2329
;N:57;N:59;N:62	-10.2329
;w:2;N:74;w:1	-10.2332
;N:48;w:12;N:55	-10.2333
;D:36;D:42;w:24;D:38;D:42	-10.2337
;D:42;w:2	-10.2338
;N:67;w:12;N:62	-10.2345
;D:49;w:24;D:36	-10.2346
;D:42;w:3;D:36	-10.2346
;w:6;N:51;w:6;N:48	-10.2349
;N:42;N:45	-10.2353
;w:12;D:42;D:46	-10.2359
;w:12;N:69;w:6;N:71	-10.2363
;w:12;N:39;w:12;N:51	-10.2364
;N:82;w:8	-10.2365
;w:24;N:63;N:72	-10.2365
;w:9;D:42;w:3	-10.2371
;w:12;N:81;w:12;N:76	-10.2372
;N:63;w:12;N:66	-10.2372
;w:12;N:90;w:12;N:90	-10.2375
;D:36;D:51;w:12;D:51	-10.2375
;w:6;N:57;w:6;N:64	-10.2381
;w:6;N:51;N:58;N:63	-10.2383
;D:69;w:6;D:69;w:6;D:38;D:42	-10.2385
;N:49;w:18;N:49	-10.2393
;w:24;N:60;w:12;N:60	-10.2393
;w:12;N:75;w:24;N:73	-10.2393
;w:12;N:67;N:71;N:74	-10.2397
;w:12;N:66;w:24;N:64	-10.2399
;N:64;N:66;N:69	-10.2399
;w:12;N:55;w:12;N:55;w:12;N:55	-10.2403
;w:24;N:28;N:40	-10.2408
;w:6;N:87;w:6;N:84	-10.2408
;N:67;w:12;N:70	-10.2408
;w:12;N:42;w:12;N:54	-10.2412
;w:6;N:71;w:6;N:75	-10.2412
;w:18;N:64;N:69	-10.2412
;w:6;N:57;w:6;N:61	-10.2413
;w:5;N:59	-10.2413
;w:24;N:60;N:69	-10.2415
;w:3;N:61;w:9	-10.2416
;D:54;w:12;D:36;D:54	-10.2417
;N:70;w:36;N:70	-10.2418
;w:6;N:71;w:6;N:67	-10.2419
;w:6;N:89;w:6;N:87	-10.2428
;N:61;w:12;N:63	-10.2431
;D:45;D:56	-10.2433
;w:24;N:58;w:12;N:60	-10.2435
;w:12;N:71;w:6;N:71	-10.2436
;N:46;w:18;N:46	-10.2436
;w:24;N:61;w:12;N:61	-10.2438
;w:24;N:76;w:12;N:78	-10.2438
;N:54;N:57;N:60	-10.244
;w:12;N:69;w:6;N:69	-10.2441
;N:77;w:12;N:76	-10.2442
;w:12;N:55;w:24;N:55	-10.2447
;N:53;w:3;N:53;w:3;N:53	-10.2448
;N:78;N:86	-10.245
;D:53;w:6;D:38	-10.246
;w:16;D:38;w:8;D:38	-10.2461
;w:6;N:88;w:6;N:88	-10.2462
;w:12;N:47;w:12;N:51	-10.2463
;N:67;w:12;N:64	-10.2469
;w:12;N:54;N:61;N:66	-10.2475
;N:54;N:57;N:61;N:66	-10.2476
;w:12;N:37;w:12;N:42	-10.2476
;w:12;N:81;w:12;N:86	-10.2477
;w:12;N:52;w:12;N:47	-10.2477
;w:12;N:41;w:12;N:40	-10.2478
;w:6;N:70;w:6;N:74	-10.2482
;N:57;N:62;N:66;N:69	-10.2483
;N:68;w:12;N:65	-10.2486
;N:79;N:81	-10.2486
;N:81;w:24;N:79	-10.2488
;D:69;w:12;D:37	-10.2491
;w:6;N:54;w:6;N:42	-10.2491
;w:12;N:53;w:24;N:53	-10.2495
;N:45;w:12;N:52	-10.2499
;w:12;N:53;w:12;N:52	-10.2499
;w:18;N:65;N:69	-10.2499
;w:12;N:67;w:6;N:69	-10.25
;w:24;N:76;w:24;N:74	-10.2501
;w:12;N:52;w:12;N:51	-10.2502
;w:6;N:57;w:6;N:56	-10.2503
;N:40;w:2	-10.2507
;w:15;D:42	-10.251
;D:46;w:12;D:46	-10.2511
;w:24;N:58;w:12;N:58	-10.2512
;w:6;N:84;w:6;N:85	-10.2513
;w:12;N:87;w:12;N:87	-10.2515
;N:40;w:6;N:40	-10.2515
;D:38;D:53	-10.2516
;w:12;N:43;N:48	-10.2516
;w:12;N:48;w:12;N:47	-10.2521
;w:12;N:64;w:12;N:62;w:12;N:64	-10.2522
;w:15;N:83	-10.2524
;D:53;w:12;D:38	-10.2527
;N:72;w:36;N:72	-10.2529
;w:12;N:82;w:12;N:83	-10.253
;w:12;N:44;w:12;N:43	-10.2531
;N:58;N:60;N:63	-10.2531
;w:12;N:52;w:24;N:52	-10.2531
;w:6;N:53;w:6;N:51	-10.2532
;D:36;D:38;w:12;D:38	-10.2534
;N:56;N:59;N:61	-10.2537
;w:6;N:48;N:53	-10.2541
;N:52;N:57;N:61;N:64	-10.2543
;w:24;N:46;N:51	-10.2544
;N:83;w:12;N:78	-10.2545
;w:12;N:87;w:12;N:86	-10.2546
;w:24;N:47;N:52	-10.2546
;N:87;w:24;N:87	-10.2547
;w:1;N:73;w:2	-10.2549
;w:6;N:29;w:6;N:29	-10.2555
;N:39;w:6;N:39	-10.2556
;w:12;N:86;w:12;N:83	-10.2558
;w:12;N:96;w:12;N:9	-10.2565
;N:37;w:6;N:37	-10.2565
;w:12;N:88;w:12;N:88	-10.2565
;N:30;w:36;N:30	-10.2567
;w:6;N:72;w:6;N:76	-10.2567
;w:1;N:71	-10.2569
;w:12;N:42;w:12;N:47	-10.2571
;N:65;N:67;N:70	-10.2574
;N:58;N:63;N:67;N:70	-10.2574
;N:41;w:12;N:48	-10.2575
;w:1;N:66;w:2	-10.2578
;D:51;w:8;D:38	-10.2584
;w:6;N:61;w:6;N:60	-10.2587
;w:12;N:64;w:12;N:64;w:12;N:64	-10.259
;w:12;N:61;w:12;N:61;w:12;N:61	-10.2591
;w:6;N:53;w:6;N:50	-10.2593
;w:6;N:71;N:83;w:6	-10.2594
;N:69;w:12;N:72	-10.2597
;N:56;N:61;N:65;N:68	-10.2597
;N:78;w:6;N:76	-10.2598
;N:62;w:24;N:60	-10.26
;N:60;w:4;N:60	-10.2601
;N:78;w:12;N:73	-10.2602
;N:57;N:61;N:69	-10.2603
;w:6;N:90;w:6;N:88	-10.2604
;w:24;N:78;w:12;N:76	-10.2606
;N:28;w:4	-10.2609
;w:6;N:41;w:12;N:41	-10.2612
;w:6;N:73;N:85;w:6	-10.2612
;D:69;w:1	-10.2613
;w:6;N:57;w:12;N:57	-10.2619
;N:50;N:58	-10.262
;w:6;N:58;w:6;N:46	-10.2621
;N:73;w:6;N:71	-10.2621
;N:80;w:6;N:80	-10.2627
;w:12;N:38;w:12;N:50	-10.2628
;w:12;N:49;w:12;N:48	-10.2628
;w:24;N:41;N:48	-10.2632
;N:56;N:60;N:68	-10.2632
;w:6;N:80;w:6;N:85	-10.2634
;w:3;N:91;w:3	-10.2635
;N:59;N:62;N:65	-10.2642
;w:6;N:55;w:6;N:62	-10.2644
;N:38;w:6;N:38	-10.2644
;N:70;w:12;N:70;w:12;N:70	-10.2644
;N:79;w:6;N:77	-10.2646
;N:38;w:18;N:38	-10.2646
;N:65;w:12;N:65;w:12;N:65	-10.2646
;w:40;N:6	-10.2647
;w:12;N:70;N:79	-10.2648
;w:12;N:72;w:12;N:72;w:12;N:72	-10.2648
;w:12;N:84;w:12;N:87	-10.2648
;N:55;w:6;N:55	-10.2649
;w:12;N:45;w:12;N:52	-10.2653
;w:12;N:65;w:12;N:63;w:12;N:65	-10.2653
;w:6;N:65;N:77;w:6	-10.2654
;w:12;N:71;w:12;N:71;w:12;N:71	-10.2658
;N:78;N:83;N:87	-10.2663
;w:12;N:39;N:46;N:51	-10.2664
;N:66;w:12;N:66;w:12;N:66	-10.2664
;w:24;N:59;w:12;N:59	-10.2665
;N:62;N:65;N:68	-10.2665
;N:50;N:56	-10.2666
;w:6;N:83;w:6;N:80	-10.2667
;D:54;w:6;D:54;w:6;D:42	-10.2668
;w:24;N:59;w:12;N:61	-10.2668
;w:6;N:42;w:6;N:43	-10.2668
;w:6;N:58;w:6;N:65	-10.267
;N:33;w:18;N:33	-10.267
;D:36;w:24;D:36	-10.2671
;N:78;w:12;N:75	-10.2671
;D:36;D:42;D:51;w:12;D:42	-10.2672
;N:70;w:4;N:70	-10.2673
;w:24;N:59;N:68	-10.2675
;w:6;N:67;N:79	-10.2676
;w:12;N:59;N:62;N:66	-10.2677
;w:12;N:62;w:12;N:62;w:12;N:62	-10.2679
;w:12;N:84;w:12;N:83	-10.2685
;w:24;N:73;w:24;N:73	-10.2686
;w:2;N:65;w:1	-10.2689
;N:78;w:18;N:78	-10.2691
;w:6;N:61;N:73;w:6	-10.2691
;w:12;N:51;w:12;N:50	-10.2695
;w:12;N:40;w:12;N:39	-10.2696
;N:69;w:12;N:69;w:12;N:69	-10.2697
;w:12;N:47;w:12;N:54	-10.2697
;w:12;N:85;w:12;N:82	-10.2697
;w:6;N:53;w:6;N:41	-10.2698
;w:3;N:77;w:3;N:75	-10.2702
;w:16;D:36;D:42	-10.2702
;w:4;N:38	-10.2704
;N:71;w:12;N:70	-10.2704
;D:36;D:38;D:41	-10.2705
;w:12;N:55;w:12;N:51	-10.2705
;N:65;w:36;N:65	-10.271
;N:39;w:4	-10.2711
;N:89;w:1	-10.2712
;N:34;w:18;N:34	-10.2717
;w:6;N:33;w:12;N:33	-10.2719
;N:51;N:55;N:63	-10.2719
;w:6;N:51;w:6;N:39	-10.2721
;w:24;N:58;N:67	-10.2724
;w:16;D:46	-10.2724
;N:36;w:4	-10.2724
;w:12;N:42;w:24;N:42	-10.2725
;w:3;N:71;w:3;N:69	-10.2729
;N:61;w:2	-10.2732
;w:6;N:80;w:6;N:84	-10.2733
;N:74;w:6;N:72	-10.2733
;w:12;N:68;w:12;N:75	-10.2734
;w:6;N:92;w:6;N:90	-10.2734
;w:12;N:34;w:12;N:35	-10.2737
;w:12;N:24;N:36	-10.2741
;w:24;N:59;w:24;N:59	-10.2742
;w:12;N:53;N:61	-10.2743
;w:12;N:81;N:85	-10.2743
;w:6;N:51;w:6;N:55	-10.2746
;D:53;w:12	-10.2752
;D:73;w:6;D:73	-10.2754
;D:41;D:49	-10.2756
;D:38;D:48	-10.276
;w:12;N:71;N:80	-10.276
;D:53;w:8	-10.2761
;N:36;w:18;N:36	-10.2761
;w:6;D:36;w:6;D:36;w:6;D:36	-10.2762
;w:24;N:78;N:82	-10.2765
;N:84;w:24;N:84	-10.277
;w:3;D:36;D:38	-10.2772
;w:12;N:44;w:12;N:41	-10.2773
;w:6;N:66;N:69	-10.2776
;w:12;N:51;w:24;N:51	-10.2778
;w:6;N:61;N:65	-10.278
;N:60;w:12;N:62	-10.2781
;w:12;N:57;w:6;N:57	-10.2782
;w:6;N:78;w:12;N:78	-10.2783
;w:7;N:58	-10.2784
;w:3;N:28	-10.2785
;w:18;N:67;N:71	-10.2787
;N:91;w:2	-10.2789
;w:7;N:57	-10.2789
;N:27;w:18;N:27	-10.279
0;N:81	-10.2795
;w:6;N:57;N:62	-10.2797
;w:12;N:33;w:12;N:31	-10.2798
;w:6;N:43;w:6;N:44	-10.2801
;w:12;N:84;w:12;N:80	-10.2804
;w:18;N:82;w:6	-10.2806
;w:24;N:64;N:73	-10.2809
;w:12;N:45;w:24;N:45	-10.2811
;N:70;w:12;N:73	-10.2811
;w:12;N:72;w:12;N:70;w:12;N:72	-10.2812
;w:24;N:63;w:24;N:61	-10.2812
;N:52;w:3;N:52;w:3;N:52	-10.2814
;N:58;N:61;N:67	-10.2814
;w:6;N:55;N:59	-10.2815
;w:2;N:76;w:1	-10.2818
;N:52;w:8;N:52	-10.2823
;w:12;D:38;D:43	-10.2825
;w:6;N:59;w:6;N:54	-10.2829
;w:12;N:51;w:12;N:47	-10.2829
;N:60;w:12;N:63	-10.2834
;w:6;N:67;N:70	-10.2834
;N:63;N:65;N:68	-10.2834
;D:70;w:6;D:45	-10.2834
;w:6;N:91;w:6;N:89	-10.2836
;N:76;w:12;N:75	-10.2836
;w:6;N:75;N:87;w:6	-10.2838
;w:6;D:46;w:6;D:42	-10.2839
;w:6;N:44;w:6;N:47	-10.2841
;w:6;D:38;D:42;w:6;D:36;D:42	-10.2841
;w:6;N:55;N:58	-10.2842
;w:8;N:88;w:8;N:8	-10.2847
;w:1;N:74;w:2	-10.2851
;D:38;D:42;w:12;D:42	-10.2851
;w:12;N:39;w:12;N:38	-10.2854
;N:92;w:4	-10.2856
;N:72;N:78	-10.286
;w:12;N:45;w:12;N:49	-10.286
;N:55;N:58;N:62;N:67	-10.2862
;w:6;N:79;w:12;N:79	-10.2864
;D:54;w:6;D:54;w:6;D:38	-10.2865
;w:6;N:86;w:6;N:84	-10.2869
;w:3;N:72;w:3;N:70	-10.2869
;w:6;N:32;N:44	-10.287
;N:40;w:18;N:40	-10.2871
;w:6;N:62;w:6;N:58	-10.2872
;N:80;w:18;N:80	-10.2873
;w:12;D:36;w:12;D:42	-10.2875
;w:6;N:81;w:6;N:80	-10.2875
;w:12;N:79;w:12;N:83	-10.2878
;N:61;w:12;N:64	-10.2879
;w:12;N:58;N:61;N:65	-10.288
;w:6;N:47;w:12;N:47	-10.288
;w:12;N:30;w:12;N:32	-10.2881
;w:6;N:56;w:12;N:56	-10.2882
;w:12;D:38;D:42;D:48	-10.2882
;w:6;N:74;N:86;w:6	-10.2883
;N:55;N:57;N:60	-10.2884
;w:2;N:77;w:1	-10.2886
;N:71;w:12;N:71;w:12;N:71	-10.2886
;N:81;w:12;N:80	-10.2886
;N:79;w:12;N:76	-10.2886
;D:54;D:69;w:6;D:42;D:54;D:69	-10.2887
;w:6;N:53;N:60;N:65	-10.2891
;N:36;w:8;N:36	-10.2892
;w:12;N:41;w:24;N:41	-10.2893
;N:46;w:6;N:46	-10.2895
;w:12;N:80;w:12;N:84	-10.2897
;w:6;N:82;w:6;N:77	-10.2897
;D:54;w:8;D:36	-10.2901
;N:84;w:6;N:82	-10.2902
;D:36;D:42;w:12;D:42;w:12;D:42	-10.2905
;N:77;w:12;N:65	-10.2906
;w:6;N:73;w:6;N:69	-10.291
;N:91;N:96	-10.2911
;w:24;N:77;N:81	-10.2913
;N:72;w:12;N:67	-10.2914
;w:18;N:61;N:66	-10.2914
;w:6;N:34;w:12;N:34	-10.2915
;w:6;N:41;w:6;N:39	-10.2919
;w:6;N:85;w:6;N:86	-10.2919
;N:42;N:46	-10.2921
;D:70;w:6;D:38;D:42	-10.2924
;w:16;N:33	-10.2924
;N:51;w:6;N:51	-10.2924
;w:12;N:76;w:24;N:74	-10.2927
;N:72;w:6;N:70	-10.2927
;w:24;N:68;w:24;N:70	-10.2928
;N:54;N:59;N:63;N:66	-10.2929
;N:75;w:12;N:70	-10.2932
;w:6;N:49;w:6;N:50	-10.2933
;w:6;N:81;w:6;N:85	-10.2936
;N:71;N:77	-10.2937
;w:8;N:73;w:8	-10.2938
;N:62;w:36;N:62	-10.2939
;w:6;N:60;N:64;N:67	-10.2941
;w:24;N:65;N:74	-10.2942
;w:24;N:57;w:12;N:57	-10.2942
;w:6;N:59;N:63	-10.2943
;N:63;w:36;N:63	-10.2944
;w:3;N:94;w:3;N:9	-10.2946
;w:12;N:43;w:24;N:43	-10.2955
;N:68;w:12;N:61	-10.2955
;w:6;N:26;w:6;N:26	-10.2956
;w:6;N:101;w:6;N:10	-10.2959
;N:61;w:24;N:59	-10.2961
;N:69;N:76;N:81	-10.2962
;w:12;N:27;w:12;N:27	-10.2964
;N:90;w:1	-10.2968
;w:6;N:68;w:6;N:64	-10.2968
;N:40;w:12;N:52	-10.298
;D:70;w:6;D:43	-10.2981
;w:7;N:72	-10.2984
;N:65;w:12;N:60	-10.2989
;N:49;w:6;N:49	-10.299
;N:63;N:66;N:69	-10.2991
;D:70;w:12;D:38	-10.2991
;w:12;N:78;w:24;N:78	-10.2993
;w:6;N:40;w:6;N:52	-10.2995
;w:12;N:50;w:24;N:50	-10.2996
;w:12;N:58;w:6;N:58	-10.2996
;N:81;N:85;N:88	-10.2997
;N:56;w:6;N:56	-10.2998
;w:18;N:63;N:67	-10.2999
;N:73;w:36;N:73	-10.2999
;N:85;w:24;N:85	-10.3004
;w:3;N:70;w:3;N:68	-10.3008
;w:6;N:50;w:6;N:51	-10.3009
;w:24;N:74;w:24;N:74	-10.3012
;N:50;w:6;N:50	-10.3015
;w:42;N:2	-10.3017
;w:24;N:61;w:12;N:59	-10.302
;w:1;N:48	-10.3022
;w:24;N:62;w:24;N:60	-10.3022
;w:6;N:48;w:6;N:36	-10.3023
;w:12;N:70;N:78	-10.3024
;D:49;w:12;D:49	-10.3026
;w:4;D:41	-10.3026
;w:8;D:36;D:38;D:42	-10.3031
;w:3;N:76;w:3;N:74	-10.3032
;N:77;w:1	-10.3033
;w:12;N:42;w:12;N:49	-10.3035
;w:72;N:3	-10.3037
;w:6;N:66;N:78;w:6	-10.3037
;N:79;w:12;N:74	-10.3038
;N:35;N:42	-10.3041
;D:36;D:49;w:12;D:38	-10.3043
;N:41;w:18;N:41	-10.3045
;w:24;N:52;N:55;N:60	-10.3045
;N:62;N:67;N:71;w:12;N:62;N:67;N:71	-10.3046
;w:6;N:102;w:6;N:10	-10.3046
;w:24;N:69;w:24;N:71	-10.3049
;N:42;w:12;N:49	-10.3049
;w:6;N:51;w:6;N:58	-10.305
;N:49;w:12;N:56	-10.3051
;N:68;w:12;N:67	-10.3052
;w:6;N:45;w:6;N:48	-10.3053
;N:77;N:85	-10.3056
;w:24;N:48;N:52;N:55	-10.3057
;w:6;N:66;w:6;N:62	-10.3058
;N:53;N:58;N:62;N:65	-10.3059
;w:1;N:77;w:2	-10.3061
;N:72;w:6;N:74	-10.3062
;w:6;N:79;w:6;N:80	-10.3063
;w:6;D:46;D:48	-10.3063
;N:59;w:12;N:62	-10.3064
;w:6;N:59;N:71;w:6	-10.3066
;w:6;N:87;w:6;N:85	-10.3067
;w:6;N:62;N:74;w:6	-10.3067
;D:39;D:42;D:54	-10.3068
;D:36;w:12	-10.3069
;w:6;N:56;w:6;N:63	-10.3073
;w:1;N:76;w:2	-10.3073
;w:6;N:68;N:71	-10.3074
;w:6;N:47;w:6;N:45	-10.3076
;N:70;w:12;N:63	-10.3078
;N:57;N:60;N:66	-10.3081
;N:85;w:24;N:83	-10.3085
;N:52;N:55;N:60;N:64	-10.3085
0;N:82	-10.3088
;w:6;N:88;w:6;N:85	-10.3093
;w:12;N:65;w:6;N:67	-10.3093
;w:6;N:40;w:6;N:38	-10.3094
;N:56;N:63;N:68;N:72	-10.3095
;w:12;N:70;w:12;N:72;w:12;N:70	-10.3096
;N:60;N:62;N:67	-10.3096
;w:24;N:77;w:24;N:75	-10.3096
;N:77;w:12;N:72	-10.31
;w:6;N:89;w:6;N:90	-10.31
;w:6;N:80;w:6;N:75	-10.31
;w:6;N:82;w:6;N:87	-10.3103
;N:76;w:5	-10.3104
;N:84;w:12;N:77	-10.3104
;w:6;N:49;w:6;N:61	-10.3105
;w:6;N:57;w:6;N:53	-10.3107
;w:12;N:69;w:12;N:76	-10.3107
;w:6;N:48;w:12;N:48	-10.3108
;w:6;N:41;w:6;N:42	-10.3111
;w:6;N:50;w:6;N:62	-10.3113
;w:24;N:60;w:12;N:58	-10.3114
;w:24;N:49;N:54;N:58	-10.3114
;D:48;w:12;D:36	-10.3115
;w:6;N:62;w:6;N:69	-10.3119
;w:12;N:92;w:12;N:90	-10.312
;N:48;N:57	-10.3121
;N:56;N:62;N:65	-10.3122
;w:24;N:71;w:24;N:73	-10.3123
;w:24;N:70;w:24;N:72	-10.3123
;w:12;N:11	-10.3125
;w:12;N:70;N:77	-10.3126
;w:18;N:69;N:72	-10.3127
;w:12;N:51;w:12;N:44	-10.3129
;w:6;N:51;w:6;N:63	-10.3132
;N:58;w:12;N:61	-10.3132
;N:59;N:62;N:68	-10.3133
;w:12;N:48;w:6;N:48	-10.3134
;N:54;N:58;N:61;w:12;N:54;N:58;N:61	-10.3136
;N:68;w:36;N:68	-10.3138
;w:6;D:42;D:53	-10.314
;w:12;N:43;w:12;N:40	-10.314
;D:38;D:47	-10.3144
;w:12;N:77;w:24;N:75	-10.3144
;w:6;N:61;w:6;N:68	-10.3147
;D:37;D:45	-10.3148
;w:12;N:60;w:12;N:65;w:12;N:60	-10.3149
;w:8;N:26	-10.3153
;w:6;N:69;w:6;N:65	-10.3153
;w:12;N:86;w:12;N:87	-10.3154
;N:67;w:12;N:67;w:12;N:67	-10.3154
;D:51;w:24;D:42;D:51	-10.3163
;w:12;N:69;w:12;N:62	-10.3167
;w:12;N:37;w:12;N:49	-10.3169
;w:24;N:75;N:80	-10.3169
;D:56;w:12;D:36	-10.3171
;N:36;w:6;N:36	-10.3174
;w:12;N:69;w:12;N:71;w:12;N:69	-10.3175
;N:54;w:6;N:54	-10.3178
;w:12;N:85;w:12;N:80	-10.318
;w:12;N:87;w:12;N:84	-10.3184
;w:6;N:76;w:6;N:80	-10.3185
;D:69;w:6;D:37	-10.3186
;w:8;N:62;w:4	-10.3188
;w:8;N:70;w:8;N:68	-10.3189
;N:36;N:41	-10.3195
;w:6;N:52;w:6;N:40	-10.3196
;w:6;N:58;w:12;N:58	-10.3197
;N:48;N:51;N:55	-10.3197
;D:54;D:69;D:70;w:6	-10.3199
;w:45;N:4	-10.3201
;w:12;N:72;w:6;N:74	-10.3202
;w:12;N:46;w:24;N:46	-10.3207
;N:61;N:65;N:73	-10.3208
;w:12;D:38;D:42;w:12;D:38;D:42	-10.3208
;w:6;N:101	-10.3208
;w:8;N:71;w:8;N:69	-10.3211
;N:39;w:12;N:51	-10.3213
;w:6;N:81;w:6;N:76	-10.3218
;w:24;N:57;w:24;N:57	-10.322
;w:24;N:79;N:82	-10.322
;N:50;w:36;N:50	-10.3221
;w:2;N:51	-10.3227
;w:12;N:63;N:71	-10.3228
;N:42;w:6;N:42	-10.3228
;w:24;N:67;w:24;N:69	-10.323
;N:53;N:57;N:65	-10.3232
;D:42;D:46	-10.3233
;N:61;N:64;N:66	-10.3234
;N:80;w:12;N:75	-10.3234
;N:74;w:12;N:69	-10.3237
;w:3;N:71;w:9	-10.3238
;w:1;N:64;w:2	-10.3238
;N:75;w:5	-10.3241
;N:51;w:36;N:51	-10.3242
;w:12;N:51;w:6;N:51	-10.3243
;w:12;N:65;w:24;N:63	-10.3249
;w:6;N:49;w:6;N:37	-10.3249
;w:6;N:72;N:84;w:6	-10.3252
;w:8;D:36;D:46	-10.3254
;w:12;N:60;w:12;N:60;w:12;N:60	-10.326
;w:24;N:58;w:24;N:58	-10.326
;w:6;N:60;w:6;N:67	-10.3265
;w:24;N:77;w:12;N:79	-10.3269
;w:6;N:79;w:6;N:83	-10.3271
;w:12;N:33;w:12;N:34	-10.3272
;w:12;D:46;w:12;D:36	-10.3273
;w:6;N:60;N:64	-10.3275
;D:36;D:42;D:50	-10.3277
;w:12;N:36;w:12;N:48	-10.3278
;w:12;N:35;w:12;N:38	-10.3281
;w:6;N:64;N:68	-10.3281
;w:12;N:49;w:24;N:49	-10.3282
;w:12;N:70;w:6;N:72	-10.3284
;w:18;N:64;N:68	-10.3284
;w:12;N:48;w:12;N:45	-10.3285
;D:54;D:69;w:6;D:42	-10.3286
;w:12;N:71;w:6;N:73	-10.3286
;w:2;N:49	-10.3287
;N:54;N:59;w:12;N:54;N:59	-10.3289
;N:46;w:12;N:53;w:12;N:58	-10.3291
;w:1;N:63;w:2	-10.3292
;N:57;N:60;N:63	-10.3293
;w:12;N:38;N:45;N:50	-10.3295
;N:43;w:6;N:43	-10.3298
;w:12;N:89;w:12;N:89	-10.3298
;N:45;w:18;N:45	-10.3307
;N:40;N:43	-10.3314
;w:6;N:55;w:6;N:43	-10.3315
;N:58;N:61;N:63	-10.3317
;w:12;D:36;D:47	-10.3317
;N:52;N:55;N:59;N:64	-10.3318
;D:38;D:52	-10.332
;w:12;N:64;w:12;N:66;w:12;N:64	-10.3322
;w:6;N:85;w:6;N:84	-10.3323
;N:82;w:6;N:80	-10.3323
;N:92;w:2	-10.3323
;w:6;N:54;w:6;N:47	-10.3323
;w:6;N:89;w:6;N:89	-10.3325
;w:6;N:63;N:70	-10.3325
;w:6;N:44;w:12;N:44	-10.3325
;w:6;N:50;w:6;N:57	-10.3327
;w:12;N:53;w:6;N:53	-10.3329
;N:82;w:24;N:80	-10.3332
;N:53;N:56;N:61;N:65	-10.3332
;N:75;w:12;N:74	-10.3332
;N:27;w:3	-10.3332
;w:12;N:66;w:6;N:68	-10.3338
;w:6;N:31;N:43	-10.3338
;w:6;N:72;w:6;N:68	-10.3342
;N:41;w:6;N:41	-10.3349
;w:6;N:80;w:6;N:81	-10.3351
;w:6;N:83;w:6;N:84	-10.3351
;N:88;w:12;N:88	-10.3352
;N:42;w:12;N:54	-10.3357
;w:12;N:46;w:12;N:45	-10.336
;N:74;N:78;N:83	-10.336
;w:8;N:67;w:8;N:69	-10.3362
;N:50;w:12;N:57	-10.3363
;w:24;N:64;N:72	-10.3363
;N:70;N:77;N:82	-10.3366
;w:12;N:65;w:12;N:67;w:12;N:65	-10.3368
;w:24;N:79;w:12;N:77	-10.337
;N:81;w:12;N:83	-10.3371
;N:69;w:6;N:67	-10.3371
;w:6;N:61;N:66	-10.3373
;D:69;w:6;D:36;D:42;D:69	-10.3375
;w:12;N:66;w:12;N:59	-10.3376
;w:2;N:63;w:1	-10.3379
;w:6;N:52;w:6;N:47	-10.338
;w:3;N:73;w:3;N:71	-10.3381
;w:12;D:38;w:6;D:38;w:6;D:36;D:38	-10.3381
;w:6;N:50;w:12;N:50	-10.3382
;N:25;w:3	-10.3388
;w:12;N:69;w:12;N:67;w:12;N:65	-10.3392
;w:24;N:74;w:12;N:74	-10.3396
;w:12;N:75;w:12;N:73;w:12;N:75	-10.3397
;N:63;N:68;N:72;N:75	-10.3402
;w:12;N:38;w:24;N:38	-10.3404
;D:36;D:42;D:56	-10.3407
;w:3;N:72;w:9	-10.3407
;w:8;N:63;w:8;N:66	-10.3413
;N:90;N:102	-10.3414
;N:71;N:74;w:12;N:71;N:74	-10.3415
;w:6;N:36;w:12;N:36	-10.3415
;w:12;N:76;N:81	-10.342
;w:24;N:78;N:90	-10.3422
;w:12;N:68;w:12;N:70;w:12;N:68	-10.3424
;w:6;N:69;N:81;w:6	-10.3425
;w:24;N:48;N:53;N:57	-10.3425
;N:38;w:12;N:50	-10.3432
;w:24;N:61;N:69	-10.3432
;N:66;w:12;N:63	-10.3439
;w:12;N:44;N:49	-10.344
;w:8;N:64;w:4	-10.344
;w:2;N:65	-10.3442
;D:48;w:12;D:42	-10.3442
;w:24;N:68;N:75	-10.3442
;w:12;N:38;w:6;N:38	-10.3443
;D:69;w:6;D:43	-10.3444
;w:12;N:50;w:6;N:50	-10.345
;N:41;N:53;w:12;N:41;N:53	-10.345
;D:50;w:6;D:47	-10.3453
;w:16;D:36;w:8;D:38	-10.3453
;w:6;N:51;w:6;N:52	-10.3453
;w:12;N:75;w:6;N:75	-10.3455
;N:69;N:72;N:74	-10.3455
;w:21;D:4	-10.3457
;w:7;N:73	-10.3459
;w:5;N:57	-10.346
;N:75;w:1	-10.3462
;N:44;w:12;N:51;w:12;N:56	-10.3462
;D:69;w:4;D:69	-10.3464
;N:81;w:3;N:82	-10.3464
;w:6;D:38;D:42;D:46	-10.3464
;w:12;D:42;D:69	-10.3465
;N:41;N:45	-10.3466
;N:76;w:24;N:71	-10.3466
;N:82;N:89	-10.3467
;w:6;N:54;w:6;N:51	-10.3467
;w:3;N:81;w:3;N:83	-10.3468
;w:12;N:83;N:86	-10.3468
;w:6;N:62;N:67	-10.347
;w:24;D:36;D:46	-10.3476
;N:41;w:12;N:53	-10.3477
;w:1;D:42	-10.3484
;N:67;w:12;N:60	-10.3484
;w:24;N:62;N:70	-10.3485
;w:12;N:47;w:12;N:44	-10.3485
;D:54;w:12;D:38;D:54	-10.3485
;w:8;N:63;w:4	-10.3491
;w:12;N:100;w:12;N:9	-10.3493
;w:12;N:50;w:12;N:45	-10.3495
;N:45;w:6;N:45	-10.3497
;N:88;w:12;N:86	-10.3498
;w:24;N:73;w:12;N:73	-10.3499
;w:9;N:87	-10.3502
;w:6;N:85;w:6;N:81	-10.3502
;w:12;N:67;w:12;N:65;w:12;N:63	-10.3503
;w:3;N:68;w:3;N:69	-10.3503
;w:3;N:60;w:9	-10.3504
;w:12;N:82;w:12;N:87	-10.3505
;w:6;N:45;w:12;N:45	-10.3507
;N:48;w:18;N:48	-10.3509
;w:4;N:39	-10.3511
;N:52;w:6;N:52	-10.3511
;N:74;w:36;N:74	-10.3513
;w:6;N:60;w:6;N:48	-10.3516
;N:83;w:6;N:81	-10.3517
;w:3;N:60;w:3;N:62	-10.3518
;w:6;N:65;N:69	-10.3523
;w:18;N:70;N:73	-10.3523
;N:71;w:12;N:64	-10.3523
;N:53;N:56;N:60;N:65	-10.3523
;w:24;N:60;w:24;N:58	-10.3525
;D:54;w:6;D:38;D:42	-10.3526
;w:12;N:59;w:12;N:64;w:12;N:59	-10.3526
;w:6;N:59;w:6;N:66	-10.3527
;w:12;N:36;w:6;N:36	-10.3531
;w:12;N:85;w:12;N:86	-10.3534
;w:6;N:67;w:6;N:63	-10.3534
;w:6;N:57;w:6;N:52	-10.3537
;N:78;w:5	-10.3539
;N:73;N:79	-10.3545
;N:51;w:18;N:51	-10.355
;w:12;N:39;w:24;N:39	-10.355
;w:6;N:84;w:6;N:81	-10.3552
;N:42;N:54;w:12;N:42;N:54	-10.3553
;N:65;w:12;N:62	-10.3554
;w:18;D:36;w:6;D:36	-10.3554
;w:6;N:42;w:6;N:47	-10.3555
;w:12;N:66;w:12;N:68;w:12;N:66	-10.3556
;N:53;w:6;N:53	-10.3558
;D:48;D:51;D:69	-10.3558
;w:12;N:29;w:12;N:31	-10.3559
;N:50;N:54;N:62	-10.356
;w:12;N:40;w:24;N:40	-10.3561
;N:41;w:4	-10.3565
;N:79;w:5	-10.3565
;w:5;N:58	-10.3566
;w:3;D:38;D:42	-10.3567
;N:59;w:12;N:47	-10.3571
;w:12;N:41;w:6;N:41	-10.3571
;w:12;N:68;w:12;N:70;w:12;N:72	-10.3572
;w:12;N:64;w:12;N:57	-10.3573
;w:12;N:67;w:12;N:60	-10.3575
;N:43;w:12;N:55	-10.3576
;D:37;D:38;D:42	-10.3579
;w:12;N:65;w:12;N:58	-10.358
;N:47;N:51;N:54;N:59	-10.3581
;N:70;w:6;N:68	-10.3581
;w:6;N:21	-10.3585
;w:12;N:62;w:12;N:60;w:12;N:62	-10.3587
;w:12;N:48;w:24;N:48	-10.3588
;N:79;N:87	-10.3589
;N:71;w:6;N:69	-10.3591
;w:12;N:71;w:12;N:69;w:12;N:67	-10.3591
;w:6;N:46;w:12;N:46	-10.3593
;D:48;w:8	-10.3593
;w:6;N:50;w:6;N:54	-10.3594
;D:53;D:76	-10.3596
;N:44;N:48;N:51	-10.3598
;w:24;N:59;N:67	-10.36
;N:55;N:59;N:67	-10.3601
;w:12;N:78;N:83	-10.3605
;w:6;N:49;N:54	-10.3605
;w:12;N:63;w:12;N:56	-10.3606
;w:12;N:72;w:12;N:70;w:12;N:68	-10.3606
;N:45;N:61	-10.3608
;D:69;D:70;w:6;D:42	-10.3609
;N:48;N:52;N:57	-10.361
;N:64;w:12;N:64;w:12;N:64	-10.3611
;w:12;N:42;w:12;N:39	-10.3611
;N:53;w:18;N:53	-10.3613
;w:12;N:41;w:12;N:38	-10.3615
;w:39;N:7	-10.3619
;w:6;N:74;w:6;N:70	-10.3627
;w:12;N:98;w:12;N:9	-10.3627
;w:12;N:52;N:60	-10.363
;w:6;N:58;w:6;N:53	-10.3631
;w:12;N:26;w:12;N:26	-10.3631
;N:63;N:68;N:72;w:12;N:63;N:68;N:72	-10.3633
;N:61;w:36;N:61	-10.3635
;w:24;N:68;N:72;N:75	-10.3636
;D:36;D:49;w:24;D:36	-10.3638
;D:54;w:12;D:36;D:42;D:54	-10.3639
;w:12;N:54;w:12;N:50	-10.364
;N:78;N:87	-10.3641
;N:79;w:18;N:79	-10.3643
;w:6;N:68;N:75	-10.3645
;w:12;D:46;w:12;D:36;D:42	-10.3645
;w:12;N:45;N:49	-10.3646
;w:24;N:72;w:24;N:74	-10.3648
;N:48;w:12;N:55;w:12;N:60	-10.3652
;N:95;w:3	-10.3653
;N:60;N:63;N:69	-10.3654
;w:6;N:59;w:6;N:47	-10.3654
;w:8;N:66;w:4	-10.3655
;w:16;N:29	-10.3656
;D:53;w:2	-10.3656
;N:39;N:51;w:12;N:39;N:51	-10.3656
;D:46;w:6;D:36	-10.3657
;N:63;N:66;N:68	-10.3657
;N:76;w:6;N:78	-10.3658
;w:6;N:76;w:6;N:72	-10.3658
;D:51;w:12;D:36;D:42;D:51	-10.3658
;D:36;D:42;w:12;D:38;D:42	-10.3659
;N:85;w:6;N:83	-10.3661
;w:12;D:43;D:46	-10.3661
;w:6;N:78;w:6;N:82	-10.3663
;w:12;N:82;w:12;N:77	-10.3664
;w:18;N:78;w:6	-10.3664
;w:6;N:39;w:6;N:37	-10.3666
;w:12;N:79;w:24;N:79	-10.3666
;w:6;N:55;w:12;N:55	-10.3667
;N:81;w:6;N:79	-10.3668
;w:12;D:36;D:38;D:41	-10.367
;w:18;D:36;w:6;D:38	-10.3671
;w:6;D:42;w:6;D:46;w:6;D:42	-10.3672
;w:2;N:78;w:1	-10.3672
;N:62;w:12;N:62;w:12;N:62	-10.3676
;N:72;w:12;N:72;w:12;N:72	-10.3678
;N:79;w:24;N:72	-10.3679
;w:6;N:56;w:6;N:55	-10.368
;w:6;N:34;w:6;N:36	-10.3683
;w:18;N:56;N:61	-10.3684
;w:6;N:75;w:6;N:71	-10.3685
;D:50;D:73	-10.3685
;N:72;w:1	-10.3686
;N:76;w:12;N:71	-10.3686
;w:24;N:66;N:71;N:75	-10.3692
;N:51;N:53	-10.3692
;w:12;N:64;w:12;N:67;w:12;N:64	-10.3696
;w:6;N:35;w:12;N:35	-10.3697
;w:6;N:52;w:12;N:52	-10.3698
;N:80;w:6;N:78	-10.37
;N:81;w:12;N:76	-10.37
;N:45;w:12;N:52;w:12;N:57	-10.37
;w:18;N:60;N:64	-10.3703
;N:75;w:36;N:75	-10.3705
;D:37;D:39;D:42	-10.3708
;w:12;N:90;w:12;N:92	-10.3709
;w:12;N:53;w:12;N:49	-10.3714
;N:75;w:6;N:77	-10.3714
;N:41;N:48;w:12;N:41;N:48	-10.3716
;w:24;N:61;w:24;N:59	-10.372
;w:6;N:90;w:6;N:90	-10.3721
;w:6;N:57;w:6;N:45	-10.3722
;N:66;N:69;N:72	-10.3722
;w:12;N:60;N:63;N:67	-10.3723
;N:52;w:36;N:52	-10.3726
;N:77;w:12;N:70	-10.3727
;w:24;N:65;w:24;N:67	-10.3728
;N:54;N:57;N:59	-10.3732
;w:24;N:80;w:12;N:78	-10.3732
;w:6;N:85;w:6;N:82	-10.3735
;N:58;N:61;N:64	-10.3742
;w:6;N:43;w:6;N:46	-10.3743
;w:6;N:100;w:6;N:10	-10.3746
;N:54;N:61;w:12;N:54;N:61	-10.3746
;w:3;D:49	-10.3748
;N:44;w:12;N:56	-10.3748
;N:60;w:24;N:58	-10.3748
;N:78;w:24;N:73	-10.3749
;w:6;N:73;w:6;N:77	-10.375
;D:36;D:42;w:6;D:42	-10.375
;w:24;N:64;w:24;N:66	-10.3751
;w:12;N:71;w:12;N:73;w:12;N:71	-10.3751
;w:24;N:66;w:24;N:68	-10.3754
;w:24;N:58;N:61;N:65	-10.3755
;w:6;N:85;w:6;N:88	-10.3756
;N:56;N:59;N:65	-10.3757
;w:6;D:36;w:6;D:38;D:46	-10.3761
;N:57;w:12;N:60	-10.3763
;w:12;N:63;w:6;N:65	-10.3764
;w:3;D:36;w:3;D:38	-10.3769
;w:24;N:59;N:62;N:66	-10.3769
;w:12;N:55;w:6;N:55	-10.3771
;w:12;N:73;w:12;N:71;w:12;N:69	-10.3773
;N:56;N:59;N:62	-10.3775
;w:12;N:59;w:12;N:62;w:12;N:59	-10.3775
;w:8;D:50	-10.3779
;N:48;N:64	-10.3779
;w:5;N:74	-10.378
;w:18;N:59;N:64	-10.3782
;N:54;N:57;N:62;N:66	-10.3783
;w:6;N:49;w:6;N:47	-10.3783
;N:47;w:12;N:54;w:12;N:59	-10.3786
;N:40;w:12;N:47	-10.3786
;w:12;N:66;N:71;N:75	-10.3788
;w:12;N:73;w:12;N:73;w:12;N:73	-10.3788
;N:46;N:62	-10.3789
;w:6;N:61;w:6;N:57	-10.3789
;D:69;w:6;D:45;D:69	-10.379
;N:43;N:46	-10.3792
;w:12;N:51;w:12;N:46	-10.3795
;D:54;w:6;D:36;D:42;D:54	-10.3796
;w:24;N:78;w:24;N:76	-10.3797
;N:47;N:63	-10.3797
;N:55;N:58;N:63;w:12;N:55;N:58;N:63	-10.3799
;w:12;N:62;w:12;N:67;w:12;N:62	-10.3799
;w:3;N:70;w:3;N:72	-10.38
;N:72;w:12;N:75	-10.38
;w:12;N:67;w:12;N:69;w:12;N:67	-10.38
;w:8;N:73;w:8;N:71	-10.3801
;w:6;N:62;w:6;N:50	-10.3804
;N:82;w:12;N:81	-10.3804
;N:56;N:59;N:64;w:12;N:56;N:59;N:64	-10.3804
;N:83;N:85	-10.3805
;w:8;N:69;w:4	-10.3805
;D:41;D:47	-10.3805
;D:36;D:42;w:6;D:42;w:6;D:36;D:42	-10.381
;w:12;N:70;w:12;N:63	-10.3811
;w:12;N:58;w:12;N:63;w:12;N:58	-10.3813
;w:12;N:77;w:12;N:77;w:12;N:77	-10.3813
;D:69;w:6;D:45	-10.3815
;w:12;N:46;w:6;N:46	-10.3816
;N:84;w:12;N:79	-10.3818
;w:24;N:56;w:12;N:56	-10.382
;w:6;N:54;w:6;N:61	-10.3822
;w:24;N:59;w:24;N:57	-10.3825
;w:18;N:81;w:6	-10.3828
;N:78;w:12;N:66	-10.3828
;w:6;N:54;N:66;w:6	-10.383
;w:6;D:70;w:6	-10.3831
;N:37;N:42	-10.3832
;w:16;D:42;w:8;D:42	-10.3834
;w:12;D:42;w:6;D:36	-10.3834
;w:6;N:60;w:6;N:56	-10.3837
;w:8;N:89;w:8;N:8	-10.3841
;w:6;N:48;w:6;N:52	-10.3842
;D:53;w:6;D:53;w:6	-10.3845
;N:35;N:47;w:12;N:35;N:47	-10.3845
;w:12;N:63;w:12;N:61;w:12;N:63	-10.385
;w:24;N:57;w:12;N:59	-10.3851
;D:36;D:38;D:39	-10.3852
;w:2;N:62;w:1	-10.3853
;w:8;D:42;w:4;D:36;D:42	-10.3857
;w:6;N:83;w:6;N:82	-10.3859
;w:6;D:47;w:6;D:47	-10.3859
;w:15;N:84	-10.3861
;w:12;N:71;w:12;N:78	-10.3864
;w:12;N:74;w:12;N:72;w:12;N:74	-10.3865
;w:6;N:93;w:6	-10.3865
;N:54;N:58;N:66	-10.3865
;w:20;N:3	-10.3868
;w:24;N:57;N:66	-10.3868
;w:23;N:6	-10.3869
;w:12;N:67;w:12;N:69;w:12;N:71	-10.387
;w:12;N:57;w:12;N:62;w:12;N:57	-10.3871
;N:44;N:60	-10.3872
;w:18;N:83;w:6	-10.3873
;w:12;N:85;w:12;N:88	-10.3873
;w:12;N:43;w:12;N:55	-10.3874
;w:6;N:69;N:72	-10.3878
;N:29;w:36;N:29	-10.3879
;w:24;N:60;N:68	-10.3879
;w:24;N:66;N:75	-10.3881
;D:54;D:73	-10.3884
;w:8;N:68;w:8;N:70	-10.3885
;N:32;w:18;N:32	-10.3888
;w:6;N:64;w:6;N:52	-10.3891
;w:18;N:84;w:6	-10.3892
;w:18;N:68;N:72	-10.3896
;N:57;w:6;N:57	-10.3896
;w:6;N:49;w:6;N:48	-10.3899
;N:59;N:65;N:68	-10.3904
;w:24;N:63;N:71	-10.3908
;N:53;N:56;N:59	-10.391
;N:44;w:6;N:44	-10.3912
;w:6;N:63;N:67	-10.3914
;w:12;N:73;w:6;N:75	-10.3917
;w:6;N:56;N:61	-10.3918
;w:6;N:77;w:6;N:73	-10.3919
;w:12;N:35;w:12;N:47	-10.3919
;w:12;N:71;w:12;N:73;w:12;N:75	-10.392
;D:51;w:12;D:36;D:42	-10.3922
;N:89;w:8	-10.3922
;N:85;w:12;N:78	-10.3926
;w:12;N:39;w:12;N:36	-10.3928
;N:38;w:2	-10.3928
;w:24;N:61;N:64;N:68	-10.3929
;w:12;N:60;N:66	-10.3931
;w:12;N:44;w:24;N:44	-10.3932
;w:6;N:65;w:6;N:63;w:6;N:65	-10.3933
;N:59;w:36;N:59	-10.3936
;w:12;N:64;w:6;N:66	-10.3937
;N:59;N:61;N:66	-10.394
;w:6;N:64;w:6;N:71	-10.3941
;w:12;N:61;w:12;N:66;w:12;N:61	-10.3942
;N:59;w:12;N:61	-10.3945
;w:24;N:57;N:63	-10.3945
;D:50;w:2	-10.3948
;N:74;w:1	-10.3948
;w:12;N:88;w:12;N:87	-10.3949
;N:49;w:12;N:56;w:12;N:61	-10.3949
;w:24;N:60;N:63;N:67	-10.3951
;w:6;N:93;w:6;N:91	-10.3952
;w:12;N:73;w:12;N:75;w:12;N:73	-10.3954
;N:75;w:7	-10.3954
;N:76;w:1	-10.3955
;N:73;w:1	-10.3958
;w:6;N:56;w:6;N:49	-10.3959
;w:6;N:51;N:55	-10.3959
;N:72;w:12;N:65	-10.3959
;w:12;N:59;w:6;N:59	-10.396
;N:62;N:67;N:71;N:74	-10.396
;w:6;N:53;w:12;N:53	-10.3961
;N:64;w:12;N:59	-10.3962
;N:78;w:1	-10.3963
;w:6;D:38;w:6;D:36;D:38;D:42	-10.3968
;w:12;N:47;w:24;N:47	-10.3968
;w:12;N:61;w:12;N:64;w:12;N:61	-10.3969
;N:69;w:12;N:62	-10.397
;w:7;D:36	-10.3971
;w:4;N:43;w:4	-10.3972
;w:8;N:72;w:8;N:70	-10.3972
;D:50;D:76	-10.3973
;N:34;N:41;N:46	-10.3973
;w:6;N:47;w:6;N:35	-10.3977
;w:18;N:60;N:65	-10.3978
;w:6;N:59;w:6;N:55	-10.3979
;D:53;w:12;D:51	-10.3979
;N:70;w:1	-10.3981
;D:41;D:51	-10.3983
;w:6;N:83;w:6;N:79	-10.3983
;w:6;N:40;w:6;N:41	-10.3983
;w:12;N:34;w:12;N:37	-10.3987
;N:57;N:63;N:66	-10.3988
;w:6;N:96;w:6	-10.3988
;w:24;N:63;w:24;N:65	-10.399
;w:6;N:55;w:6;N:54	-10.3992
;w:18;N:62;N:66	-10.3993
;w:24;N:65;N:73	-10.3994
;N:43;w:12;N:50;w:12;N:55	-10.3994
;w:6;N:56;w:6;N:44	-10.3996
;N:36;w:12;N:48	-10.3997
;w:6;N:55;w:6;N:51	-10.3999
;w:12;N:62;w:12;N:64;w:12;N:62	-10.4001
;w:6;N:69;N:81	-10.4001
;w:6;D:36;w:6;D:36;D:38	-10.4002
;w:24;D:54	-10.4002
;w:6;N:75;N:79	-10.4003
;w:24;N:53;N:60;N:65	-10.4004
;w:12;N:63;w:12;N:65;w:12;N:63	-10.4006
;w:6;N:52;w:6;N:64	-10.4009
;w:6;N:57;N:64	-10.4009
;w:6;N:87;w:6;N:90	-10.4011
;w:12;N:62;w:12;N:65;w:12;N:62	-10.4013
;w:12;N:50;w:12;N:46	-10.4013
;w:12;N:36;w:12;N:41	-10.4015
;w:1;N:62;w:2	-10.4016
;N:57;N:60;N:64;N:69	-10.4021
;w:12;N:59;N:65	-10.4022
;w:12;N:47;w:6;N:47	-10.4022
;w:6;N:41;w:6;N:46	-10.4022
;w:12;N:32;w:12;N:30	-10.4023
;w:8;N:89	-10.4023
;D:38;w:9;D:38	-10.4024
;w:12;N:57;w:12;N:57;w:12;N:57	-10.4026
;N:77;w:18;N:77	-10.4028
;N:67;N:71;N:74;N:79	-10.4028
;N:61;N:66;N:70;N:73	-10.4029
;N:63;w:12;N:63;w:12;N:63	-10.4034
;w:6;N:55;N:60	-10.404
;D:36;D:70	-10.4041
;N:93;w:2	-10.4043
;w:12;D:36;D:42;D:51	-10.4044
;D:51;w:3;D:38	-10.4044
;D:54;w:12;D:46	-10.405
;N:24;w:12;N:24	-10.405
;w:12;N:60;w:6;N:62	-10.4057
;w:12;D:38;D:42;D:54	-10.4066
;N:40;w:4	-10.4067
;w:5;D:42	-10.4069
;N:59;N:64;N:68;N:71	-10.407
;w:12;N:66;N:69;N:74	-10.407
;N:66;w:12;N:65	-10.4071
;w:3;N:68;w:3;N:66	-10.4072
;w:12;N:83;N:95	-10.4073
;w:6;N:61;w:6;N:49	-10.4076
;w:6;N:36;w:6;N:48	-10.4077
;w:12;N:87;w:12;N:88	-10.4079
;D:49;D:69	-10.4079
;w:6;N:48;N:55	-10.4081
;w:24;N:62;w:24;N:64	-10.4081
;w:6;N:63;w:6;N:51	-10.4083
;N:39;w:16;N:39	-10.4084
;w:12;N:68;w:12;N:61	-10.4085
;w:3;N:31	-10.4085
;w:12;N:73;w:6;N:73	-10.4086
;w:8;N:67;w:4	-10.4089
;w:6;N:103;w:6;N:10	-10.409
;N:55;N:58;N:60	-10.4092
;w:6;N:57;w:6;N:50	-10.4096
;w:3;N:59;w:9	-10.4102
;w:12;N:66;w:12;N:68;w:12;N:70	-10.4102
;N:66;N:69;N:71	-10.4106
;w:18;N:73;w:6;N:73	-10.4107
;w:18;N:66;N:71	-10.4109
;w:24;N:47;N:51	-10.4111
;w:6;N:47;w:6;N:46	-10.4111
;N:69;w:12;N:68	-10.4114
;w:24;N:45;N:50	-10.4115
;w:6;N:63;w:6;N:70	-10.4117
;N:44;N:56;w:12;N:44;N:56	-10.4118
;N:47;w:6;N:47	-10.4122
;w:12;N:56;w:6;N:56	-10.4124
;w:12;N:54;w:12;N:59;w:12;N:54	-10.4126
;D:51;w:3	-10.4126
;w:8;N:69;w:8;N:71	-10.4126
;D:51;w:8;D:51	-10.4128
;w:6;N:49;w:6;N:46	-10.4131
;w:12;N:64;w:24;N:62	-10.4134
;N:76;w:36;N:76	-10.4134
;N:67;w:12;N:66	-10.4137
;w:6;N:53;w:6;N:60	-10.4137
;N:77;w:36;N:77	-10.4137
;w:12;N:41;w:12;N:48	-10.4137
;N:82;w:12;N:84	-10.4138
;w:6;N:89;w:6;N:86	-10.414
;w:12;N:70;w:12;N:68;w:12;N:66	-10.4141
;N:77;w:18;N:75	-10.4142
;N:59;N:62;N:66;N:71	-10.4142
;D:36;w:2	-10.4146
;w:24;N:27;N:39	-10.4147
;w:4;N:49;w:4	-10.4147
;N:65;N:68;N:71	-10.415
;N:55;N:58;N:61	-10.415
;w:6;N:67;w:6;N:65;w:6;N:67	-10.4152
;N:60;w:36;N:60	-10.4153
;w:12;N:52;w:12;N:45	-10.4154
;w:24;N:59;w:12;N:57	-10.4156
;N:55;N:61;N:64	-10.4157
;w:6;N:49;w:12;N:49	-10.4158
;w:12;N:49;N:53;N:56	-10.4159
;N:65;w:12;N:64	-10.4161
;w:12;N:102;w:12;N:10	-10.4164
;N:49;N:57	-10.4165
;w:36;N:61;N:64	-10.4165
;N:36;N:48;w:12;N:36;N:48	-10.417
;w:12;N:74;w:12;N:81	-10.4172
;w:6;N:28;w:6;N:28	-10.4175
;N:63;w:12;N:58	-10.4175
;w:6;N:37;w:6;N:35	-10.4176
;N:82;w:12;N:77	-10.4181
;N:50;N:52	-10.4182
;w:1;N:61;w:2	-10.4186
;N:60;N:63;N:67;N:72	-10.4187
;w:12;N:85;w:12;N:84	-10.4187
;N:37;w:2	-10.4188
;w:6;N:49;w:6;N:56	-10.419
;w:6;N:94;w:6	-10.4191
;w:6;N:59;w:6;N:52	-10.4191
;w:12;N:55;w:12;N:60;w:12;N:55	-10.4194
;w:3;N:73;w:9	-10.4196
;w:4;N:37	-10.42
;N:69;w:6;N:71	-10.4204
;w:6;N:53;N:60	-10.4207
;w:24;N:66;N:69;N:74	-10.4207
;N:71;w:12;N:74	-10.4208
;w:1;N:45	-10.4214
;N:58;w:4;N:58	-10.4215
;w:6;N:52;N:59	-10.4216
;w:12;N:68;w:12;N:66;w:12;N:64	-10.4216
;w:12;N:101;w:12;N:10	-10.4219
;N:52;N:55;N:58	-10.422
;N:77;w:24;N:72	-10.4223
;N:83;w:12;N:82	-10.4225
;w:18;N:55;N:60	-10.4229
;N:58;N:60;N:65	-10.4231
;w:12;N:37;w:24;N:37	-10.4233
;w:12;N:88;w:12;N:85	-10.4233
;N:61;N:64;N:70	-10.4234
;N:76;w:18;N:76	-10.4235
;w:6;N:74;w:6;N:72;w:6;N:74	-10.4238
;w:24;N:75;w:24;N:75	-10.4238
;w:4;D:36;D:38	-10.4239
;w:12;N:28;w:12;N:30	-10.424
;w:3;N:62;w:3;N:60	-10.4251
;w:12;N:45;N:48	-10.4251
;w:12;N:45;w:6;N:45	-10.4252
;w:12;N:74;w:12;N:72;w:12;N:70	-10.4252
;w:12;N:72;w:12;N:74;w:12;N:72	-10.4252
;w:6;N:55;N:67;w:6	-10.4254
;w:6;N:56;N:59	-10.4258
;w:12;N:83;w:12;N:78	-10.4259
;w:24;N:60;N:66	-10.4259
;N:73;w:12;N:73;w:12;N:73	-10.426
;w:2;N:61;w:1	-10.426
;N:50;N:55;N:58	-10.4261
;w:12;N:34;w:6;N:34	-10.4262
;w:12;N:56;w:12;N:61;w:12;N:56	-10.4264
;w:18;N:60;w:6	-10.4264
;w:36;N:59;N:62	-10.4265
;w:6;N:46;w:6;N:45	-10.4265
;w:3;N:66;w:3;N:64	-10.4265
;w:24;N:67;N:76	-10.4265
;N:65;w:12;N:58	-10.4266
;w:6;N:83;w:6;N:78	-10.427
;w:12;N:45;w:12;N:40	-10.4274
;w:6;D:51;w:6	-10.4276
;w:6;N:80;w:6;N:76	-10.4277
;w:12;N:40;w:12;N:37	-10.4278
;D:53;w:6;D:51	-10.4281
;N:37;w:12;N:49	-10.4282
;w:12;N:74;w:12;N:73;w:12;N:71	-10.4283
;N:77;w:3;N:78	-10.4284
;w:24;N:74;w:24;N:76	-10.4285
;w:12;N:68;w:12;N:70;w:12;N:71	-10.4285
;w:6;N:88;w:6;N:89	-10.4286
;w:12;N:58;w:12;N:61;w:12;N:58	-10.4288
;N:71;w:1	-10.4289
;w:6;N:91;w:6;N:93	-10.4295
;N:78;w:12;N:71	-10.4295
;w:6;N:82;w:6;N:86	-10.4299
;w:12;N:40;w:6;N:40	-10.43
;D:49;w:6;D:36	-10.4302
;w:8;N:45;w:8;N:4	-10.4306
;N:89;w:12;N:89	-10.4313
;w:12;N:64;w:6;N:64;w:6;N:64	-10.4313
;w:6;N:65;N:70	-10.4313
;w:12;N:49;w:12;N:42	-10.4314
;w:8;N:62;w:8;N:65	-10.4315
;w:2;N:50	-10.4317
;w:12;N:70;w:12;N:77	-10.4319
;w:24;N:55;w:12;N:55	-10.4322
;w:12;N:74;w:6;N:74	-10.4323
;w:12;N:83;w:12;N:84	-10.4324
;D:70;w:6;D:48	-10.4326
;w:4;N:90;w:4	-10.4326
;w:6;D:36;D:42;D:54	-10.4329
;D:70;w:6;D:70;w:6;D:42;D:70;w:6;D:70	-10.4329
;N:56;w:36;N:56	-10.4331
;N:75;w:12;N:68	-10.4333
;w:8;N:45;w:8;N:45	-10.4334
;w:5;N:73	-10.4335
;w:6;N:55;N:62	-10.4341
;N:57;w:12;N:59	-10.4342
;w:6;N:49;w:6;N:53	-10.4343
;N:70;w:24;N:72	-10.4343
;w:18;N:58;N:63	-10.4345
;w:12;N:72;N:79	-10.4346
;N:88;w:24;N:88	-10.4348
;w:6;N:44;w:6;N:32	-10.4356
;w:6;N:64;w:6;N:62;w:6;N:64	-10.4358
;w:6;N:86;w:6;N:88	-10.436
;w:6;N:79;N:82	-10.436
;N:75;w:24;N:70	-10.436
;w:18;N:56;N:59	-10.4364
;N:62;N:64;N:69	-10.4364
;D:39;D:54	-10.4365
;w:24;N:57;N:60;N:64	-10.4371
;w:12;N:63;N:69	-10.4374
;w:12;N:63;w:12;N:68;w:12;N:63	-10.4375
;w:12;N:72;w:12;N:74;w:12;N:76	-10.4376
;N:83;w:24;N:81	-10.4378
;w:6;N:75;w:6;N:75;w:6;N:75;w:6;N:75	-10.4378
;w:12;N:74;w:12;N:74;w:12;N:74	-10.4379
;N:73;w:12;N:76	-10.438
;D:69;w:6;D:39	-10.4381
;w:12;N:55;N:62;N:67	-10.4382
;w:3;N:32	-10.4382
;w:6;D:36;D:38;D:41	-10.4386
;w:12;N:61;N:64;N:68	-10.4387
;w:6;N:45;N:52;N:57	-10.439
;N:44;w:2	-10.439
;w:6;N:50;w:6;N:48	-10.439
;w:12;N:52;w:12;N:48	-10.4391
;w:6;N:58;w:6;N:51	-10.4392
;w:36;N:63;N:66	-10.4392
;w:7;N:56	-10.4393
;w:12;N:63;w:24;N:61	-10.4394
;w:12;N:46;N:49	-10.4394
;w:6;N:38;N:45	-10.4396
;w:6;N:40;w:6;N:45	-10.4399
;w:6;N:55;w:6;N:48	-10.4401
;N:23;w:12;N:23	-10.4402
;N:59;w:24;N:57	-10.4403
;w:18;N:61;N:65	-10.4404
;N:28;w:36;N:28	-10.4404
;w:6;N:84;w:6;N:83	-10.4405
;w:24;N:60;w:24;N:62	-10.4405
;w:6;N:53;w:6;N:65	-10.4406
;w:6;N:65;w:6;N:72	-10.4407
;w:6;N:51;N:54	-10.4407
;w:24;N:61;N:67	-10.4408
;D:70;w:6;D:70;w:6;D:36	-10.4408
;w:12;D:36;w:6;D:36;w:6;D:38	-10.4409
;w:6;D:42;w:6;D:42;w:6;D:42;w:6;D:38;D:42	-10.4411
;N:43;N:47;N:50	-10.4411
;w:6;N:63;N:68	-10.4412
;w:12;N:58;N:64	-10.4416
;w:24;D:36;D:37	-10.4418
;N:85;w:12;N:80	-10.4419
;w:12;N:59;w:12;N:59;w:12;N:59	-10.4421
;N:62;N:65;N:67	-10.4426
;w:12;N:62;w:24;N:60	-10.4426
;w:12;N:85;w:12;N:81	-10.4427
;w:6;N:56;N:60	-10.4427
;N:47;w:18;N:47	-10.4427
;w:24;N:73;w:24;N:75	-10.4428
;N:53;w:36;N:53	-10.4429
;D:51;w:16;D:38	-10.443
;N:75;N:79;N:84	-10.4431
;D:76;w:4	-10.4432
;w:12;N:61;w:12;N:63;w:12;N:61	-10.4433
;w:18;N:69;N:73	-10.4436
;N:76;w:24;N:69	-10.4439
;N:61;N:67;N:70	-10.444
;w:12;N:62;w:12;N:55	-10.444
;N:46;N:58;N:62;N:65	-10.4442
;w:6;N:51;w:6;N:49	-10.4442
;w:12;D:45;D:46	-10.4444
;D:38;D:69	-10.4447
;w:6;D:47;w:6;D:45	-10.4449
;N:45;w:12;N:57	-10.4449
;w:12;N:48;w:12;N:41	-10.445
;w:6;N:90;w:6;N:89	-10.4454
;N:63;N:65;N:70	-10.4454
;w:3;N:64;w:3;N:62	-10.4455
;N:28;w:6;N:28	-10.4456
;w:6;N:66;w:6;N:64;w:6;N:66	-10.4457
;N:26;w:6;N:26;w:6;N:26	-10.4462
;w:24;N:76;w:12;N:76	-10.4462
;N:80;w:12;N:68	-10.4463
;N:75;w:3;N:76	-10.4464
;w:12;N:50;w:12;N:62	-10.4465
;N:73;N:78;N:81	-10.4466
;N:66;N:68;N:71	-10.4467
;w:12;N:75;w:12;N:73;w:12;N:71	-10.4467
;N:27;w:24;N:27	-10.447
;w:12;N:45;w:12;N:45;w:12;N:45	-10.4471
;D:54;w:24;D:36	-10.4476
;w:12;N:56;N:59;N:63	-10.4476
;w:24;N:45;N:52;N:57	-10.4476
;w:8;N:70;w:8;N:72	-10.4478
;w:12;N:74;w:6;N:76	-10.4478
;w:6;N:43;N:50;N:55	-10.4479
;w:12;N:72;w:12;N:65	-10.448
;w:12;N:69;w:12;N:71;w:12;N:73	-10.4481
;N:50;w:4;N:50	-10.4482
;w:12;N:63;w:12;N:65;w:12;N:67	-10.4484
;w:24;N:79;w:24;N:77	-10.4487
;w:12;D:42;w:12;D:38	-10.4488
;w:12;N:61;w:6;N:63	-10.4489
;w:12;D:36;D:38;D:39	-10.4491
;w:18;N:67;w:6;N:67	-10.4493
;D:53;D:69;w:6	-10.4493
;w:3;D:38;w:3;D:38;w:3;D:38;w:3;D:36;D:38	-10.4493
;N:68;w:24;N:70	-10.4493
;w:12;N:70;w:6;N:70;w:6;N:70	-10.4494
;w:12;N:81;w:12;N:85	-10.4495
;w:12;N:57;N:63	-10.4497
;N:89;w:12;N:87	-10.4497
;w:6;N:99;w:6;N:10	-10.45
;w:12;N:62;w:6;N:64	-10.4503
;w:8;D:38;w:4;D:38	-10.4504
;w:6;N:51;w:12;N:51	-10.4507
;w:12;N:35;w:6;N:35	-10.4508
;N:58;w:12;N:60	-10.4509
;w:12;N:49;w:6;N:49	-10.4509
;D:54;D:70;w:6;D:54	-10.4509
;N:46;N:50;N:53;N:58	-10.4511
;N:61;w:12;N:61;w:12;N:61	-10.4512
;w:8;N:66;w:8;N:68	-10.4514
;N:40;N:47;w:12;N:40;N:47	-10.4514
;w:3;N:69;w:3;N:67	-10.452
;N:73;w:4;N:73	-10.452
;w:8;N:48;w:8;N:48	-10.4522
;N:70;N:73;N:75	-10.4531
;w:6;N:38;w:6;N:36	-10.4534
;N:57;N:61;N:64;w:12;N:57;N:61;N:64	-10.4536
;w:6;N:37;w:6;N:49	-10.4537
;w:12;N:32;w:12;N:33	-10.4541
;N:74;w:12;N:74;w:12;N:74	-10.4541
;w:12;N:39;w:6;N:39	-10.4542
;N:38;w:16;N:38	-10.4543
;D:54;w:3;D:54;w:3	-10.4544
;w:6;N:77;N:89;w:6	-10.4548
;N:71;w:24;N:66	-10.4549
;w:12;N:36;w:12;N:35	-10.4549
;w:12;N:36;w:24;N:36	-10.455
;w:6;N:55;w:6;N:67	-10.4552
;D:38;D:42;D:49	-10.4554
;N:58;w:36;N:58	-10.4554
;w:12;N:78;w:24;N:76	-10.4554
;w:12;D:36;D:48	-10.4555
;w:6;N:69;w:6;N:69;w:6;N:69;w:6;N:69	-10.4555
;N:62;w:12;N:57	-10.4556
;N:56;N:59;N:63;N:68	-10.4557
;D:70;w:2	-10.4557
;w:6;N:100;w:6;N:9	-10.4558
;w:6;N:35;w:6;N:47	-10.456
;D:37;D:51	-10.456
;w:18;N:68;w:6;N:68	-10.456
;N:41;w:16;N:41	-10.4561
;w:6;N:46;N:53	-10.4565
;N:74;w:5	-10.4573
;w:12;N:38;w:12;N:35	-10.4573
;N:45;N:50;N:54	-10.4573
;w:24;N:59;N:65	-10.4576
;w:12;N:83;w:12;N:88	-10.4577
;w:24;N:58;N:64	-10.458
;N:78;w:24;N:75	-10.458
;w:6;N:39;w:6;N:40	-10.4583
;w:6;N:53;N:58	-10.4584
;w:6;N:66;N:71	-10.4585
;w:12;N:62;N:65;N:69	-10.4585
;N:80;w:5	-10.4587
;D:69;w:6;D:43;D:69	-10.4588
;N:31;w:8;N:31	-10.459
;D:38;w:12;D:36	-10.4595
;N:86;w:12;N:79	-10.4595
;N:94;w:2	-10.4595
;w:12;N:39;N:44	-10.4597
;w:6;N:57;N:69;w:6	-10.4598
;w:12;N:73;w:6;N:71	-10.4599
;N:64;w:12;N:57	-10.4601
;N:91;w:1	-10.4602
;D:53;w:12;D:36;D:53	-10.4605
;w:12;N:64;w:12;N:69;w:12;N:64	-10.4608
;N:80;w:24;N:73	-10.461
;w:3;N:63;N:66	-10.4612
;w:8;N:65;w:4	-10.4612
;N:92;w:1	-10.4613
;N:51;N:56;N:60;N:63	-10.4613
;N:37;w:16;N:37	-10.4613
;w:12;N:49;w:12;N:45	-10.4614
;w:12;N:79;w:6;N:79	-10.4614
;w:12;N:44;w:12;N:56	-10.4617
;N:82;w:6;N:82	-10.4618
;w:12;N:44;w:12;N:48	-10.4618
;w:8;N:61;w:4	-10.4619
;w:24;N:76;w:24;N:76	-10.462
;w:24;N:61;w:24;N:63	-10.462
;N:70;w:16;N:70	-10.462
;w:3;D:48;w:3	-10.4621
;N:43;N:67	-10.4623
;w:12;N:61;w:12;N:54	-10.4625
;w:24;N:75;w:12;N:75	-10.4625
;w:12;N:70;w:12;N:72;w:12;N:73	-10.463
;w:6;N:86;w:6;N:83	-10.4633
;N:36;w:2	-10.4634
;w:24;N:58;w:24;N:56	-10.4636
;N:55;w:18;N:55	-10.4637
;D:36;D:38;w:24;D:38	-10.4639
;N:86;w:6;N:84	-10.4639
;N:43;N:59	-10.4643
;N:57;N:59;N:64	-10.4647
;w:12;N:65;w:12;N:67;w:12;N:69	-10.465
;N:80;N:83;N:87	-10.465
;N:60;N:63;N:65	-10.4653
;N:38;N:43	-10.4653
;D:50;w:12;D:42	-10.4654
;w:12;D:38;D:41	-10.4654
;w:6;N:48;w:6;N:45	-10.4656
;D:37;D:48	-10.4657
;w:12;N:70;w:6;N:68	-10.4658
;D:38;D:50	-10.4659
;D:70;w:6;D:38;D:70	-10.4661
;w:12;N:63;w:12;N:66;w:12;N:63	-10.4662
;N:64;w:12;N:61	-10.4662
;N:71;w:24;N:73	-10.4662
;D:42;w:18;D:42	-10.4662
;w:12;N:73;w:12;N:75;w:12;N:76	-10.4662
;w:3;N:62;N:65	-10.4663
;N:81;w:18;N:81	-10.4664
;w:24;N:56;N:62	-10.4664
;N:59;N:62;N:64	-10.4664
;w:8;N:68;w:8;N:66	-10.4668
;N:87;w:6;N:85	-10.4669
;w:12;N:75;w:12;N:75;w:12;N:75	-10.4669
;N:31;w:18;N:31	-10.4669
;w:8;N:64;w:8;N:66	-10.4671
;N:75;N:81	-10.4672
;w:12;N:58;w:12;N:58;w:12;N:58	-10.4673
;w:6;N:84;w:6;N:89	-10.4674
;w:6;N:45;w:6;N:44	-10.4674
;N:52;N:57;N:61;w:12;N:52;N:57;N:61	-10.4675
;w:3;N:75;w:3;N:74	-10.4678
;w:24;N:56;w:12;N:58	-10.4678
;w:6;N:54;w:6;N:53	-10.4678
;N:93;w:1	-10.468
;N:72;w:5	-10.468
;N:49;N:55	-10.4683
;w:12;N:51;N:54;N:58	-10.4686
;w:24;N:78;w:12;N:80	-10.4688
;N:35;w:12;N:47	-10.4689
;N:51;N:54;N:58;N:63	-10.4694
;w:12;N:46;w:12;N:58	-10.4696
;w:6;N:62;w:6;N:60;w:6;N:62	-10.4698
;N:34;w:6;N:34	-10.47
;w:6;N:54;N:58	-10.4701
;w:12;N:66;w:12;N:65;w:12;N:63	-10.4701
;w:12;N:35;w:24;N:35	-10.4701
;w:6;N:54;w:6;N:66	-10.4702
;w:24;N:68;N:77	-10.4702
;w:12;N:38;w:12;N:37	-10.4703
;w:6;N:61;w:6;N:54	-10.4704
;w:6;D:46;w:6;D:36;D:42	-10.4704
;N:52;N:56;N:59;w:12;N:52;N:56;N:59	-10.4705
;w:6;N:76;N:88;w:6	-10.4706
;w:6;N:86;w:6;N:81	-10.4707
;w:12;N:60;w:12;N:63;w:12;N:60	-10.4708
;w:6;N:54;w:6;N:50	-10.4708
;N:51;w:12;N:58;w:12;N:63	-10.471
;w:12;N:44;w:6;N:44	-10.471
;w:6;N:48;w:6;N:55	-10.471
;w:12;N:56;w:12;N:56;w:12;N:56	-10.4711
;w:12;N:47;w:12;N:40	-10.4713
;N:64;N:67;N:69	-10.4714
;N:81;w:5	-10.4715
;w:3;N:67;w:3;N:65	-10.4715
;w:12;N:71;w:12;N:70;w:12;N:71	-10.4716
;N:77;w:7	-10.4716
;w:6;N:71;N:83	-10.4717
;N:39;w:18;N:39	-10.4717
;N:43;w:1	-10.4718
;N:74;w:12;N:67	-10.4718
;w:12;N:70;w:12;N:69;w:12;N:70	-10.4718
;w:6;D:69;w:6;D:42	-10.4719
;w:24;N:55;w:12;N:57	-10.4719
;w:12;N:84;w:12;N:85	-10.4719
;N:60;N:65;N:69;N:72	-10.472
;N:43;N:55;w:12;N:43;N:55	-10.472
;w:12;N:45;w:12;N:42	-10.4723
;w:3;N:69;w:3;N:68	-10.4725
;N:73;w:24;N:66	-10.4726
;w:12;N:56;N:63;N:68	-10.4726
;N:42;w:12;N:49;w:12;N:54	-10.4727
;w:12;N:69;w:12;N:71;w:12;N:72	-10.4728
;w:6;D:42;D:46	-10.473
;N:54;w:36;N:54	-10.473
;w:12;N:55;w:12;N:48	-10.4732
;w:12;N:40;w:12;N:40;w:12;N:40	-10.4732
;w:3;N:61;w:3;N:64	-10.4732
;w:12;N:90;w:12;N:89	-10.4733
;N:66;w:12;N:59	-10.4733
;w:12;N:102	-10.4735
;w:6;N:64;N:69	-10.4735
;N:26;w:18;N:26	-10.4735
;w:6;N:46;w:6;N:58	-10.474
;w:3;N:65;w:3;N:63	-10.474
;w:6;N:33;w:6;N:35	-10.474
;w:24;N:40;N:47	-10.4741
;w:12;D:38;D:42;D:43	-10.4743
;w:18;N:62;N:74	-10.4744
;w:6;N:70;w:6;N:68;w:6;N:70	-10.4745
;N:56;N:59;N:64;N:68	-10.4748
;w:12;N:43;w:12;N:50	-10.4749
;N:73;w:5	-10.475
;D:46;w:2	-10.475
;w:12;N:47;w:12;N:59	-10.4751
;w:12;N:37;w:12;N:36	-10.4753
;w:12;N:71;w:12;N:64	-10.4754
;N:61;N:63;N:68	-10.4758
;N:65;N:68;N:70	-10.4759
;N:83;w:12;N:85	-10.4762
;w:12;N:71;w:12;N:70;w:12;N:68	-10.4762
;w:12;N:75;w:6;N:77	-10.4762
;w:12;N:48;w:12;N:43	-10.4762
;w:18;N:58;N:62	-10.4763
;w:12;N:49;w:12;N:61	-10.4766
;w:6;N:89;w:6	-10.4766
;N:83;w:6;N:83	-10.4767
;D:70;w:6;D:39	-10.4767
;w:1;D:38	-10.4768
;w:12;D:38;D:42;w:6;D:38	-10.4773
;N:58;w:3;N:62	-10.4775
;w:24;N:69;N:73;N:76	-10.4777
;N:56;N:58;N:61	-10.4777
;w:12;N:45;w:12;N:57	-10.4777
;N:68;w:6;N:66	-10.4777
;N:43;w:18;N:43	-10.4778
;w:12;N:44;w:12;N:39	-10.4779
;w:24;N:55;N:64	-10.478
;N:51;w:12;N:58	-10.4782
;w:12;N:75;w:6;N:73	-10.4783
;N:58;N:61;N:65;N:70	-10.4785
;w:8;N:69;w:8;N:67	-10.4788
;N:76;w:18;N:74	-10.479
;N:86;w:24;N:84	-10.4793
;D:43;w:12;D:43	-10.4793
;w:12;N:56;N:62	-10.4794
;w:6;N:75;w:6;N:79	-10.4795
;N:75;N:80;N:83	-10.4795
;w:24;N:54;N:59;N:62	-10.4795
;D:76;w:12;D:36;D:42	-10.4797
;w:12;D:38;w:4;D:38;w:4;D:38;w:4;D:38	-10.4798
;N:82;N:86;N:89	-10.4799
;w:12;N:69;N:73;N:76	-10.4799
;N:68;w:16;N:68	-10.48
;w:6;D:41;w:6;D:41	-10.4801
;w:18;N:46;N:58	-10.4802
;N:67;w:6;N:65	-10.4803
;w:12;N:62;N:68	-10.4803
;D:50;w:4	-10.4803
;w:12;N:76;w:12;N:74;w:12;N:76	-10.4805
;w:6;N:32;w:6	-10.4805
;N:79;w:12;N:67	-10.4808
;w:12;D:36;D:42;D:47	-10.4808
;w:12;N:82;N:86	-10.4808
;w:12;D:42;D:53	-10.4811
;w:12;N:49;N:54;N:58	-10.4811
;N:81;w:12;N:78	-10.4811
;w:12;N:33;w:12;N:36	-10.4812
;w:6;N:89;w:6;N:88	-10.4813
;w:12;N:25;N:37	-10.4814
;w:6;N:56;w:6;N:51	-10.4817
;N:84;w:24;N:82	-10.4817
;w:12;N:48;N:52;N:55	-10.4817
;w:24;N:56;w:24;N:56	-10.4818
;w:6;N:93;w:6;N:93	-10.4819
;w:6;N:60;N:69	-10.4823
;w:6;N:55;w:6;N:50	-10.4824
;D:69;w:6;D:42;D:69;w:6;D:42	-10.4824
;N:78;w:6;N:80	-10.483
;N:45;N:52;N:57;w:12;N:45;N:52;N:57	-10.4833
;w:6;N:46;w:6;N:34	-10.4834
;w:6;N:90;w:6;N:91	-10.4837
;D:42;w:12;D:38	-10.4838
;w:6;N:47;N:54	-10.4838
;D:70;w:8;D:70;w:4	-10.4839
;w:6;N:66;w:6;N:73	-10.484
;w:12;N:57;w:12;N:60;w:12;N:57	-10.484
;N:68;N:71;N:73	-10.4845
;N:44;N:51;N:56;N:60	-10.4847
;w:6;N:25;N:37	-10.4852
;w:4;D:38;w:4;D:38;w:4;D:38	-10.4855
;w:6;D:48;w:6;D:48	-10.4856
;w:6;N:104;w:6;N:10	-10.4856
;w:6;N:50;N:54	-10.4856
;w:12;N:71;N:78	-10.4858
;N:56;w:12;N:59	-10.4858
;w:18;N:69;w:6;N:67	-10.4867
;N:55;N:58;N:64	-10.4867
;N:90;w:12;N:90	-10.4873
;N:67;w:24;N:69	-10.4873
;w:12;N:51;N:54;N:59	-10.4874
;w:6;N:87;w:6;N:82	-10.4877
;w:12;N:43;w:12;N:38	-10.4877
;w:36;N:60;N:63	-10.4877
;N:54;N:57;N:63	-10.4877
;w:6;N:48;w:6;N:60	-10.488
;w:36;N:62;N:65	-10.4881
;w:24;N:67;N:70;N:75	-10.4884
;w:8;D:45	-10.4885
;N:74;w:6;N:76	-10.4887
;w:8;N:92	-10.4888
;w:24;N:55;N:61	-10.4889
;w:24;N:66;N:74	-10.489
;w:12;N:70;w:12;N:72;w:12;N:74	-10.489
;w:3;N:82;w:3;N:84	-10.4894
;w:18;N:69;w:6;N:69	-10.4895
;w:8;N:65;w:8;N:68	-10.4899
;w:24;N:79;N:91	-10.49
;D:56;w:6;D:56	-10.4902
;w:12;N:71;N:79	-10.4902
;w:6;N:48;w:6;N:47	-10.4904
;w:12;N:67;w:12;N:66;w:12;N:67	-10.4911
;w:12;N:78;w:12;N:78;w:12;N:78	-10.4911
;w:2;N:59;w:1	-10.4912
;w:6;N:66;w:6;N:54	-10.4913
;N:85;w:6;N:85	-10.4913
;w:6;N:66;N:70	-10.4914
;w:6;N:45;N:52	-10.4914
;D:50;w:6;D:36	-10.4914
;w:12;N:80;w:24;N:80	-10.4916
;w:6;N:62;w:6;N:61;w:6;N:62	-10.4919
;w:12;N:47;N:52;N:56	-10.492
;w:12;N:73;w:12;N:80	-10.4921
;w:12;N:66;w:12;N:69;w:12;N:66	-10.4921
;w:48;N:59;N:62	-10.4923
;w:12;N:69;w:12;N:68;w:12;N:69	-10.4924
;w:12;N:53;w:12;N:46	-10.4925
;w:12;N:67;w:12;N:70;w:12;N:67	-10.4927
;N:60;w:12;N:60;w:12;N:60	-10.4928
;w:8;N:65;w:8;N:67	-10.4928
;w:24;N:56;N:59;N:63	-10.493
;w:24;N:58;N:66	-10.493
;w:12;N:77;w:6;N:77	-10.4931
;w:18;N:76;w:6	-10.4931
;N:80;N:83;N:88	-10.4933
;w:18;N:54;N:59	-10.4941
;w:24;N:75;w:24;N:77	-10.4941
;w:6;N:67;w:6;N:55	-10.4942
;w:12;N:60;w:12;N:62;w:12;N:60	-10.4942
;w:12;N:42;w:6;N:42	-10.4942
;N:73;w:24;N:75	-10.4942
;w:12;D:38;D:48	-10.4944
;D:43;D:45;D:47	-10.4944
;N:49;N:65	-10.4949
;w:12;N:77;w:12;N:75;w:12;N:77	-10.4951
;N:76;w:7	-10.4951
;w:12;D:38;w:12;D:42	-10.4952
;w:12;N:53;w:12;N:58;w:12;N:53	-10.4952
;w:12;N:61;w:12;N:59;w:12;N:61	-10.4953
;N:80;w:12;N:77	-10.4954
;N:25;w:24;N:25	-10.4957
;w:18;N:70;w:6;N:68	-10.4957
;D:51;w:8;D:36	-10.4961
;w:7;N:74	-10.4965
;w:1;N:47	-10.4967
;w:6;N:87;w:6;N:88	-10.497
;w:12;N:53;w:12;N:53;w:12;N:53	-10.4975
;N:73;w:6;N:75	-10.4977
;w:12;N:77;N:82	-10.4978
;w:6;N:45;w:6;N:33	-10.498
;N:64;N:66;N:71	-10.4982
;w:6;D:50;w:6	-10.4983
;w:6;N:75;w:6;N:73;w:6;N:75	-10.4984
;w:12;N:56;w:12;N:59;w:12;N:56	-10.4985
;w:18;N:57;N:62	-10.4985
;D:49;w:6;D:42	-10.4986
;N:82;N:84	-10.4989
;N:55;N:58;N:63;N:67	-10.4992
;N:78;w:18;N:76	-10.4992
;w:12;N:45;w:12;N:38	-10.4992
;w:6;N:52;w:6;N:45	-10.4993
;w:8;N:64;w:8;N:67	-10.4994
;N:44;w:18;N:44	-10.4998
;N:81;w:24;N:74	-10.5001
;D:69;w:6;D:47;D:69	-10.5002
;w:18;N:68;w:6;N:66	-10.5003
;w:24;N:57;N:65	-10.5004
;N:56;w:2	-10.5007
;w:12;N:69;w:6;N:67	-10.5007
;N:58;w:12;N:46	-10.5007
;w:12;N:44;w:12;N:44;w:12;N:44	-10.5008
;w:12;N:68;w:12;N:67;w:12;N:68	-10.5008
;w:6;N:77;w:6;N:75;w:6;N:77	-10.5009
;w:8;N:51;w:8;N:51	-10.501
;w:6;N:84;w:6;N:79	-10.5014
;w:6;N:43;w:6;N:31	-10.5015
;w:8;N:66;w:8;N:64	-10.5016
;w:24;N:62;N:65;N:69	-10.502
;w:8;N:47;w:8;N:47	-10.5022
;w:12;N:46;w:12;N:39	-10.5023
;w:12;N:64;w:12;N:66;w:12;N:68	-10.5025
;D:69;w:12;D:38;D:42	-10.5025
;N:58;N:63;N:70	-10.5028
;w:6;N:56;w:6;N:68	-10.5028
;w:6;N:74;w:6;N:78	-10.5033
;w:6;N:71;w:6;N:71;w:6;N:71;w:6;N:71	-10.5033
;w:18;D:36;D:38	-10.5034
;w:8;N:46;w:8;N:46	-10.5036
;w:12;N:86;w:12;N:81	-10.5037
;w:12;N:73;w:12;N:75;w:12;N:77	-10.5038
;w:24;N:44;N:51;N:56	-10.5039
;N:53;N:59;N:62	-10.504
;N:74;N:79;N:82	-10.5043
;w:6;N:58;w:6;N:54	-10.5044
;w:12;N:48;N:53;N:57	-10.5044
;w:6;N:47;w:6;N:54	-10.5044
;w:12;N:46;w:12;N:46;w:12;N:46	-10.5045
;w:6;N:42;w:6;N:45	-10.5045
;N:41;w:12;N:41;w:12;N:41;w:12;N:41	-10.5045
;w:12;N:40;w:12;N:47	-10.5046
;N:47;N:56	-10.5047
;D:37;D:49	-10.5048
;N:62;N:65;N:71	-10.5048
;w:12;N:59;w:12;N:52	-10.5048
;w:6;N:63;w:6;N:62;w:6;N:63	-10.5052
;N:40;w:12;N:47;w:12;N:52	-10.5053
;w:24;N:47;N:54;N:59	-10.5056
;w:12;N:60;w:12;N:53	-10.5057
;w:18;N:64;N:76	-10.5061
;D:36;D:42;w:6;D:42;w:6;D:42;w:6;D:42	-10.5061
;w:12;N:42;w:12;N:42;w:12;N:42	-10.5062
;w:12;N:86;w:12;N:89	-10.5063
;w:6;N:79;w:6;N:75	-10.5063
;N:48;w:6;N:48	-10.5065
;w:36;N:60;N:64	-10.5068
;N:73;w:24;N:70	-10.5068
;w:18;N:64;w:6;N:64	-10.5069
;N:42;w:4	-10.5069
;N:50;w:18;N:50	-10.507
;w:6;D:38;D:42;D:47	-10.5071
;w:6;N:65;w:6;N:53	-10.5074
;w:6;N:75;w:6;N:77;w:6;N:78	-10.5075
;N:96;w:3	-10.5078
;w:12;N:76;w:12;N:74;w:12;N:72	-10.5079
;w:12;N:38;N:43	-10.5082
;D:42;D:56	-10.5083
;N:73;w:12;N:69	-10.5085
;w:3;N:59;N:64	-10.5086
;w:4;N:48;w:4	-10.5087
;w:16;D:38;w:8;D:36	-10.5087
;w:8;N:60;w:4	-10.5087
;w:3;N:74;w:9	-10.5091
;w:18;N:61;N:73	-10.5091
;N:61;N:73;w:3	-10.5094
;w:12;N:70;w:12;N:69;w:12;N:67	-10.5094
;N:72;w:18;N:70	-10.5094
;N:74;w:24;N:69	-10.5094
;w:6;D:45;D:47	-10.5094
;w:3;N:72;w:3;N:73	-10.5095
;w:18;N:71;w:6;N:69	-10.5096
;w:12;N:65;w:12;N:68;w:12;N:65	-10.5098
;N:69;w:16;N:69	-10.5101
;N:57;N:60;N:62	-10.5102
;w:12;N:50;w:12;N:43	-10.5102
;w:24;N:80;N:83	-10.5102
;N:67;w:16;N:67	-10.5105
;w:24;N:67;N:75	-10.5107
;D:42;w:3;D:38	-10.5108
;w:12;N:77;w:12;N:75;w:12;N:73	-10.511
;N:60;N:66;N:69	-10.5111
;w:3;N:61;N:64	-10.5114
;N:51;N:54;N:57	-10.5114
;N:43;w:16;N:43	-10.5116
;N:84;w:6;N:84	-10.5117
;w:12;N:44;N:48	-10.5117
;N:86;w:12;N:81	-10.5117
;w:12;D:42;w:12;D:46	-10.5118
;w:24;N:56;N:65	-10.5119
;N:66;w:24;N:68	-10.5125
;w:12;N:88;w:12;N:89	-10.5127
;N:46;w:12;N:58	-10.5127
;w:6;N:66;w:6;N:66;w:6;N:66;w:6;N:66	-10.5128
;w:24;N:50;N:53;N:58	-10.513
;N:38;w:12;N:38;w:12;N:38	-10.513
;w:3;N:67;w:3;N:70	-10.5132
;N:73;w:18;N:73	-10.5133
;w:24;N:54;w:12;N:54	-10.5134
;w:12;D:42;w:12;D:36;D:38;D:42	-10.5136
;N:67;N:72;N:79	-10.5136
;N:80;w:18;N:78	-10.5139
;N:74;w:12;N:77	-10.5141
;w:6;N:66;w:6;N:68;w:6;N:69	-10.5142
;w:3;N:93;w:3	-10.5144
;D:70;w:12;D:45	-10.5145
;N:73;w:12;N:66	-10.5146
;w:3;D:39	-10.5147
;N:79;N:82;N:86	-10.5149
;w:12;N:72;w:12;N:71;w:12;N:69	-10.5149
;N:45;N:57;N:61;N:64	-10.5149
;D:45;w:12;D:45	-10.5152
;w:12;D:37;D:46	-10.5154
;w:8;N:74;w:8;N:72	-10.5155
;w:12;D:38;D:42;w:12;D:46	-10.5158
;N:79;N:84;N:88	-10.5159
;N:57;w:36;N:57	-10.516
;w:6;D:37;w:6;D:37	-10.5161
;D:54;w:6;D:38;D:42;D:54	-10.5161
;w:36;N:65;N:68	-10.5161
;N:68;w:6;N:70	-10.5162
;w:6;N:70;w:6;N:69;w:6;N:67	-10.5166
;w:12;N:48;w:12;N:48;w:12;N:48	-10.5167
;w:18;N:71;w:6;N:71	-10.5168
;N:52;w:12;N:59	-10.517
;w:12;N:72;w:6;N:72;w:6;N:72	-10.5173
;N:72;w:24;N:69	-10.5177
;w:36;N:64;N:67	-10.5177
;N:67;w:6;N:69	-10.5178
;N:39;w:12;N:39;w:12;N:39	-10.5178
;N:68;N:72;N:75;N:80	-10.5179
;w:24;N:81;w:12;N:79	-10.518
;w:6;N:39;N:44	-10.518
;D:36;D:42;w:12;D:42;w:12;D:38;D:42;w:12;D:36;D:42	-10.5181
;w:18;N:60;N:72	-10.5181
;w:6;N:92;w:6;N:94	-10.5182
;N:56;N:59;w:12;N:56;N:59	-10.5182
;w:6;N:48;N:55;N:60	-10.5184
;N:80;w:6;N:73	-10.5187
;N:55;w:36;N:55	-10.5187
;w:12;N:66;w:12;N:64;w:12;N:62	-10.519
;N:57;w:3;N:61	-10.519
;w:6;N:67;N:79;w:6	-10.519
;D:76;w:8	-10.5191
;N:71;w:16;N:71	-10.5192
;N:79;N:88	-10.5192
;w:12;N:79;N:84	-10.5195
;w:24;N:46;N:53;N:58	-10.5196
;w:4;N:33	-10.5199
;w:6;N:86;w:6;N:89	-10.52
;N:60;w:12;N:55	-10.5201
;N:75;w:12;N:75;w:12;N:75	-10.5202
;w:12;N:34;w:12;N:46	-10.5203
;w:12;D:51;w:12;D:36	-10.5204
;w:4;N:47;w:4	-10.5208
;N:69;w:24;N:71	-10.5209
;w:24;N:80;w:24;N:78	-10.5209
;w:12;N:61;N:67	-10.521
;w:12;N:65;w:12;N:70;w:12;N:65	-10.5211
;D:47;w:12;D:42	-10.5211
;w:12;N:72;w:6;N:70	-10.5214
;N:50;N:55;N:59;N:62	-10.5215
;w:12;N:67;w:6;N:65	-10.5215
;N:59;N:64;N:71	-10.5218
;w:18;N:59;N:63	-10.5218
;w:12;N:86;w:12;N:82	-10.5219
;N:65;N:69;N:72;w:12;N:65;N:69;N:72	-10.5219
;N:72;w:12;N:68	-10.5219
;w:12;N:37;w:6;N:37	-10.522
;w:12;N:71;w:6;N:69	-10.5222
;w:12;N:37;w:12;N:34	-10.5225
;w:12;N:23;N:35	-10.5229
;w:6;N:29;w:6;N:29;w:6;N:29	-10.523
;w:3;N:70;w:3;N:71	-10.523
;w:8;D:38;w:8;D:38;w:8;D:38	-10.5231
;w:12;N:62;w:12;N:64;w:12;N:65	-10.5232
;w:6;D:36;D:42;w:6;D:42;w:6;D:42	-10.5232
;w:12;N:83;N:87	-10.5233
;D:36;D:46;D:51	-10.5234
;w:12;D:36;D:51;w:12;D:38	-10.5235
;N:50;w:12;N:57;w:12;N:62	-10.5237
;w:12;N:54;w:12;N:66	-10.5238
;w:24;N:55;w:24;N:55	-10.5238
;N:73;w:24;N:68	-10.5239
;w:6;N:67;w:6;N:74	-10.5241
;N:74;N:80	-10.5242
;N:70;w:24;N:65	-10.5242
;N:84;w:3;N:82	-10.5243
;w:3;D:46	-10.5243
;N:71;w:24;N:70	-10.5243
;N:82;w:6;N:84	-10.5245
;N:65;w:24;N:67	-10.5247
;N:87;w:24;N:85	-10.5247
;D:39;w:12;D:39	-10.5248
;N:55;N:62;w:12;N:55;N:62	-10.5248
;w:4;N:36	-10.525
;w:3;N:57;N:62	-10.5251
;w:8;N:63;w:8;N:65	-10.5253
;w:12;N:50;w:12;N:50;w:12;N:50	-10.5257
;N:71;w:12;N:67	-10.5257
;w:24;N:46;N:50	-10.5258
;w:6;N:88;w:6;N:83	-10.5258
;N:64;N:67;N:72;w:12;N:64;N:67;N:72	-10.5258
;w:2;N:60;w:1	-10.5259
;w:8;N:73;w:8;N:75	-10.5259
;w:24;N:70;w:12;N:69	-10.5264
;w:12;N:43;w:6;N:43	-10.5267
;N:58;N:63;N:65	-10.5271
;w:12;N:89;w:12;N:88	-10.5272
;N:78;w:7	-10.5281
;N:72;w:24;N:67	-10.5281
;w:24;N:62;N:66;N:71	-10.5282
;w:8;N:70;w:4	-10.5284
;w:6;N:58;N:63;N:67	-10.5286
;N:41;w:12;N:48;w:12;N:53	-10.5288
;D:69;w:12;D:36;D:42;D:69	-10.5289
;N:70;w:12;N:71	-10.5292
;w:3;N:58;w:3;N:60	-10.5293
;w:6;N:73;N:76;w:6	-10.5294
;w:12;N:49;w:12;N:44	-10.5294
;D:54;D:70;w:6;D:42	-10.5295
;w:6;N:42;w:6;N:54	-10.5297
;w:6;N:70;N:73	-10.5297
;w:12;N:74;w:6;N:72	-10.5298
;w:12;N:73;w:12;N:72;w:12;N:73	-10.53
0;N:83	-10.5301
;N:34;N:39	-10.5302
;N:93;w:4	-10.5304
;N:63;w:16;N:63	-10.5304
;w:24;N:79;w:12;N:81	-10.5306
;w:6;N:38;w:6;N:50	-10.5308
;D:70;w:6;D:70;w:6;D:42	-10.5309
;w:12;N:91;w:12;N:93	-10.531
;w:6;N:53;N:57	-10.531
;w:24;N:54;w:24;N:54	-10.5311
;w:8;N:81;w:8;N:8	-10.5313
;w:12;N:75;w:12;N:82	-10.5313
;w:18;N:63;N:75	-10.5314
;N:97;w:3	-10.5314
;D:47;w:6;D:42;D:47	-10.5315
;w:12;N:66;w:12;N:65;w:12;N:66	-10.5315
;w:6;N:42;N:54;w:6	-10.5316
;N:78;w:36;N:78	-10.532
;w:8;N:43;w:8;N:43	-10.532
;w:3;N:59;N:62	-10.5321
;w:18;N:47;N:59	-10.5322
;N:77;w:24;N:76	-10.5322
;w:18;N:	-10.5325
;D:69;w:6;D:48;D:69	-10.533
;N:26;w:3	-10.533
;w:3;N:65;w:3;N:68	-10.533
;w:3;D:51	-10.5331
;N:62;w:12;N:55	-10.5335
;N:38;w:12;N:45	-10.5336
;N:75;w:18;N:75	-10.5338
;w:1;D:36	-10.5341
;N:74;w:18;N:74	-10.5342
;w:18;N:63;w:6;N:63	-10.5343
;D:51;w:24;D:42	-10.5345
;w:24;N:54;N:61;N:66	-10.5347
;w:18;N:67;w:6;N:65	-10.5347
;w:36;N:61;N:65	-10.5348
;N:71;w:12;N:72	-10.5348
;D:42;w:16;D:42	-10.535
;w:12;N:103;w:12;N:10	-10.5352
;w:12;N:62;w:12;N:64;w:12;N:66	-10.5352
;w:8;N:66;w:8;N:69	-10.5353
;N:79;w:6;N:72	-10.5353
;D:36;D:46;w:12;D:42	-10.5354
;w:24;D:38;w:12;D:38	-10.5354
;D:70;w:6;D:36;D:70	-10.536
;w:6;N:68;w:6;N:56	-10.5361
;w:3;N:66;N:69	-10.5362
;N:47;N:59;N:63;N:66	-10.5363
;N:36;w:16;N:36	-10.5364
;w:24;N:58;w:24;N:60	-10.5365
;D:70;w:12;D:69	-10.5365
;N:75;w:12;N:78	-10.5367
;N:97;w:8	-10.5367
;N:54;N:57;N:62;w:12;N:54;N:57;N:62	-10.5372
;D:54;w:3	-10.5374
;N:86;w:12;N:74	-10.5376
;w:8;D:42;w:4;D:46	-10.5376
;w:12;N:65;w:12;N:67;w:12;N:68	-10.5377
;N:42;w:16;N:42	-10.5377
;N:42;N:66	-10.5377
0;N:32	-10.5378
;w:12;N:67;w:12;N:55	-10.5378
;N:53;w:12;N:60	-10.5379
;w:18;N:44;N:56	-10.5379
;N:60;N:65;N:72	-10.538
;w:12;N:43;w:12;N:47	-10.538
;w:24;N:58;w:12;N:56	-10.5383
;w:6;N:52;N:57	-10.5383
;N:78;w:24;N:71	-10.5384
;w:12;N:74;w:12;N:76;w:12;N:74	-10.5385
;N:40;w:16;N:40	-10.5388
;w:12;N:84;w:12;N:89	-10.5388
;w:6;N:86;w:6;N:82	-10.5388
;w:12;N:40;w:12;N:35	-10.5388
;w:6;N:68;w:6;N:66;w:6;N:68	-10.5389
;w:6;N:71;w:6;N:69;w:6;N:71	-10.5389
;w:12;N:68;w:6;N:66	-10.539
;w:18;N:55;N:58	-10.5391
;w:24;D:36;D:49	-10.5392
;D:54;w:24;D:54	-10.5397
;w:24;D:36;D:41	-10.5399
;w:18;N:67;N:72	-10.5402
;w:36;N:64;N:68	-10.5403
;D:73;w:6;D:42	-10.5403
;w:6;N:50;w:6;N:45	-10.5405
;w:12;N:41;w:12;N:41;w:12;N:41	-10.5406
;w:8;N:57;w:8;N:57	-10.5407
;D:41;D:43;D:45	-10.5407
;w:6;N:46;w:6;N:53	-10.5411
;w:12;N:75;w:12;N:77;w:12;N:75	-10.5414
;N:76;N:82	-10.5414
;w:48;N:58;N:61	-10.5415
;w:9;N:67;w:3	-10.5415
;N:94;w:4	-10.5418
;w:12;N:38;w:12;N:38;w:12;N:38	-10.5419
;D:39;D:45	-10.5419
;w:24;N:67;N:72;N:76	-10.5419
;w:6;N:66;w:6;N:59	-10.542
;N:47;N:50;N:54	-10.5421
;w:12;N:66;w:6;N:64	-10.5422
;N:80;N:89	-10.5423
;w:6;N:53;w:6;N:52	-10.5424
;w:6;N:63;N:75;w:6	-10.5424
;w:12;N:39;w:12;N:39;w:12;N:39	-10.5425
;w:8;N:67;w:8;N:65	-10.5427
;w:18;N:74;w:6;N:74	-10.5428
;N:25;w:12;N:25	-10.5428
;w:12;N:72;w:12;N:79	-10.5431
;D:36;w:18;D:36	-10.5433
;w:24;N:50;N:57;N:62	-10.5434
;w:6;N:95;w:6;N:9	-10.5435
;N:59;w:12;N:59;w:12;N:59	-10.5435
;w:3;D:38;w:3;D:36	-10.5439
;D:42;w:5;D:42	-10.5439
;N:69;w:24;N:64	-10.544
;w:12;N:93;w:12;N:91	-10.5441
;w:12;N:60;N:67;N:72	-10.5442
;N:67;w:24;N:66	-10.5444
;N:70;w:12;N:66	-10.5445
;D:49;w:6;D:38	-10.5448
;N:84;w:12;N:72	-10.5451
;w:6;N:54;w:6;N:49	-10.5452
;w:24;N:56;N:64	-10.5457
;N:62;N:64;N:68	-10.5459
;D:48;w:2	-10.5459
;w:6;N:83;w:6;N:88	-10.546
;w:12;N:48;N:57	-10.546
;D:70;w:8;D:42	-10.546
;w:36;N:59;N:63	-10.5462
;w:3;N:71;w:3;N:74	-10.5463
;w:3;N:59;w:3;N:57	-10.5464
;w:24;N:57;w:24;N:55	-10.5467
;w:18;N:65;N:77	-10.5468
;N:67;w:24;N:62	-10.5468
;w:6;N:64;w:6;N:57	-10.5469
;w:3;N:77;w:3;N:76	-10.5469
;N:53;N:56;N:62	-10.547
;w:18;N:65;w:6;N:65	-10.5471
;w:6;N:80;N:83	-10.5475
;w:12;N:104;w:12;N:10	-10.5479
;w:6;N:51;w:6;N:50	-10.5479
;w:6;N:86;w:6;N:85	-10.5481
;N:41;w:12;N:41;w:12;N:41	-10.5482
;N:46;N:70	-10.5482
;N:67;N:70;N:73	-10.5483
;D:36;D:38;w:24;D:36;D:38	-10.5483
;N:73;w:24;N:72	-10.5487
;w:3;N:66;w:3;N:65	-10.5488
;w:3;N:74;w:3;N:72	-10.5489
;w:6;N:68;w:6;N:68;w:6;N:68;w:6;N:68	-10.5489
;w:6;N:69;w:6;N:67;w:6;N:69	-10.549
;D:36;D:42;w:8;D:42	-10.5491
;w:18;N:72;w:6;N:70	-10.5494
;D:38;w:6;D:38;w:6;D:38;w:6;D:38;w:6;D:38	-10.5494
;w:8;N:71;w:4	-10.5495
;w:12;N:42;N:47	-10.5496
;w:36;N:63;N:67	-10.5499
;D:54;w:6;D:54;w:6;D:36;D:42;D:54;w:6;D:54	-10.5501
;N:72;w:12;N:63	-10.5501
;w:18;N:52;N:64	-10.5502
;w:12;D:36;D:42;w:12;D:38;D:46	-10.5503
;w:24;D:38;D:39	-10.5503
;w:12;N:41;w:12;N:36	-10.5507
;N:81;w:12;N:69	-10.5508
;w:12;N:59;w:12;N:61;w:12;N:59	-10.5508
;w:12;N:53;w:6;N:53;w:6;N:53	-10.551
;w:6;D:36;D:37;D:38	-10.5511
;N:68;w:12;N:64	-10.5517
;N:32;N:39;N:44	-10.5518
;w:12;N:64;N:70	-10.5522
;D:54;w:12;D:38;D:42	-10.5525
;w:24;N:77;w:24;N:77	-10.5531
;N:55;N:60;N:67	-10.5531
;N:79;w:6;N:81	-10.5532
;w:3;D:38;w:1;D:38;w:2;D:38;w:2;D:38;w:1;D:38;w:3;D:38	-10.5532
;w:6;N:69;w:6;N:76	-10.5534
;N:52;N:57;N:64	-10.5534
;w:6;N:70;w:6;N:77	-10.5536
;w:9;N:68;w:3	-10.5541
;w:24;N:55;N:58;N:62	-10.5541
;w:12;N:66;w:12;N:71;w:12;N:66	-10.5542
;w:12;N:69;w:12;N:68;w:12;N:66	-10.5545
;N:55;w:12;N:57	-10.5545
;N:41;N:45;N:48	-10.5545
;w:6;D:42;w:6;D:36;D:42;w:6;D:42;w:6;D:42	-10.5547
;w:6;N:85;w:6;N:80	-10.5549
;w:18;N:75;w:6;N:73	-10.5551
;w:8;N:71;w:8;N:73	-10.5551
;w:6;N:63;w:6;N:61;w:6;N:63	-10.5551
;N:45;N:48;N:52	-10.5554
;w:18;N:66;w:6;N:66	-10.5556
;w:12;N:84;w:12;N:79	-10.5557
;w:24;N:43;N:50;N:55	-10.5558
;N:63;N:67;N:75	-10.5559
;w:18;N:50;N:62	-10.5559
;N:71;w:24;N:59	-10.5559
;w:6;N:44;w:6;N:43	-10.5559
;w:3;N:74;w:3;N:75	-10.5561
;N:58;w:24;N:56	-10.5563
;N:48;N:60;N:64;N:67	-10.5563
;w:18;N:73;w:6;N:71	-10.5564
;w:6;N:61;w:6;N:59;w:6;N:61	-10.5564
;w:6;N:58;N:67	-10.5566
;D:47;D:48;D:50	-10.5567
;w:12;N:78;w:12;N:76;w:12;N:78	-10.5569
;D:42;w:8;D:42	-10.557
;w:12;N:68;w:12;N:56	-10.557
;N:71;w:6;N:73	-10.5578
;N:72;w:12;N:73	-10.5579
;w:3;N:58;N:61	-10.558
;N:71;w:24;N:64	-10.5587
;N:77;w:6;N:79	-10.5588
;N:70;w:6;N:72	-10.5588
;N:72;w:24;N:65	-10.5591
;w:6;N:82;w:6;N:78	-10.5591
;N:42;w:12;N:42;w:12;N:42;w:12;N:42	-10.5591
;N:2	-10.5592
;N:33;w:12;N:45	-10.5592
;N:41;N:65	-10.5596
;w:12;N:55;N:58;N:62	-10.5596
;D:51;w:15;D:51	-10.5599
;w:6;N:32;w:12;N:32	-10.56
;N:67;N:70;N:72	-10.5603
;N:70;w:24;N:69	-10.5603
;N:50;N:53;N:57;N:62	-10.5603
;w:48;N:60;N:63	-10.5603
;D:46;w:3;D:38	-10.5604
;N:61;N:66;N:73	-10.5605
;w:12;N:63;w:12;N:61;w:12;N:59	-10.5607
;w:8;N:58;w:4	-10.5608
;w:6;N:68;w:6;N:61	-10.5609
;w:24;N:53;w:12;N:53	-10.5617
;w:6;N:73;w:6;N:71;w:6;N:73	-10.5617
;w:3;N:66;w:3;N:68	-10.5618
;N:72;w:7	-10.562
;w:48;N:61;N:64	-10.562
;w:18;N:68;N:73	-10.562
;w:36;N:62;N:66	-10.5621
;w:6;N:50;w:6;N:49	-10.5621
;w:6;N:30;N:42	-10.5622
;w:6;N:68;w:6;N:75	-10.5623
;D:54;w:6;D:54;w:6;D:36;D:54;w:6;D:54	-10.5623
;w:3;N:76;w:3;N:78	-10.5625
;w:6;N:51;w:6;N:46	-10.5625
;w:36;N:67;N:70	-10.5626
;w:33;N:3	-10.5627
;w:48;N:62;N:65	-10.5628
;w:8;N:68;w:4	-10.5628
;N:30;w:18;N:30	-10.563
;N:70;w:24;N:58	-10.5632
;w:12;N:76;w:6;N:76	-10.5633
;w:12;N:52;w:6;N:52	-10.5635
;w:12;N:67;N:70;N:75	-10.5635
;w:6;N:60;w:6;N:53	-10.5635
;D:70;w:12;D:38;D:42	-10.5635
;w:6;N:71;w:6;N:73;w:6;N:75	-10.5636
;w:8;D:42;w:4;D:36	-10.5637
;N:64;w:12;N:63	-10.5639
;D:49;w:6;D:49	-10.564
;w:18;N:58;N:70	-10.5641
;N:33;w:6;N:33	-10.5643
;N:57;N:62;N:65;N:69	-10.5644
;N:10	-10.5646
;w:12;N:46;N:51;N:55	-10.5646
;N:49;N:54;N:58;N:61	-10.5646
;N:55;w:12;N:55;w:12;N:55;w:12;N:55	-10.5648
;N:82;w:3;N:80	-10.5649
;w:12;N:84;N:87	-10.5655
;N:69;w:12;N:65	-10.5655
;D:56;w:12;D:36;D:42	-10.5656
;w:6;N:53;N:65;w:6	-10.5656
;D:46;w:6;D:38	-10.5656
;N:64;w:16;N:64	-10.5657
;N:64;w:24;N:66	-10.5658
;D:70;w:12;D:37	-10.5658
;N:34;w:12;N:46	-10.566
;N:57;N:62;N:69	-10.566
;N:66;N:78;w:3	-10.5662
;N:73;w:18;N:71	-10.5662
;w:24;N:59;w:24;N:61	-10.5663
;N:49;N:61;N:65;N:68	-10.5665
;N:57;w:18;N:57	-10.5665
;N:55;w:12;N:53	-10.5666
;D:51;w:8;D:51;w:8;D:51	-10.5666
;w:12;N:65;w:12;N:63;w:12;N:61	-10.5666
;N:68;w:24;N:63	-10.5667
;N:79;w:18;N:77	-10.5668
;N:72;w:24;N:74	-10.5669
;w:12;D:38;D:47	-10.567
;N:43;N:55;N:59;N:62	-10.567
;w:6;N:67;w:6;N:60	-10.5672
;N:80;w:24;N:75	-10.5672
;N:82;w:12;N:70	-10.5672
;N:55;w:12;N:58	-10.5674
;N:82;w:18;N:82	-10.5675
;N:63;N:66;N:72	-10.5677
;N:44;w:12;N:44;w:12;N:44;w:12;N:44	-10.5678
;D:49;w:12;D:36;D:49	-10.5678
;w:24;N:78;w:24;N:78	-10.5679
;w:6;D:45;w:6;D:36	-10.5679
;w:18;N:51;N:63	-10.568
;w:3;N:58;N:63	-10.5681
;N:68;w:18;N:68	-10.5686
;w:12;D:36;D:42;w:12;D:38	-10.5687
;w:36;N:58;N:61	-10.5687
;N:81;w:18;N:79	-10.5687
;w:8;N:72;w:4	-10.5688
;N:83;N:90	-10.5691
;N:60;N:64;N:67;w:12;N:60;N:64;N:67	-10.5692
;w:18;N:67;N:79	-10.5693
;w:12;N:61;w:12;N:60;w:12;N:58	-10.5693
;w:3;N:72;w:3;N:75	-10.5693
;w:12;N:47;w:12;N:42	-10.5695
;w:12;N:99;w:12;N:10	-10.5697
;w:6;N:34;w:6;N:46	-10.57
;w:12;N:34;w:24;N:34	-10.5701
;N:46;N:55	-10.5701
;w:3;N:37;w:3	-10.5706
;w:12;N:66;w:12;N:68;w:12;N:69	-10.5707
;w:12;N:59;w:6;N:61	-10.5707
;w:12;N:46;N:50;N:53	-10.5707
;w:6;N:68;w:6;N:70;w:6;N:71	-10.5708
;w:6;N:65;w:6;N:65;w:6;N:65;w:6;N:65	-10.5708
;w:3;N:75;w:3;N:73	-10.5709
;w:12;N:54;w:12;N:42	-10.5709
;w:12;N:75;w:12;N:74;w:12;N:72	-10.571
;w:12;N:87;w:12;N:90	-10.571
;N:74;w:12;N:75	-10.5711
;D:56;D:70;w:6	-10.5714
;w:6;N:71;w:6;N:64	-10.5715
;N:41;w:1	-10.5717
;w:18;N:57;N:69	-10.572
;w:24;N:63;N:66;N:70	-10.5721
;D:37;D:46	-10.5722
;w:24;N:71;w:12;N:70	-10.5722
;N:42;w:1	-10.5723
;w:24;D:7	-10.5724
;w:12;N:51;N:59	-10.5724
;w:18;N:66;N:78	-10.5724
;N:68;w:12;N:69	-10.5724
;N:78;w:24;N:77	-10.5727
;w:12;N:73;w:12;N:66	-10.5728
;w:12;N:58;w:12;N:51	-10.5729
;w:12;N:79;w:24;N:77	-10.5729
;N:63;N:68;N:75	-10.573
;w:4;N:35	-10.5731
;w:3;N:64;w:3;N:67	-10.5732
;w:12;N:67;w:12;N:69;w:12;N:70	-10.5733
;w:18;N:67;w:6;N:69	-10.5733
;w:18;N:71;N:74	-10.5733
;N:62;w:12;N:59	-10.5734
;w:6;N:57;N:66	-10.5735
;D:50;w:8	-10.5736
;D:46;w:6;D:46	-10.5738
;w:6;N:43;w:6;N:42	-10.5738
;w:6;N:72;w:6;N:70;w:6;N:72	-10.5739
;N:78;w:6;N:77	-10.5742
;N:39;w:8;N:39	-10.5742
;N:74;w:8;N:74	-10.5743
;N:57;N:62;N:64	-10.5744
;N:54;N:56;N:60	-10.5746
;w:3;N:60;N:63	-10.5746
;N:75;w:12;N:76	-10.5746
;w:3;N:69;w:3;N:71	-10.5747
;N:49;N:54;N:57	-10.5747
;N:69;w:12;N:70	-10.5748
;N:44;N:56;N:60;N:63	-10.5749
;w:12;N:60;w:12;N:62;w:12;N:64	-10.5751
;N:45;N:69	-10.5752
;w:27;N:8	-10.5752
;D:69;w:6;D:46	-10.5753
;w:12;N:43;w:12;N:43;w:12;N:43	-10.5754
;N:24;w:3	-10.5756
;N:35;w:16;N:35	-10.5756
;w:3;N:61;w:3;N:59	-10.5758
;w:18;N:48;N:60	-10.5759
;w:6;D:36;D:38;w:6;D:36;D:38	-10.5759
;w:18;N:85;w:6	-10.5761
;N:69;N:73;N:76;N:81	-10.5767
;w:6;N:40;N:47	-10.5767
;N:80;w:6;N:82	-10.5769
;w:6;N:37;w:6;N:38	-10.5769
;N:56;w:12;N:54	-10.5773
;D:36;D:42;D:49;D:51	-10.5773
;N:59;w:3;N:63	-10.5779
;w:3;N:71;w:3;N:73	-10.5779
;w:6;N:88;w:6;N:91	-10.5781
;D:51;w:24;D:38;D:51	-10.5782
;w:24;N:52;w:12;N:52	-10.5783
;w:24;N:68;N:76	-10.5787
;w:24;N:51;N:54;N:59	-10.5791
;w:24;N:53;w:24;N:53	-10.5792
;w:12;N:56;w:12;N:49	-10.5792
;N:62;w:6;N:64	-10.5794
;w:6;D:42;w:6;D:42;w:6;D:42;w:6;D:42	-10.5794
;w:24;N:69;w:12;N:68	-10.5797
;w:12;N:32;w:12;N:35	-10.5797
;w:24;N:54;N:62	-10.5797
;D:70;w:3	-10.5798
;N:81;w:12;N:73	-10.5802
;w:12;N:72;w:12;N:71;w:12;N:72	-10.5802
;D:51;D:54;D:70	-10.5807
;D:50;w:6;D:50;w:6	-10.5809
;N:74;w:24;N:76	-10.5813
;w:3;N:73;w:3;N:72	-10.5815
;N:64;N:69;N:73;N:76	-10.5816
;D:48;D:54;D:70	-10.5816
;N:34;w:16;N:34	-10.5817
;N:62;N:67;N:74	-10.5817
;w:3;N:76;w:3;N:75	-10.5818
;w:12;N:81;w:12;N:79;w:12;N:77	-10.5818
;N:79;w:7	-10.582
;w:6;N:69;w:6;N:71;w:6;N:73	-10.582
;D:39;D:42;D:48	-10.5821
;w:4;N:66;w:8	-10.5822
;N:46;N:49;N:53	-10.5823
;w:24;D:36;D:38;D:49	-10.5827
;N:73;w:12;N:74	-10.5828
;w:36;N:58;N:62	-10.583
;N:72;w:18;N:72	-10.5832
;w:3;D:36;w:3;D:36;w:3;D:36;w:3;D:36	-10.5832
;w:3;N:60;N:65	-10.5833
;N:54;N:60;N:63	-10.5834
;N:44;N:68	-10.5836
;w:6;N:78;w:6;N:74	-10.584
;N:36;w:12;N:36;w:12;N:36	-10.584
;w:18;N:69;w:6;N:71	-10.5841
;w:6;N:63;w:6;N:56	-10.5841
;N:71;N:78;N:83	-10.5843
;w:24;D:36;w:12;D:36	-10.5846
;N:57;N:60;N:65;N:69	-10.5846
;w:18;D:51	-10.5847
;N:74;w:12;N:70	-10.5849
;N:67;w:24;N:64	-10.585
;w:24;N:48;N:55;N:60	-10.585
;D:50;w:3	-10.5853
;N:85;N:87	-10.5854
;w:8;N:64;N:67	-10.5857
;N:74;w:24;N:73	-10.5857
;N:68;w:24;N:61	-10.5859
;w:24;N:72;N:76;N:79	-10.5859
;w:6;N:81;w:6;N:77	-10.5859
;N:39;w:1	-10.586
;w:6;N:39;w:6;N:44	-10.586
;w:24;N:52;w:24;N:52	-10.586
;N:54;w:18;N:54	-10.5861
;w:12;N:54;N:57;N:61	-10.5863
;N:76;w:36;N:74	-10.5867
;w:12;N:61;w:12;N:63;w:12;N:64	-10.5868
;w:24;N:77;w:12;N:77	-10.587
;w:12;N:51;w:12;N:39	-10.5873
;w:8;N:62;w:8;N:59	-10.5877
;N:34;N:41	-10.588
;w:24;N:54;N:63	-10.5881
;w:12;N:61;w:12;N:63;w:12;N:65	-10.5882
;w:12;N:73;w:12;N:72;w:12;N:70	-10.5882
;w:6;N:58;w:6;N:70	-10.5883
;N:40;w:12;N:40;w:12;N:40	-10.5883
;w:18;N:55;w:6;N:55	-10.5884
;w:6;N:49;N:56	-10.5884
;w:48;N:63;N:66	-10.5884
;N:62;N:65;N:69;N:74	-10.5885
;w:24;N:70;N:75;N:79	-10.5885
;N:35;w:6;N:35	-10.5885
;N:64;N:69;N:76	-10.5886
;w:12;N:48;w:12;N:60	-10.5887
;w:12;N:66;w:12;N:54	-10.5889
;w:6;N:36;N:43	-10.589
;N:37;w:12;N:37;w:12;N:37	-10.589
;N:83;w:3;N:81	-10.5895
;w:6;N:91;w:6;N:91	-10.5899
;w:6;D:38;D:50	-10.5899
;D:54;w:2	-10.59
;w:6;D:36;D:42;w:6;D:36;D:42;w:6;D:36;D:42	-10.5901
;w:16;D:38;D:42	-10.5901
;w:6;N:91;w:6	-10.5901
;w:12;N:60;w:12;N:58;w:12;N:60	-10.5902
;w:12;N:42;w:12;N:37	-10.5902
;w:12;N:52;w:12;N:64	-10.5905
;w:12;N:82;w:12;N:86	-10.5905
;D:70;w:8;D:70	-10.5907
;w:8;N:76;w:8;N:78	-10.591
;w:4;N:45;w:4	-10.5914
;w:12;N:31;w:12;N:32	-10.5914
;N:51;N:54;N:59;N:63	-10.5915
;N:40;N:44;N:47	-10.5915
;N:39;w:12;N:46	-10.5916
;w:24;N:57;w:12;N:55	-10.5916
;w:6;N:72;N:75	-10.5916
;N:71;w:24;N:68	-10.5916
;w:24;N:47;N:51;N:54	-10.5916
;N:82;w:12;N:79	-10.5917
;N:61;w:12;N:56	-10.5921
;w:9;N:66;w:3	-10.5925
;N:66;w:24;N:65	-10.5926
;w:12;N:70;w:12;N:71;w:12;N:73	-10.5929
;w:6;D:42;w:6;D:42;w:6;D:42;w:6;D:36;D:42	-10.593
;w:24;N:54;N:57;N:61	-10.593
;w:12;N:69;w:12;N:72;w:12;N:69	-10.5932
;N:70;w:24;N:63	-10.5937
;w:3;D:43	-10.5939
;w:6;N:25;w:6;N:25	-10.594
;N:69;w:24;N:66	-10.5941
;w:8;N:94;w:8;N:9	-10.5942
;w:6;N:43;w:6;N:40	-10.5942
;w:8;D:69;w:4	-10.5942
;D:51;w:1	-10.5942
;w:12;N:63;N:66;N:70	-10.5946
;w:3;N:75;w:3;N:77	-10.5946
;w:24;N:81;w:24;N:79	-10.5947
;w:12;N:33;w:12;N:45	-10.5948
;w:12;N:51;w:6;N:51;w:6;N:51	-10.5949
;D:45;w:12;D:36	-10.595
;w:12;N:31;w:12;N:29	-10.5952
;w:18;N:59;N:71	-10.5955
;N:73;N:80;N:85	-10.5957
;w:6;N:65;N:74	-10.5957
;w:12;N:43;w:12;N:36	-10.5959
;N:50;N:66	-10.596
;w:12;N:36;w:12;N:33	-10.5961
;w:12;N:68;w:12;N:71;w:12;N:68	-10.5962
;w:6;N:70;w:6;N:70;w:6;N:70;w:6;N:70	-10.5963
;N:76;w:12;N:76;w:12;N:76	-10.5963
;D:70;w:12;D:46	-10.5964
;w:6;N:44;N:51;N:56	-10.5965
;w:18;N:45;N:57	-10.5967
;w:8;N:60;N:63	-10.5967
;w:12;N:72;N:81	-10.5971
;N:54;N:56;N:59	-10.5972
;w:12;N:34;w:12;N:39	-10.5973
;w:6;N:40;w:6;N:40;w:6;N:40;w:6;N:40	-10.5973
;N:74;w:18;N:72	-10.5974
;D:42;w:24;D:38;D:42	-10.5976
;w:12;N:71;w:12;N:72;w:12;N:74	-10.5977
;w:3;N:64;N:68	-10.5977
;w:3;N:101;w:3;N:10	-10.5978
;N:54;w:12;N:57	-10.5978
;w:12;N:55;w:12;N:58;w:12;N:55	-10.5978
;w:4;D:43	-10.5979
;w:24;N:67;N:70;N:74	-10.598
;w:3;N:73;w:3;N:74	-10.5982
;w:3;N:62;w:3;N:65	-10.5982
;w:6;N:66;N:75	-10.5983
;w:12;N:72;w:12;N:73;w:12;N:75	-10.5983
;N:57;w:12;N:45	-10.5984
;w:3;D:47;w:3	-10.5985
;N:42;w:12;N:42;w:12;N:42	-10.5986
;N:46;w:2	-10.5986
;D:38;w:12;D:38;w:12;D:38	-10.5987
;N:32;w:12;N:44	-10.5988
;D:50;w:12;D:36	-10.5988
;w:6;N:41;N:48;N:53	-10.599
;N:57;w:3;N:62	-10.599
;w:6;N:92;w:6	-10.5992
;w:12;D:36;w:12;D:36;D:38	-10.5992
;N:82;w:5	-10.5993
;N:73;w:36;N:71	-10.5994
;w:24;N:78;w:12;N:78	-10.5995
;w:8;N:75;w:8;N:73	-10.5996
;N:71;N:74;N:76	-10.5998
;w:9;N:69;w:3	-10.5998
;N:76;N:80;N:85	-10.5999
;N:59;N:62;N:67;N:71	-10.6002
;w:24;N:51;N:58;N:63	-10.6002
;w:6;N:69;w:6;N:57	-10.6002
;N:63;w:24;N:65	-10.6003
;w:6;D:41;D:43	-10.6004
;w:3;N:61;N:66	-10.6006
;N:82;w:24;N:75	-10.6007
;w:3;N:63;N:67	-10.6007
;w:6;N:53;w:6;N:48	-10.6007
;N:72;w:24;N:71	-10.6012
;D:48;w:6;D:42;D:48	-10.6012
;N:9	-10.6014
;w:12;N:73;N:80	-10.6015
;w:12;N:76;w:12;N:75;w:12;N:73	-10.6016
;N:51;N:67	-10.6019
;D:51;w:9	-10.602
;N:87;w:12;N:75	-10.602
;D:38;D:42;D:51	-10.602
;w:12;N:76;w:12;N:83	-10.6023
;w:12;N:43;w:12;N:39	-10.6024
;w:18;N:42;N:54	-10.6025
;w:6;N:86;w:6;N:87	-10.6026
;N:52;w:18;N:52	-10.6027
;w:6;N:63;w:6;N:63;w:6;N:63;w:6;N:63	-10.6027
;N:61;N:64;N:68;N:73	-10.6028
;N:75;w:36;N:73	-10.6028
;D:54;w:4;D:54	-10.6029
;w:6;N:37;N:42	-10.603
6;N:25	-10.6031
;D:49;w:24;D:38	-10.6034
;N:68;N:70;N:73	-10.6034
;w:3;N:62;N:66	-10.6034
;D:51;D:69;w:12;D:36	-10.604
;w:6;N:76;w:6;N:76;w:6;N:76;w:6;N:76	-10.6044
;w:12;N:57;w:12;N:50	-10.6045
;w:3;N:70;w:3;N:73	-10.6047
;w:4;N:67;w:8	-10.605
;w:12;N:74;w:12;N:76;w:12;N:78	-10.6052
;w:24;N:82;w:24;N:80	-10.6052
;D:50;w:6;D:42	-10.6057
;w:24;N:72;w:12;N:71	-10.6057
;N:85;w:12;N:84	-10.6058
;w:18;N:70;w:6;N:70	-10.6059
;N:68;N:73;N:80	-10.6061
;w:12;N:34;N:41	-10.6062
;w:5;D:36	-10.6068
;D:53;w:12;D:36;D:42	-10.6068
;D:70;w:6;D:70;w:6;D:38	-10.6069
;w:12;N:38;w:12;N:45	-10.6073
;N:89;w:24;N:89	-10.6074
;N:77;w:12;N:73	-10.6074
;w:12;N:65;w:12;N:64;w:12;N:65	-10.6075
;w:8;N:62;w:8;N:60	-10.6075
;N:66;w:6;N:68	-10.6076
;N:79;w:36;N:79	-10.6076
;w:4;N:34	-10.6077
;N:76;w:12;N:72	-10.6077
;w:6;D:43;D:47	-10.6079
;D:46;D:54;D:69	-10.6081
;w:12;N:75;w:12;N:68	-10.6086
;w:12;N:47;w:12;N:43	-10.6089
;w:12;N:74;w:12;N:67	-10.609
;w:9;N:65;w:3	-10.609
;w:12;N:49;N:58	-10.6092
;w:12;N:87;w:12;N:82	-10.6092
;D:54;w:6;D:54;w:6;D:46;D:54;w:6;D:54	-10.6094
;N:76;w:24;N:73	-10.6095
;w:24;N:67;w:12;N:66	-10.6097
;D:54;w:6;D:54;w:6;D:36;D:42	-10.6098
;w:12;N:76;w:12;N:76;w:12;N:76	-10.6098
;w:12;N:76;w:6;N:74	-10.6103
;w:12;N:75;w:6;N:75;w:6;N:75	-10.6104
;w:18;N:68;w:6;N:70	-10.6105
;w:6;N:60;w:6;N:60;w:6;N:60;w:6;N:60	-10.6106
;N:79;w:24;N:74	-10.6106
;N:74;w:36;N:72	-10.6106
;w:6;N:76;w:6;N:74;w:6;N:76	-10.6107
;w:36;N:66;N:69	-10.6108
;w:6;N:65;w:6;N:58	-10.6109
;N:75;w:18;N:73	-10.6112
;w:12;N:76;w:6;N:78	-10.6114
;D:45;D:51;D:69	-10.6115
;w:8;N:57;w:4	-10.6117
;w:24;N:69;N:76	-10.6119
;N:65;N:70;N:74;w:12;N:65;N:70;N:74	-10.612
;w:12;D:42;w:6;D:42;w:6;D:36	-10.6121
;N:71;w:18;N:69	-10.6121
;N:70;w:24;N:67	-10.6122
;N:69;w:24;N:68	-10.6123
;w:6;N:36;w:6;N:37	-10.6124
;N:71;w:18;N:71	-10.6131
;D:76;w:2	-10.6132
;w:12;N:67;N:70;w:12;N:67;N:70	-10.6132
;N:58;N:61;N:66;N:70	-10.6134
;w:6;N:65;w:6;N:77	-10.6135
;w:6;N:42;N:49;N:54	-10.6135
;N:75;w:12;N:71	-10.6137
;w:8;N:61;N:64	-10.6138
;w:6;N:70;w:6;N:63	-10.6138
;w:12;N:37;N:44;N:49	-10.6138
;N:80;N:85;N:89	-10.6139
;w:12;N:43;N:47	-10.614
;D:38;w:6;D:38;w:6;D:38	-10.614
;D:47;w:8	-10.6141
;w:4;N:70;w:8	-10.6143
;w:8;N:54;w:8;N:57	-10.6145
;N:61;w:16;N:61	-10.6146
;w:6;N:46;N:53;N:58	-10.6148
;N:40;N:44	-10.6148
;N:77;w:12;N:78	-10.6151
;N:77;w:12;N:77;w:12;N:77	-10.6152
;N:80;w:3;N:75	-10.6153
;w:24;N:76;w:24;N:78	-10.6153
;w:6;N:77;w:6;N:77;w:6;N:77;w:6;N:77	-10.6154
;w:12;N:89;w:12;N:86	-10.6155
;w:12;N:72;N:80	-10.6155
;w:12;D:38;w:6;D:38;w:6;D:38;w:6;D:38	-10.6158
;N:75;w:24;N:72	-10.6158
;w:6;N:94;w:6;N:94	-10.6158
;N:44;w:16;N:44	-10.6159
;w:3;N:71;w:3;N:70	-10.6162
;w:12;D:42;w:6;D:42;w:6;D:36;D:42	-10.6162
;w:6;D:36;D:42;w:6;D:38;D:46	-10.6166
;w:18;N:53;N:58	-10.6166
;D:51;w:16;D:36	-10.6168
;N:72;w:3;N:72;w:3;N:72;w:3;N:72	-10.6169
;N:35;w:12;N:35;w:12;N:35	-10.617
;w:6;D:43;D:45	-10.6171
;w:8;D:38;w:4	-10.6172
;w:12;N:64;w:12;N:63;w:12;N:61	-10.6173
;N:72;w:24;N:60	-10.6173
;N:43;w:12;N:43;w:12;N:43	-10.6173
;w:18;N:72;N:75	-10.6173
;D:37;D:38;D:39;D:42	-10.6174
;D:46;w:12;D:38	-10.6174
;D:51;w:6;D:51;w:6;D:51;w:6;D:51	-10.6174
;N:56;N:61;N:68	-10.6174
;w:12;D:42;w:12;D:37;D:42	-10.6176
;D:69;w:9	-10.6176
;w:24;N:82;w:12;N:80	-10.6177
;w:12;N:63;N:67;w:12;N:63;N:67	-10.6179
;N:54;w:12;N:61	-10.618
;w:6;N:38;w:6;N:39	-10.618
;w:12;N:79;w:12;N:77;w:12;N:75	-10.6181
;w:12;N:60;w:12;N:58;w:12;N:56	-10.6181
;w:6;N:87;w:6;N:83	-10.6183
;w:3;N:61;N:65	-10.6184
;w:6;N:64;w:6;N:63;w:6;N:64	-10.6184
;N:52;N:55;N:61	-10.6187
;w:12;N:48;w:12;N:44	-10.619
;w:18;N:72;w:6;N:72	-10.6192
;w:6;N:41;w:6;N:53	-10.6192
;w:18;N:55;N:67	-10.6194
;N:57;w:12;N:57;w:12;N:57	-10.62
;w:3;N:63;w:3;N:61	-10.6204
;N:75;w:12;N:70;N:73	-10.6206
;N:53;N:55;N:59	-10.6207
;w:12;N:52;w:12;N:57;w:12;N:52	-10.6207
;D:53;w:24;D:38	-10.621
;N:82;w:3;N:83	-10.6211
;N:84;w:12;N:83	-10.6211
;w:12;N:58;N:62;N:67	-10.6211
;N:79;w:24;N:76	-10.6211
;w:12;D:70	-10.6213
;w:6;D:38;w:6;D:38;w:12;D:38	-10.6213
;w:6;N:46;w:6;N:43	-10.6217
;D:43;D:56	-10.6217
;N:30;w:6;N:30	-10.6217
;w:6;N:74;w:6;N:81	-10.6218
;N:47;w:12;N:59	-10.6218
;w:6;D:42;w:6;D:36;D:42;w:6;D:36;D:42	-10.6229
;D:70;w:6;D:47	-10.623
;w:6;N:43;w:6;N:55	-10.6232
;w:3;N:70;w:3;N:69	-10.6233
;N:79;w:3;N:76	-10.6233
[...]
