<unk>	0
<s>	0
</s>	0
<pad>	0
;B:0	0
;B:1	0
;B:2	0
;B:3	0
;B:4	0
;B:5	0
;B:6	0
;B:7	0
;M:0	0
;M:1	0
;M:2	0
;M:3	0
;M:4	0
;M:5	0
;M:6	0
;M:7	0
;L:1	0
;L:2	0
;L:3	0
;L:4	0
;L:5	0
;L:6	0
;L:7	0
;L:8	0
;L:9	0
;L:10	0
;L:11	0
;L:12	0
;L:13	0
;L:14	0
;L:15	0
;L:16	0
;L:17	0
;L:18	0
;L:19	0
;L:20	0
;L:21	0
;L:22	0
;L:23	0
;L:24	0
;L:25	0
;L:26	0
;L:27	0
;L:28	0
;L:29	0
;L:30	0
;L:31	0
;L:32	0
;L:33	0
;L:34	0
;L:35	0
;L:36	0
;L:37	0
;L:38	0
;L:39	0
;L:40	0
;L:41	0
;L:42	0
;L:43	0
;L:44	0
;L:45	0
;L:46	0
;L:47	0
;L:48	0
;L:49	0
;L:50	0
;L:51	0
;L:52	0
;L:53	0
;L:54	0
;L:55	0
;L:56	0
;L:57	0
;L:58	0
;L:59	0
;L:60	0
;L:61	0
;L:62	0
;L:63	0
;L:64	0
;L:65	0
;L:66	0
;L:67	0
;L:68	0
;L:69	0
;L:70	0
;L:71	0
;L:72	0
;L:73	0
;L:74	0
;L:75	0
;L:76	0
;L:77	0
;L:78	0
;L:79	0
;L:80	0
;L:81	0
;L:82	0
;L:83	0
;L:84	0
;L:85	0
;L:86	0
;L:87	0
;L:88	0
;L:89	0
;L:90	0
;L:91	0
;L:92	0
;L:93	0
;L:94	0
;L:95	0
;L:96	0
;L:97	0
;L:98	0
;L:99	0
;L:100	0
;L:101	0
;L:102	0
;L:103	0
;L:104	0
;L:105	0
;L:106	0
;L:107	0
;L:108	0
;L:109	0
;L:110	0
;L:111	0
;L:112	0
;L:113	0
;L:114	0
;L:115	0
;L:116	0
;L:117	0
;L:118	0
;L:119	0
;L:120	0
;L:121	0
;L:122	0
;L:123	0
;L:124	0
;L:125	0
;L:126	0
;L:127	0
;L:128	0
;L:129	0
;L:130	0
;L:131	0
;L:132	0
;L:133	0
;L:134	0
;L:135	0
;L:136	0
;L:137	0
;L:138	0
;L:139	0
;L:140	0
;L:141	0
;L:142	0
;L:143	0
;L:144	0
;L:145	0
;L:146	0
;L:147	0
;L:148	0
;L:149	0
;L:150	0
;L:151	0
;L:152	0
;L:153	0
;L:154	0
;L:155	0
;L:156	0
;L:157	0
;L:158	0
;L:159	0
;L:160	0
;L:161	0
;L:162	0
;L:163	0
;L:164	0
;L:165	0
;L:166	0
;L:167	0
;L:168	0
;L:169	0
;L:170	0
;L:171	0
;L:172	0
;L:173	0
;L:174	0
;L:175	0
;L:176	0
;L:177	0
;L:178	0
;L:179	0
;L:180	0
;L:181	0
;L:182	0
;L:183	0
;L:184	0
;L:185	0
;L:186	0
;L:187	0
;L:188	0
;L:189	0
;L:190	0
;L:191	0
;L:192	0
;I:0	0
;I:1	0
;I:2	0
;I:3	0
;I:4	0
;I:5	0
;I:6	0
;I:7	0
;I:8	0
;I:9	0
;I:10	0
;I:11	0
;I:12	0
;I:13	0
;I:14	0
;I:15	0
;I:16	0
;I:17	0
;I:18	0
;I:19	0
;I:20	0
;I:21	0
;I:22	0
;I:23	0
;I:24	0
;I:25	0
;I:26	0
;I:27	0
;I:28	0
;I:29	0
;I:30	0
;I:31	0
;I:32	0
;I:33	0
;I:34	0
;I:35	0
;I:36	0
;I:37	0
;I:38	0
;I:39	0
;I:40	0
;I:41	0
;I:42	0
;I:43	0
;I:44	0
;I:45	0
;I:46	0
;I:47	0
;I:48	0
;I:49	0
;I:50	0
;I:51	0
;I:52	0
;I:53	0
;I:54	0
;I:55	0
;I:56	0
;I:57	0
;I:58	0
;I:59	0
;I:60	0
;I:61	0
;I:62	0
;I:63	0
;I:64	0
;I:65	0
;I:66	0
;I:67	0
;I:68	0
;I:69	0
;I:70	0
;I:71	0
;I:72	0
;I:73	0
;I:74	0
;I:75	0
;I:76	0
;I:77	0
;I:78	0
;I:79	0
;I:80	0
;I:81	0
;I:82	0
;I:83	0
;I:84	0
;I:85	0
;I:86	0
;I:87	0
;I:88	0
;I:89	0
;I:90	0
;I:91	0
;I:92	0
;I:93	0
;I:94	0
;I:95	0
;I:96	0
;I:97	0
;I:98	0
;I:99	0
;I:100	0
;I:101	0
;I:102	0
;I:103	0
;I:104	0
;I:105	0
;I:106	0
;I:107	0
;I:108	0
;I:109	0
;I:110	0
;I:111	0
;I:112	0
;I:113	0
;I:114	0
;I:115	0
;I:116	0
;I:117	0
;I:118	0
;I:119	0
;I:120	0
;I:121	0
;I:122	0
;I:123	0
;I:124	0
;I:125	0
;I:126	0
;I:127	0
;I:128	0
;I:129	0
;I:130	0
;I:131	0
;I:132	0
;I:133	0
;I:134	0
;I:135	0
;I:136	0
;I:137	0
;I:138	0
;I:139	0
;I:140	0
;I:141	0
;I:142	0
;I:143	0
;I:144	0
;I:145	0
;I:146	0
;I:147	0
;I:148	0
;I:149	0
;I:150	0
;I:151	0
;I:152	0
;I:153	0
;I:154	0
;I:155	0
;I:156	0
;I:157	0
;I:158	0
;I:159	0
;I:160	0
;I:161	0
;I:162	0
;I:163	0
;I:164	0
;I:165	0
;I:166	0
;I:167	0
;I:168	0
;I:169	0
;I:170	0
;I:171	0
;I:172	0
;I:173	0
;I:174	0
;I:175	0
;I:176	0
;I:177	0
;I:178	0
;I:179	0
;I:180	0
;I:181	0
;I:182	0
;I:183	0
;I:184	0
;I:185	0
;I:186	0
;I:187	0
;I:188	0
;I:189	0
;I:190	0
;I:191	0
;I:192	0
;I:193	0
;I:194	0
;I:195	0
;I:196	0
;I:197	0
;I:198	0
;I:199	0
;I:200	0
;I:201	0
;I:202	0
;I:203	0
;I:204	0
;I:205	0
;I:206	0
;I:207	0
;I:208	0
;I:209	0
;I:210	0
;I:211	0
;I:212	0
;I:213	0
;I:214	0
;I:215	0
;I:216	0
;I:217	0
;I:218	0
;I:219	0
;I:220	0
;I:221	0
;I:222	0
;I:223	0
;I:224	0
;I:225	0
;I:226	0
;I:227	0
;I:228	0
;I:229	0
;I:230	0
;I:231	0
;I:232	0
;I:233	0
;I:234	0
;I:235	0
;I:236	0
;I:237	0
;I:238	0
;I:239	0
;I:240	0
;I:241	0
;I:242	0
;I:243	0
;I:244	0
;I:245	0
;I:246	0
;I:247	0
;I:248	0
;I:249	0
;I:250	0
;I:251	0
;I:252	0
;I:253	0
;I:254	0
;I:255	0
;I:256	0
;I:257	0
;R:1	0
;R:2	0
;R:3	0
;R:4	0
;R:5	0
;R:6	0
;R:7	0
;R:8	0
;R:9	0
;R:10	0
;R:11	0
;R:12	0
;R:13	0
;R:14	0
;R:15	0
;R:16	0
;R:17	0
;R:18	0
;R:19	0
;R:20	0
;R:21	0
;R:22	0
;R:23	0
;R:24	0
;R:25	0
;R:26	0
;R:27	0
;R:28	0
;R:29	0
;R:30	0
;R:31	0
;R:32	0
;R:33	0
;R:34	0
;R:35	0
;R:36	0
;R:37	0
;R:38	0
;R:39	0
;R:40	0
;R:41	0
;R:42	0
;R:43	0
;R:44	0
;R:45	0
;R:46	0
;R:47	0
;R:48	0
;R:49	0
;R:50	0
;R:51	0
;R:52	0
;R:53	0
;R:54	0
;R:55	0
;R:56	0
;R:57	0
;R:58	0
;R:59	0
;R:60	0
;R:61	0
;R:62	0
;R:63	0
;<extra_id_0>	0
;<extra_id_1>	0
;<extra_id_2>	0
;<extra_id_3>	0
;<extra_id_4>	0
;<extra_id_5>	0
;<extra_id_6>	0
;<extra_id_7>	0
;<extra_id_8>	0
;<extra_id_9>	0
;<extra_id_10>	0
;<extra_id_11>	0
;<extra_id_12>	0
;<extra_id_13>	0
;<extra_id_14>	0
;<extra_id_15>	0
;<extra_id_16>	0
;<extra_id_17>	0
;<extra_id_18>	0
;<extra_id_19>	0
;<extra_id_20>	0
;<extra_id_21>	0
;<extra_id_22>	0
;<extra_id_23>	0
;<extra_id_24>	0
;<extra_id_25>	0
;<extra_id_26>	0
;<extra_id_27>	0
;<extra_id_28>	0
;<extra_id_29>	0
;<extra_id_30>	0
;<extra_id_31>	0
;<extra_id_32>	0
;<extra_id_33>	0
;<extra_id_34>	0
;<extra_id_35>	0
;<extra_id_36>	0
;<extra_id_37>	0
;<extra_id_38>	0
;<extra_id_39>	0
;<extra_id_40>	0
;<extra_id_41>	0
;<extra_id_42>	0
;<extra_id_43>	0
;<extra_id_44>	0
;<extra_id_45>	0
;<extra_id_46>	0
;<extra_id_47>	0
;<extra_id_48>	0
;<extra_id_49>	0
;<extra_id_50>	0
;<extra_id_51>	0
;<extra_id_52>	0
;<extra_id_53>	0
;<extra_id_54>	0
;<extra_id_55>	0
;<extra_id_56>	0
;<extra_id_57>	0
;<extra_id_58>	0
;<extra_id_59>	0
;<extra_id_60>	0
;<extra_id_61>	0
;<extra_id_62>	0
;<extra_id_63>	0
;<extra_id_64>	0
;<extra_id_65>	0
;<extra_id_66>	0
;<extra_id_67>	0
;<extra_id_68>	0
;<extra_id_69>	0
;<extra_id_70>	0
;<extra_id_71>	0
;<extra_id_72>	0
;<extra_id_73>	0
;<extra_id_74>	0
;<extra_id_75>	0
;<extra_id_76>	0
;<extra_id_77>	0
;<extra_id_78>	0
;<extra_id_79>	0
;<extra_id_80>	0
;<extra_id_81>	0
;<extra_id_82>	0
;<extra_id_83>	0
;<extra_id_84>	0
;<extra_id_85>	0
;<extra_id_86>	0
;<extra_id_87>	0
;<extra_id_88>	0
;<extra_id_89>	0
;<extra_id_90>	0
;<extra_id_91>	0
;<extra_id_92>	0
;<extra_id_93>	0
;<extra_id_94>	0
;<extra_id_95>	0
;<extra_id_96>	0
;<extra_id_97>	0
;<extra_id_98>	0
;<extra_id_99>	0
;<extra_id_100>	0
;<extra_id_101>	0
;<extra_id_102>	0
;<extra_id_103>	0
;<extra_id_104>	0
;<extra_id_105>	0
;<extra_id_106>	0
;<extra_id_107>	0
;<extra_id_108>	0
;<extra_id_109>	0
;<extra_id_110>	0
;<extra_id_111>	0
;<extra_id_112>	0
;<extra_id_113>	0
;<extra_id_114>	0
;<extra_id_115>	0
;<extra_id_116>	0
;<extra_id_117>	0
;<extra_id_118>	0
;<extra_id_119>	0
;<extra_id_120>	0
;<extra_id_121>	0
;<extra_id_122>	0
;<extra_id_123>	0
;<extra_id_124>	0
;<extra_id_125>	0
;<extra_id_126>	0
;<extra_id_127>	0
;<extra_id_128>	0
;<extra_id_129>	0
;<extra_id_130>	0
;<extra_id_131>	0
;<extra_id_132>	0
;<extra_id_133>	0
;<extra_id_134>	0
;<extra_id_135>	0
;<extra_id_136>	0
;<extra_id_137>	0
;<extra_id_138>	0
;<extra_id_139>	0
;<extra_id_140>	0
;<extra_id_141>	0
;<extra_id_142>	0
;<extra_id_143>	0
;<extra_id_144>	0
;<extra_id_145>	0
;<extra_id_146>	0
;<extra_id_147>	0
;<extra_id_148>	0
;<extra_id_149>	0
;<extra_id_150>	0
;<extra_id_151>	0
;<extra_id_152>	0
;<extra_id_153>	0
;<extra_id_154>	0
;<extra_id_155>	0
;<extra_id_156>	0
;<extra_id_157>	0
;<extra_id_158>	0
;<extra_id_159>	0
;<extra_id_160>	0
;<extra_id_161>	0
;<extra_id_162>	0
;<extra_id_163>	0
;<extra_id_164>	0
;<extra_id_165>	0
;<extra_id_166>	0
;<extra_id_167>	0
;<extra_id_168>	0
;<extra_id_169>	0
;<extra_id_170>	0
;<extra_id_171>	0
;<extra_id_172>	0
;<extra_id_173>	0
;<extra_id_174>	0
;<extra_id_175>	0
;<extra_id_176>	0
;<extra_id_177>	0
;<extra_id_178>	0
;<extra_id_179>	0
;<extra_id_180>	0
;<extra_id_181>	0
;<extra_id_182>	0
;<extra_id_183>	0
;<extra_id_184>	0
;<extra_id_185>	0
;<extra_id_186>	0
;<extra_id_187>	0
;<extra_id_188>	0
;<extra_id_189>	0
;<extra_id_190>	0
;<extra_id_191>	0
;<extra_id_192>	0
;<extra_id_193>	0
;<extra_id_194>	0
;<extra_id_195>	0
;<extra_id_196>	0
;<extra_id_197>	0
;<extra_id_198>	0
;<extra_id_199>	0
;<extra_id_200>	0
;<extra_id_201>	0
;<extra_id_202>	0
;<extra_id_203>	0
;<extra_id_204>	0
;<extra_id_205>	0
;<extra_id_206>	0
;<extra_id_207>	0
;<extra_id_208>	0
;<extra_id_209>	0
;<extra_id_210>	0
;<extra_id_211>	0
;<extra_id_212>	0
;<extra_id_213>	0
;<extra_id_214>	0
;<extra_id_215>	0
;<extra_id_216>	0
;<extra_id_217>	0
;<extra_id_218>	0
;<extra_id_219>	0
;<extra_id_220>	0
;<extra_id_221>	0
;<extra_id_222>	0
;<extra_id_223>	0
;<extra_id_224>	0
;<extra_id_225>	0
;<extra_id_226>	0
;<extra_id_227>	0
;<extra_id_228>	0
;<extra_id_229>	0
;<extra_id_230>	0
;<extra_id_231>	0
;<extra_id_232>	0
;<extra_id_233>	0
;<extra_id_234>	0
;<extra_id_235>	0
;<extra_id_236>	0
;<extra_id_237>	0
;<extra_id_238>	0
;<extra_id_239>	0
;<extra_id_240>	0
;<extra_id_241>	0
;<extra_id_242>	0
;<extra_id_243>	0
;<extra_id_244>	0
;<extra_id_245>	0
;<extra_id_246>	0
;<extra_id_247>	0
;<extra_id_248>	0
;<extra_id_249>	0
;<extra_id_250>	0
;<extra_id_251>	0
;<extra_id_252>	0
;<extra_id_253>	0
;<extra_id_254>	0
;<extra_id_255>	0
;<mono>	0
;<poly>	0
;<instruction_0>	0
;<instruction_1>	0
;<instruction_2>	0
;<instruction_3>	0
;<instruction_4>	0
;<instruction_5>	0
;<instruction_6>	0
;<instruction_7>	0
;<instruction_8>	0
;<instruction_9>	0
;<instruction_10>	0
;<instruction_11>	0
;<instruction_12>	0
;<instruction_13>	0
;<instruction_14>	0
;<instruction_15>	0
;<instruction_16>	0
;<instruction_17>	0
;<instruction_18>	0
;<instruction_19>	0
;<instruction_20>	0
;<instruction_21>	0
;<instruction_22>	0
;<instruction_23>	0
;<instruction_24>	0
;<instruction_25>	0
;<instruction_26>	0
;<instruction_27>	0
;<instruction_28>	0
;<instruction_29>	0
;<instruction_30>	0
;<instruction_31>	0
;<instruction_32>	0
;<instruction_33>	0
;<instruction_34>	0
;<instruction_35>	0
;<instruction_36>	0
;<instruction_37>	0
;<instruction_38>	0
;<instruction_39>	0
;<instruction_40>	0
;<instruction_41>	0
;<instruction_42>	0
;<instruction_43>	0
;<instruction_44>	0
;<instruction_45>	0
;<instruction_46>	0
;<instruction_47>	0
;<instruction_48>	0
;<instruction_49>	0
;<instruction_50>	0
;<instruction_51>	0
;<instruction_52>	0
;<instruction_53>	0
;<instruction_54>	0
;<instruction_55>	0
;<instruction_56>	0
;<instruction_57>	0
;<instruction_58>	0
;<instruction_59>	0
;<instruction_60>	0
;<instruction_61>	0
;<instruction_62>	0
;<instruction_63>	0
;<instruction_64>	0
;<instruction_65>	0
;<instruction_66>	0
;<instruction_67>	0
;<instruction_68>	0
;<instruction_69>	0
;<instruction_70>	0
;<instruction_71>	0
;<instruction_72>	0
;<instruction_73>	0
;<instruction_74>	0
;<instruction_75>	0
;<instruction_76>	0
;<instruction_77>	0
;<instruction_78>	0
;<instruction_79>	0
;<instruction_80>	0
;<instruction_81>	0
;<instruction_82>	0
;<instruction_83>	0
;<instruction_84>	0
;<instruction_85>	0
;<instruction_86>	0
;<instruction_87>	0
;<instruction_88>	0
;<instruction_89>	0
;<instruction_90>	0
;<instruction_91>	0
;<instruction_92>	0
;<instruction_93>	0
;<instruction_94>	0
;<instruction_95>	0
;<instruction_96>	0
;<instruction_97>	0
;<instruction_98>	0
;<instruction_99>	0
;<instruction_100>	0
;<instruction_101>	0
;<instruction_102>	0
;<instruction_103>	0
;<instruction_104>	0
;<instruction_105>	0
;<instruction_106>	0
;<instruction_107>	0
;<instruction_108>	0
;<instruction_109>	0
;<instruction_110>	0
;<instruction_111>	0
;<instruction_112>	0
;<instruction_113>	0
;<instruction_114>	0
;<instruction_115>	0
;<instruction_116>	0
;<instruction_117>	0
;<instruction_118>	0
;<instruction_119>	0
;<instruction_120>	0
;<instruction_121>	0
;<instruction_122>	0
;<instruction_123>	0
;<instruction_124>	0
;<instruction_125>	0
;<instruction_126>	0
;<instruction_127>	0
;<instruction_128>	0
;<instruction_129>	0
;<instruction_130>	0
;<instruction_131>	0
;<instruction_132>	0
;<instruction_133>	0
;<instruction_134>	0
;<instruction_135>	0
;<instruction_136>	0
;<instruction_137>	0
;<instruction_138>	0
;<instruction_139>	0
;<instruction_140>	0
;<instruction_141>	0
;<instruction_142>	0
;<instruction_143>	0
;<instruction_144>	0
;<instruction_145>	0
;<instruction_146>	0
;<instruction_147>	0
;<instruction_148>	0
;<instruction_149>	0
;<instruction_150>	0
;<instruction_151>	0
;<instruction_152>	0
;<instruction_153>	0
;<instruction_154>	0
;<instruction_155>	0
;<instruction_156>	0
;<instruction_157>	0
;<instruction_158>	0
;<instruction_159>	0
;<instruction_160>	0
;<instruction_161>	0
;<instruction_162>	0
;<instruction_163>	0
;<instruction_164>	0
;<instruction_165>	0
;<instruction_166>	0
;<instruction_167>	0
;<instruction_168>	0
;<instruction_169>	0
;<instruction_170>	0
;<instruction_171>	0
;<instruction_172>	0
;<instruction_173>	0
;<instruction_174>	0
;<instruction_175>	0
;<instruction_176>	0
;<instruction_177>	0
;<instruction_178>	0
;<instruction_179>	0
;<instruction_180>	0
;<instruction_181>	0
;<instruction_182>	0
;<instruction_183>	0
;<instruction_184>	0
;<instruction_185>	0
;<instruction_186>	0
;<instruction_187>	0
;<instruction_188>	0
;<instruction_189>	0
;<instruction_190>	0
;<instruction_191>	0
;<instruction_192>	0
;<instruction_193>	0
;<instruction_194>	0
;<instruction_195>	0
;<instruction_196>	0
;<instruction_197>	0
;<instruction_198>	0
;<instruction_199>	0
;<instruction_200>	0
;<instruction_201>	0
;<instruction_202>	0
;<instruction_203>	0
;<instruction_204>	0
;<instruction_205>	0
;<instruction_206>	0
;<instruction_207>	0
;<instruction_208>	0
;<instruction_209>	0
;<instruction_210>	0
;<instruction_211>	0
;<instruction_212>	0
;<instruction_213>	0
;<instruction_214>	0
;<instruction_215>	0
;<instruction_216>	0
;<instruction_217>	0
;<instruction_218>	0
;<instruction_219>	0
;<instruction_220>	0
;<instruction_221>	0
;<instruction_222>	0
;<instruction_223>	0
;<instruction_224>	0
;<instruction_225>	0
;<instruction_226>	0
;<instruction_227>	0
;<instruction_228>	0
;<instruction_229>	0
;<instruction_230>	0
;<instruction_231>	0
;<instruction_232>	0
;<instruction_233>	0
;<instruction_234>	0
;<instruction_235>	0
;<instruction_236>	0
;<instruction_237>	0
;<instruction_238>	0
;<instruction_239>	0
;<instruction_240>	0
;<instruction_241>	0
;<instruction_242>	0
;<instruction_243>	0
;<instruction_244>	0
;<instruction_245>	0
;<instruction_246>	0
;<instruction_247>	0
;<instruction_248>	0
;<instruction_249>	0
;<instruction_250>	0
;<instruction_251>	0
;<instruction_252>	0
;<instruction_253>	0
;<instruction_254>	0
;<instruction_255>	0
;<instruction_256>	0
;<instruction_257>	0
;<instruction_258>	0
;<instruction_259>	0
;<instruction_260>	0
;<instruction_261>	0
;<instruction_262>	0
;<instruction_263>	0
;<instruction_264>	0
;<instruction_265>	0
;<instruction_266>	0
;<instruction_267>	0
;<instruction_268>	0
;<instruction_269>	0
;<instruction_270>	0
;<instruction_271>	0
;<instruction_272>	0
;<instruction_273>	0
;<instruction_274>	0
;<instruction_275>	0
;<instruction_276>	0
;<instruction_277>	0
;<instruction_278>	0
;<instruction_279>	0
;<instruction_280>	0
;<instruction_281>	0
;<instruction_282>	0
;<instruction_283>	0
;<instruction_284>	0
;<instruction_285>	0
;<instruction_286>	0
;<instruction_287>	0
;<instruction_288>	0
;<instruction_289>	0
;<instruction_290>	0
;<instruction_291>	0
;<instruction_292>	0
;<instruction_293>	0
;<instruction_294>	0
;<instruction_295>	0
;<instruction_296>	0
;<instruction_297>	0
;<instruction_298>	0
;<instruction_299>	0
;<instruction_300>	0
;<instruction_301>	0
;<instruction_302>	0
;<instruction_303>	0
;<instruction_304>	0
;<instruction_305>	0
;<instruction_306>	0
;<instruction_307>	0
;<instruction_308>	0
;<instruction_309>	0
;<instruction_310>	0
;<instruction_311>	0
;<instruction_312>	0
;<instruction_313>	0
;<instruction_314>	0
;<instruction_315>	0
;<instruction_316>	0
;<instruction_317>	0
;<instruction_318>	0
;<instruction_319>	0
;<instruction_320>	0
;<instruction_321>	0
;<instruction_322>	0
;<instruction_323>	0
;<instruction_324>	0
;<instruction_325>	0
;<instruction_326>	0
;<instruction_327>	0
;<instruction_328>	0
;<instruction_329>	0
;<instruction_330>	0
;<instruction_331>	0
;<instruction_332>	0
;<instruction_333>	0
;<instruction_334>	0
;<instruction_335>	0
;<instruction_336>	0
;<instruction_337>	0
;<instruction_338>	0
;<instruction_339>	0
;<instruction_340>	0
;<instruction_341>	0
;<instruction_342>	0
;<instruction_343>	0
;<instruction_344>	0
;<instruction_345>	0
;<instruction_346>	0
;<instruction_347>	0
;<instruction_348>	0
;<instruction_349>	0
;<instruction_350>	0
;<instruction_351>	0
;<instruction_352>	0
;<instruction_353>	0
;<instruction_354>	0
;<instruction_355>	0
;<instruction_356>	0
;<instruction_357>	0
;<instruction_358>	0
;<instruction_359>	0
;<instruction_360>	0
;<instruction_361>	0
;<instruction_362>	0
;<instruction_363>	0
;<instruction_364>	0
;<instruction_365>	0
;<instruction_366>	0
;<instruction_367>	0
;<instruction_368>	0
;<instruction_369>	0
;<instruction_370>	0
;<instruction_371>	0
;<instruction_372>	0
;<instruction_373>	0
;<instruction_374>	0
;<instruction_375>	0
;<instruction_376>	0
;<instruction_377>	0
;<instruction_378>	0
;<instruction_379>	0
;<instruction_380>	0
;<instruction_381>	0
;<instruction_382>	0
;<instruction_383>	0
;<instruction_384>	0
;<instruction_385>	0
;<instruction_386>	0
;<instruction_387>	0
;<instruction_388>	0
;<instruction_389>	0
;<instruction_390>	0
;<instruction_391>	0
;<instruction_392>	0
;<instruction_393>	0
;<instruction_394>	0
;<instruction_395>	0
;<instruction_396>	0
;<instruction_397>	0
;<instruction_398>	0
;<instruction_399>	0
;<instruction_400>	0
;<instruction_401>	0
;<instruction_402>	0
;<instruction_403>	0
;<instruction_404>	0
;<instruction_405>	0
;<instruction_406>	0
;<instruction_407>	0
;<instruction_408>	0
;<instruction_409>	0
;<instruction_410>	0
;<instruction_411>	0
;<instruction_412>	0
;<instruction_413>	0
;<instruction_414>	0
;<instruction_415>	0
;<instruction_416>	0
;<instruction_417>	0
;<instruction_418>	0
;<instruction_419>	0
;<instruction_420>	0
;<instruction_421>	0
;<instruction_422>	0
;<instruction_423>	0
;<instruction_424>	0
;<instruction_425>	0
;<instruction_426>	0
;<instruction_427>	0
;<instruction_428>	0
;<instruction_429>	0
;<instruction_430>	0
;<instruction_431>	0
;<instruction_432>	0
;<instruction_433>	0
;<instruction_434>	0
;<instruction_435>	0
;<instruction_436>	0
;<instruction_437>	0
;<instruction_438>	0
;<instruction_439>	0
;<instruction_440>	0
;<instruction_441>	0
;<instruction_442>	0
;<instruction_443>	0
;<instruction_444>	0
;<instruction_445>	0
;<instruction_446>	0
;<instruction_447>	0
;<instruction_448>	0
;<instruction_449>	0
;<instruction_450>	0
;<instruction_451>	0
;<instruction_452>	0
;<instruction_453>	0
;<instruction_454>	0
;<instruction_455>	0
;<instruction_456>	0
;<instruction_457>	0
;<instruction_458>	0
;<instruction_459>	0
;<instruction_460>	0
;<instruction_461>	0
;<instruction_462>	0
;<instruction_463>	0
;<instruction_464>	0
;<instruction_465>	0
;<instruction_466>	0
;<instruction_467>	0
;<instruction_468>	0
;<instruction_469>	0
;<instruction_470>	0
;<instruction_471>	0
;<instruction_472>	0
;<instruction_473>	0
;<instruction_474>	0
;<instruction_475>	0
;<instruction_476>	0
;<instruction_477>	0
;<instruction_478>	0
;<instruction_479>	0
;<instruction_480>	0
;<instruction_481>	0
;<instruction_482>	0
;<instruction_483>	0
;<instruction_484>	0
;<instruction_485>	0
;<instruction_486>	0
;<instruction_487>	0
;<instruction_488>	0
;<instruction_489>	0
;<instruction_490>	0
;<instruction_491>	0
;<instruction_492>	0
;<instruction_493>	0
;<instruction_494>	0
;<instruction_495>	0
;<instruction_496>	0
;<instruction_497>	0
;<instruction_498>	0
;<instruction_499>	0
;<instruction_500>	0
;<instruction_501>	0
;<instruction_502>	0
;<instruction_503>	0
;<instruction_504>	0
;<instruction_505>	0
;<instruction_506>	0
;<instruction_507>	0
;<instruction_508>	0
;<instruction_509>	0
;<instruction_510>	0
;<instruction_511>	0
;w:12	-3.38247
;w:6	-4.04509
6	-4.41675
0	-4.45899
;w:3	-4.58215
4	-4.73949
2	-4.8736
8	-4.87722
3	-5.11886
9	-5.17286
;w:4	-5.18417
;w:2	-5.32566
;w:9	-5.43085
;w:8	-5.59638
1	-5.80557
;w:15	-5.83556
7	-5.87595
;w:16	-5.93224
;w:1	-6.05005
5	-6.10495
15	-6.27772
24	-6.36477
12;w:12	-6.40326
12	-6.41793
6;w:6	-6.44081
;w:7	-6.46741
;w:5	-6.65393
9;w:9	-6.67768
;N:80:	-6.70154
27	-6.73045
18	-6.74032
;N:78:	-6.75659
;N:75:	-6.76001
;N:81:	-6.76101
;N:82:	-6.76639
;N:68:12	-6.76728
;N:71:	-6.77292
;N:77:	-6.7776
;N:70:12	-6.77978
;N:70:	-6.7821
;N:76:	-6.78294
;N:73:	-6.78907
;N:69:12	-6.79644
;N:79:	-6.79715
16	-6.80077
;N:63:12	-6.81241
48	-6.82207
;N:72:	-6.82659
;N:74:	-6.83336
;N:69:	-6.84347
;N:72:12	-6.85243
;N:68:	-6.86573
1;w:1	-6.87669
;N:83:	-6.87774
;N:84:	-6.88682
;N:67:	-6.9131
;N:61:12	-6.91419
;N:60:12	-6.92204
;N:64:12	-6.93471
21	-6.9352
;N:66:	-6.95286
;N:65:12	-6.96438
72	-6.97237
5;w:8	-6.98626
;N:67:12	-6.98715
;N:73:12	-6.98722
;N:66:12	-6.99333
;N:64:	-6.9943
;N:62:12	-7.00358
192	-7.00438
;N:65:	-7.00505
;N:86:	-7.00638
;N:85:	-7.00844
;N:58:12	-7.00949
;N:62:	-7.04877
;N:63:	-7.05768
;N:71:12	-7.06248
20	-7.06432
;N:59:12	-7.07972
;N:67:6	-7.08662
;N:87:	-7.08737
;N:66:6	-7.08781
;N:57:12	-7.09141
;N:75:12	-7.09824
;N:64:6	-7.11102
;N:60:	-7.11229
;N:88:	-7.12984
;N:65:6	-7.13295
51	-7.13885
28	-7.14214
;N:61:	-7.14279
;N:55:12	-7.15481
;w:12;N:57:12	-7.15574
;N:89:	-7.1602
;N:68:6	-7.16214
;N:59:	-7.16396
;w:12;N:58:12	-7.17196
;D:36	-7.18288
;N:62:6	-7.19307
;N:70:6	-7.20308
;N:63:6	-7.20448
;N:60:6	-7.20988
;N:56:12	-7.2159
;N:54:12	-7.22102
;w:12;N:56:12	-7.22276
;w:12;N:59:12	-7.22395
3;w:3	-7.22663
5;w:5	-7.22838
;w:12;N:61:12	-7.23539
8;w:8	-7.23802
;w:12;N:60:12	-7.23837
;N:69:6	-7.24211
;N:74:12	-7.24315
;N:61:6	-7.24388
36	-7.24458
;w:12;N:55:12	-7.24642
;N:59:6	-7.25215
;w:12;N:53:12	-7.25325
;N:71:6	-7.25463
;w:12;N:63:12	-7.25483
;N:58:	-7.26652
;w:12;N:62:12	-7.27102
45	-7.27209
3;w:6	-7.27795
;N:72:6	-7.27907
;w:12;N:54:12	-7.27952
;w:12;N:51:12	-7.28043
;N:90:	-7.28386
;w:12;N:52:12	-7.28449
;D:36;D:42	-7.28578
;w:12;N:65:12	-7.29036
;w:12;N:64:12	-7.29229
;N:78:12	-7.29862
;N:55:	-7.31456
;N:53:12	-7.31557
11	-7.31904
;N:58:6	-7.33354
;N:65:24	-7.33736
;N:57:	-7.3399
;N:76:12	-7.33997
;w:12;N:66:12	-7.34178
;N:64:24	-7.34994
13	-7.35285
;N:52:12	-7.35618
;N:73:6	-7.3673
;N:66:24	-7.37498
144	-7.3803
;w:12;N:50:12	-7.38136
;N:67:24	-7.38402
;N:53:	-7.3843
10	-7.38459
;N:51:12	-7.38963
;N:91:	-7.39341
;w:12;N:49:12	-7.40433
0;w:3	-7.40486
;w:12;N:47:12	-7.40488
;N:63:24	-7.40745
0;w:6	-7.41698
;N:77:12	-7.41778
;N:52:	-7.41891
;w:12;N:48:12	-7.4192
4;w:8	-7.42147
;w:12;N:68:12	-7.42433
;N:57:6	-7.42928
;N:50:12	-7.43714
2;w:2	-7.43826
;N:62:24	-7.44143
4;w:4	-7.44406
;N:74:6	-7.44681
;N:56:6	-7.45559
;N:54:	-7.4596
;w:12;N:46:12	-7.46133
;N:60:24	-7.46622
;w:12;N:67:12	-7.46632
;N:56:	-7.46773
;w:12;N:45:12	-7.46854
;N:47:	-7.46879
;N:68:24	-7.46999
;N:69:24	-7.47378
;N:75:6	-7.47393
54	-7.48532
;N:61:24	-7.48586
;N:45:	-7.4876
;N:50:	-7.49167
;N:55:6	-7.4957
;N:51:	-7.4989
;N:42:	-7.50045
;N:49:	-7.5081
;N:79:12	-7.52032
;N:92:	-7.5237
;N:70:24	-7.52634
;N:48:12	-7.53284
;N:49:12	-7.53403
;w:12;N:69:12	-7.53603
;N:59:24	-7.55396
57	-7.55928
;N:47:12	-7.55952
1;w:4	-7.56879
;N:48:	-7.57018
;N:46:	-7.57083
;N:53:6	-7.57399
;N:76:6	-7.57643
9;w:12	-7.57892
;w:12;N:43:12	-7.58483
;N:46:12	-7.58768
;N:80:12	-7.5881
;N:43:	-7.59496
;N:41:	-7.59897
;N:71:24	-7.60545
7;w:7	-7.60581
;N:58:24	-7.60806
7;w:8	-7.60917
;N:57:24	-7.61617
;N:44:	-7.61959
;w:12;N:44:12	-7.62348
;w:12;N:42:12	-7.62721
;N:39:	-7.6296
;w:12;N:70:12	-7.63022
;N:77:6	-7.63052
;N:38:	-7.6324
;N:54:6	-7.64558
17	-7.6494
2;w:6	-7.64966
;N:45:12	-7.65302
108	-7.65657
;w:12;N:71:12	-7.67263
;N:72:24	-7.68332
;N:93:	-7.68556
;N:81:12	-7.69319
;w:12;N:58:6	-7.69608
;w:12;N:72:12	-7.69614
;N:55:24	-7.70426
;N:67:4	-7.70794
;N:70:4	-7.71966
;w:12;N:41:12	-7.72252
;N:69:4	-7.72437
;N:40:	-7.72686
;N:44:12	-7.72686
;N:73:24	-7.72995
;N:36:	-7.7303
;N:50:6	-7.73454
;N:68:4	-7.73851
;w:12;N:73:12	-7.73949
;w:12;N:40:12	-7.749
;w:12;N:53:6	-7.75791
;N:56:24	-7.76218
;w:12;N:59:6	-7.76308
;N:94:	-7.76494
;N:78:6	-7.7661
;N:82:12	-7.76812
;N:48:6	-7.76967
;w:12;N:60:6	-7.77102
14	-7.77329
;N:66:4	-7.78584
;w:12;N:64:6	-7.79169
;N:43:12	-7.79533
;w:10	-7.79566
;w:12;N:55:6	-7.79827
;N:54:24	-7.79858
;D:51	-7.80649
;N:37:	-7.80696
;w:12;N:62:6	-7.80737
;N:71:4	-7.81145
;w:24;N:65:12	-7.81292
;w:12;N:63:6	-7.81499
33	-7.81689
;w:12;N:56:6	-7.82034
;N:65:4	-7.82617
;N:51:6	-7.82983
;w:12;N:61:6	-7.83793
;w:12;N:52:6	-7.83976
;w:12;N:57:6	-7.84103
;N:67:9	-7.84162
;N:72:4	-7.84383
;N:65:9	-7.84571
;N:64:4	-7.84791
;w:12;N:39:12	-7.84924
;N:49:6	-7.85086
;N:52:6	-7.85177
;N:47:6	-7.85552
;N:79:6	-7.85731
;w:24;N:66:12	-7.85769
;w:12;N:65:6	-7.85941
;w:12;N:67:6	-7.86716
;w:12;N:54:6	-7.86821
;w:24;N:62:12	-7.86966
;N:80:6	-7.86976
;N:63:4	-7.87001
;w:12;N:51:6	-7.87469
;N:64:9	-7.88069
;N:62:4	-7.88151
;w:12;N:50:6	-7.88469
;N:66:9	-7.88693
;N:53:24	-7.88811
;N:35:	-7.88874
;N:41:12	-7.89971
;N:49:24	-7.90299
42	-7.90473
;N:63:9	-7.9054
;N:70:9	-7.90569
;N:52:24	-7.90622
;N:73:4	-7.9074
;w:24;N:64:12	-7.90799
;N:68:9	-7.90812
;w:24;N:67:12	-7.91079
;N:42:12	-7.91689
;w:6;D:38	-7.91877
;N:74:24	-7.91933
;w:12;N:69:6	-7.92186
;w:24;N:63:12	-7.92623
;w:12;N:74:12	-7.9297
;w:12;N:68:6	-7.92974
;N:61:9	-7.93244
;w:12;N:49:6	-7.93365
;w:12;N:66:6	-7.93531
;D:46	-7.93537
;w:12;N:38:12	-7.9394
;N:62:9	-7.93966
;N:75:24	-7.94012
;w:24;N:68:12	-7.9436
;N:46:6	-7.94484
;N:50:24	-7.94509
;D:54	-7.95094
;w:24;N:59:12	-7.95704
;w:24;N:70:12	-7.95779
;N:95:	-7.96157
;N:34:	-7.9636
;N:69:9	-7.96987
;w:24;N:55:24	-7.97082
;N:68:3	-7.97339
;N:48:24	-7.97578
;w:24;N:69:12	-7.97717
;w:12;N:70:6	-7.97865
;w:24;N:59:24	-7.97915
;D:36;D:49	-7.9799
;w:24;N:56:24	-7.97999
;N:61:4	-7.98158
;w:24;N:58:24	-7.98308
;N:59:9	-7.98833
;N:51:24	-7.98862
;w:12;N:37:12	-7.98965
;w:12;N:75:12	-7.99226
;w:24;N:61:12	-7.99331
;w:24;N:52:12	-7.99408
;w:24;N:58:12	-7.99408
;w:12;N:48:6	-7.99732
;D:49	-7.99998
;N:45:24	-8.00377
;w:24;N:57:24	-8.00396
;w:24;N:60:12	-8.00525
;N:40:12	-8.00531
;w:24;N:62:24	-8.00551
;N:60:9	-8.00724
;N:65:8	-8.00921
;w:24;N:53:24	-8.00928
;N:66:8	-8.02011
;w:24;N:53:12	-8.02061
;N:45:6	-8.02072
;w:24;N:54:24	-8.02079
;w:24;N:60:24	-8.0211
30;w:3	-8.02298
;N:47:24	-8.02536
;w:12;N:71:6	-8.02862
;N:60:4	-8.02936
;N:58:4	-8.03212
;N:66:3	-8.03375
;w:12;N:46:6	-8.03497
;w:24;N:57:12	-8.03545
;N:33:	-8.03658
;w:24;N:55:12	-8.03692
;N:67:8	-8.0389
;w:24;N:51:24	-8.03893
;N:46:24	-8.04165
;w:12;N:62:24	-8.04211
;w:12;N:47:6	-8.04389
;N:57:4	-8.04622
;N:76:24	-8.04855
;w:24;N:61:24	-8.05124
;N:64:3	-8.0521
;w:12;N:61:24	-8.05389
;w:6;N:62:6	-8.05441
;w:6;N:61:6	-8.05492
;w:12;N:60:24	-8.05835
;w:12;N:63:24	-8.05925
;N:65:3	-8.0599
;w:11	-8.06113
;w:24;N:71:12	-8.06236
;N:74:4	-8.06246
;w:6;N:58:6	-8.06445
4;w:6	-8.06647
;w:12;N:64:24	-8.06892
;w:6;N:56:6	-8.06915
;w:24;N:54:12	-8.07057
;w:24;N:52:24	-8.07163
;N:81:6	-8.07307
;N:68:8	-8.0771
;N:72:9	-8.0779
;w:12;N:72:6	-8.07896
;w:6;N:60:6	-8.07964
;w:12;N:45:6	-8.07983
;w:12;N:73:6	-8.08211
;N:44:24	-8.08333
;w:12;N:59:24	-8.08381
;N:71:9	-8.08473
;w:6;N:57:6	-8.08481
;N:60:8	-8.08516
32	-8.08619
;w:6;N:55:6	-8.08721
;w:24;N:51:12	-8.08766
;N:63:3	-8.08905
;N:77:24	-8.08949
;w:13	-8.0895
;N:44:6	-8.09069
;w:6;N:66:6	-8.09087
;N:58:9	-8.09132
;N:96:	-8.0931
;w:12;N:65:24	-8.10113
;N:56:4	-8.10469
;N:63:8	-8.10478
;w:12;N:58:24	-8.10992
;w:12;N:57:24	-8.11116
2;w:3	-8.11265
;N:67:3	-8.11471
;N:73:9	-8.11623
;w:24;N:50:12	-8.11781
;D:70	-8.11791
;N:62:8	-8.11809
;w:12;N:44:6	-8.12206
;N:64:8	-8.12282
;D:53	-8.12772
;N:71:3	-8.12837
;w:6;N:63:6	-8.12903
;N:43:24	-8.13085
2;w:4	-8.13246
;N:59:8	-8.1328
;N:39:12	-8.13334
;N:43:6	-8.13404
;N:78:24	-8.13568
32;w:3	-8.13678
;N:57:9	-8.13691
;N:32:	-8.13721
;w:12;N:66:24	-8.13752
;N:59:4	-8.13863
;w:6;N:51:6	-8.1432
;w:24;N:63:24	-8.1449
;w:24;N:56:12	-8.14543
;N:69:8	-8.15048
;w:6;N:59:6	-8.15181
;N:83:12	-8.15308
;N:69:3	-8.15308
;N:71:8	-8.15429
;N:61:3	-8.15478
;w:24;N:72:12	-8.15797
;N:82:6	-8.15918
;w:6;N:52:6	-8.15946
;w:12;N:36:12	-8.16058
;w:6;N:53:6	-8.16077
;N:85:12	-8.16182
;N:60:3	-8.16278
;D:76	-8.16305
;N:70:8	-8.16449
;N:62:3	-8.16645
;w:6;D:36	-8.16712
;N:61:8	-8.1722
;D:42	-8.17264
;w:24;N:49:12	-8.17582
;w:12;N:43:6	-8.17591
;N:74:9	-8.17769
;N:31:	-8.1782
;N:70:3	-8.1862
;w:6;N:65:6	-8.18661
;N:74:3	-8.18795
;w:6;N:64:6	-8.18956
;w:24;N:73:12	-8.19043
;w:12;N:35:12	-8.19051
;w:12;N:77:12	-8.19419
;N:55:4	-8.19482
;w:12;N:55:24	-8.19592
;N:59:3	-8.19694
;w:12;N:56:24	-8.19802
;N:30:	-8.20222
;N:42:6	-8.20349
;N:75:4	-8.20701
23	-8.20718
;N:71:12;w:12	-8.21163
;w:12;N:76:12	-8.21202
;N:28:	-8.21288
;N:38:12	-8.21343
;N:97:	-8.22145
;w:24;N:49:24	-8.22267
;w:12;N:67:24	-8.22312
;w:24;N:50:24	-8.22449
;w:24;N:48:24	-8.23107
;D:69	-8.23278
;w:6;N:67:6	-8.23391
;N:58:8	-8.23738
;w:24;N:64:24	-8.23875
;N:72:3	-8.24217
;w:24;N:48:12	-8.24611
;w:6;N:54:6	-8.25029
72;w:7	-8.25239
;N:75:3	-8.25253
;w:24;N:72:	-8.2538
;w:6;N:44:6	-8.25429
;w:24;N:47:12	-8.25691
;N:75:9	-8.25815
42;w:4	-8.25816
;N:84:12	-8.25922
;N:42:24	-8.25999
;w:12;N:41:6	-8.26499
;N:57:3	-8.26637
;w:12;N:54:24	-8.26893
;w:24;N:73:	-8.27154
;N:73:3	-8.27289
;N:84:6	-8.27345
;D:47	-8.27491
;w:12;N:69:24	-8.27668
;w:12;N:42:6	-8.27689
;N:76:4	-8.2796
;D:50	-8.28287
;N:72:8	-8.28409
;w:12;N:34:12	-8.2863
;w:24;N:78:	-8.28633
;N:56:9	-8.28642
;w:6;N:49:6	-8.29061
;w:24;N:74:12	-8.29165
;N:79:4	-8.292
;w:24;N:65:24	-8.29397
;w:12;N:74:6	-8.29452
;N:57:8	-8.29585
;N:54:4	-8.29611
;N:79:24	-8.29981
;w:12;D:38	-8.30085
;w:6;D:38;D:42	-8.30128
;D:52	-8.30215
;N:41:6	-8.30285
;w:24;N:47:24	-8.30609
;N:77:4	-8.30807
;N:76:9	-8.30875
;w:6;N:48:6	-8.30953
;w:12;N:68:24	-8.31134
;N:41:24	-8.31292
;w:6;N:42:6	-8.31554
;w:12;N:75:6	-8.31787
;N:76:3	-8.32694
;N:67:12;w:12	-8.32782
;N:74:12;w:12	-8.32801
;w:6;N:41:6	-8.33082
;N:29:	-8.33434
;N:58:3	-8.33858
;N:40:6	-8.33927
;w:12;N:70:24	-8.34178
;N:66:18	-8.34248
;N:73:8	-8.34304
;N:79:3	-8.3432
;w:12;N:78:12	-8.34708
;D:56	-8.34764
;N:83:6	-8.34783
30	-8.34793
;N:54:9	-8.34866
;w:12;N:53:24	-8.34884
;w:12;N:78:	-8.3494
;w:6;N:68:6	-8.35396
;w:12;D:42	-8.3552
;N:56:8	-8.3559
;w:24;N:66:24	-8.35835
;D:38	-8.35882
;w:12;N:39:6	-8.36122
19	-8.36211
;w:24;N:76:	-8.36446
;w:6;N:50:6	-8.36529
;w:6;D:42	-8.36815
78	-8.36897
;w:24;N:45:12	-8.37297
;w:6;N:47:6	-8.37358
;w:12;N:52:24	-8.3746
39	-8.37473
;w:12;N:71:24	-8.37909
;w:12;D:38;D:42	-8.37996
;N:37:12	-8.38005
3;w:4	-8.38061
;w:6;N:71:6	-8.38312
;N:40:24	-8.38396
75	-8.38473
;N:55:9	-8.38489
;N:77:9	-8.38727
;w:6;N:43:6	-8.3886
;N:66:12;w:12	-8.39253
;N:43:3	-8.39765
;w:24;N:46:12	-8.39844
;N:77:3	-8.39854
;w:12;N:79:	-8.40027
33;w:3	-8.40029
;N:52:4	-8.40144
;w:24;N:75:12	-8.40258
;w:12;N:80:	-8.40266
;N:55:8	-8.40322
;w:24;N:79:	-8.40323
;w:24;N:71:	-8.40389
;N:85:6	-8.40793
;w:24;N:68:	-8.40836
;w:6;N:46:6	-8.40852
;w:12;N:81:	-8.40943
;w:24;N:70:	-8.41292
;N:53:8	-8.41427
;w:24;N:46:24	-8.41499
;D:36;D:38	-8.41686
;N:74:8	-8.41788
;N:53:4	-8.41904
;D:73	-8.42117
;w:12;N:40:6	-8.42136
;N:53:9	-8.42455
6;w:9	-8.42665
;w:6;N:69:6	-8.42681
;w:12;N:77:	-8.42752
;N:51:4	-8.42755
;N:78:9	-8.42775
;N:36:12	-8.43011
;w:24;N:67:24	-8.43133
;N:78:3	-8.43238
;N:81:3	-8.43271
;w:24;N:80:	-8.4329
;N:80:3	-8.43296
;w:6;D:42;w:6;D:42	-8.43407
;N:86:12	-8.43506
;w:24;N:69:	-8.43779
;w:12;N:82:	-8.43917
;N:80:24	-8.44058
;N:27:	-8.44127
;w:12;N:79:12	-8.44131
;w:12;N:75:	-8.44286
;w:6;N:45:6	-8.44298
;N:78:4	-8.44457
;N:80:9	-8.44711
;N:75:8	-8.44835
;w:24;N:74:	-8.44919
;w:24;N:77:	-8.4493
;w:24;N:75:	-8.45173
;w:12;N:51:24	-8.4525
;N:52:9	-8.45329
;N:98:	-8.45391
;w:24;N:67:	-8.45512
;N:65:18	-8.45863
;w:6;N:64:6;w:6	-8.46235
;N:64:18	-8.46322
;N:45:3	-8.46331
;w:6;D:36;D:38;D:42	-8.46337
27;w:3	-8.46464
;w:24;N:42:12	-8.47223
;N:68:15	-8.47376
;N:62:18	-8.47694
;N:39:6	-8.47802
;w:6;N:70:6	-8.47819
;N:63:18	-8.47856
;N:50:4	-8.47948
;w:12;N:74:	-8.48041
;w:6;D:36;D:42	-8.48044
;N:77:12;w:12	-8.48258
;w:6;N:66:6;w:6	-8.48525
;w:12;N:76:	-8.48652
28;w:3	-8.48679
;w:24;N:45:24	-8.48737
;w:24;N:43:12	-8.48771
;D:48	-8.48819
;N:55:3	-8.49085
;N:39:24	-8.491
;N:61:18	-8.49134
;w:6;N:40:6	-8.4921
;w:24;N:68:24	-8.49543
;w:12;N:72:24	-8.49558
;N:82:3	-8.4958
;w:24;N:66:	-8.49593
;D:45	-8.49634
;N:54:8	-8.49641
;N:67:18	-8.50154
;w:24;N:36:	-8.50201
;w:6;N:63:6;w:6	-8.50326
;w:12;N:73:	-8.5053
;w:12;D:36	-8.50587
;N:76:12;w:12	-8.50694
;N:56:3	-8.50867
;N:67:15	-8.50881
;D:36;D:42;D:49	-8.50944
;w:12;N:50:24	-8.51122
;N:70:15	-8.51151
;N:87:12	-8.51206
;w:24;N:41:12	-8.51428
;D:36;D:51	-8.5173
;w:12;N:33:12	-8.5179
;w:24;N:44:12	-8.51911
;N:65:15	-8.52002
;w:6;N:65:6;w:6	-8.52292
;w:12;N:73:24	-8.52386
6;w:3	-8.52422
;w:24;N:76:12	-8.52497
21;w:2	-8.52799
;N:50:9	-8.52819
;N:51:9	-8.52838
;N:64:15	-8.53053
;w:12;N:59:9	-8.53298
;N:49:9	-8.53395
;N:44:3	-8.53735
;N:65:12;w:12	-8.5377
;N:81:4	-8.54271
;w:12;N:60:9	-8.54325
;N:79:9	-8.54763
;w:24;N:83:	-8.54873
;N:66:15	-8.54932
;w:6;N:67:6;w:6	-8.55237
;N:38:6	-8.55417
;D:43	-8.55524
;N:68:18	-8.55733
;N:48:3	-8.55737
;w:24;N:64:	-8.55744
;w:6;D:36;D:38	-8.55773
;w:6;N:60:6;w:6	-8.55853
;w:24;N:82:	-8.56015
;N:79:8	-8.56134
;w:24;N:65:	-8.5615
;w:24;N:63:	-8.56297
;N:99:	-8.5633
;w:6;N:68:6;w:6	-8.56413
;w:6;N:72:6	-8.56676
;w:24;N:39:12	-8.56791
;w:24;N:40:12	-8.56937
;w:24;N:61:	-8.57025
;w:12;N:58:9	-8.57139
;w:24;N:62:	-8.57226
;N:52:8	-8.57306
;N:60:18	-8.57688
;N:69:15	-8.58058
;w:6;N:62:6;w:6	-8.58513
;N:64:12;w:12	-8.58679
;w:6;N:58:3	-8.58681
;w:24;D:38	-8.59042
;w:6;N:62:3	-8.59092
;w:6;N:59:6;w:6	-8.59284
;N:71:15	-8.59314
;N:81:9	-8.59434
20;w:2	-8.59503
;w:6;N:58:6;w:6	-8.59799
;w:24;N:35:	-8.59882
1;w:3	-8.59884
;w:6;N:61:6;w:6	-8.599
;N:86:6	-8.59904
;w:12;D:46	-8.59911
;N:35:12	-8.59922
;N:65:48	-8.60096
;N:40:3	-8.60126
0;w:1	-8.60276
;w:24;N:69:24	-8.60331
;N:78:8	-8.60624
;N:64:48	-8.60877
;N:101:	-8.60942
;N:48:4	-8.60962
;w:12;N:38:6	-8.6101
;N:80:4	-8.6104
;N:63:15	-8.61049
;N:49:4	-8.61063
;w:12;N:76:6	-8.61093
;N:70:18	-8.61218
;N:43:4	-8.61303
;D:36;D:46	-8.61347
;w:12;N:57:9	-8.6147
;N:87:6	-8.61774
;N:63:48	-8.61917
;w:12;N:72:	-8.61919
;N:48:9	-8.61995
;w:12;N:56:9	-8.62004
;N:46:3	-8.62098
;N:47:9	-8.62248
;N:	-8.62322
;N:62:48	-8.62334
;w:24;N:81:	-8.62417
;N:84:3	-8.62448
;w:12;N:49:24	-8.62507
;N:51:8	-8.62715
;N:61:15	-8.62767
;w:12;N:32:12	-8.62785
;N:82:4	-8.62852
;w:12;N:71:	-8.62924
132	-8.62976
;N:36:6	-8.63099
;N:66:48	-8.63148
;N:81:24	-8.63266
0;w:4	-8.63292
;N:59:48	-8.63345
;w:24;N:60:	-8.63354
;N:38:24	-8.63407
;N:60:48	-8.63417
;w:6;N:57:6;w:6	-8.63506
;N:69:18	-8.63609
;w:24;N:44:24	-8.63618
;N:59:18	-8.63635
;w:24;N:59:	-8.63689
;N:42:3	-8.63808
;N:62:15	-8.64119
;N:26:	-8.64149
;w:24;N:71:24	-8.64218
;N:76:8	-8.64244
;w:24;N:70:24	-8.64255
;N:61:48	-8.64457
;D:36;D:42;w:12;D:42	-8.64603
;w:12;N:37:6	-8.64711
;w:12;N:80:12	-8.64759
;w:24;N:77:12	-8.64984
;w:6;N:70:6;w:6	-8.65124
;N:72:15	-8.65143
;N:60:15	-8.65199
;w:24;N:38:	-8.65255
;w:12;N:48:24	-8.65383
;N:45:4	-8.65411
;N:89:12	-8.66314
;w:12;D:36;D:42	-8.66391
;N:100:	-8.66564
;N:37:6	-8.66671
;N:67:48	-8.66807
;N:34:12	-8.67504
;N:54:3	-8.67513
;w:6;N:73:6	-8.67791
;N:90:12	-8.67957
;w:12;N:74:24	-8.68026
;w:6;N:56:6;w:6	-8.68345
;N:83:3	-8.68446
;N:83:4	-8.68486
;N:52:3	-8.6859
;N:69:6;w:6	-8.68591
;N:80:8	-8.68802
;w:12;N:77:6	-8.68897
;N:77:8	-8.68928
;N:50:8	-8.68965
;N:88:12	-8.69044
;N:49:3	-8.69075
;w:12;N:55:9	-8.69076
;N:70:6;w:6	-8.69278
;w:24;N:38:12	-8.69278
;w:24;N:62:6	-8.69491
;w:24;N:60:6	-8.69627
;w:24;N:85:	-8.6967
;w:12;N:83:	-8.69698
;N:46:4	-8.69733
;N:71:18	-8.69764
;w:24;N:61:6	-8.69792
;N:38:3	-8.69999
;w:6;N:69:6;w:6	-8.70759
;w:24;N:63:6	-8.70776
;N:44:4	-8.71233
;N:68:48	-8.71259
;N:58:18	-8.7145
;w:12;N:69:	-8.71704
;w:24;N:43:24	-8.71718
;N:76:6;w:6	-8.71818
;N:45:9	-8.7186
;w:24;N:58:	-8.7188
;w:12;N:47:24	-8.72011
;w:24;N:32:	-8.72126
;N:37:24	-8.72202
;w:24;N:84:	-8.7225
;w:12;N:54:9	-8.72361
;w:24;N:34:	-8.72459
;w:24;N:59:6	-8.72782
;w:24;N:64:6	-8.73041
;N:73:6;w:6	-8.7315
;w:24;N:58:6	-8.73251
;N:58:48	-8.73356
;w:12;N:61:9	-8.73501
;N:75:6;w:6	-8.73612
;N:51:3	-8.73705
;N:53:3	-8.73728
;N:73:15	-8.73886
;w:24;N:42:24	-8.73919
;N:64:21	-8.74053
;w:12;N:70:	-8.74158
;N:41:3	-8.74297
;w:12;N:84:	-8.74298
;N:65:21	-8.74393
;N:72:18	-8.74474
;N:59:15	-8.74686
;N:102:	-8.74868
;w:12;D:36;D:38	-8.75035
;N:49:8	-8.75066
;w:24;N:65:6	-8.75107
;N:48:8	-8.75445
;N:39:3	-8.75458
;w:6;D:38;D:46	-8.75601
;N:23:	-8.75607
;w:6;N:59:3	-8.7564
;w:12;N:75:24	-8.75785
;w:12;N:36:6	-8.75923
;N:62:12;w:12	-8.76003
;w:12;N:62:9	-8.76079
;w:6;N:74:6	-8.76285
;N:46:9	-8.76341
;N:69:48	-8.76392
;N:82:9	-8.76404
;w:24;N:51:	-8.76693
;w:24;N:66:6	-8.76694
;w:6;N:39:6	-8.76779
;w:24;N:50:	-8.76853
;N:63:21	-8.76863
;N:68:6;w:6	-8.76879
;w:24;N:57:	-8.76965
96	-8.76972
;N:89:6	-8.77351
;N:57:18	-8.77565
;w:12;N:53:9	-8.7772
;w:12;N:31:12	-8.77838
;N:62:21	-8.77845
;w:6;N:72:6;w:6	-8.77911
;w:24;N:36:12	-8.7792
;w:12;N:68:	-8.78109
;N:67:21	-8.78321
;w:12;N:52:9	-8.78427
;N:68:21	-8.78509
;N:36:24	-8.78564
;w:24;N:57:6	-8.78578
;w:24;N:37:12	-8.786
;N:57:48	-8.78702
;w:24;N:31:	-8.78704
;w:24;D:36	-8.78776
;w:24;N:29:	-8.78841
;N:66:21	-8.7904
;N:37:3	-8.7917
;w:24;N:78:12	-8.79192
;N:67:6;w:6	-8.792
;w:24;N:33:	-8.79274
;N:47:3	-8.79349
;w:12;N:63:9	-8.79596
7;w:4	-8.79602
;N:43:9	-8.79675
;w:6;N:71:6;w:6	-8.79732
;N:38:9	-8.79891
;N:73:18	-8.79968
;w:24;N:30:	-8.80277
;N:74:6;w:6	-8.80526
;w:18;N:58:6	-8.80545
;w:18;N:57:6	-8.80608
;N:35:6	-8.80648
56	-8.8095
;N:58:15	-8.81155
;N:47:8	-8.81184
;w:24;N:43:	-8.81213
;N:69:21	-8.81398
;N:42:4	-8.81514
40;w:4	-8.81643
;w:6;N:55:6;w:6	-8.81798
;w:24;N:67:6	-8.81893
;w:6;D:46	-8.8192
;w:12;N:35:6	-8.81989
9;w:3	-8.81998
;N:50:3	-8.82263
;w:24;N:72:24	-8.82394
;w:12;N:67:	-8.8279
;N:70:48	-8.82944
;w:24;N:68:6	-8.83045
;w:24;N:56:	-8.83066
39;w:4	-8.83177
;w:24;N:56:6	-8.83704
;w:12;N:46:24	-8.83714
;w:24;N:73:24	-8.83833
;N:56:48	-8.84
;N:72:6;w:6	-8.84008
;w:24;N:55:	-8.8412
;w:24;N:42:	-8.84341
;w:12;D:36;D:46	-8.84406
;w:6;D:38;w:6;D:38	-8.84585
;N:25:	-8.8464
3;w:9	-8.84673
;w:24;N:41:24	-8.84967
;w:12;D:37	-8.85028
;w:12;N:66:	-8.85034
;w:24;N:48:	-8.85319
;N:83:9	-8.85386
;w:24;N:49:	-8.8541
;N:82:24	-8.85443
;w:18;N:56:6	-8.85482
;w:24;N:54:	-8.85562
;w:18;N:62:6	-8.85704
2;w:8	-8.85721
;w:12;N:64:9	-8.85776
;w:24;N:44:	-8.86
;N:66:6;w:6	-8.86004
;w:24;N:55:6	-8.86005
5;w:9	-8.86209
;N:41:4	-8.86218
;N:77:6;w:6	-8.86341
;N:65:5	-8.86418
;N:40:4	-8.86619
;w:18;N:61:6	-8.86636
;w:48;N:60:	-8.86878
;w:48;N:61:	-8.87054
;w:12;N:51:9	-8.87064
;N:70:21	-8.87072
;N:84:4	-8.87154
;w:12;N:81:12	-8.8719
;N:88:6	-8.87304
;N:47:4	-8.87393
;N:35:24	-8.8742
;D:41	-8.87487
;N:68:5	-8.87532
;w:24;N:35:12	-8.8757
;w:24;N:47:	-8.87573
;w:18;N:55:6	-8.87586
;N:52:48	-8.87831
;N:74:15	-8.8787
;w:12;D:38;D:46	-8.87916
;w:12;N:45:24	-8.88003
;N:75:18	-8.88177
;N:53:48	-8.88218
;w:24;N:52:	-8.88263
;w:12;N:59:4	-8.88268
;N:71:6;w:6	-8.88329
;N:85:3	-8.88396
;N:44:9	-8.88498
;w:12;N:50:9	-8.8868
;w:24;N:45:	-8.88706
;w:3;N:	-8.88895
;N:57:15	-8.88903
;N:64:5	-8.89112
;N:63:36	-8.89136
;w:48;N:63:	-8.89229
;N:64:36	-8.8931
;N:91:12	-8.89437
;N:46:8	-8.89454
45;w:4	-8.89508
;N:75:15	-8.89525
;w:12;N:65:9	-8.89591
24;w:24;N:73:24	-8.89627
18;w:1	-8.8998
;w:18;N:64:6	-8.90156
;w:6;N:55:3	-8.90283
;N:62:36	-8.90572
;w:18;N:63:6	-8.90597
13;w:1	-8.90693
;w:18;N:60:6	-8.90797
;w:24;N:54:6	-8.90835
;w:48;N:62:	-8.90991
;w:12;N:58:4	-8.91157
;w:24;N:46:	-8.91181
;N:83:24	-8.91194
;N:54:48	-8.91194
;N:66:5	-8.91248
;N:67:5	-8.913
;N:42:9	-8.9133
;w:12;N:65:	-8.91331
;N:65:6;w:6	-8.91595
24;w:24;N:72:24	-8.91866
;w:6;N:60:3	-8.91987
;w:24;N:53:	-8.92203
;w:24;N:86:	-8.92208
;w:12;N:86:	-8.92211
;N:39:4	-8.92247
;w:48;N:59:	-8.92357
;N:33:12	-8.92598
;w:24;N:40:24	-8.92642
;w:24;N:69:6	-8.9279
;w:12;N:55:4	-8.92871
24;w:3	-8.93048
;N:55:48	-8.93055
;N:61:21	-8.93236
;w:12;N:30:12	-8.93295
;N:69:5	-8.9331
;w:24;D:42	-8.93375
;w:12;N:56:4	-8.9338
;N:71:48	-8.93445
;N:32:12	-8.93473
;w:24;N:87:	-8.93489
;N:55:15	-8.93492
;w:12;N:85:	-8.93557
;w:6;N:54:12	-8.93572
;N:67:16	-8.93595
;N:61:36	-8.93644
;N:41:9	-8.93656
;N:56:15	-8.93657
;w:48;N:58:	-8.93693
;w:18;N:65:6	-8.93807
;N:66:16	-8.93846
;N:56:18	-8.9399
;N:66:36	-8.94026
;N:65:36	-8.94086
;N:71:21	-8.94145
;N:59:5	-8.94382
;D:39	-8.9456
;N:63:5	-8.94729
52	-8.94813
;w:48;N:65:	-8.94893
;w:18;N:54:6	-8.95013
;w:48;N:57:	-8.95026
;w:24;N:28:	-8.95086
;N:65:16	-8.951
;N:69:16	-8.95152
;w:12;N:54:4	-8.95184
24;w:24;N:75:24	-8.95307
;N:81:8	-8.95349
;w:12;N:44:24	-8.95761
;w:12;N:64:	-8.95863
;N:45:8	-8.96043
;N:72:5	-8.96048
;w:12;N:63:	-8.96164
3;w:1	-8.96187
;N:90:6	-8.96237
;w:12;N:48:9	-8.96257
;w:12;N:66:9	-8.96397
;N:86:3	-8.96399
;w:24;N:70:6	-8.96449
;N:64:16	-8.96454
;w:18;N:59:6	-8.9658
;w:24;N:39:	-8.96588
;w:12;D:36;D:38;D:42	-8.96636
;w:6;N:75:6	-8.96723
;N:87:3	-8.96775
;w:12;N:88:	-8.97059
;w:6;N:73:6;w:6	-8.97066
;w:12;N:78:6	-8.97214
;N:24:	-8.97551
9;w:1	-8.97797
;w:12;N:61:4	-8.97875
;D:38;D:42	-8.97961
;N:51:48	-8.98007
;N:68:16	-8.98124
;w:12;N:57:4	-8.98173
24;w:24;N:74:24	-8.98182
;w:18;N:67:6	-8.98349
;N:36:3	-8.98354
;N:49:48	-8.98372
;N:50:48	-8.98553
;N:74:18	-8.98571
;w:18;N:66:6	-8.98575
;w:24;N:34:12	-8.98605
;N:84:9	-8.9862
;N:34:6	-8.98645
;w:48;N:64:	-8.98645
;N:48:48	-8.98673
;w:6;D:42;w:6;D:46	-8.98712
;w:6;N:51:12	-8.98918
;w:6;N:56:3	-8.9897
;N:62:5	-8.99021
;w:6;N:55:12	-8.99089
;w:12;N:87:	-8.99261
;N:60:21	-8.99305
;D:36;D:38;D:49	-8.99339
24;w:24;N:77:24	-8.99466
;w:24;N:79:12	-8.99663
;w:12;N:62:	-8.9971
;D:48;D:50	-8.99743
;D:36;D:38;D:42	-8.99759
;N:60:36	-8.99826
;w:12;N:76:24	-8.99941
;w:6;N:52:12	-9.0005
;N:70:5	-9.00153
24;w:24;N:76:24	-9.00189
;w:48;N:56:	-9.00195
;N:11	-9.00293
;w:6;N:51:3	-9.00308
;N:47:48	-9.0037
;w:12;N:60:4	-9.00385
;N:67:36	-9.0039
;w:12;N:89:	-9.00421
;N:36:9	-9.00572
;w:6;N:57:3	-9.00605
;w:6;D:37	-9.00622
;N:78:6;w:6	-9.0065
;w:6;N:54:6;w:6	-9.00694
;w:6;N:61:3	-9.00889
;N:37:9	-9.00912
;w:12;N:60:8	-9.00974
;N:72:48	-9.01068
;N:63:16	-9.01111
;w:6;N:59:12	-9.01151
;w:6;N:76:6	-9.01164
;N:55:18	-9.01257
;w:24;N:53:6	-9.0143
;w:12;N:43:24	-9.01555
;w:6;D:42;w:6;D:36;D:42	-9.01586
;w:12;N:82:12	-9.01697
;w:6;N:74:6;w:6	-9.01708
;N:31:12	-9.01802
;w:12;N:62:4	-9.01845
;w:6;N:53:6;w:6	-9.0214
;N:64:6;w:6	-9.02145
5:8;w:8	-9.02185
;w:12;N:63:4	-9.02315
24;w:24;N:71:24	-9.02399
;w:6;D:36;w:6;D:36	-9.02484
;w:12;D:37;D:42	-9.02592
;N:85:4	-9.02626
;w:6;N:53:12	-9.0265
;w:18;N:68:6	-9.02724
;w:12;N:61:	-9.02746
;w:6;N:52:6;w:6	-9.02767
;N:61:5	-9.02773
;N:53:15	-9.02812
6:8;w:8	-9.02867
;N:60:5	-9.02901
;w:12;N:49:9	-9.02929
;w:6;N:52:3	-9.02989
;D:51;D:54	-9.03008
;N:78:18	-9.03396
102	-9.03675
;w:12;N:91:	-9.03687
;w:12;N:67:9	-9.03764
;N:35:3	-9.04196
;w:12;N:79:6	-9.04274
;w:12;N:59:8	-9.04276
;N:76:15	-9.04299
;N:83:12;w:12	-9.04318
;w:18;N:53:6	-9.04514
;N:43:8	-9.04678
;w:48;N:66:	-9.04854
36;w:3	-9.04881
;w:48;N:54:	-9.05024
;w:6;N:75:6;w:6	-9.0504
;N:76:18	-9.05102
;w:48;N:55:	-9.05124
;w:12;N:60:	-9.0517
;N:77:18	-9.05246
;w:12;N:83:12	-9.05266
;w:24;N:52:6	-9.05351
;N:44:8	-9.05435
;N:58:5	-9.05554
;w:12;N:59:3	-9.05558
;N:84:24	-9.0569
24;w:24;N:78:24	-9.05708
;w:6;D:36;D:46	-9.05725
;N:71:16	-9.0582
;w:12;N:65:4	-9.0584
;w:6;N:58:12	-9.05923
;N:103:	-9.05927
;w:12;N:58:3	-9.0599
27;w:2	-9.06062
;w:12;N:60:3	-9.06063
;N:54:15	-9.06083
;N:72:21	-9.06122
3:8;w:8	-9.06128
;N:33:6	-9.06145
;w:12;N:54:3	-9.06147
;N:79:6;w:6	-9.06168
;N:73:21	-9.0652
;w:6;N:38:6	-9.0653
;w:24;N:27:	-9.06679
;w:6;N:56:12	-9.06753
;w:18;N:69:6	-9.0692
;w:12;N:34:6	-9.06979
;N:46:48	-9.07146
;N:34:24	-9.07202
;w:12;N:64:4	-9.07264
;w:6;N:60:12	-9.07355
;w:12;N:56:8	-9.0741
24;w:24;N:70:24	-9.07436
0;w:2	-9.07591
;w:18;N:52:6	-9.0766
;N:74:21	-9.0784
;N:82:8	-9.07872
;w:12;N:29:12	-9.07878
;w:24;N:74:24	-9.07882
;N:67:8;w:8	-9.0797
;N:59:36	-9.08031
;N:72:16	-9.08062
;N:68:36	-9.08178
;N:69:36	-9.08195
;N:80:6;w:6	-9.08251
5;w:1	-9.08314
;N:85:24	-9.08348
;N:64:8;w:8	-9.08403
;w:12;N:54:8	-9.08425
;w:18;N:62:	-9.08569
;w:12;N:57:8	-9.08582
;N:66:8;w:8	-9.08657
;w:12;N:58:8	-9.08727
;w:12;N:53:3	-9.08804
;N:22:	-9.08832
;w:48;N:67:	-9.08955
;N:59:21	-9.08977
;w:18;N:64:	-9.0917
;N:73:5	-9.09288
;w:12;N:55:8	-9.0932
11;w:11	-9.09344
;w:6;D:42;w:6;D:42;w:6;D:42	-9.09375
;w:6;N:53:3	-9.0943
;N:70:16	-9.09467
;N:40:9	-9.09551
;N:74:16	-9.09611
;w:24;N:71:6	-9.09615
;w:6;N:57:12	-9.09651
;D:54;D:69	-9.0978
;w:6;N:50:3	-9.09899
;w:6;N:77:6	-9.10006
;N:68:8;w:8	-9.10083
84	-9.10141
;w:18;N:63:	-9.10193
;w:12;N:52:4	-9.10202
;N:71:5	-9.10249
;N:42:8	-9.10267
;N:1	-9.10287
;N:54:18	-9.10288
;N:37:4	-9.10296
;w:12;N:90:	-9.10349
;w:12;N:77:24	-9.1043
;w:12;N:68:9	-9.10478
;N:69:8;w:8	-9.10502
;w:12;N:53:8	-9.10523
;w:24;N:75:24	-9.10607
;N:66:20	-9.10695
;w:18;N:66:	-9.10697
;w:12;N:45:	-9.10743
;N:73:48	-9.10746
;w:6;N:50:12	-9.10757
;N:39:9	-9.10894
;D:51;D:53	-9.10923
;w:6;N:61:12	-9.11238
;w:12;N:47:9	-9.11405
;w:12;N:42:24	-9.11574
;D:51;D:69	-9.11639
;N:77:15	-9.11652
;N:85:9	-9.11751
;w:12;N:51:4	-9.11767
;N:63:6;w:6	-9.11823
;w:24;N:51:6	-9.11827
;w:6;N:63:12	-9.11882
;w:6;N:77:6;w:6	-9.11908
;w:6;N:67:3	-9.12026
;w:6;D:45	-9.12105
;N:61:16	-9.12181
;w:12;N:67:4	-9.12319
;N:34:3	-9.12371
;w:24;N:39:24	-9.12411
;w:12;N:52:3	-9.12485
;w:24;N:33:12	-9.12486
;N:104:	-9.12492
;w:12;N:61:3	-9.12494
;w:12;N:59:	-9.12637
24;w:24;N:79:24	-9.12711
;w:3;D:38	-9.12738
;N:52:15	-9.12785
;N:62:16	-9.12858
;N:63:8;w:8	-9.12954
;N:57:5	-9.13006
;w:18;N:61:	-9.13108
;D:53;D:54	-9.13166
;w:12;N:50:4	-9.1318
;N:58:36	-9.13396
;N:45:48	-9.13457
;w:12;N:33:6	-9.13457
;D:36;D:42;D:51	-9.13701
;w:12;N:57:3	-9.13748
;w:6;N:51:6;w:6	-9.13796
;w:24;N:80:12	-9.1386
;N:58:21	-9.14045
;w:6;N:62:12	-9.14271
;w:48;N:68:	-9.14281
;w:6;N:47:12	-9.1439
;w:18;N:70:6	-9.14438
;w:6;D:37;D:42	-9.14522
;w:12;N:68:3	-9.14524
;N:62:6;w:6	-9.14538
;w:6;N:49:12	-9.14545
;D:37	-9.14622
;N:68:0	-9.1475
;N:105:	-9.14768
;w:12;N:52:8	-9.14882
;w:12;N:52:	-9.14929
4:8;w:8	-9.14964
;N:69:0	-9.14977
;N:55:36	-9.15035
;w:12;N:63:3	-9.15037
;N:65:20	-9.15061
;w:12;N:62:3	-9.15115
;N:59:12;w:12	-9.1513
6;w:6;N:80:6	-9.15181
;N:92:12	-9.15252
;N:70:36	-9.15263
;N:52:18	-9.15453
;w:6;D:42;w:6;D:38;D:42	-9.15468
;w:12;N:51:	-9.15653
;N:56:5	-9.15671
;N:35:9	-9.1582
;w:24;N:50:6	-9.15865
;w:12;N:50:3	-9.15923
;N:62:8;w:8	-9.15994
;D:38;D:49	-9.16013
;w:24;N:88:	-9.16016
;w:6;N:54:3	-9.16104
;N:106:	-9.16268
;w:12;N:68:4	-9.16348
2:8;w:8	-9.16382
;N:60:16	-9.16522
;N:70:8;w:8	-9.16564
;w:8;N:67:	-9.16616
;w:18;N:59:	-9.16627
;w:48;N:53:	-9.16673
;w:6;N:48:12	-9.16681
;w:36;N:65:12	-9.16754
;w:24;N:41:	-9.16777
;w:18;N:60:	-9.1678
;w:12;N:56:3	-9.16803
;N:65:8;w:8	-9.16898
;w:36;N:64:12	-9.16969
;w:12;N:38:	-9.17042
;N:32:6	-9.17223
6;w:6;N:73:6;w:6	-9.1726
;N:57:21	-9.17484
;N:73:16	-9.17492
;N:56:36	-9.17532
;N:62:12;N:65:12	-9.17581
;w:12;N:43:	-9.17647
;w:36;N:63:12	-9.17647
;N:74:48	-9.17671
;w:36;N:67:12	-9.17714
;w:6;N:78:6;w:6	-9.17821
;N:78:15	-9.17916
;w:18;N:50:6	-9.17926
;w:36;N:62:12	-9.17968
;N:64:20	-9.18105
;w:36;N:68:12	-9.1811
;N:64:4;w:4	-9.18118
;w:12;N:41:	-9.18323
;w:6;D:48	-9.18448
;N:53:18	-9.18507
;w:8;N:66:	-9.18509
;w:48;N:69:	-9.18563
;N:56:21	-9.18613
;N:33:24	-9.18643
;N:61:12;N:64:12	-9.18643
;N:57:36	-9.18682
;w:12;N:40:	-9.18745
;D:48;D:69	-9.18815
;w:6;N:48:6;w:6	-9.18896
;N:44:48	-9.19033
12;w:12;N:84:12	-9.19127
;w:12;N:42:	-9.19169
;N:75:16	-9.19201
;w:12;N:41:24	-9.19215
;w:12;N:53:	-9.19243
;N:66:12;N:69:12	-9.19271
;w:12;N:55:3	-9.19404
;w:24;N:40:	-9.19526
;w:24;N:72:6	-9.19741
12;w:12;N:91:12	-9.19886
;N:67:20	-9.20102
;w:12;N:39:	-9.20108
;w:12;N:47:	-9.2014
;N:68:20	-9.20172
;w:6;N:45:12	-9.20279
;w:12;N:49:4	-9.20291
;N:59:16	-9.20362
;w:24;N:37:	-9.20393
;N:41:8	-9.20456
;w:18;N:58:	-9.20543
;w:12;N:64:3	-9.20545
;N:21:	-9.20547
;w:12;N:65:3	-9.20586
;N:63:20	-9.20673
;w:24;N:26:	-9.20701
;w:6;N:64:3	-9.20749
;N:84:12;w:12	-9.20759
;D:48;D:51	-9.20809
;N:74:5	-9.20892
;w:12;N:48:4	-9.2107
;N:88:3	-9.21091
;N:60:12;N:63:12	-9.21262
;N:65:12;N:68:12	-9.21315
;N:55:5	-9.21375
;N:62:20	-9.21508
;w:12;N:50:	-9.2152
6;w:6;N:75:6;w:6	-9.21558
;w:36;N:66:12	-9.21588
12;w:12;N:85:12	-9.21635
;w:6;N:58:6;w:6;N:58:6	-9.21655
;w:12;N:46:9	-9.2167
;w:36;N:60:12	-9.21797
;w:12;N:69:9	-9.21857
24;w:24;N:80:24	-9.21918
;N:61:6;w:6	-9.21956
;N:43:48	-9.21979
;N:69:20	-9.2202
;N:80:15	-9.22087
;w:18;D:36	-9.22143
;N:40:48	-9.22161
7:8;w:8	-9.22261
;w:12;N:67:3	-9.2231
;w:18;N:51:6	-9.22373
;w:12;N:37:	-9.22514
;w:48;N:52:	-9.22516
;w:18;N:65:	-9.22533
;N:81:15	-9.22806
;w:6;N:50:6;w:6	-9.22948
;N:91:6	-9.22961
;w:36;N:61:12	-9.23017
;w:12;N:46:	-9.23067
44	-9.23107
;w:24;N:38:24	-9.23168
;N:70:0	-9.23251
;w:12;N:53:4	-9.23284
;N:67:0	-9.23341
;w:18;N:57:	-9.23371
;w:12;N:57:	-9.23389
;w:12;N:47:4	-9.23415
;w:6;N:65:3	-9.23519
;w:6;N:46:12	-9.23656
8;w:4	-9.23813
;N:81:6;w:6	-9.23854
;w:6;N:63:3	-9.2386
;w:12;N:32:6	-9.23895
12;w:12;N:87:12	-9.23972
;w:48;N:70:	-9.24032
;w:18;N:71:6	-9.24098
;w:12;N:51:3	-9.24118
;w:12;N:80:6	-9.24209
;D:46;D:54	-9.24212
12;w:12;N:90:12	-9.24303
;N:33:3	-9.24545
;N:51:15	-9.247
;N:73:8;w:8	-9.24732
;w:12;N:49:	-9.24923
24;w:24;N:82:24	-9.24958
;N:75:48	-9.24973
;w:18;N:67:	-9.24997
;N:79:18	-9.2513
;D:69;w:6;D:69	-9.25154
;w:18;N:68:	-9.25195
;N:67:12;N:70:12	-9.25233
;w:6;N:76:6;w:6	-9.25245
;N:107:	-9.25299
;w:18;D:38	-9.25428
;N:63:12;N:66:12	-9.25466
;w:12;N:42:9	-9.25514
;w:12;N:36:	-9.25614
;w:24;D:37	-9.25876
;w:24;N:32:12	-9.25943
;N:64:12;N:67:12	-9.26008
;w:12;N:40:24	-9.2623
;N:71:0	-9.26313
48;w:4	-9.26352
;w:6;N:47:6;w:6	-9.26361
;w:36;N:69:12	-9.26517
;w:12;N:45:9	-9.26545
;w:12;N:44:	-9.26585
;w:12;N:45:3	-9.26698
;N:51:18	-9.26706
;w:48;N:51:	-9.26751
;w:12;N:58:	-9.26758
;w:12;N:66:4	-9.26842
;w:12;N:54:	-9.26884
;w:6;D:36;w:6;D:38	-9.26906
;D:54;w:6;D:42	-9.26915
;w:18;N:48:6	-9.27069
;N:65:0	-9.27079
;w:6;D:43	-9.27093
;N:59:12;N:62:12	-9.27151
;w:24;N:49:6	-9.2717
;N:78:0	-9.27225
;w:24;N:73:6	-9.27249
;w:18;N:49:6	-9.27269
;N:61:0	-9.27384
;w:18;N:56:	-9.2763
;N:31:6	-9.27639
;N:71:20	-9.27975
;w:6;N:44:12	-9.28007
;D:69;D:70	-9.2807
;w:12;N:92:	-9.28097
;w:24;N:48:6	-9.28097
;N:38:4	-9.28131
;w:12;N:55:	-9.28139
;w:12;N:48:	-9.2821
;D:54;D:70	-9.2826
;N:64:30	-9.28309
;w:12;N:78:24	-9.28341
;N:51:36	-9.28457
;N:52:36	-9.28466
;N:93:12	-9.28546
;w:12;N:43:9	-9.2858
;N:58:16	-9.28594
;N:71:36	-9.28672
;N:50:15	-9.28686
;N:20:	-9.28726
;w:36;N:70:12	-9.28889
;N:52:0	-9.28932
;D:69;w:6;D:42	-9.29006
;N:72:8;w:8	-9.29171
;w:6;N:37:6	-9.29223
;w:18;N:61:12	-9.29302
;w:6;N:49:6;w:6	-9.29393
;N:86:24	-9.29404
;w:8;N:53:	-9.29405
;N:70:20	-9.2947
;w:8;N:51:	-9.29541
;w:12;N:49:3	-9.29557
;w:18;N:69:	-9.29614
;w:12;N:35:	-9.29661
;w:12;N:48:3	-9.29755
;N:82:15	-9.29779
;w:18;N:47:6	-9.30129
;N:75:5	-9.30138
;N:61:8;w:8	-9.30156
;N:66:0	-9.30181
;w:12;D:42;w:6;D:42	-9.30264
;w:12;N:70:9	-9.30353
24;w:24;N:81:24	-9.30455
;N:79:15	-9.30472
5;w:3	-9.30488
;w:48;N:71:	-9.30572
;w:12;N:63:8	-9.30809
;w:6;N:66:3	-9.30831
12;w:12;N:86:12	-9.30898
;w:12;N:44:9	-9.30944
;N:59:20	-9.31056
;N:61:20	-9.31128
;N:54:36	-9.31136
;N:89:3	-9.31202
;w:12;N:66:3	-9.31238
;N:55:21	-9.31261
;D:45;D:47	-9.31482
7;w:1	-9.31514
12;w:12;N:83:12	-9.3158
;N:41:48	-9.31584
;N:83:8	-9.31633
;N:53:36	-9.31645
;N:50:18	-9.31681
;D:47;D:48	-9.31759
;w:8;N:63:	-9.31779
;N:57:16	-9.31838
;N:54:5	-9.31936
;N:40:18	-9.31974
;N:36:4	-9.32038
;N:60:20	-9.32055
;N:80:18	-9.32114
;w:6;N:65:12	-9.32141
;N:53:0	-9.32283
;N:80:4;w:4	-9.32335
;w:48;N:50:	-9.3235
;N:50:36	-9.32554
;w:6;D:41	-9.32582
;w:12;N:28:12	-9.32607
;N:72:36	-9.32659
;w:36;N:59:12	-9.32661
;N:74:8;w:8	-9.3277
;w:6;N:43:12	-9.32937
;N:34:9	-9.33027
;w:6;N:45:6;w:6	-9.33038
;N:65:30	-9.33125
;w:6;N:64:12	-9.33244
;w:12;N:46:4	-9.33251
24;w:24;N:69:24	-9.33266
;N:76:16	-9.333
;D:36;D:37	-9.3338
;N:40:8	-9.33433
;D:46;D:51	-9.33554
5;w:2	-9.33564
;N:60:6;w:6	-9.33644
;w:12;N:62:36	-9.33674
;N:64:12;N:68:12	-9.33681
;w:18;N:55:	-9.33789
;w:18;N:46:6	-9.33827
6;w:6;N:79:6	-9.33833
;w:12;N:63:36	-9.33944
;N:73:36	-9.34013
;w:12;N:56:	-9.34028
;N:74:20	-9.34101
;w:6;N:47:3	-9.34104
;N:69:2	-9.34105
;N:61:30	-9.34162
;N:75:21	-9.34266
;N:86:4	-9.34431
;N:30:12	-9.34439
;w:8;N:68:	-9.3451
;w:12;N:60:36	-9.34539
5;w:4	-9.34568
;w:24;N:47:6	-9.34618
12;w:12;N:79:12	-9.34637
25	-9.34642
;w:36;N:42:	-9.34646
;w:24;N:81:12	-9.34661
8;w:7	-9.34735
7;w:3	-9.34737
;N:63:30	-9.34789
;N:62:30	-9.34805
;w:36;N:71:12	-9.34814
;N:66:30	-9.34882
;N:86:8	-9.34926
;N:76:21	-9.3496
;w:18;N:70:	-9.34988
;w:18;N:60:12	-9.35001
;N:63:2	-9.3501
;N:65:2	-9.35025
;w:12;N:58:36	-9.35055
;w:8;N:64:	-9.35098
;w:6;N:78:6	-9.35139
;w:6;N:49:3	-9.35171
12;w:12;N:82:12	-9.35238
;D:42;w:12;D:42	-9.35247
;w:8;N:65:	-9.35307
;N:76:48	-9.35395
;N:76:4;w:4	-9.35396
;D:43;D:47	-9.35424
8:8;w:8	-9.35434
;N:58:12;N:62:12	-9.35445
17;w:1	-9.35512
;w:12;N:44:4	-9.35575
;w:12;N:61:36	-9.35671
;w:12;N:41:9	-9.35845
;N:60:12;N:64:12	-9.35848
;N:91:3	-9.35868
;w:8;N:62:	-9.3607
10;w:1	-9.36134
;w:8;N:72:	-9.36148
;N:61:24;N:64:24	-9.36168
;w:24;D:38;D:42	-9.36239
;w:36;N:58:12	-9.36288
;D:38;D:46	-9.36327
;D:48;D:54	-9.36341
;N:51:0	-9.36368
;w:12;N:59:36	-9.36384
;N:70:2	-9.36392
;w:12;N:84:12	-9.36394
;N:64:0	-9.36414
;D:51;D:70	-9.36425
;N:64:2	-9.36552
;w:18;N:45:6	-9.36572
;N:67:4;w:4	-9.36586
;w:36;N:41:	-9.36604
;w:6;N:46:6;w:6	-9.36826
;w:6;N:36:6	-9.36867
;N:62:24;N:65:24	-9.36912
;N:59:6;w:6	-9.36936
;w:12;D:43	-9.37038
;N:88:9	-9.37082
;N:57:12;N:60:12	-9.37126
;N:42:48	-9.37256
;N:63:12;N:67:12	-9.37261
;w:12;N:93:	-9.37273
;w:18;N:71:	-9.37279
;w:48;N:74:	-9.37289
;w:18;N:59:12	-9.373
12;w:12;N:77:12	-9.37345
;w:12;N:57:36	-9.37382
;N:49:18	-9.37399
;N:63:24;N:66:24	-9.37481
;w:24;N:46:6	-9.37481
;N:65:27	-9.37497
;w:6;N:44:3	-9.37553
;N:67:2	-9.37567
;w:24;D:36;D:38	-9.37628
;N:72:20	-9.37728
;w:48;N:72:	-9.37761
;N:81:4;w:4	-9.37763
;N:64:27	-9.37797
;w:36;N:57:12	-9.37807
;w:12;N:40:9	-9.37898
;w:36;N:40:	-9.37923
;D:43;D:45	-9.37934
;N:79:0	-9.37941
;N:77:48	-9.37954
;w:6;D:42;D:45	-9.37996
;N:34:4	-9.38117
;w:36;N:39:	-9.3814
;w:6;N:46:3	-9.3828
;w:18;N:72:6	-9.38357
12;w:12;N:92:12	-9.38447
;N:59:8;w:8	-9.38478
;N:63:27	-9.38522
;N:71:2	-9.38544
;N:49:15	-9.38584
;N:64:24;N:67:24	-9.38734
;w:18;N:44:	-9.38738
;w:12;D:36;w:12;D:36	-9.3881
;w:12;N:51:8	-9.38874
;N:66:2	-9.38929
;w:12;N:43:4	-9.38954
12;w:12;N:89:12	-9.39033
;N:62:2	-9.39037
6;w:6;N:85:6	-9.39044
;w:18;N:54:	-9.39199
;w:18;N:48:	-9.39226
;w:18;N:58:12	-9.3925
;w:24;N:89:	-9.39334
;N:62:27	-9.39344
;N:74:36	-9.39391
;N:66:10	-9.39449
;w:6;N:80:6;w:6	-9.39479
3;w:3;N:68:3;w:3	-9.39499
;w:48;N:47:	-9.395
;N:61:12;N:65:12	-9.39538
16;w:1	-9.39564
;w:36;N:61:	-9.39576
;N:69:12;N:72:12	-9.39607
;N:92:6	-9.39636
;w:36;N:72:12	-9.39704
24;w:24;N:83:24	-9.39704
;w:12;N:60:15	-9.3975
;w:6;N:66:12	-9.3992
;N:62:12;N:66:12	-9.39965
;w:24;N:76:24	-9.39969
;N:64:10	-9.39979
;N:50:0	-9.40101
;w:12;N:62:8	-9.4012
;w:6;N:42:12	-9.40129
;w:18;N:45:	-9.40131
;w:24;N:37:24	-9.40138
;w:6;N:35:6	-9.40199
36;w:4	-9.40223
;w:12;N:59:15	-9.40236
;N:84:8	-9.40413
;w:18;N:57:12	-9.40422
;w:8;N:61:	-9.40476
;w:12;N:62:15	-9.4048
;w:36;N:62:	-9.4051
;N:75:8;w:8	-9.40576
;w:18;N:46:	-9.40584
;w:6;N:41:12	-9.40627
;N:65:24;N:68:24	-9.40658
;N:68:12;N:71:12	-9.40766
;N:67:30	-9.40831
;w:8;N:59:	-9.40833
;w:12;N:71:9	-9.40842
;w:12;N:94:	-9.40851
;w:36;N:63:	-9.40859
;N:39:8	-9.40875
;w:12;N:39:24	-9.40901
;N:59:12;N:63:12	-9.40906
;w:12;N:31:6	-9.40928
;N:89:6;w:6	-9.41076
;w:18;N:42:6	-9.41085
;w:6;N:48:3	-9.41098
;w:48;N:73:	-9.4113
;N:86:9	-9.41201
;w:24;N:74:6	-9.4121
;w:18;N:47:	-9.41211
;N:65:12;N:69:12	-9.41223
;N:60:8;w:8	-9.4123
;N:79:48	-9.41246
;N:72:0	-9.41293
;w:6;N:69:3	-9.41342
;N:68:2	-9.41368
;w:6;D:50	-9.41371
;w:36;N:44:	-9.41444
;N:57:12;N:61:12	-9.41466
;w:36;N:43:	-9.41479
12;w:12;N:78:12	-9.41504
;N:61:2	-9.4153
;N:60:2	-9.41618
;N:73:20	-9.41645
;N:66:33	-9.41697
;N:77:21	-9.4176
;N:32:24	-9.41773
1:8;w:8	-9.41775
;N:66:6;N:69:6	-9.41809
;w:12;N:61:15	-9.41814
;N:92:3	-9.41872
;N:61:27	-9.41888
;w:12;N:85:12	-9.41915
;N:77:16	-9.41918
;N:63:10	-9.41943
;w:18;N:63:12	-9.4206
;N:66:27	-9.42109
;N:70:12;N:73:12	-9.42176
;w:18;N:62:12	-9.42227
;w:4;D:38	-9.42257
;N:71:3;w:3	-9.42287
;N:89:4	-9.42292
;w:36;N:64:	-9.42293
;w:48;N:49:	-9.4252
;N:66:12;N:70:12	-9.42614
;w:18;N:44:6	-9.42624
;w:18;N:73:6	-9.42654
;N:56:12;N:59:12	-9.42673
;N:63:4;w:4	-9.42717
;N:58:20	-9.4273
;N:48:15	-9.42731
;N:65:10	-9.42756
;w:8;N:70:	-9.42795
;N:60:30	-9.42801
;w:12;N:61:8	-9.42824
;w:24;N:45:6	-9.42842
;D:70;w:6;D:70	-9.42882
;w:12;N:34:	-9.42963
;N:38:18	-9.42984
;N:87:6;w:6	-9.43042
;N:60:24;N:63:24	-9.43076
1;w:8	-9.43127
;N:67:10	-9.43148
;w:12;N:64:8	-9.43203
;D:42;D:51	-9.43225
;w:24;N:31:12	-9.43245
;w:12;N:33:	-9.43465
;N:67:24;N:70:24	-9.4352
;N:73:0	-9.4359
;w:4;D:42	-9.43658
12;w:12;N:88:12	-9.43701
;w:12;D:45	-9.43734
;N:51:16	-9.43778
;w:12;N:63:15	-9.4378
;N:80:48	-9.438
;w:36;N:65:	-9.43876
;N:87:8	-9.43911
;w:48;N:75:	-9.43931
;N:74:3;w:3	-9.44001
;w:48;N:46:	-9.44061
6;w:6;N:81:6	-9.4416
;w:12;N:71:4	-9.44161
;w:8;N:60:	-9.44198
;N:49:36	-9.44285
;N:76:5	-9.44293
;w:6;N:39:	-9.44396
;w:6;D:38;D:39;D:42	-9.44493
6;w:6;N:78:6	-9.44506
;N:62:10	-9.44559
;N:33:9	-9.44602
;w:6;N:67:12	-9.44749
;w:12;N:64:36	-9.44866
;N:87:24	-9.44886
;w:24;N:75:6	-9.449
;N:66:4;w:4	-9.44995
;w:6;N:68:3	-9.44999
;w:12;N:56:36	-9.45061
;w:12;N:26:	-9.45082
24;w:24;N:68:24	-9.45168
;N:75:0	-9.45185
;D:38;D:51	-9.45195
;w:6;D:36;D:38;D:39;D:42	-9.45244
;N:54:21	-9.45251
;N:83:6;w:6	-9.45277
;w:12;N:55:36	-9.45292
;N:59:24;N:62:24	-9.45345
;N:66:24;N:69:24	-9.4535
;w:8;N:69:	-9.45382
;D:56;D:69	-9.45489
;D:54;w:6;D:54	-9.45491
;N:75:20	-9.45513
;w:12;N:65:8	-9.45525
;w:12;N:47:3	-9.45577
;D:51;w:12;D:36	-9.45593
;N:69:4;w:4	-9.45625
;w:8;N:52:	-9.4568
;N:58:12;N:61:12	-9.45695
39;w:3	-9.45749
15;w:1	-9.45825
6;w:6;N:71:6;w:6	-9.45828
;N:61:10	-9.45832
;N:57:20	-9.4591
;w:6;N:43:3	-9.45925
;D:50;D:51	-9.46001
;D:51;w:12;D:51	-9.4601
;N:71:12;N:74:12	-9.46044
;w:36;N:45:	-9.46094
;N:56:16	-9.46135
;N:39:48	-9.46136
;w:6;D:38;w:6;D:38;w:6;D:38	-9.46183
12;w:12;N:81:12	-9.4622
;w:8;N:71:	-9.46273
;N:38:15	-9.46353
;N:65:7	-9.46441
;N:38:8	-9.46531
;N:32:3	-9.46591
;w:8;N:58:	-9.46648
;w:12;N:57:15	-9.46654
;N:68:24;N:71:24	-9.46692
;N:80:0	-9.46693
;N:47:15	-9.46712
;w:4;D:36	-9.46746
;w:12;N:64:15	-9.46758
;w:36;N:66:	-9.46763
;w:36;N:60:	-9.46781
;D:54;D:56	-9.4682
;w:12;N:65:36	-9.46877
;N:84:4;w:4	-9.469
;w:12;D:42;w:12;D:42	-9.46914
;N:48:0	-9.46918
;N:68:10	-9.46918
;w:12;N:32:	-9.46937
;w:6;D:39	-9.46984
;w:18;N:53:	-9.47013
;w:12;N:58:15	-9.47023
;w:36;N:68:	-9.47036
;w:36;N:56:12	-9.47093
6;w:6;N:84:6	-9.47098
;w:6;N:41:3	-9.47119
;w:18;N:65:12	-9.47188
;N:48:18	-9.4721
6;w:6;N:83:6	-9.4734
;w:18;N:43:6	-9.47343
;w:6;N:43:6;w:6	-9.47345
;w:12;N:70:4	-9.47346
12;w:12;N:76:12	-9.47451
;N:48:36	-9.47521
;w:36;N:33:	-9.47602
;N:53:16	-9.47612
;w:36;N:37:	-9.47769
;N:35:4	-9.47809
;w:12;N:69:4	-9.47888
;w:12;N:27:12	-9.47939
;w:18;N:56:12	-9.48016
;w:36;N:55:12	-9.48043
;w:18;N:72:	-9.48098
;N:63:72	-9.48107
;N:87:4	-9.48118
;w:24;N:44:6	-9.48187
;w:6;N:79:6	-9.48262
;w:18;N:64:12	-9.48392
6;w:6;N:82:6	-9.48433
;w:8;N:73:	-9.48479
;N:31:24	-9.48535
;w:8;N:57:	-9.48623
;w:12;N:50:8	-9.48627
;N:75:2	-9.48663
;w:18;N:73:	-9.48663
;N:61:12;N:66:12	-9.48676
;N:41:18	-9.48719
;N:75:36	-9.48759
;w:36;N:67:	-9.48763
;w:12;N:60:12;N:63:12	-9.48806
;N:58:6;w:6	-9.48854
;w:6;N:68:12	-9.48873
6;w:6;N:74:6;w:6	-9.48917
;w:6;N:64:3;w:6	-9.49003
;w:6;N:65:3;w:6	-9.49134
;w:12;N:81:6	-9.49192
;w:24;N:43:6	-9.49257
;N:67:27	-9.49346
;w:24;N:60:9	-9.49362
;N:59:30	-9.49394
;N:69:3;w:3	-9.49428
;w:6;N:40:12	-9.49452
;w:12;N:38:24	-9.49487
;w:6;N:63:3;w:6	-9.49508
;N:65:3;N:68:3	-9.49546
;w:24;N:82:12	-9.49599
;w:18;N:66:12	-9.496
;N:47:21	-9.49661
;w:48;N:45:	-9.49712
;D:54;w:6;D:38;D:54	-9.49806
;w:12;N:69:12;w:12;N:71:12	-9.49836
;N:64:7	-9.49838
;N:71:4;w:4	-9.4985
;w:12;D:39	-9.49899
;N:55:16	-9.49912
;D:50;D:54	-9.49935
;w:36;N:73:12	-9.4998
6;w:12;N:84:6	-9.49994
;N:73:3;w:3	-9.50078
;N:68:7	-9.50089
;w:12;N:69:3	-9.50114
;N:75:4;w:4	-9.50123
;w:12;N:66:8	-9.50127
;w:12;N:65:15	-9.50135
;w:18;N:55:12	-9.5017
;N:70:3;w:3	-9.50206
;D:70;w:6;D:42	-9.50209
;N:74:0	-9.50229
;N:54:16	-9.50292
;w:12;N:66:36	-9.50339
;w:12;N:79:24	-9.50344
;w:18;N:67:12	-9.50362
;w:12;D:42;D:43	-9.50375
;N:63:3;N:66:3	-9.50411
;w:12;N:44:3	-9.50418
;N:87:9	-9.50439
;w:12;N:61:12;N:64:12	-9.5045
;N:77:5	-9.50493
;N:72:2	-9.50507
4;w:4;N:77:4;w:4	-9.50572
;D:54;w:12;D:42	-9.50604
;N:63:0	-9.50673
;w:6;D:42;D:48	-9.5075
;N:72:12;N:75:12	-9.50774
;N:60:27	-9.50795
;N:88:4	-9.50848
;w:24;N:62:9	-9.50856
;N:53:5	-9.50877
;w:18;N:52:	-9.50877
;N:73:4;w:4	-9.50986
;N:59:12;N:64:12	-9.51017
;N:93:6	-9.51221
;N:67:3;N:70:3	-9.51224
6;w:6;N:76:6;w:6	-9.51245
;N:38:48	-9.5127
;N:53:21	-9.51384
6;w:6;N:77:6	-9.51443
;N:83:15	-9.51475
;N:50:16	-9.51572
;w:3;D:36	-9.51624
;N:78:48	-9.517
24;w:24;N:84:24	-9.51712
;D:46;D:53	-9.51757
;N:52:21	-9.51787
;w:12;N:42:4	-9.51788
;w:24;N:58:9	-9.51871
;N:78:4;w:4	-9.5192
;D:36;D:43	-9.51942
;w:8;N:50:	-9.51963
;w:12;N:72:12;w:12;N:70:12	-9.5197
;w:6;D:38;w:6;D:36	-9.51972
;N:66:7	-9.51976
;D:36;D:41	-9.52088
;N:68:27	-9.52179
;w:12;N:63:12;N:66:12	-9.52205
;w:12;N:59:12;N:62:12	-9.52208
;D:45;D:48	-9.52516
;w:12;N:46:3	-9.52565
;N:65:72	-9.52569
;w:12;N:72:9	-9.52571
;N:82:6;w:6	-9.526
;w:6;N:79:6;w:6	-9.52607
;N:49:0	-9.52611
;N:56:72	-9.5262
;D:69;D:73	-9.52671
;w:36;N:59:	-9.5268
;w:6;D:42;D:43	-9.52714
;N:31:3	-9.52742
;N:89:9	-9.52772
;N:67:12;N:71:12	-9.52781
;w:36;N:58:	-9.52822
;D:37;D:42	-9.52851
;w:6;D:47	-9.5288
;N:59:27	-9.52898
;N:69:30	-9.52909
;w:18;N:54:12	-9.52958
;w:18;N:68:12	-9.52974
;N:46:21	-9.53174
;w:12;N:70:12;w:12;N:72:12	-9.53186
;w:36;N:54:12	-9.53194
;N:46:0	-9.532
;N:46:15	-9.5328
;w:24;N:90:	-9.53284
;N:81:0	-9.53324
;N:63:24;N:67:24	-9.53417
;w:12;N:45:4	-9.53432
;N:19:	-9.53456
;N:78:3;w:3	-9.53458
;D:47;D:54	-9.53484
;N:108:	-9.53522
;w:12;N:48:8	-9.5355
;N:61:33	-9.53578
;w:12;N:57:12;N:60:12	-9.53708
;w:12;N:62:12;N:65:12	-9.53747
;N:29:12	-9.53822
;w:24;N:59:9	-9.53837
;w:6;N:71:	-9.53856
;w:36;N:35:	-9.53891
;N:66:3;N:69:3	-9.53944
;w:24;N:77:24	-9.54002
;D:47;D:51	-9.54036
;N:63:7	-9.5405
;N:67:6;N:70:6	-9.54054
;N:78:16	-9.54057
;N:28:12	-9.54085
;N:68:12;N:72:12	-9.54096
;w:36;N:57:	-9.54123
;N:67:33	-9.54123
;w:8;N:49:	-9.5415
;N:70:4;w:4	-9.54234
;w:12;N:66:15	-9.54474
;w:24;N:64:9	-9.54562
;N:56:12;w:12	-9.54605
;N:60:0	-9.54703
;w:12;D:38;w:12;D:38	-9.54723
;N:78:8;w:8	-9.54732
;w:36;N:69:	-9.54755
;N:56:12;N:60:12	-9.5478
6;w:6;N:72:6;w:6	-9.54814
;N:64:24;N:68:24	-9.54816
;N:81:18	-9.54871
;N:77:0	-9.54923
;D:36;D:42;D:54	-9.5495
;D:43;D:51	-9.54955
;N:73:2	-9.54957
;w:24;N:61:9	-9.55025
;N:72:4;w:4	-9.55054
;w:24;N:63:9	-9.55138
;N:58:12;N:63:12	-9.55163
;N:65:6;N:68:6	-9.55227
;N:68:33	-9.55259
;N:80:21	-9.55261
;w:24;N:60:3	-9.55334
;w:36;N:36:	-9.55436
;N:55:72	-9.55438
;N:67:72	-9.5548
6;w:8	-9.55482
;w:12;N:56:15	-9.55498
;N:69:27	-9.55513
;N:68:72	-9.55516
;N:58:24;N:61:24	-9.5556
;N:69:24;N:72:24	-9.55574
;w:48;N:43:	-9.55665
;w:6;N:60:3;w:6	-9.55669
;N:62:7	-9.55694
6;w:6;N:87:6	-9.55713
;w:36;N:52:12	-9.55751
;w:12;D:47	-9.5579
;N:62:4;w:4	-9.55791
;D:36;D:53	-9.55883
;w:12;N:39:9	-9.5589
;w:6;N:71:3;w:6	-9.55904
;w:6;N:40:	-9.55919
;w:8;N:56:	-9.55936
;N:64:3;N:67:3	-9.55943
;N:63:32	-9.56003
;N:47:18	-9.56025
3;w:3;N:72:3;w:3	-9.56035
;w:24;N:42:6	-9.56103
;N:69:10	-9.56122
36;w:36;N:70:12	-9.56193
;N:60:10	-9.56207
;N:67:7	-9.56216
;N:76:8;w:8	-9.56256
;w:24;N:58:3	-9.56274
;w:12;N:28:	-9.56328
;N:84:6;w:6	-9.56349
;w:36;N:38:	-9.56376
;N:62:0	-9.56427
;w:18;N:74:6	-9.56449
;w:48;N:44:	-9.56511
;N:62:3;N:65:3	-9.56588
;w:18;N:41:6	-9.56613
;N:61:72	-9.56732
;N:62:12;N:67:12	-9.56749
;w:12;N:38:9	-9.56854
;w:12;N:54:36	-9.56895
;w:36;N:55:	-9.56902
;N:76:3;w:3	-9.56903
;N:55:12;N:58:12	-9.56906
;D:42;D:69	-9.56962
;N:26:12	-9.56985
;w:24;N:60:4	-9.57004
;N:61:7	-9.57039
;w:12;N:72:12;w:12;N:72:12	-9.5704
;N:77:8;w:8	-9.57087
;N:66:3;w:3	-9.57142
;w:18;N:53:12	-9.57176
;N:57:24;N:60:24	-9.57192
;N:59:10	-9.57221
;N:60:12;N:65:12	-9.57238
;w:12;N:82:6	-9.57242
;w:12;N:65:12;N:68:12	-9.57245
;N:30:6	-9.57292
;N:74:4;w:4	-9.57308
;N:70:72	-9.5735
;w:24;N:61:4	-9.57358
;w:8;N:74:	-9.5743
24;w:24;N:85:24	-9.57453
;w:12;N:55:15	-9.57527
;N:47:0	-9.57541
;N:76:36	-9.57574
;w:18;N:51:	-9.57583
;w:8;N:55:	-9.57583
;N:52:72	-9.57594
;w:12;N:41:4	-9.57609
;N:63:12;N:68:12	-9.57645
;w:24;N:59:3	-9.57663
;N:96:3	-9.5771
4;w:1	-9.57741
;w:24;N:65:9	-9.5777
;N:36:15	-9.57814
;w:12;N:49:8	-9.57826
;w:8;N:48:	-9.57855
;N:90:4	-9.57957
;N:68:3;N:71:3	-9.57975
;w:24;N:61:3	-9.57979
;N:68:30	-9.58058
;N:46:18	-9.58102
;w:24;N:41:6	-9.58115
;N:60:24;N:64:24	-9.58152
;N:70:24;N:73:24	-9.58171
;w:36;N:50:12	-9.58182
;w:12;D:41	-9.58234
;w:12;N:67:36	-9.58253
12;w:12;N:80:12	-9.58266
;N:70:10	-9.58308
;w:6;N:37:	-9.58364
;N:47:16	-9.58368
;N:78:21	-9.58381
0:8;w:8	-9.58385
;N:61:24;N:65:24	-9.58398
;w:36;N:53:12	-9.58423
;N:90:3	-9.58466
;w:8;D:38	-9.58509
;N:64:12;N:69:12	-9.58519
;w:24;D:36;D:42	-9.58559
;N:61:6;N:64:6	-9.58593
;w:6;D:38;D:39	-9.5864
9;w:7	-9.58663
;w:36;N:51:12	-9.58664
;w:24;N:57:9	-9.58697
;N:71:6;N:76:6	-9.5875
;N:37:15	-9.58776
;N:29:6	-9.5878
;w:6;N:32:6	-9.58854
;N:33:4	-9.58872
;N:53:72	-9.58875
;w:12;N:43:3	-9.58877
;N:62:72	-9.58887
;N:65:33	-9.58888
;N:65:24;N:69:24	-9.58903
;N:47:36	-9.59004
;N:54:20	-9.59005
;N:63:6;N:66:6	-9.59006
;N:62:24;N:66:24	-9.59053
;N:45:18	-9.59064
;N:64:72	-9.59083
;N:69:3;N:72:3	-9.59084
;N:54:72	-9.59132
;N:85:8	-9.59156
105	-9.59197
;N:63:3;w:3	-9.59213
;w:36;N:56:	-9.59271
;N:80:3;w:3	-9.59325
;w:12;N:31:	-9.59411
;N:52:5	-9.59447
24;w:2	-9.59521
;N:64:6;N:67:6	-9.59595
;N:61:3;N:64:3	-9.59677
;N:65:4;w:4	-9.59689
;N:76:0	-9.59697
;w:36;N:49:12	-9.59698
;w:12;D:42;D:45	-9.59708
;w:48;N:40:	-9.59719
;w:18;N:52:12	-9.59721
;w:12;N:69:8	-9.59725
;w:12;N:52:36	-9.59726
;N:58:2	-9.59754
;N:69:7	-9.59756
;w:18;N:39:6	-9.59794
;D:42;D:54	-9.59804
;w:12;N:63:12;w:12;N:65:12	-9.59843
;N:68:9;w:9	-9.59915
;N:58:30	-9.59947
;N:36:18	-9.59955
6;w:6;N:77:6;w:6	-9.59982
;w:18;N:74:	-9.59996
;N:91:4	-9.60013
;N:45:15	-9.60049
;w:12;N:57:12;w:12;N:59:12	-9.60062
;w:12;N:75:9	-9.60074
;w:12;N:40:4	-9.60116
;w:36;N:54:	-9.60132
;D:69;w:6;D:38	-9.6017
;N:51:72	-9.60274
;N:57:12;N:62:12	-9.60288
;N:85:6;w:6	-9.60291
;w:36;N:48:12	-9.60372
;N:66:72	-9.60404
;w:12;N:73:9	-9.60459
;w:24;N:63:3	-9.60548
;D:49;D:51	-9.60562
;N:72:6;N:75:6	-9.60579
;N:84:15	-9.60619
;N:49:16	-9.60643
;w:12;N:67:15	-9.60647
;D:70;D:73	-9.60711
;w:24;N:59:4	-9.60717
;w:24;N:58:4	-9.6081
;N:95:6;w:6	-9.60837
;N:58:27	-9.60856
;w:36;N:77:	-9.60865
;N:45:21	-9.60874
;w:12;D:48	-9.60909
;N:55:12;N:59:12	-9.60978
;N:65:12;N:70:12	-9.61042
;N:77:4;w:4	-9.61102
;N:32:9	-9.61163
;N:49:21	-9.61185
;N:65:9;w:9	-9.61196
;w:6;N:66:3;w:6	-9.61218
;D:46;D:49	-9.61281
;w:18;N:37:6	-9.61453
;N:74:45	-9.61462
;w:12;N:67:8	-9.61464
12;w:12;N:94:12	-9.61471
;w:16;N:56:	-9.61585
;w:12;N:47:8	-9.61595
;w:12;N:27:	-9.61602
;w:24;N:36:24	-9.61603
;w:12;N:53:36	-9.61623
6;w:6;N:76:6	-9.61646
;w:24;N:57:3	-9.61649
;N:67:3;w:3	-9.61678
;N:60:72	-9.61679
;w:24;N:62:4	-9.61696
;w:6;N:68:3;w:6	-9.61725
;w:48;N:48:	-9.61776
;N:74:2	-9.6178
;N:69:9;w:9	-9.61836
;N:75:3;w:6	-9.61838
;D:45;D:46	-9.61844
6;w:6;N:70:6;w:6	-9.61845
;w:18;N:34:	-9.61894
;N:76:20	-9.61897
;D:53;D:69	-9.61918
;w:6;N:38:	-9.61921
;w:18;N:40:6	-9.61923
;N:59:3;N:62:3	-9.61933
;w:24;N:66:9	-9.61962
;w:36;N:76:	-9.61972
4;w:4;N:69:4;w:4	-9.6201
;w:18;N:69:12	-9.62137
;w:24;N:40:6	-9.62169
;N:59:24;N:63:24	-9.62171
;w:24;N:62:3	-9.62271
;D:50;D:69	-9.62279
;N:56:20	-9.62284
6;w:7	-9.62319
;N:69:72	-9.62343
;N:57:6;N:60:6	-9.62364
;w:36;N:74:12	-9.6239
;w:24;N:63:4	-9.62399
;N:70:7	-9.62426
;D:69;D:76	-9.62435
;w:12;N:70:3	-9.62442
;w:12;N:72:12;w:12;N:74:12	-9.62447
;w:18;N:50:	-9.62465
;w:6;N:33:6	-9.62555
;w:36;N:46:	-9.62627
;N:94:12	-9.62658
;w:12;N:61:12;w:12;N:63:12	-9.62685
;w:12;N:68:8	-9.62703
;w:36;N:34:	-9.62717
12;w:12;N:93:12	-9.62742
;w:48;N:42:	-9.6279
4;w:4;N:79:4;w:4	-9.62808
;w:36;N:48:	-9.6284
;w:36;N:70:	-9.62851
36;w:36;N:65:12	-9.62852
;w:6;N:73:3	-9.62928
;N:81:48	-9.62935
36;w:36;N:71:12	-9.62971
;N:75:72	-9.63008
;N:42:15	-9.63033
;w:36;N:47:	-9.63036
;w:24;N:57:4	-9.6305
;w:18;N:70:12	-9.63082
;N:59:2	-9.63088
;N:35:18	-9.63203
;N:88:24	-9.63227
;N:44:15	-9.63261
;w:12;N:23:	-9.63286
;N:43:15	-9.6334
;N:64:33	-9.63365
;N:57:30	-9.63422
;N:32:4	-9.63429
24;w:24;N:41:24	-9.63465
;N:52:16	-9.63474
;w:36;N:44:12	-9.63516
;w:16;N:59:	-9.63572
;N:62:6;N:65:6	-9.63608
;N:60:6;N:63:6	-9.638
24;w:24;N:43:24	-9.63801
;N:73:12;N:76:12	-9.6381
;w:24;N:30:12	-9.63854
;w:18;N:78:	-9.63859
;w:36;N:47:12	-9.63874
;N:64:6;N:69:6	-9.63918
;N:91:6;w:6	-9.63961
24;w:24;N:40:24	-9.64078
;w:12;N:60:12;N:64:12	-9.64089
;N:82:18	-9.64126
;w:12;D:36;w:12;D:38	-9.64132
;w:24;N:64:4	-9.64201
;w:12;D:51	-9.64207
;N:61:3;N:66:3	-9.6423
;N:68:60	-9.64257
;N:50:72	-9.64283
;N:71:10	-9.64301
;N:61:4;w:4	-9.64325
;N:60:3;N:63:3	-9.64346
;N:69:12;N:73:12	-9.64347
;w:12;N:67:12;w:12;N:69:12	-9.64367
;D:46;D:47	-9.64368
;w:18;N:51:12	-9.64378
;w:12;N:71:12;w:12;N:73:12	-9.64403
;N:70:27	-9.64436
;w:18;N:50:12	-9.6446
;N:45:0	-9.64463
;w:24;N:56:9	-9.64478
;w:8;D:42	-9.64515
;N:47:20	-9.64529
;N:60:7	-9.64534
;D:76;w:6	-9.64621
;w:36;N:32:	-9.64633
;w:18;N:75:6	-9.64663
;w:6;N:72:	-9.64677
;N:63:3;N:68:3	-9.64703
;w:24;N:55:9	-9.64747
;N:88:8	-9.64749
;N:46:16	-9.64755
6;w:6;N:78:6;w:6	-9.64757
;w:6;N:68:	-9.648
;w:12;N:73:12;w:12;N:73:12	-9.64811
;N:59:72	-9.64884
0;w:8	-9.6489
;w:16;N:55:	-9.64892
;N:28:3	-9.64893
;w:36;N:71:	-9.64998
;N:75:3;w:3	-9.65057
;w:18;N:75:	-9.65127
;N:75:45	-9.65128
;N:57:27	-9.65176
;w:18;N:38:6	-9.6529
;N:92:4	-9.65346
;N:40:15	-9.65387
;N:77:3;w:3	-9.65411
;N:48:16	-9.65434
;w:6;N:34:6	-9.65495
;w:12;N:66:12;N:69:12	-9.65535
;w:12;N:71:3	-9.65583
;w:8;N:47:	-9.65619
;N:58:24;N:63:24	-9.65644
;w:12;N:66:12;w:12;N:68:12	-9.65685
;w:36;N:42:12	-9.65695
57;w:6	-9.65731
24;w:24;N:39:24	-9.65737
;N:44:6;w:12;N:44:6	-9.65753
;N:73:6;N:76:6	-9.65779
;N:37:18	-9.65918
;N:85:3;w:6	-9.65938
;w:16;N:60:	-9.65952
54;w:5	-9.65974
;w:6;D:51	-9.65993
;w:36;N:45:12	-9.66017
3;w:3;N:71:3;w:3	-9.66023
;N:56:12;N:61:12	-9.66029
12;w:12;N:75:12	-9.66047
;w:16;N:61:	-9.66107
;N:18:	-9.6611
;w:36;N:43:12	-9.66214
;N:54:12;N:57:12	-9.66222
;w:12;D:38;w:6;D:38	-9.66248
4;w:4;N:70:4;w:4	-9.66264
;N:41:15	-9.66278
;N:69:33	-9.66319
;w:12;N:68:36	-9.66333
;N:64:3;N:69:3	-9.66334
;w:36;N:46:12	-9.6635
;N:39:18	-9.6635
;w:36;N:53:	-9.664
;w:12;N:37:24	-9.6643
;w:12;N:26:12	-9.66461
;w:12;N:61:12;w:12;N:61:12	-9.66472
2;w:5	-9.66477
4;w:7	-9.66521
3;w:3;N:80:3;w:3	-9.66551
;N:35:15	-9.66555
;w:18;N:35:	-9.66589
;w:12;D:42;D:48	-9.66602
;N:31:4	-9.6664
;w:36;N:31:	-9.667
;N:60:12;N:65:12;N:69:12	-9.66854
;w:12;N:61:48	-9.66884
;N:55:24;N:59:24	-9.66914
3;w:3;N:77:3;w:3	-9.66926
;w:36;N:72:	-9.66978
;N:48:21	-9.66978
;N:42:18	-9.66988
;N:71:9;w:9	-9.67019
;w:12;N:40:3	-9.67034
;N:31:9	-9.67138
;w:12;N:54:15	-9.67138
;N:30:3	-9.67138
18;w:18;N:80:	-9.67162
;w:24;N:39:6	-9.67163
;N:46:36	-9.67166
;N:68:4;w:4	-9.67185
;N:96:12	-9.67188
;D:69;w:12;D:42	-9.67191
;D:45;D:69	-9.67307
3;w:3;N:67:3;w:3	-9.67327
;N:95:3	-9.67328
4;w:4;N:63:4;w:4	-9.67329
;D:36;D:42;D:43	-9.67336
;w:24;N:67:9	-9.67408
;w:24;N:64:3	-9.67421
;w:12;D:38;D:39;D:42	-9.67432
;w:6;N:69:12	-9.67453
;N:57:8;w:8	-9.67537
;N:75:1	-9.67594
;D:45;D:54	-9.67602
;N:72:3;w:3	-9.67705
;w:6;N:40:3	-9.67735
;N:58:8;w:8	-9.67738
24;w:24;N:44:24	-9.67776
;N:59:7	-9.67777
24;w:24;N:37:24	-9.67781
;N:68:6;N:71:6	-9.6784
;N:51:21	-9.67854
;w:3;N:59:	-9.67888
;w:48;N:41:	-9.67983
;w:12;N:60:48	-9.67988
36;w:36;N:73:12	-9.68003
;w:12;N:43:8	-9.68013
;N:49:72	-9.68058
;N:50:21	-9.68071
;D:45;D:51	-9.68133
;N:45:96	-9.68148
;N:66:24;N:70:24	-9.68171
;N:63:33	-9.68183
;N:58:24;N:62:24	-9.68186
;w:24;N:65:3	-9.68215
;N:52:96	-9.6827
;w:12;N:41:3	-9.68273
;w:36;N:73:	-9.68279
;N:95:12	-9.6831
;w:12;N:59:48	-9.68316
;N:66:12;N:71:12	-9.68351
;w:36;N:75:12	-9.68361
;w:12;N:25:	-9.68368
;N:60:33	-9.68382
;w:12;N:95:	-9.68387
;w:12;N:73:12;w:12;N:71:12	-9.68392
36;w:36;N:72:12	-9.68429
;N:59:3;N:64:3	-9.68503
;N:57:6;w:6	-9.68638
;w:48;N:39:	-9.68649
;N:60:4;w:4	-9.68683
;N:36:8	-9.68699
36;w:36;N:68:12	-9.68726
;w:12;N:42:12;N:54:12	-9.68754
6;w:12;N:85:6	-9.68787
;w:12;N:37:9	-9.68809
;w:12;N:72:4	-9.68831
;w:48;N:78:	-9.68894
;N:59:4;w:4	-9.68919
;N:67:24;N:71:24	-9.68933
;D:69;w:12;D:69	-9.68968
;w:18;N:48:12	-9.6898
;w:24;N:65:4	-9.69045
24;w:24;N:38:24	-9.69056
;N:42:21	-9.69068
36;w:36;N:69:12	-9.69099
;N:70:33	-9.69118
3;w:3;N:62:3;w:3	-9.69131
;N:57:33	-9.69136
;N:55:20	-9.69154
;N:46:20	-9.69189
;N:72:9;w:9	-9.69191
;N:71:30	-9.69238
;N:77:36	-9.69273
3;w:3;N:70:3;w:3	-9.69303
4;w:4;N:65:4;w:4	-9.69332
6;w:6;N:86:6	-9.69345
;w:48;N:76:	-9.69375
;w:12;N:71:12;w:12;N:69:12	-9.69375
;N:60:3;N:65:3	-9.69399
;D:69;w:6;D:36	-9.69418
;w:18;N:72:6;w:6	-9.69442
;N:69:60	-9.69457
4;w:4;N:67:4;w:4	-9.6948
;w:4;D:38;D:42	-9.69492
;N:27:12	-9.69512
;N:44:18	-9.69526
;N:48:96	-9.69584
;w:6;N:37:12	-9.69633
;w:16;N:62:	-9.69656
;w:16;N:57:	-9.69701
;w:12;N:36:24	-9.69769
;w:12;N:64:12;w:12;N:66:12	-9.69799
;w:24;N:54:9	-9.69805
;w:6;N:72:3;w:6	-9.69883
;N:44:21	-9.6992
;w:24;N:56:3	-9.69927
;w:12;N:65:6;w:6	-9.69928
3;w:5	-9.69932
;N:90:9	-9.69967
;N:70:3;N:73:3	-9.70003
;N:57:2	-9.70044
;w:6;N:69:	-9.70052
;w:12;N:29:	-9.70077
;N:45:36	-9.70114
;N:74:12;N:77:12	-9.70137
;N:37:8	-9.70145
;N:78:5	-9.70166
;N:47:96	-9.70207
;w:18;N:49:	-9.70235
;N:57:24;N:61:24	-9.70271
;N:65:3;N:70:3	-9.70304
24;w:24;N:42:24	-9.70318
;N:109:	-9.7032
;w:12;N:58:48	-9.70324
;N:66:60	-9.70446
36;w:36;N:66:12	-9.70454
;w:16;N:63:	-9.70479
;w:6;N:75:	-9.70517
;w:24;N:55:3	-9.70524
;w:12;N:62:48	-9.70551
;N:46:96	-9.70566
;N:77:1	-9.70578
;w:6;N:70:	-9.70619
24;w:24;N:82:	-9.70684
;N:66:24;N:71:24	-9.70696
;w:36;N:41:12	-9.70696
;w:18;N:71:12	-9.70713
;N:58:10	-9.70733
;w:24;N:68:9	-9.70741
;w:18;N:33:	-9.70751
12;w:15	-9.7078
;w:24;N:76:6	-9.70815
18;w:2	-9.70855
;N:45:16	-9.70855
;w:6;N:43:	-9.70913
24;w:24;N:66:24	-9.7094
;w:18;N:49:12	-9.70944
;N:71:24;N:74:24	-9.70958
;N:50:20	-9.71008
;N:82:0	-9.71067
24;w:24;N:67:24	-9.71086
;w:16;N:58:	-9.71107
;N:71:7	-9.71138
3;w:3;N:74:3;w:3	-9.712
24;w:24;N:45:24	-9.71249
;w:8;N:59:4	-9.71288
;N:77:20	-9.71298
;N:59:6;N:62:6	-9.7131
;w:8;N:75:	-9.71378
;N:46:6;w:12;N:46:6	-9.71379
;w:12;N:63:48	-9.71393
;N:56:24;N:60:24	-9.71405
36;w:36;N:67:12	-9.71406
;w:12;N:40:12;N:52:12	-9.71427
;w:18;N:42:	-9.71449
;N:70:12;N:74:12	-9.71524
;w:12;N:59:12;N:63:12	-9.71562
9:8;w:8	-9.71592
;N:43:21	-9.71612
;N:63:6;N:67:6	-9.71617
;N:70:30	-9.71631
;D:36;D:37;D:42	-9.7165
;D:70;D:76	-9.71745
;N:45:20	-9.71782
;N:64:3;N:68:3	-9.719
;N:27:24	-9.7194
;N:47:12;N:52:12	-9.71955
;w:6;N:67:	-9.72035
;N:62:3;N:67:3	-9.72036
;D:47;D:69	-9.72044
;w:36;N:78:	-9.72063
;w:12;N:64:12;N:76:12	-9.7207
;w:8;N:62:4	-9.72073
;N:49:96	-9.72091
;w:16;N:54:	-9.72109
;w:24;N:53:9	-9.72119
;w:12;N:41:12;N:53:12	-9.72135
;w:6;N:70:3;w:6	-9.72262
;w:12;N:63:12;N:75:12	-9.72287
;N:76:2	-9.7236
;N:51:96	-9.72369
;w:36;N:51:	-9.72389
;w:18;N:47:12	-9.72445
;N:44:16	-9.72474
;w:12;N:46:8	-9.72484
;N:65:24;N:70:24	-9.72488
;N:68:3;w:3	-9.7254
;N:51:5	-9.72548
;N:65:60	-9.72548
;w:12;N:42:3	-9.72564
;N:56:27	-9.72613
;N:54:0	-9.72655
;N:79:8;w:8	-9.72704
;w:18;N:26:	-9.72716
;N:39:15	-9.72752
;D:54;w:12;D:36	-9.72765
;N:34:15	-9.7285
114	-9.72892
;w:6;D:39;D:42	-9.72919
;N:28:4	-9.72925
3;w:3;N:57:3;w:3	-9.72953
;N:93:3	-9.72991
4;w:4;N:68:4;w:4	-9.72992
;w:8;N:61:4	-9.73007
;w:48;N:35:	-9.73015
;w:12;N:36:9	-9.7303
6;w:12;N:83:6	-9.7308
;w:12;N:38:3	-9.73099
23;w:2	-9.73112
;N:94:6	-9.73116
;N:29:3	-9.73144
;w:12;N:73:4	-9.73157
;w:12;N:72:3	-9.73207
;w:6;N:70:3	-9.73249
;N:26:6	-9.73266
;N:43:18	-9.73305
;N:64:6;N:68:6	-9.73325
;w:24;N:35:24	-9.73436
;D:36;D:45	-9.73522
;N:88:3;w:6	-9.73564
;N:59:33	-9.73605
;w:6;N:37:6;w:6	-9.73607
;w:12;N:51:36	-9.73609
;w:8;N:58:4	-9.73621
;w:48;N:77:	-9.73639
;N:65:4;N:68:4	-9.73655
;w:12;N:56:12;N:59:12	-9.73689
3;w:3;N:73:3;w:3	-9.73722
;N:70:60	-9.73723
;N:43:20	-9.73769
;w:12;N:62:12;N:74:12	-9.73796
;N:89:24	-9.73807
;N:58:33	-9.73832
;w:8;N:46:	-9.73851
;N:71:3;N:74:3	-9.73857
;N:50:5	-9.73865
;w:12;N:60:12;w:12;N:60:12	-9.73958
;N:72:10	-9.7396
;w:6;N:77:	-9.74046
;N:44:0	-9.74059
;w:36;N:52:	-9.74061
12;w:12;N:74:12	-9.74105
;N:50:96	-9.74139
;w:12;N:65:12;N:77:12	-9.74176
;w:24;N:25:	-9.74181
;w:12;N:70:12;w:12;N:68:12	-9.74192
;w:12;N:69:15	-9.74197
24;w:24;N:35:24	-9.74243
;N:85:15	-9.74325
;w:12;N:39:4	-9.74331
;w:24;N:52:3	-9.74367
;w:12;N:24:	-9.74383
;N:68:12;N:73:12	-9.74451
;N:59:24;N:64:24	-9.74454
;w:18;N:79:	-9.74458
;D:36;D:42;D:69	-9.74488
;N:71:42	-9.74509
4;w:4;N:66:4;w:4	-9.74514
;N:68:24;N:72:24	-9.74528
;D:42;D:70	-9.7453
;w:12;D:42;w:12;D:36;D:42	-9.74556
;N:58:7	-9.74557
;w:12;N:38:4	-9.74563
3;w:3;N:59:3;w:3	-9.74564
;N:95:6	-9.74589
;N:75:12;N:78:12	-9.74616
;w:6;N:45:3	-9.74667
4;w:4;N:61:4;w:4	-9.74677
;N:48:72	-9.74681
;w:12;D:36;D:49	-9.74749
;N:79:3;w:3	-9.74758
;D:36;D:42;D:45	-9.74761
;D:47;D:50	-9.74803
;N:67:6;N:72:6	-9.74833
;D:36;D:38;D:51	-9.74946
;w:8;N:60:4	-9.74959
;w:36;N:40:12	-9.74967
;N:55:12;N:60:12	-9.74985
3;w:3;N:85:3;w:3	-9.75012
4;w:4;N:82:4;w:4	-9.75029
;N:82:3;w:3	-9.75055
;N:41:21	-9.75055
;N:55:6;w:6	-9.75068
6;w:6;N:81:6;w:6	-9.75138
24;w:24;N:81:	-9.75151
;N:55:4;w:4	-9.7516
4;w:4;N:72:4;w:4	-9.75168
;N:64:60	-9.75178
;w:16;N:64:	-9.75237
;w:12;N:66:12;N:78:12	-9.75284
1;w:9	-9.75333
;D:54;w:6;D:54;w:6	-9.75342
;N:90:6;w:6	-9.75342
;N:81:8;w:8	-9.75399
;w:24;N:60:8	-9.75444
;N:64:4;N:67:4	-9.75549
;N:71:12;N:75:12	-9.75577
;w:6;N:66:	-9.75587
;N:82:48	-9.75669
;w:6;N:82:6;w:6	-9.75691
;N:53:20	-9.75695
;N:64:39	-9.75731
;w:18;N:66:6;w:6	-9.75773
36;w:36;N:74:12	-9.75777
;N:67:60	-9.75798
;w:24;N:	-9.75808
;w:12;N:69:36	-9.75899
29	-9.75993
4;w:4;N:78:4;w:4	-9.76008
;N:57:10	-9.76052
76	-9.76093
;N:81:3;w:3	-9.76102
;w:12;N:30:	-9.76103
24;w:24;N:85:	-9.76116
;w:12;N:86:12	-9.76169
;N:56:6;w:6	-9.76229
;N:71:27	-9.76283
24;w:24;N:86:24	-9.76307
;w:12;N:74:9	-9.76309
;N:64:24;N:69:24	-9.76332
;N:83:3;w:6	-9.76342
;N:60:24;N:65:24	-9.76354
;w:6;N:78:	-9.764
12;w:12;N:73:12	-9.76455
;w:12;N:64:12;w:12;N:67:12	-9.76498
;w:36;N:35:12	-9.76562
;N:43:16	-9.76587
;w:24;N:58:8	-9.76597
24;w:24;N:36:24	-9.76619
;N:94:3	-9.76671
;N:63:39	-9.76697
;w:24;N:56:4	-9.76713
;w:8;N:63:4	-9.76714
;w:12;N:66:6;w:6	-9.76755
;w:6;N:70:12	-9.76786
;N:72:30	-9.76826
;w:36;N:50:	-9.76831
;w:16;N:53:	-9.76842
24;w:24;N:83:	-9.76874
;N:58:72	-9.7688
;w:18;N:46:12	-9.76902
;N:55:33	-9.76933
;w:12;N:61:18	-9.76965
;w:6;D:36;D:42;D:45	-9.77013
;w:24;N:66:4	-9.77054
;w:36;N:74:	-9.77069
8;w:8;N:54:8;w:8	-9.77074
;w:12;N:70:36	-9.77122
;D:45;D:50	-9.77142
;w:24;N:66:3	-9.77173
;w:12;N:63:6;w:6	-9.77189
;N:70:12;w:12;N:68:12	-9.7725
;N:58:4;w:4	-9.7727
;w:48;N:38:	-9.77286
;N:77:6;N:80:6	-9.77296
;N:42:16	-9.77303
;w:18;N:76:	-9.7737
;D:46;w:6;D:42	-9.77394
;w:36;N:75:	-9.774
8;w:8;N:65:8	-9.77401
;N:71:72	-9.77438
;D:46;D:48	-9.77454
;N:40:21	-9.77469
36;w:36;N:62:12	-9.77473
;N:67:12;N:72:12	-9.77478
;N:62:39	-9.7748
;N:62:33	-9.77494
;w:12;N:68:12;w:12;N:70:12	-9.77517
;N:56:24;N:59:24	-9.77527
;N:44:36	-9.77535
;w:6;N:36:	-9.77551
;D:54;D:76	-9.77663
;N:63:60	-9.77679
;w:12;N:39:3	-9.77735
;N:56:33	-9.7779
;N:76:72	-9.77825
;w:24;N:77:6	-9.77829
;N:55:2	-9.77862
;N:79:21	-9.77864
;N:66:3;N:71:3	-9.7791
;N:89:8	-9.77919
;w:12;N:75:12;w:12;N:73:12	-9.7794
;w:24;N:59:8	-9.7795
9;w:12;N:77:9	-9.77974
;w:12;N:96:	-9.78022
;w:24;N:69:9	-9.78055
24;w:24;N:49:24	-9.78069
;N:54:12;N:59:12	-9.78079
;w:6;D:36;D:39;D:42	-9.78081
;N:81:21	-9.78127
;w:12;N:60:18	-9.78144
4;w:4;N:71:4;w:4	-9.78226
;w:12;N:67:12;N:79:12	-9.78243
;N:62:4;N:65:4	-9.78245
;N:59:0	-9.78263
;w:12;N:45:8	-9.78264
24;w:24;N:46:24	-9.78279
;N:77:2	-9.78287
;N:58:3;N:63:3	-9.78311
;w:36;N:39:12	-9.78319
;w:36;N:49:	-9.78325
;w:6;N:57:2	-9.78359
;N:71:3;w:6	-9.78377
36;w:36;N:63:12	-9.78381
;w:24;N:61:8	-9.78402
;w:12;N:35:24	-9.78419
;N:66:4;N:69:4	-9.78428
;N:57:3;N:62:3	-9.7847
;N:72:42	-9.78485
;N:56:3;N:61:3	-9.78501
;w:6;N:35:	-9.78536
;w:12;N:57:48	-9.78565
;w:12;N:61:12;N:73:12	-9.78566
;N:37:48	-9.78567
;N:65:6;N:69:6	-9.78584
;w:18;D:4	-9.78615
;N:29:4	-9.78649
;N:57:4;w:4	-9.78676
;D:36;D:42;w:6;D:42;w:6;D:42	-9.78717
;w:8;D:38;D:42	-9.78724
;N:79:16	-9.78741
;w:12;N:84:6	-9.78767
;N:52:20	-9.78784
4;w:2	-9.78792
;w:21;N:62:	-9.78832
24;w:24;N:34:24	-9.78881
;N:61:3;N:65:3	-9.78892
;N:42:0	-9.78906
;N:76:45	-9.7893
;w:24;N:33:24	-9.78969
;w:12;N:64:48	-9.79023
;N:44:96	-9.79059
36;w:36;N:64:12	-9.79077
;N:66:6;N:71:6	-9.79088
;w:12;N:62:12;w:12;N:65:12	-9.79131
;D:70;w:12;D:42	-9.79163
36;w:36;N:75:12	-9.79172
;N:80:36	-9.79173
;w:6;N:41:	-9.79188
;N:63:3;N:67:3	-9.79248
;N:72:3;N:75:3	-9.7925
;w:12;N:64:12;N:67:12	-9.79275
;N:66:39	-9.79287
;N:55:24;N:58:24	-9.79308
;N:62:3;N:66:3	-9.79319
;N:78:36	-9.79333
;w:24;N:29:12	-9.79335
;N:96:6;w:6	-9.79353
;w:12;N:53:15	-9.79365
;w:24;N:57:8	-9.79376
;w:12;N:70:15	-9.79401
;N:93:4	-9.79446
;N:73:3;N:77:3	-9.79465
;w:24;N:56:8	-9.79484
;w:12;N:60:12;N:72:12	-9.79502
;N:44:20	-9.79514
;w:6;N:74:	-9.79538
;N:49:4;w:4	-9.79558
;N:79:5	-9.79578
;N:73:32	-9.79585
6;w:12;N:82:6	-9.79626
;w:12;D:38;D:42;w:12;D:42	-9.79651
;N:41:0	-9.79652
;w:16;N:68:	-9.79699
;w:12;N:55:12;w:12;N:57:12	-9.79711
;w:12;N:67:6;w:6	-9.7972
;w:18;N:72:12	-9.79725
;N:72:7	-9.79727
;w:21;N:63:	-9.79733
;N:57:24;N:62:24	-9.79802
;w:24;N:52:9	-9.79829
;w:24;N:38:6	-9.79852
;D:48;w:6;D:48	-9.79855
;N:34:18	-9.79865
;N:65:39	-9.7994
6;w:6;N:89:6	-9.79953
;N:53:24;N:57:24	-9.79965
;N:74:12;w:12;N:72:12	-9.7999
;w:24;N:54:4	-9.80042
;N:69:6;N:74:6	-9.80055
;N:62:60	-9.80082
24;w:24;N:48:24	-9.80121
;N:42:20	-9.80187
;N:71:45	-9.80229
;N:72:72	-9.80251
;N:86:6;w:6	-9.80256
54;w:6	-9.80315
;w:3;N:57:	-9.80334
;N:74:6;N:77:6	-9.80381
;w:24;N:91:	-9.80443
;w:12;N:62:18	-9.80445
;N:59:3;N:63:3	-9.80523
;w:8;N:61:8	-9.80555
;w:24;N:63:8	-9.80556
;w:6;D:42;w:6;D:36;D:46	-9.80567
;N:64:3;w:3	-9.80662
;N:65:3;w:3	-9.80711
;w:24;N:55:4	-9.80729
;N:68:192	-9.80763
;w:18;N:60:3	-9.80787
;w:6;N:57:3;w:6	-9.80799
;w:12;N:70:8	-9.80849
;w:6;D:36;D:42;D:43	-9.8085
;N:74:6;N:78:6	-9.80867
;w:12;N:56:48	-9.8091
;w:6;N:58:2	-9.80919
6;w:6;N:72:6	-9.80948
;D:54;w:6;D:36	-9.8096
;N:73:12;N:78:12	-9.80987
;N:30:4	-9.8099
;w:12;N:68:15	-9.81013
;N:73:10	-9.81014
;w:12;N:63:18	-9.8103
;w:12;N:65:48	-9.81031
;w:24;N:54:3	-9.81048
;N:33:15	-9.81073
;N:61:39	-9.81101
;w:24;N:64:8	-9.81105
;w:12;N:42:8	-9.8119
;D:54;w:6;D:38	-9.81203
;w:6;N:80:6	-9.81266
;w:8;N:76:	-9.8127
;N:73:72	-9.81299
3;w:3;N:69:3;w:3	-9.81313
;N:57:42	-9.81347
;N:87:4;w:4	-9.81363
;N:56:24;N:61:24	-9.81371
;w:24;N:23:	-9.81379
;D:36;D:46;D:49	-9.81407
3;w:3;N:81:3;w:3	-9.81431
;N:52:6;N:57:6	-9.81506
;w:12;N:65:12;w:12;N:67:12	-9.81508
;w:18;N:77:	-9.81572
;N:78:2	-9.81596
;w:8;N:77:	-9.81606
;N:58:6;N:61:6	-9.81607
;w:18;N:45:12	-9.8163
;N:40:0	-9.81663
;w:12;N:64:6;w:6	-9.81675
;N:71:12;w:12;N:69:12	-9.81694
3;w:3;N:83:3;w:3	-9.81695
;N:66:3;N:70:3	-9.81708
6;w:12;N:88:6	-9.81721
;N:76:96	-9.8174
;w:24;N:70:9	-9.81774
;N:40:16	-9.81812
;w:8;N:57:4	-9.81818
;N:42:36	-9.81835
;N:51:6;N:56:6	-9.81852
;w:12;N:80:24	-9.81881
;N:70:6;N:73:6	-9.81906
;N:41:16	-9.81918
;N:57:72	-9.81945
;D:46;w:12;D:42	-9.82048
;w:18;D:42	-9.82054
;w:6;N:65:6;N:77:6	-9.82083
;w:12;N:50:36	-9.82088
;w:18;N:62:3	-9.82107
;N:61:60	-9.82155
;w:24;N:62:8	-9.82165
;N:70:45	-9.82175
;w:21;N:68:	-9.82222
;w:12;N:65:12;w:12;N:68:12	-9.82245
;N:54:6;w:6	-9.82269
;w:12;N:64:12;w:12;N:64:12	-9.82312
;N:73:12;w:12;N:71:12	-9.82318
;w:12;N:83:6	-9.82324
;N:35:8	-9.8233
;N:61:24;N:66:24	-9.82403
;w:12;N:69:12;w:12;N:67:12	-9.82415
;N:65:3;N:69:3	-9.82483
;w:6;D:38;w:6;D:42	-9.82486
;w:18;N:61:3	-9.82491
24;w:24;N:33:24	-9.82515
;N:78:20	-9.82549
;N:53:6;w:12;N:53:6	-9.82562
;N:69:12;w:12;N:67:12	-9.82577
;w:12;N:44:8	-9.82596
;N:57:7	-9.82597
;N:54:6;w:12;N:54:6	-9.82613
;w:6;D:42;D:51	-9.8264
;N:64:45	-9.82667
24;w:24;N:50:24	-9.82701
;N:47:72	-9.82704
;N:54:24;N:58:24	-9.82724
;D:38;D:54	-9.82784
;N:65:45	-9.82785
;N:71:60	-9.82797
;w:8;N:64:4	-9.82798
;w:12;N:68:12;N:80:12	-9.82803
;N:27:3	-9.82827
3;w:3;N:84:3;w:3	-9.82829
;w:18;N:38:	-9.82923
;w:12;N:59:18	-9.83004
;w:9;D:36	-9.83008
;w:18;N:27:	-9.83012
;w:6;D:42;w:6;D:36;D:42;w:6;D:42	-9.83036
;D:41;D:42	-9.83041
36;w:36;N:61:12	-9.83086
;w:6;D:36;w:6;D:42	-9.83094
;w:12;N:66:12;w:12;N:66:12	-9.83096
;w:16;N:52:	-9.83103
;w:18;N:44:12	-9.83104
;N:68:6;N:73:6	-9.83146
;N:36:48	-9.832
;N:67:24;N:72:24	-9.83203
;N:67:4;N:70:4	-9.83216
9;w:12;N:68:9	-9.83261
;w:12;D:39;D:42	-9.83262
;w:8;N:70:4	-9.8328
9;w:12;N:71:9	-9.83283
;N:98:6	-9.83298
;w:12;N:74:12;w:12;N:76:12	-9.83301
;w:24;N:78:24	-9.83317
3;w:3;N:82:3;w:3	-9.83324
;D:69;w:6;D:42;D:69	-9.83325
;N:39:36	-9.83337
;N:68:42	-9.83338
;w:12;N:58:18	-9.83342
;w:6;N:38:12	-9.83345
;D:53;w:12;D:36	-9.83357
;w:12;N:58:12;N:61:12	-9.83358
;D:43;D:69	-9.83366
;N:74:12;N:79:12	-9.83448
;w:18;N:32:	-9.83483
;w:6;N:60:6;w:6;N:60:6	-9.835
;N:77:3;w:6	-9.83528
;N:39:16	-9.83539
18;w:18;N:70:6;w:6	-9.8356
;w:21;N:66:	-9.83587
;w:6;N:45:	-9.83587
;N:26:3	-9.83587
;w:12;N:56:12;w:12;N:58:12	-9.83648
;w:21;N:61:	-9.83673
;N:58:3;N:61:3	-9.83691
;N:51:6;w:6	-9.83742
6;w:12;N:77:6	-9.83753
3;w:3;N:60:3;w:3	-9.83778
;N:69:42	-9.83866
;w:8;N:56:4	-9.83883
;N:69:45	-9.83974
;N:74:3;w:6	-9.84002
12;w:12;N:96:12	-9.84003
;D:76;w:6;D:42	-9.84019
;N:80:16	-9.84041
;w:21;N:65:	-9.84049
18;w:18;N:71:6;w:6	-9.84069
;w:6;N:73:	-9.8407
;N:73:3;w:6	-9.84075
;w:18;N:65:6;w:6	-9.84087
;w:8;N:44:	-9.84104
;N:55:3;N:60:3	-9.84144
;w:12;N:68:12;w:12;N:68:12	-9.84179
;w:12;D:38;D:49	-9.84188
;N:43:36	-9.84204
;w:6;N:76:	-9.84209
;w:12;N:62:12;w:12;N:64:12	-9.84228
18;w:18;N:82:	-9.84233
;w:12;N:55:12;N:58:12	-9.84238
;N:68:45	-9.84246
;w:16;N:67:	-9.84262
;N:73:7	-9.84308
;w:12;N:55:48	-9.84315
;N:60:39	-9.84391
;N:83:0	-9.8443
;w:18;N:40:	-9.84442
;N:61:4;N:64:4	-9.8445
6;w:6;N:93:6;w:6	-9.84475
;w:6;N:39:12	-9.84504
;w:3;N:61:	-9.84559
;N:24:3	-9.8456
;w:18;N:59:3	-9.84563
;N:43:96	-9.84573
;w:12;N:58:12;N:70:12	-9.84614
6;w:6;N:68:6;w:6	-9.84669
;w:21;N:64:	-9.84673
;N:67:39	-9.84674
;w:6;N:48:6;w:6;N:48:6	-9.84676
;N:46:72	-9.84681
;N:55:27	-9.84723
;w:6;D:36;D:37	-9.84767
;w:16;N:65:	-9.84804
;w:8;N:59:8	-9.84816
6;w:12;N:79:6	-9.84834
;N:49:20	-9.84835
;N:62:45	-9.84852
9;w:12;N:67:9	-9.84875
;w:6;D:38;w:6;D:36;D:42	-9.84879
6;w:12;N:80:6	-9.84894
;w:21;N:60:	-9.849
;w:12;N:69:12;N:81:12	-9.84926
;N:72:45	-9.84932
;w:12;N:61:12;w:12;N:64:12	-9.84955
;N:76:6;N:81:6	-9.85036
;w:12;N:65:18	-9.85063
;N:72:27	-9.85065
;w:48;N:79:	-9.85084
;w:24;N:65:8	-9.85094
;N:66:45	-9.85103
;N:56:30	-9.85113
;w:6;N:31:6	-9.85128
;w:18;N:63:3	-9.8515
;N:83:18	-9.85172
;w:8;D:36;D:42	-9.85182
;w:16;D:42	-9.85279
;N:69:6;N:72:6	-9.85283
;D:50;D:70	-9.85324
;N:28:24	-9.85347
;w:36;N:80:	-9.85359
6;w:6;N:71:6	-9.85382
;N:43:0	-9.85395
;N:69:4;N:73:4	-9.85398
;w:6;N:56:6;w:6;N:56:6	-9.8542
;D:51;w:6;D:42	-9.85425
;N:69:6;w:6;N:69:6;w:6	-9.85426
;N:55:30	-9.85453
19;w:1	-9.85472
22	-9.85476
;N:63:45	-9.85485
;w:12;N:29:6	-9.8549
3;w:3;N:75:3;w:3	-9.85494
6;w:12;N:87:6	-9.85513
;w:18;N:41:	-9.85517
;w:48;N:61:12	-9.85535
;N:69:192	-9.85557
;w:12;D:36;D:37	-9.85575
;w:18;N:64:3	-9.85585
6;w:6;N:73:6	-9.85588
9;w:12;N:70:9	-9.856
;w:12;N:66:48	-9.85601
;N:40:36	-9.85604
;D:69;w:12;D:36	-9.85605
;N:71:6;N:75:6	-9.85619
;N:56:45	-9.85636
;w:48;N:60:12	-9.85637
6;w:6;N:67:6;w:6	-9.85658
;N:67:6;N:71:6	-9.85665
;N:75:12;w:12;N:73:12	-9.8567
;w:48;N:34:	-9.85674
24;w:24;N:63:24	-9.85684
;w:18;N:76:6	-9.85687
;N:73:30	-9.85695
;N:57:6;N:62:6	-9.85741
;w:36;N:76:12	-9.85767
;N:45:72	-9.85795
;N:60:4;N:63:4	-9.85798
;N:72:12;w:12;N:70:12	-9.85817
;w:24;N:28:12	-9.85821
;N:69:24;N:73:24	-9.85864
;N:67:12;w:12;N:65:12	-9.85868
;N:68:3;N:73:3	-9.85906
;w:12;N:87:12	-9.85911
;N:37:16	-9.85959
;w:36;N:29:	-9.85979
;N:90:8	-9.85981
;N:72:60	-9.85997
;N:72:24;N:75:24	-9.86005
;N:89:3;w:6	-9.86011
;N:77:45	-9.8606
17;w:2	-9.86067
;N:29:9	-9.86072
;w:36;N:79:	-9.86077
24;w:24;N:87:24	-9.86166
;N:61:4;N:65:4	-9.86193
32;w:8	-9.86207
;w:18;N:58:3	-9.86214
24;w:24;N:47:24	-9.86281
;N:60:12;N:63:12;N:68:12	-9.86304
;w:18;N:39:	-9.86339
18;w:18;N:81:	-9.86344
;w:21;N:67:	-9.86353
;w:12;N:60:12;w:12;N:63:12	-9.86366
;w:8;N:62:8	-9.86397
;N:68:12;w:12;N:66:12	-9.86402
;N:71:33	-9.8641
;w:12;N:1	-9.86422
;N:67:45	-9.86433
;w:3;N:58:	-9.86484
;w:24;N:37:6	-9.865
;N:59:4;N:62:4	-9.86516
24;w:24;N:65:24	-9.86527
;N:41:36	-9.86548
;N:60:3;N:64:3	-9.86571
;w:12;N:63:12;w:12;N:63:12	-9.86618
;w:36;N:38:12	-9.86664
;w:6;N:52:6;w:6;N:52:6	-9.86761
;w:6;N:62:6;N:74:6	-9.86823
;N:82:21	-9.86872
4;w:4;N:73:4;w:4	-9.86912
3;w:3;N:61:3;w:3	-9.86919
;w:12;N:60:12;w:12;N:62:12	-9.86926
6;w:12;N:78:6	-9.86933
;N:57:3;N:60:3	-9.8694
6;w:6;N:69:6;w:6	-9.8695
;w:6;N:55:2	-9.86954
;w:16;N:66:	-9.86965
;N:66:6;N:70:6	-9.86976
3;w:3;N:78:3;w:3	-9.87079
;w:12;N:52:15	-9.87094
;N:67:3;N:71:3	-9.87101
;D:70;w:6;D:36	-9.87111
;w:18;N:65:3	-9.87154
;w:8;N:64:8	-9.8716
;N:62:6;N:67:6	-9.87167
;w:12;N:71:36	-9.87207
;w:6;N:60:2	-9.87216
4;w:5	-9.87218
;w:12;N:35:9	-9.87218
;N:62:24;N:67:24	-9.87277
;N:61:6;N:66:6	-9.87286
;N:33:18	-9.87295
;w:48;N:84:	-9.87331
;w:12;N:72:8	-9.87396
;w:36;N:34:12	-9.87432
;N:67:3;N:72:3	-9.87442
;w:18;N:84:	-9.87457
;w:6;N:39:3	-9.87486
;w:6;N:64:6;N:76:6	-9.875
;w:12;N:64:18	-9.87518
;D:48;D:53	-9.87678
24;w:24;N:79:	-9.87693
6;w:6;N:91:6	-9.87704
;N:63:24;N:68:24	-9.87721
;w:8;N:57:8	-9.87808
;w:6;N:36:6;w:6	-9.87815
;w:12;N:67:12;w:12;N:65:12	-9.87842
;N:69:3;N:74:3	-9.87847
;N:25:3	-9.87848
;N:30:24	-9.87864
;N:26:24	-9.87865
;N:62:96	-9.87887
;w:12;N:58:12;N:62:12	-9.87908
;N:61:96	-9.87946
;w:18;N:43:	-9.87947
;w:6;N:56:2	-9.87966
;w:18;N:73:12	-9.87972
;w:12;N:45:12;w:12;N:45:12	-9.88023
;w:12;D:38;D:39	-9.88035
;N:34:8	-9.88041
;N:88:4;w:4	-9.88124
;w:24;N:51:9	-9.88141
;w:36;N:37:12	-9.88152
;w:6;N:74:3;w:6	-9.88201
;w:36;D:36	-9.88209
;N:48:20	-9.88231
;w:12;N:73:12;w:12;N:75:12	-9.88274
;w:18;N:31:	-9.88283
;N:70:6;w:6;N:70:6;w:6	-9.88284
;N:77:96	-9.8831
;w:12;N:58:12;w:12;N:60:12	-9.88319
9;w:12;N:75:9	-9.88342
;N:62:6;N:66:6	-9.88385
;N:63:4;N:66:4	-9.88403
;N:85:3;w:3	-9.88412
;w:21;N:59:	-9.88449
;w:8;D:37	-9.88465
;w:6;N:47:	-9.88473
;w:6;N:81:	-9.88512
;w:6;N:66:6;N:78:6	-9.88528
;N:75:9;w:9	-9.88528
24;w:24;N:80:	-9.8856
;w:24;N:24:	-9.88565
;w:6;N:33:6;w:6	-9.88581
;N:57:32	-9.88598
;w:6;D:42;D:47	-9.88601
24;w:24;N:84:	-9.88657
;N:70:3;N:74:3	-9.88696
;w:36;N:27:	-9.88698
;w:12;N:56:18	-9.88722
;D:42;D:45	-9.88751
;w:12;N:67:48	-9.88778
;N:77:72	-9.8882
;N:63:4;N:67:4	-9.88823
;w:12;N:57:18	-9.88852
;w:12;N:73:3	-9.88853
;w:3;N:62:	-9.88859
;w:12;N:59:12;w:12;N:62:12	-9.88874
;w:12;N:58:12;w:12;N:61:12	-9.8889
;N:39:21	-9.88933
;D:43;D:48	-9.88943
;N:79:4;w:4	-9.88945
;w:6;N:53:6;w:6;N:53:6	-9.88947
6;w:12;N:76:6	-9.88952
;w:12;N:54:48	-9.88972
;w:12;N:51:12;w:12;N:51:12	-9.88984
;w:6;N:42:	-9.8899
;N:52:12;N:57:12;N:61:12	-9.89078
;N:68:24;N:73:24	-9.89166
;w:12;N:74:3	-9.89182
;w:18;N:80:	-9.8921
;w:12;N:69:12;N:72:12	-9.89226
8;w:8;N:63:8	-9.89232
;N:70:24;N:74:24	-9.89273
4;w:4;N:83:4;w:4	-9.89274
;w:8;N:42:	-9.89291
;N:65:32	-9.89293
;w:12;N:57:12;N:69:12	-9.89295
;w:21;N:69:	-9.89484
;w:36;N:30:	-9.895
7;w:9	-9.89537
;w:12;N:59:12;w:12;N:61:12	-9.89572
;w:6;N:71:3	-9.89605
;D:54;D:69;w:6;D:54;D:69	-9.89633
;N:61:9;w:9	-9.89634
;w:12;N:69:12;w:12;N:69:12	-9.89645
;w:6;N:63:6;N:75:6	-9.89653
;w:24;N:55:8	-9.89701
8;w:9	-9.89705
;N:70:6;N:75:6	-9.89746
;D:51;w:12;D:42	-9.89766
36;w:36;N:76:12	-9.89766
;w:12;N:51:12;w:12;N:53:12	-9.89792
;w:16;D:36	-9.89804
;w:12;N:70:12;N:82:12	-9.8983
;w:12;N:74:4	-9.8986
;w:12;N:71:15	-9.89879
;w:4;D:36;D:42	-9.89886
;w:12;D:36;D:42;w:12;D:42	-9.89941
;w:48;N:37:	-9.89967
;w:16;N:50:	-9.89971
;w:12;N:71:12;w:12;N:71:12	-9.90017
;N:69:12;N:74:12	-9.90029
;N:71:6;N:74:6	-9.90035
;N:79:1	-9.90035
;N:66:12;w:12;N:64:12	-9.90072
;N:41:20	-9.90091
;N:68:4;N:71:4	-9.90114
;w:24;N:92:	-9.90121
;N:99:6	-9.90153
;N:73:3;N:76:3	-9.9016
;D:38;w:3;D:38	-9.90165
;w:8;N:43:	-9.90173
;w:48;N:80:	-9.90178
;N:82:8;w:8	-9.90223
;N:57:4;N:62:4	-9.90226
;N:68:39	-9.90264
;w:6;N:59:6;w:6;N:59:6	-9.90277
;N:61:12;w:12;N:61:12	-9.90295
;N:63:28	-9.903
;w:6;N:61:2	-9.90312
;N:72:33	-9.90342
;N:70:42	-9.90344
;w:21;N:70:	-9.90353
;w:16;N:70:	-9.90363
;N:84:3;w:3	-9.9037
;w:18;N:43:12	-9.90388
;N:60:4;N:64:4	-9.90396
;N:94:4	-9.90401
;N:70:192	-9.90406
36;w:36;N:76:	-9.90447
;D:51;D:56	-9.90463
;w:6;D:38;D:45	-9.90498
;w:24;N:27:12	-9.9053
;N:54:33	-9.90535
;D:48;D:49	-9.90539
;N:66:42	-9.90542
;w:6;N:57:6;w:6;N:59:6	-9.90555
;w:12;N:52:12;w:12;N:52:12	-9.90603
;w:8;N:45:	-9.90663
;D:46;D:69	-9.90689
;w:3;N:63:	-9.90705
6;w:6;N:88:6	-9.90707
;N:38:36	-9.90735
6;w:6;N:79:6;w:6	-9.90756
;N:97:3	-9.90759
;w:12;N:62:12;w:12;N:62:12	-9.90765
;N:60:60	-9.90772
;N:44:72	-9.90778
;N:54:3;N:57:3	-9.90788
;N:59:6;N:63:6	-9.90788
;N:60:3;w:3	-9.90796
;N:54:2	-9.90819
1;w:7	-9.9082
;w:12;N:66:12;w:12;N:64:12	-9.90915
;N:76:12;N:80:12	-9.90925
;w:3;N:60:	-9.90949
4;w:4;N:60:4;w:4	-9.90963
;N:56:3;w:3	-9.9097
;D:51;w:12;D:36;D:51	-9.9097
;N:65:28	-9.90997
;N:79:6;N:82:6	-9.9102
;w:12;N:61:12;N:66:12	-9.91049
;w:6;D:42;w:6;D:38;D:46	-9.91066
;N:67:42	-9.91132
;N:73:27	-9.91138
;w:6;D:36;w:6;D:36;D:42	-9.91158
;N:36:16	-9.91187
;w:12;N:65:12;w:12;N:65:12	-9.91188
;N:59:39	-9.91195
;w:12;N:68:48	-9.91199
;w:12;N:41:8	-9.91258
6;w:12;N:81:6	-9.91289
;N:57:3;N:61:3	-9.91294
;N:72:3;N:77:3	-9.91314
;D:36;w:12;D:36	-9.91321
;w:24;N:67:3	-9.91331
;w:3;N:62:3	-9.91403
;N:37:21	-9.91405
;N:36:21	-9.91436
10;w:8	-9.9144
;N:88:6;w:6	-9.91462
;N:56:8;w:8	-9.91481
;w:24;N:51:3	-9.91492
;w:12;N:54:12;w:12;N:54:12	-9.91505
;N:55:24;N:60:24	-9.91541
;N:76:1	-9.91551
;D:38;w:12;D:38	-9.91573
;N:90:24	-9.91647
3;w:3;N:58:3;w:3	-9.91691
;w:12;N:74:12;w:12;N:72:12	-9.91701
;N:58:0	-9.91706
;w:24;D:5	-9.91726
;w:36;N:36:12	-9.91752
;N:65:96	-9.91758
;w:6;N:72:3	-9.91772
;w:18;N:42:12	-9.91793
;N:58:6;N:62:6	-9.91794
;D:51;w:6;D:36	-9.91838
;N:68:3;N:72:3	-9.91868
;N:72:32	-9.91874
36;w:36;N:78:	-9.91896
;w:18;N:61:6;w:6	-9.91909
;w:24;N:53:4	-9.91914
;N:71:12;N:76:12	-9.91918
;N:57:12;N:60:12;N:65:12	-9.9192
;N:56:7	-9.9193
;w:21;N:57:	-9.91939
;w:12;N:62:12;w:12;N:60:12	-9.9196
;D:54;w:6;D:42;D:54	-9.91985
;w:24;N:67:4	-9.92085
;N:73:33	-9.921
;N:54:1	-9.92102
;w:12;N:56:12;N:68:12	-9.92106
;N:38:16	-9.92129
;w:12;N:54:12;N:57:12	-9.92178
;w:6;N:61:6;N:73:6	-9.92187
;w:24;N:66:8	-9.92216
;w:21;N:58:	-9.9222
9;w:12;N:69:9	-9.92229
;w:18;N:28:	-9.92234
;N:67:3;w:6	-9.92256
;w:8;N:65:4	-9.92262
;w:12;N:49:36	-9.92306
;w:16;N:51:	-9.92307
;w:12;N:68:12;w:12;N:66:12	-9.92341
;w:48;N:33:	-9.92378
;N:64:96	-9.92399
;N:55:12;N:58:12;N:63:12	-9.92403
;w:6;N:68:6;N:80:6	-9.92452
8;w:2	-9.92453
;w:18;N:63:6;w:6	-9.92462
;N:56:10	-9.9248
;w:6;D:42;w:6;D:36	-9.92494
;w:18;N:77:6	-9.92544
;w:12;N:53:12;w:12;N:55:12	-9.92547
;w:24;N:36:6	-9.92555
;w:8;N:54:	-9.92628
;w:16;N:35:	-9.92632
;w:16;N:69:	-9.92639
14;w:14	-9.92667
;N:68:12;w:12;N:68:12	-9.92671
;w:24;N:78:6	-9.92711
;D:48;D:70	-9.92728
;N:38:21	-9.92741
;N:74:10	-9.92755
8;w:8;N:72:8	-9.92765
;w:6;N:59:2	-9.92784
;w:18;N:57:3	-9.92787
;N:54:12;N:58:12	-9.92798
8;w:8;N:64:8	-9.92822
;w:12;N:59:12;N:64:12	-9.92826
;D:70;w:12;D:70	-9.92861
;N:73:42	-9.92891
3;w:3;N:91:3;w:3	-9.92909
;w:36;N:77:12	-9.92927
;N:64:28	-9.92972
;w:12;N:64:12;w:12;N:62:12	-9.92988
;w:6;N:79:	-9.93014
;w:12;N:53:48	-9.93018
;N:60:96	-9.93066
;N:65:4;N:69:4	-9.93097
;w:12;N:66:12;w:12;N:69:12	-9.93102
3;w:3;N:66:3;w:3	-9.93117
;N:64:32	-9.93127
6;w:6;N:90:6;w:6	-9.93137
;w:24;N:63:18	-9.93183
;N:61:6;N:65:6	-9.93189
;w:12;N:67:12;w:12;N:67:12	-9.93202
9;w:12;N:73:9	-9.93211
;N:58:96	-9.93291
;N:75:6;N:78:6	-9.93298
36;w:36;N:60:12	-9.93303
;w:12;N:77:9	-9.93314
;w:6;N:35:6;w:6	-9.93314
;w:18;N:79:6	-9.93321
6;w:6;N:82:6;w:6	-9.93355
;w:6;N:64:6;w:6;N:64:6	-9.93389
;w:18;N:66:3	-9.93465
;N:55:45	-9.93532
;w:6;D:42;w:6;D:38	-9.93583
;D:76;w:12;D:42	-9.93584
;N:81:1	-9.93591
;w:6;N:67:6;N:79:6	-9.93635
;D:54;w:8;D:54	-9.93649
;N:56:12;N:59:12;N:64:12	-9.93653
;w:6;D:36;D:43	-9.93664
;N:58:6;N:62:6;N:65:6	-9.9367
6;w:6;N:75:6	-9.93671
;w:8;D:36	-9.93681
;D:36;D:54	-9.93701
;w:12;N:54:12;N:66:12	-9.93707
;N:69:32	-9.93713
;N:95:3;w:3	-9.93722
24;w:24;N:86:	-9.93744
;w:6;N:60:6;N:72:6	-9.93759
;w:48;N:59:12	-9.93791
;N:62:4;N:66:4	-9.93803
;w:8;N:55:4	-9.93828
;N:56:42	-9.93864
;w:24;N:71:9	-9.93868
;N:68:6;N:72:6	-9.93879
;N:40:20	-9.93911
;N:61:42	-9.93988
;w:48;N:36:	-9.93993
;N:70:3;N:75:3	-9.94002
;N:79:2	-9.94007
;N:65:42	-9.94016
36;w:36;N:77:12	-9.94067
;D:43;D:54	-9.94092
;D:51;w:12;D:38	-9.941
;w:12;N:22:	-9.94115
;N:65:6;w:6;N:65:6;w:6	-9.94137
;w:8;N:41:	-9.9417
;D:51;w:6;D:51	-9.94263
36;w:36;N:59:12	-9.943
;w:3;N:64:	-9.943
;N:60:12;w:12;N:60:12	-9.94326
;w:12;N:70:6;w:6	-9.94334
;w:12;N:52:12;w:12;N:54:12	-9.94354
;w:6;N:82:3;w:6	-9.94359
;N:56:3;N:59:3	-9.9438
1;w:5	-9.94391
;N:63:6;N:67:6;N:70:6	-9.94411
;N:73:45	-9.94422
;w:6;N:34:	-9.9445
;w:12;N:71:8	-9.94488
9;w:12;N:72:9	-9.94505
;w:6;N:38:6;w:6	-9.94517
;w:24;N:68:3	-9.94613
;N:62:9;N:65:9	-9.94629
;w:6;D:36;D:42;w:6;D:42	-9.94642
;w:12;N:54:12;w:12;N:56:12	-9.94685
;N:66:6;w:6;N:66:6;w:6	-9.94696
6;w:12;N:89:6	-9.9474
;w:12;N:62:6;w:6	-9.94751
;N:76:3;w:6	-9.94753
;w:12;N:34:24	-9.94758
;w:6;D:36;w:6;D:38;D:42	-9.94759
;w:12;N:73:8	-9.94777
;N:42:96	-9.94784
;w:12;N:70:12;N:73:12	-9.94805
;w:48;N:81:	-9.94839
;N:62:32	-9.94886
;w:12;N:68:6;w:6	-9.94886
;N:76:12;N:79:12	-9.949
;w:6;N:1	-9.94912
;w:3;D:42	-9.94921
;N:78:45	-9.94923
;w:12;N:52:48	-9.94998
;N:52:45	-9.95065
;w:18;N:67:3	-9.95097
;w:24;N:50:9	-9.95103
;N:26:4	-9.95113
;N:60:8;N:65:8	-9.95119
;N:61:4;N:66:4	-9.95131
;D:41;D:43	-9.95143
;w:12;N:50:12;w:12;N:52:12	-9.95149
;w:3;N:53:	-9.95161
;w:8;N:54:4	-9.95184
;N:58:60	-9.95242
;w:18;N:36:6	-9.95257
;N:30:9	-9.95266
12;w:12;N:72:12	-9.95266
;N:76:12;w:12;N:74:12	-9.95278
;N:74:1	-9.95295
;N:59:60	-9.95319
;w:36;N:28:	-9.95334
;N:58:6;N:63:6	-9.95367
12;w:12;N:95:12	-9.9537
;N:65:12;w:12;N:65:12	-9.95373
;w:18;N:41:12	-9.95385
;D:54;w:12;D:54	-9.95409
;w:12;N:55:12;N:67:12	-9.95424
;N:51:20	-9.95458
;D:69;w:6;D:36;D:42	-9.95479
;N:76:12;N:81:12	-9.95498
12;w:12;N:35:12	-9.95511
;N:35:16	-9.95515
;N:71:3;N:75:3	-9.95525
;N:69:2;w:2	-9.95575
;w:24;N:67:8	-9.95596
8;w:8;N:69:8	-9.95598
18;w:18;N:84:	-9.9564
;w:6;N:54:6;w:6;N:54:6	-9.95666
;w:12;N:76:9	-9.95675
;w:6;N:69:6;N:81:6	-9.95716
;N:63:6;N:68:6	-9.95733
;N:91:9	-9.9576
;N:83:8;w:8	-9.95771
;N:95:4	-9.95792
;D:56;D:70	-9.958
;N:77:9;w:9	-9.95833
;w:12;N:57:12;w:12;N:60:12	-9.9584
;w:12;D:36;D:43	-9.95843
;w:12;N:71:12;N:83:12	-9.95858
3;w:3;N:79:3;w:3	-9.95911
;w:12;N:48:36	-9.95933
;N:55:42	-9.95954
3;w:3;N:86:3;w:3	-9.95955
6;w:12;N:86:6	-9.95965
;N:64:42	-9.95999
;N:32:8	-9.96061
6;w:6;N:80:6;w:6;N:82:	-9.96128
;D:36;D:42;w:12;D:42;w:12;D:38;D:42	-9.96149
;w:6;D:36;D:45	-9.96151
24;w:24;N:64:24	-9.9618
6;w:6;N:92:6;w:6	-9.96185
;N:60:6;N:64:6	-9.96238
;N:67:32	-9.96256
;N:70:2;w:2	-9.96262
;w:16;N:71:	-9.9628
;D:45;w:6;D:45	-9.96288
;N:62:28	-9.96318
;w:6;N:55:6;w:6;N:55:6	-9.96326
;N:75:6;w:6;N:75:6	-9.96327
;N:33:6;w:12;N:33:	-9.96357
;w:12;N:72:15	-9.96388
;N:70:3;w:6	-9.96417
;N:68:32	-9.9643
;N:55:10	-9.96436
;N:57:0	-9.96441
;N:67:12;N:79:12	-9.96453
;w:24;D:46	-9.96487
;w:6;N:38:3	-9.96491
;N:54:27	-9.96504
;N:76:3;N:79:3	-9.96524
;N:64:9;N:67:9	-9.96529
;w:6;N:76:3	-9.96543
;N:71:2;w:2	-9.96547
;w:12;N:52:12;N:64:12	-9.96548
6;w:6;N:74:6	-9.96567
24;w:24;N:89:	-9.96568
;N:65:6;N:70:6	-9.96581
12;w:12;N:34:12	-9.96583
;N:74:72	-9.96607
;N:71:24;N:75:24	-9.96613
4;w:4;N:74:4;w:4	-9.96629
24;w:24;N:32:24	-9.96636
;w:8;N:60:8	-9.96681
;N:83:48	-9.96701
;D:36;D:42;w:12;D:36;D:42	-9.96736
;w:12;N:66:18	-9.96761
;N:73:60	-9.96786
;w:12;N:44:12;N:56:12	-9.96789
;N:63:96	-9.96799
3;w:3;N:63:3;w:3	-9.96846
;N:65:4;N:70:4	-9.96851
;N:73:2;w:2	-9.96854
;N:72:3;w:6	-9.96863
;w:36;N:33:12	-9.9694
24;w:24;N:88:24	-9.96952
;w:6;D:36;D:41;D:42	-9.96971
4;w:4;N:62:4;w:4	-9.96996
;N:62:3;w:6	-9.97005
48;N:80:48	-9.97056
3;w:3;N:76:3;w:3	-9.97084
;N:59:96	-9.97105
;N:55:3;N:58:3	-9.9713
;w:12;N:59:12;N:71:12	-9.97131
;w:3;N:70:	-9.97146
;N:58:12;N:61:12;N:66:12	-9.97159
;N:63:42	-9.9718
9;w:12;N:78:9	-9.97201
;N:66:28	-9.9722
;N:70:6;N:74:6	-9.97232
;N:32:15	-9.97243
4;w:4;N:75:4;w:4	-9.97244
;D:73;w:6	-9.97273
;N:54:42	-9.97328
18;w:18;N:79:	-9.97389
;N:53:45	-9.97396
;D:42;D:48	-9.97398
;D:39;D:42	-9.97407
;w:12;N:59:12;w:12;N:59:12	-9.97432
6;w:6;N:33:6	-9.97436
;N:61:32	-9.97447
;w:12;N:67:12;N:71:12	-9.97459
;N:55:3;N:59:3	-9.97471
;w:48;N:85:	-9.97474
4;w:4;N:85:4;w:4	-9.97509
;N:69:24;N:74:24	-9.9754
;w:24;N:50:3	-9.97569
;N:54:45	-9.97591
;N:75:3;N:78:3	-9.97596
;w:3;N:54:	-9.97597
;w:12;N:67:12;w:12;N:70:12	-9.97622
;N:66:12;w:12;N:66:12	-9.9765
;w:24;N:34:24	-9.97672
;N:81:16	-9.97713
;w:18;N:40:12	-9.97754
;N:81:20	-9.97787
;N:35:48	-9.97792
8;w:8;N:74:8	-9.97838
;w:6;D:38;w:6;D:36;D:38	-9.97881
;N:73:12;N:77:12	-9.97918
;w:8;N:58:8	-9.97939
;w:12;N:56:12;w:12;N:59:12	-9.9795
;N:53:4;w:4	-9.97988
;N:56:6;N:59:6	-9.98003
;N:69:6;N:73:6	-9.98038
0;N:71:0	-9.98062
;w:12;N:77:12;w:12;N:79:12	-9.98071
;N:98:3	-9.98075
;w:8;N:67:4	-9.98096
;N:35:21	-9.98098
0;w:9	-9.98111
;w:6;N:42:3	-9.98113
;N:83:3;w:3	-9.98151
;w:12;N:63:12;w:12;N:68:12	-9.98155
;N:38:20	-9.9816
;w:18;N:74:12	-9.98206
;N:66:32	-9.98266
;w:18;N:33:6	-9.9827
;w:24;N:54:8	-9.98274
;D:38;D:39	-9.98294
;w:12;N:72:36	-9.98295
;w:6;N:81:6;w:6	-9.98344
;w:12;N:51:15	-9.98353
;w:21;N:71:	-9.98355
;w:16;N:34:	-9.98396
;w:24;N:53:3	-9.98407
;N:77:2;w:2	-9.98412
;N:75:6;N:79:6	-9.98425
;w:6;N:71:12	-9.98434
;D:39;D:46	-9.98511
9;w:12;N:66:9	-9.98516
;w:12;N:98:	-9.98523
;N:76:6;N:79:6	-9.9853
;N:80:6;N:83:6	-9.98562
;N:72:12;N:76:12	-9.98598
;N:66:96	-9.98603
;w:12;N:63:12;N:67:12	-9.98609
;w:6;N:53:3;w:6	-9.98613
;N:62:12;w:12;N:62:12	-9.98621
;N:60:42	-9.98627
;N:75:2;w:2	-9.98656
;N:59:12;N:62:12;N:67:12	-9.98656
;N:80:5	-9.98671
;N:28:6	-9.98702
;w:16;D:38	-9.98706
;w:12;D:38;w:12;D:36	-9.9872
;N:53:12;N:58:12	-9.98759
;w:24;N:83:12	-9.9876
12;w:12;N:27:12	-9.98774
;N:39:20	-9.98825
;w:12;N:54:12;N:61:12	-9.98836
;N:61:28	-9.98843
;N:68:12;N:80:12	-9.98853
;N:56:2	-9.98862
;w:6;N:73:12	-9.98868
;N:53:33	-9.98869
;N:75:12;N:80:12	-9.98872
;w:18;N:34:6	-9.98888
;w:24;N:64:18	-9.98889
24;w:24;N:88:	-9.98895
;w:24;N:68:4	-9.98896
;N:71:192	-9.98904
;N:94:6;w:6	-9.98925
;N:61:3;w:3	-9.99056
;w:24;N:66:18	-9.99088
;N:74:2;w:2	-9.99091
;N:57:39	-9.9911
;w:24;N:94:	-9.99133
;N:78:9;w:9	-9.99148
8;w:8;N:55:8	-9.99168
;w:12;N:43:12;N:55:12	-9.99184
3;w:3;N:87:3;w:3	-9.99228
;N:70:12;N:75:12	-9.99234
;w:12;N:58:6;w:6	-9.9934
;N:84:18	-9.9938
;N:67:96	-9.99391
;N:63:9;N:68:9	-9.99398
3;w:3;N:65:3;w:3	-9.99405
;N:66:4;N:70:4	-9.99429
;N:28:9	-9.99435
;w:8;N:56:8	-9.99479
;w:12;N:34:9	-9.99491
;N:81:36	-9.99573
36;w:36;N:79:	-9.99578
;N:66:12;w:12;N:68:12	-9.99616
;w:12;N:73:15	-9.99631
;w:2;D:36	-9.99653
;N:69:39	-9.99663
;w:12;N:72:12;w:12;N:75:12	-9.9967
0;N:72:0	-9.99677
;N:55:7	-9.99681
;w:6;N:49:	-9.99701
;N:56:32	-9.99721
;w:12;D:50	-9.99724
;w:12;N:76:12;w:12;N:74:12	-9.99727
;w:6;N:59:6;N:71:6	-9.99765
;w:12;N:53:12;N:65:12	-9.99776
;w:12;N:40:8	-9.99777
;N:67:12;w:12;N:67:12	-9.99781
;N:77:12;N:81:12	-9.9979
;w:12;N:75:4	-9.998
;w:6;N:54:	-9.99806
;w:24;N:52:4	-9.99807
;w:16;N:72:	-9.99817
;w:12;N:62:12;w:12;N:67:12	-9.99847
;w:8;N:40:	-9.99876
;N:31:8	-9.99922
;D:49;D:54	-9.9993
;w:12;N:57:12;w:12;N:62:12	-9.99971
;w:6;D:42;w:6;D:36;D:38;D:42	-9.99982
;N:58:4;N:61:4	-9.99998
;w:8;N:55:8	-10.0002
;N:54:24;N:59:24	-10.0005
;N:86:15	-10.0008
;w:18;N:68:3	-10.0009
;N:61:45	-10.001
36;w:36;N:78:12	-10.0014
6;w:6;N:32:6;w:6	-10.0016
;N:64:12;w:12;N:64:12	-10.0017
;w:12;N:58:12;w:12;N:63:12	-10.0022
;w:24;N:65:18	-10.0022
;N:77:6;N:82:6	-10.0023
;w:12;N:72:12;N:84:12	-10.0024
6;w:6;N:80:6;w:6	-10.0028
;N:60:32	-10.0033
;w:12;N:45:12;N:57:12	-10.004
;N:75:10	-10.0043
;w:24;N:68:8	-10.0044
;N:60:9;N:63:9	-10.0045
;N:58:39	-10.0046
;N:54:30	-10.0049
;N:86:3;w:3	-10.0053
;N:66:12;N:78:12	-10.0055
;D:51;w:6;D:38	-10.0056
3;w:3;N:64:3;w:3	-10.0057
;w:12;N:68:12;w:12;N:71:12	-10.0059
;w:36;N:60:6	-10.006
;N:63:9;N:66:9	-10.006
;w:8;D:38;w:8;D:38	-10.006
;N:67:6;w:6;N:67:6;w:6	-10.0064
;D:70;w:4	-10.0064
;N:57:96	-10.0065
;N:51:12;N:54:12	-10.0065
;N:100:3	-10.0067
;w:36;N:61:6	-10.0069
;w:6;N:44:6;w:6	-10.0074
;w:12;N:77:12;w:12;N:75:12	-10.0077
;w:21;N:56:	-10.0079
;N:62:4;N:67:4	-10.0085
18;w:18;N:73:6;w:6	-10.0085
;w:8;N:66:8	-10.0086
6;w:6;N:66:6;w:6	-10.0086
;w:12;D:36;D:42;w:12;D:36;D:42	-10.0087
;w:24;N:96:	-10.0087
;N:54:96	-10.0088
;N:78:72	-10.009
;w:3;N:67:	-10.0098
;w:24;N:61:18	-10.0099
;N:36:36	-10.0099
;w:12;N:61:6;w:6	-10.01
;N:72:6;N:77:6	-10.0103
;w:6;N:46:6;w:6;N:46:6	-10.0105
;N:40:96	-10.0106
6;w:2	-10.0106
;w:6;D:36;D:51	-10.0107
;w:12;N:61:12;N:65:12	-10.0109
;N:69:12;N:81:12	-10.0109
;N:85:4;w:4	-10.0112
;w:12;N:35:12;N:47:12	-10.0118
;w:6;N:61:6;w:6;N:61:6	-10.0119
;D:49;w:12;D:36	-10.012
;N:54:24;N:57:24	-10.0126
;N:67:12;w:12;N:69:12	-10.0127
;N:65:12;w:12;N:63:12	-10.013
;w:12;N:59:12;w:12;N:57:12	-10.0133
;w:6;N:72:12	-10.0136
;w:18;N:37:	-10.0137
;N:64:4;N:69:4	-10.0142
;N:68:8;N:71:8	-10.0147
;N:43:72	-10.0148
;D:36;D:42;D:48	-10.0148
;w:6;D:36;D:37;D:42	-10.015
;N:70:32	-10.0154
;N:71:6;w:6;N:71:6;w:6	-10.0157
;N:69:3;w:6	-10.0157
;w:12;N:65:12;w:12;N:63:12	-10.0158
6;w:1	-10.0159
;w:12;N:58:12;w:12;N:58:12	-10.016
;w:12;N:52:12;w:12;N:55:12	-10.0164
;w:24;N:49:9	-10.0165
36;w:36;N:77:	-10.0166
;N:72:2;w:2	-10.0168
;N:84:0	-10.0169
;N:72:6;w:6;N:72:6;w:6	-10.0172
;w:21;N:55:	-10.0182
;N:69:12;w:12;N:71:12	-10.0184
;N:52:24;N:56:24	-10.0186
;N:53:12;N:57:12	-10.0188
;w:12;N:36:3	-10.0188
;N:76:2;w:2	-10.0188
;w:12;D:42;w:12;D:36;D:42;w:12;D:42	-10.0189
;w:12;N:71:12;w:12;N:68:12	-10.0193
;w:36;N:81:	-10.0196
;w:48;N:58:12	-10.02
;N:69:3;N:73:3	-10.02
;w:6;N:55:18	-10.0204
;N:55:6;N:60:6	-10.0205
;D:42;D:43	-10.0205
;w:12;N:69:12;w:12;N:72:12	-10.0207
18;w:18;N:74:6;w:6	-10.0207
8;w:8;N:66:8	-10.0208
;w:16;N:33:	-10.0211
;w:12;N:59:12;w:12;N:64:12	-10.0213
;N:59:9;N:64:9	-10.0214
;N:51:45	-10.0225
;w:6;D:36;D:41	-10.0228
;w:6;D:36;D:49	-10.0228
;N:85:0	-10.0228
;w:12;N:37:3	-10.023
;w:3;N:56:	-10.0236
;N:78:96	-10.0238
;N:62:6;N:66:6;N:69:6	-10.0238
;N:75:32	-10.0239
36;w:36;N:80:	-10.024
;N:41:96	-10.024
12;w:12;N:33:12	-10.024
;N:65:9;N:70:9	-10.0241
;N:29:24	-10.0243
;N:97:12	-10.0244
;N:74:30	-10.0245
;N:37:20	-10.0245
;w:6;N:70:6;N:82:6	-10.0246
;N:69:12;w:12;N:69:12	-10.0247
;w:12;N:62:12;N:66:12	-10.0249
;w:3;N:52:	-10.025
;N:79:36	-10.025
;N:32:18	-10.0254
;w:48;N:62:12	-10.0256
;w:18;N:56:3	-10.0256
;N:71:3;N:76:3	-10.0256
8;w:8;N:67:8	-10.0256
;w:6;N:34:6;w:6	-10.0259
;N:73:6;N:77:6	-10.026
;w:12;N:79:12;w:12;N:81:12	-10.0263
;N:83:4;w:4	-10.0265
;w:6;N:58:6;N:70:6	-10.0266
;N:68:96	-10.0268
;N:58:3;N:62:3	-10.0273
;w:12;N:70:12;w:12;N:70:12	-10.0277
;w:12;N:52:12;N:59:12	-10.0278
;w:21;N:72:	-10.0281
;N:53:12;N:56:12	-10.0282
6;w:6;N:69:6	-10.0282
;w:48;N:66:12	-10.0287
;D:70;w:6;D:38	-10.0288
24;w:24;N:78:12	-10.0291
;w:24;N:26:12	-10.0293
;w:6;N:65:6;w:6;N:65:6	-10.0293
;N:74:3;N:78:3	-10.0297
;N:77:12;N:82:12	-10.0298
;w:12;N:75:12;w:12;N:77:12	-10.0298
;N:57:9;N:60:9	-10.0302
;N:68:28	-10.0303
;N:74:7	-10.0305
;w:6;N:63:6;w:6;N:63:6	-10.0306
12;w:12;N:97:12	-10.0306
;N:63:4;N:68:4	-10.0306
;N:73:24;N:76:24	-10.0307
;N:93:6;w:6	-10.0308
;w:36;N:59:6	-10.0308
;N:83:21	-10.0311
;w:18;N:30:	-10.0313
;D:54;w:12;D:38	-10.0315
;w:24;N:53:8	-10.0315
;N:53:42	-10.0318
;D:36;w:24;D:38	-10.0321
;N:67:28	-10.0323
;w:6;N:46:	-10.0325
;w:24;N:32:24	-10.0325
;w:12;N:61:12;w:12;N:66:12	-10.0328
;w:12;N:85:6	-10.0329
;N:56:6;N:61:6	-10.0332
;w:24;N:62:18	-10.0332
;N:70:9;N:73:9	-10.0333
;w:6;N:78:3;w:6	-10.0335
;w:12;N:55:18	-10.0336
;w:12;N:68:12;N:71:12	-10.034
;N:63:12;N:75:12	-10.034
;D:50;D:53	-10.034
;N:64:12;N:76:12	-10.0342
;N:35:36	-10.0344
3;w:3;N:92:3;w:3	-10.0344
;N:72:12;w:12;N:72:12	-10.0347
;w:24;N:52:8	-10.0348
;w:48;N:65:12	-10.0352
;w:12;N:59:6;w:6	-10.0355
;N:78:1	-10.0356
;w:12;N:49:12;w:12;N:51:12	-10.0357
;w:12;N:48:12;w:12;N:50:12	-10.0358
;N:45:12;w:12;N:45:12	-10.0359
;N:33:8	-10.0362
;N:60:28	-10.0364
;N:37:36	-10.0366
;N:72:192	-10.037
;w:12;N:60:6;w:6	-10.0371
;w:24;N:35:6	-10.0374
;w:12;N:55:12;w:12;N:58:12	-10.0375
;w:6;N:66:6;w:6;N:68:6	-10.0381
;w:24;N:59:18	-10.0381
;w:6;N:82:	-10.0381
;N:34:16	-10.0382
8;w:8;N:73:8	-10.0388
;N:82:1	-10.0389
;N:57:6;N:61:6	-10.0389
18;w:18;N:75:6;w:6	-10.0391
;w:6;N:62:2	-10.0392
;N:65:12;N:77:12	-10.0393
;N:59:12;w:12;N:59:12	-10.0393
;N:49:5	-10.0395
;w:12;N:71:12;w:12;N:74:12	-10.0396
48;w:48;N:78:	-10.0396
3;w:3;N:55:3;w:3	-10.0401
;w:48;N:63:12	-10.0401
;w:18;N:25:	-10.0402
;N:110:	-10.0402
;N:72:4;N:75:4	-10.0402
;w:12;N:61:12;w:12;N:59:12	-10.0404
;w:12;N:67:18	-10.0408
8;w:8;N:76:8	-10.0408
;w:48;N:82:	-10.0408
;N:90:3;w:3	-10.0409
;w:12;N:61:21	-10.041
;w:36;N:64:6	-10.0412
;N:31:15	-10.0412
;N:48:5	-10.0415
;w:48;N:64:12	-10.0417
;N:74:60	-10.0417
;w:24;N:61:21	-10.0422
;N:57:60	-10.0422
;N:41:12;N:53:12	-10.0426
;w:12;N:97:	-10.0432
;w:16;N:73:	-10.0435
;N:64:12;w:12;N:62:12	-10.0436
;N:52:33	-10.0437
;N:56:96	-10.0439
;N:68:4;N:72:4	-10.0442
;w:12;N:75:12;w:12;N:75:12	-10.0443
;N:72:6;N:76:6	-10.0444
;N:62:42	-10.0445
;w:18;N:75:12	-10.0447
;N:58:12;N:63:12;N:67:12	-10.0459
;N:68:4;N:73:4	-10.0459
;w:12;N:68:12;N:72:12	-10.046
;w:6;N:56:6;w:6;N:58:6	-10.0463
;N:74:42	-10.0466
4;w:4;N:56:4;w:4	-10.0469
;w:6;N:58:6;w:6;N:60:6	-10.047
;w:36;N:58:6	-10.0471
;w:6;N:54:3;w:6	-10.0471
;N:52:8;w:8	-10.0474
;N:49:12;N:54:12	-10.0478
;w:16;N:49:	-10.0479
;w:21;N:73:	-10.048
;w:12;N:60:12;w:12;N:65:12	-10.0482
;N:70:4;N:73:4	-10.0487
;N:69:4;N:72:4	-10.049
;N:61:8;N:64:8	-10.0493
;N:82:20	-10.0499
;w:36;N:63:6	-10.0499
;N:79:12;N:82:12	-10.0503
;N:54:3;N:59:3	-10.0509
36;w:36;N:9	-10.051
;w:6;N:85:6;w:6	-10.051
;N:58:8;N:61:8	-10.0513
;N:72:12;N:77:12	-10.0517
;w:12;N:21:	-10.0517
;N:58:9;N:63:9	-10.0518
24;w:24;N:87:	-10.0518
;w:16;N:45:8	-10.0519
;N:63:12;w:12;N:63:12	-10.0521
;N:39:24;N:51:24	-10.0524
;N:60:4;N:65:4	-10.0524
;w:6;N:44:	-10.0526
;D:69;w:12;D:42;D:69	-10.0536
24;w:24;N:78:	-10.0538
;D:49;D:52	-10.0539
;w:12;N:56:12;w:12;N:61:12	-10.0542
;w:36;N:66:6	-10.0543
4;w:4;N:59:4;w:4	-10.0545
;N:51:1	-10.0546
;w:12;N:69:12;w:12;N:66:12	-10.0548
;N:72:3;N:76:3	-10.0552
;w:12;N:57:12;w:12;N:57:12	-10.0552
;w:6;N:31:	-10.0553
;w:24;N:60:18	-10.0553
;N:59:3;w:3	-10.0554
;N:60:6;N:64:6;N:67:6	-10.0554
;N:70:12;w:12;N:72:12	-10.0557
;w:12;N:65:12;N:69:12	-10.0557
;N:41:24;N:53:24	-10.0558
;w:12;N:69:12;N:73:12	-10.056
6;w:6;N:30:6;w:6	-10.0561
;N:78:3;w:6	-10.0562
;w:12;N:50:15	-10.0564
;w:36;N:62:6	-10.0565
;w:48;N:67:12	-10.0566
;N:96:6	-10.0567
;N:70:4;N:74:4	-10.0569
;w:12;N:35:3	-10.0571
;w:12;N:62:21	-10.0571
;w:12;N:30:6	-10.0577
;w:18;N:39:12	-10.0577
;w:8;N:63:8	-10.0578
;N:70:12;N:82:12	-10.0579
;w:6;N:83:6;w:6	-10.058
;N:76:6;N:80:6	-10.0581
;w:12;N:81:24	-10.0583
;w:12;N:63:12;w:12;N:64:12	-10.0585
;D:53;w:6;D:36	-10.0586
;w:18;N:81:	-10.0589
;N:59:32	-10.059
;N:53:27	-10.0591
;w:6;N:60:4	-10.0591
;D:42;D:47	-10.0591
;N:65:8;N:69:8	-10.0592
;w:12;N:67:12;w:12;N:64:12	-10.0592
;N:90:3;w:6	-10.0593
;N:77:12;N:80:12	-10.0594
;w:12;N:69:48	-10.0595
;w:6;N:81:6	-10.0599
;N:52:42	-10.0603
;N:40:12;N:52:12	-10.0603
;N:60:45	-10.0603
9;w:12;N:74:9	-10.0603
8;w:8;N:57:8	-10.0604
;w:24;N:72:9	-10.0605
;w:18;N:78:6	-10.0607
;w:8;N:39:	-10.0607
;N:81:5	-10.0611
;N:61:9;N:66:9	-10.0613
48;w:48;N:76:	-10.0616
;D:37;D:46	-10.0617
;N:69:96	-10.0618
;N:80:1	-10.0618
;w:12;N:73:12;w:12;N:70:12	-10.0619
;N:70:24;N:75:24	-10.0621
;N:61:9;N:64:9	-10.0623
;w:12;N:65:12;w:12;N:66:12	-10.0625
;w:6;N:63:9	-10.0625
;w:12;N:70:48	-10.0626
;D:70;w:12;D:36	-10.063
;N:59:4;N:63:4	-10.0634
3;w:3;N:52:3;w:3	-10.0636
;N:66:6;N:70:6;w:6	-10.0636
;N:52:6;N:56:6	-10.0637
;N:54:192	-10.0638
;N:77:12;w:12;N:75:12	-10.0643
;w:18;N:55:3	-10.0644
;w:6;N:65:	-10.0647
36;w:36;N:58:12	-10.0656
;N:61:12;N:73:12	-10.0657
;w:12;D:36;D:37;D:42	-10.0657
6;w:6;N:83:6;w:6	-10.0658
;w:48;N:68:12	-10.0661
;w:12;N:62:12;w:12;N:59:12	-10.0662
;D:43;D:46	-10.0664
3;w:2	-10.0664
;w:12;N:39:12;N:51:12	-10.0665
;N:42:24;N:54:24	-10.0666
;w:12;N:64:12;w:12;N:69:12	-10.0666
;w:3;N:61:3	-10.0666
;w:18;N:29:	-10.0667
48;w:48;N:77:	-10.0669
3;w:3;N:54:3;w:3	-10.067
;w:6;N:62:9	-10.0673
;D:69;w:6;D:69;w:6;D:42	-10.0675
36;N:76:36	-10.0677
;w:12;N:72:12;N:75:12	-10.0677
;N:68:12;w:12;N:70:12	-10.0679
0;N:57:0	-10.0683
;D:42;w:6;D:42;w:6;D:42	-10.0684
;w:6;N:64:	-10.0687
;N:59:9;N:62:9	-10.0687
;w:6;N:51:	-10.0689
;N:62:8;N:65:8	-10.069
;w:12;N:68:18	-10.0691
;w:6;N:57:6;N:69:6	-10.0692
;w:18;N:38:12	-10.0694
;N:65:12;w:12;N:67:12	-10.0695
;N:55:4;N:58:4	-10.0696
;w:48;N:57:12	-10.0696
;w:12;N:70:12;w:12;N:73:12	-10.0696
;N:60:8;N:63:8	-10.07
;w:24;N:61:48	-10.0702
12;w:12;N:37:12	-10.0702
;N:55:96	-10.0706
;N:65:9;N:68:9	-10.0708
;w:21;N:54:	-10.0709
;N:62:44	-10.0711
;w:6;N:67:6;w:6;N:69:6	-10.0712
8;w:8;N:71:8	-10.0714
;N:71:12;w:12;N:71:12	-10.0714
;N:57:12;N:61:12;N:64:12	-10.0716
;N:68:2;w:2	-10.0717
;w:8;N:51:4	-10.0717
;N:38:12;N:45:12;N:50:12	-10.0717
8;w:8;N:74:	-10.072
6;w:6;N:82:6;w:6;N:80:	-10.0728
;w:12;N:75:8	-10.073
;N:47:5	-10.073
;N:56:1	-10.0732
;w:12;N:53:12;w:12;N:56:12	-10.0732
24;w:24;N:31:24	-10.0733
;N:64:12;w:12;N:66:12	-10.0733
;N:68:6;N:71:6;w:6	-10.0733
0;N:56:0	-10.0734
;w:12;N:51:48	-10.0735
;N:97:6;w:6	-10.0736
;N:64:44	-10.0736
;w:12;N:68:12;w:12;N:65:12	-10.0737
;w:12;N:53:12;N:60:12	-10.0739
8;w:8;N:56:8	-10.074
;w:12;N:73:36	-10.0741
;N:57:1	-10.0743
;w:36;N:65:6	-10.0744
;w:24;N:57:48	-10.0744
;w:6;N:71:6;N:83:6	-10.0746
;N:53:96	-10.0747
;w:2;D:42	-10.0747
;w:12;N:54:12;w:12;N:57:12	-10.075
;w:16;N:48:8	-10.075
;N:62:12;N:74:12	-10.0757
;N:59:28	-10.0758
;N:67:2;w:2	-10.0759
;N:49:45	-10.076
0;N:66:0	-10.0761
;w:16;N:57:8	-10.0766
;w:12;N:38:12;N:50:12	-10.0767
;w:36;N:78:12	-10.0768
;N:51:6;N:55:6	-10.0768
;N:92:9	-10.0769
;w:2;D:38	-10.077
;w:6;N:36:12	-10.0771
;w:6;N:51:6;w:6;N:51:6	-10.0774
;w:18;N:60:6;w:6	-10.0775
;D:36;D:42;D:53	-10.0781
9;w:12;N:65:9	-10.0787
0;N:67:0	-10.0788
;w:36;N:26:	-10.0788
;N:74:6;N:79:6	-10.0789
;w:12;N:47:36	-10.0789
;N:55:32	-10.0789
;w:6;N:64:9	-10.0791
;w:16;N:53:8	-10.0792
;w:12;N:65:12;w:12;N:62:12	-10.0794
2;w:2;N:4	-10.0795
8;w:8;N:51:8	-10.0797
;N:63:44	-10.0797
;N:50:45	-10.08
;N:67:9;N:71:9	-10.08
;w:3;N:45:	-10.0802
36;N:77:36	-10.0804
;D:41;D:45	-10.0805
;N:53:6;N:57:6	-10.0806
;N:73:6;w:6;N:73:6	-10.0807
96;N:64:96	-10.0807
;N:52:12;N:55:12	-10.0808
;w:12;N:46:12;N:58:12	-10.0816
;N:52:6;w:6	-10.0816
;N:54:12;N:59:12;N:63:12	-10.0817
;w:18;N:35:6	-10.0818
;N:84:48	-10.0818
;w:6;N:59:4	-10.0819
;w:6;N:77:3	-10.0821
;w:3;N:47:	-10.0822
;N:25:12	-10.0822
;N:56:3;N:60:3	-10.0824
6;w:6;N:65:6;w:6	-10.0826
;N:57:4;N:60:4	-10.0826
6;w:6;N:78:6;w:6;N:80:	-10.0827
;N:59:45	-10.0828
9;w:12;N:76:9	-10.083
;w:16;N:37:	-10.0831
;w:8;N:53:4	-10.0832
;N:64:4;N:68:4	-10.0832
;w:12;N:53:12;w:12;N:53:12	-10.0833
;N:60:12;N:72:12	-10.0834
36;w:36;N:57:12	-10.0834
;w:12;N:47:12;N:59:12	-10.0835
;w:12;N:64:12;w:12;N:61:12	-10.0837
;N:52:27	-10.0839
;N:58:4;N:63:4	-10.0844
;D:42;D:49	-10.0844
;N:61:12;N:65:12;N:68:12	-10.0845
;N:53:1	-10.0846
;w:12;N:33:24	-10.0848
8;w:8;N:68:8	-10.0854
;N:63:14	-10.0857
;w:6;N:61:3;w:6	-10.0863
4;w:4;N:86:4;w:4	-10.0864
;N:70:39	-10.0866
;w:6;N:48:	-10.0868
;w:6;D:36;D:38;D:46	-10.087
;N:74:27	-10.0875
0;N:73:0	-10.0876
87	-10.0876
8;w:8;N:62:8	-10.0881
;w:6;N:32:	-10.0882
;N:54:32	-10.0883
;N:79:6;w:12;N:79:6	-10.0883
;w:12;N:37:4	-10.0885
;w:6;N:80:	-10.0887
;N:40:24;N:52:24	-10.0887
;w:36;N:32:12	-10.09
;w:24;N:71:3	-10.0902
;N:75:60	-10.0902
;N:23:3	-10.0905
;N:60:6;N:65:6	-10.0907
8;w:8;N:77:	-10.0909
;N:82:16	-10.0912
;w:12;N:67:12;N:70:12	-10.0914
;N:58:4;N:62:4	-10.0916
;w:12;N:72:12;w:12;N:69:12	-10.0917
;w:24;N:49:3	-10.0917
;N:42:72	-10.0917
8;w:8;N:76:	-10.0918
;w:3;N:74:	-10.0919
;w:12;N:52:18	-10.0921
;w:36;N:82:	-10.0922
;w:24;N:48:9	-10.0926
;w:16;N:61:8	-10.0927
;N:75:42	-10.0927
;N:53:3;N:58:3	-10.0929
;w:6;N:50:6;w:6;N:52:6	-10.0929
;w:12;N:53:12;N:57:12	-10.093
;w:6;D:36;D:42;w:6;D:38;D:42	-10.093
;w:6;N:44:6;w:6;N:44:6	-10.093
;w:6;N:61:4	-10.0931
;w:24;N:69:3	-10.0932
;w:18;N:36:	-10.0932
;N:87:15	-10.0934
;w:6;N:49:6;w:6;N:49:6	-10.0937
;N:66:9;N:69:9	-10.0937
;w:12;N:34:3	-10.0939
;N:57:192	-10.094
;N:78:12;w:12;N:76:12	-10.0941
;w:12;N:54:18	-10.0942
;N:56:39	-10.0948
;N:57:12;N:62:12;N:66:12	-10.095
;N:67:4;N:71:4	-10.095
;D:36;D:42;w:12;D:42;w:12;D:38;D:42;w:12;D:42	-10.0951
;w:6;N:42:6;w:6;N:42:6	-10.0954
;w:24;N:58:18	-10.0959
;w:12;N:50:48	-10.0961
;w:24;N:60:21	-10.097
;w:6;N:56:6;N:68:6	-10.0974
;w:12;N:48:12;N:60:12	-10.0975
;N:77:3;N:80:3	-10.0976
;w:8;N:50:4	-10.0976
;w:12;N:57:12;N:61:12	-10.0978
6;w:6;N:70:6	-10.0979
16;w:2	-10.0982
;D:46;w:12;D:36	-10.0982
6;w:6;N:84:6;w:6	-10.0988
12;w:12;N:98:12	-10.0989
;N:57:6;N:61:6;N:64:6	-10.0993
;N:69:28	-10.0995
;w:3;N:51:	-10.1001
;w:12;N:69:6;w:6	-10.1001
;w:6;D:38;D:42;w:6;D:42	-10.1004
;w:24;N:69:4	-10.1004
6;w:12;N:74:6	-10.1004
;N:79:20	-10.1006
;w:24;N:93:	-10.101
;w:12;D:36;D:45	-10.1011
;N:27:4	-10.1012
;D:47;w:6;D:47	-10.1015
;N:23:6	-10.1019
;N:56:12;N:61:12;N:65:12	-10.1019
;w:8;N:52:4	-10.102
;w:12;N:76:12;w:12;N:78:12	-10.102
;N:42:12;N:54:12	-10.1025
;N:54:12;w:12;N:54:12	-10.1027
;N:57:9;N:61:9	-10.1029
3;w:3;N:51:3;w:3	-10.103
;w:12;N:60:21	-10.103
9;w:2	-10.1031
;w:36;N:57:6	-10.1033
;w:12;N:49:12;N:61:12	-10.1034
;w:24;N:73:9	-10.1035
;N:92:8	-10.1036
;N:43:24;N:55:24	-10.1038
;N:65:11	-10.1038
;N:79:45	-10.1043
;N:78:3;N:81:3	-10.1045
;N:78:12;N:81:12	-10.1047
;w:12;N:73:12;N:85:12	-10.1047
;w:12;D:42;w:12;D:38;D:42	-10.1053
;w:4;D:36;w:4;D:36	-10.1054
;N:60:12;N:64:12;N:67:12	-10.1055
;w:36;N:88:	-10.1055
;N:51:24;N:55:24	-10.1059
;w:12;N:47:12;w:12;N:49:12	-10.106
;w:24;N:60:48	-10.1063
;w:18;N:76:6;w:6	-10.1063
;N:57:9;N:62:9	-10.1066
;w:48;N:56:12	-10.107
24;w:24;N:90:	-10.1071
;w:12;N:56:12;w:12;N:56:12	-10.1071
;N:74:6;w:6;N:74:6;w:6	-10.1072
;N:78:6;N:81:6	-10.1073
;w:6;N:62:6;w:6;N:64:6	-10.1079
;w:12;N:70:12;w:12;N:67:12	-10.108
;w:24;N:79:6	-10.1081
;N:64:8;N:67:8	-10.1082
;D:43;D:50	-10.1083
48;N:79:48	-10.1084
;w:12;N:33:9	-10.1091
;w:24;N:59:21	-10.1092
;N:33:6;w:6;N:33:6	-10.1095
;w:6;N:72:6;N:84:6	-10.1097
;D:36;w:12;D:38	-10.1097
;N:59:4;N:64:4	-10.1097
;w:3;N:73:	-10.11
;w:6;D:36;D:42;w:6;D:36;D:42	-10.11
;N:52:24;N:57:24	-10.1103
;D:69;w:2	-10.1104
;w:12;N:53:12;N:56:12	-10.1109
;w:24;N:62:16	-10.111
;w:12;N:74:15	-10.111
;N:30:18	-10.1111
;w:24;N:63:16	-10.1113
;N:62:11	-10.1114
;D:69;w:6;D:38;D:69	-10.1114
;N:44:24;N:56:24	-10.1115
;N:33:16	-10.1115
;N:52:12;N:57:12	-10.1119
;w:8;N:65:8	-10.112
;w:24;N:97:	-10.112
;w:6;N:50:	-10.112
;w:6;N:54:18	-10.1121
9;w:12;N:64:9	-10.1122
;w:8;N:38:	-10.1123
;N:56:0	-10.1124
;N:74:24;N:77:24	-10.1124
;w:24;N:58:21	-10.1126
;N:59:8;N:62:8	-10.1126
;N:74:3;N:77:3	-10.1127
;w:24;N:62:24;N:65:24	-10.113
;N:91:8	-10.1141
;N:53:30	-10.1141
;w:18;N:69:3	-10.1142
12;w:12;N:29:12	-10.1143
;w:6;D:38;D:48	-10.1151
;N:55:6;N:58:6	-10.1151
;w:12;N:59:21	-10.1153
;w:24;N:34:6	-10.1154
18;w:18;N:68:6;w:6	-10.1154
;N:51:12;w:12;N:51:12	-10.1155
15;w:3	-10.1156
36;w:36;N:72:	-10.1157
;w:8;N:78:	-10.1157
;w:24;N:57:18	-10.1158
18;w:18;N:72:6	-10.1165
;w:6;D:41;D:42	-10.1171
;N:64:11	-10.1171
;w:12;N:46:12;w:12;N:46:12	-10.1172
;N:64:14	-10.1174
;N:63:11	-10.1176
;w:12;N:71:12;N:74:12	-10.1178
;w:12;N:58:21	-10.1179
;w:6;N:60:9	-10.1182
;N:75:7	-10.1184
;w:12;N:48:12;w:12;N:48:12	-10.1185
;w:48;N:32:	-10.1187
;N:71:12;N:83:12	-10.1188
;w:12;N:74:12;w:12;N:71:12	-10.1189
;N:71:1;w:1	-10.1192
;w:12;N:61:12;w:12;N:65:12	-10.1201
;N:59:42	-10.1201
;N:61:12;N:66:12;N:70:12	-10.1201
;N:82:36	-10.1202
;w:24;D:39	-10.1202
;w:16;N:36:	-10.1202
3;w:3;N:49:3;w:3	-10.1206
;w:16;N:46:8	-10.1208
;N:36:20	-10.1208
;w:16;N:58:8	-10.1209
;N:55:192	-10.1209
36;w:36;N:74:	-10.1209
18;w:18;N:83:	-10.121
;w:12;N:51:18	-10.121
8;w:8;N:75:8	-10.1211
;w:24;N:63:48	-10.1211
;N:71:39	-10.1211
;N:62:12;N:66:12;N:69:12	-10.1211
;N:82:4;w:4	-10.1212
;w:12;N:54:12;N:58:12	-10.1215
;N:85:48	-10.1215
;w:24;N:67:18	-10.1215
;w:16;N:59:8	-10.1216
;N:67:6;N:72:6;w:6	-10.1217
9;w:12;N:63:9	-10.1218
;w:12;N:64:12;N:68:12	-10.122
;N:98:12	-10.122
;w:6;N:55:4	-10.1221
;w:24;N:62:48	-10.1222
;N:90:4;w:4	-10.1222
;w:16;N:55:8	-10.1223
;N:73:12;w:12;N:73:12	-10.1223
;N:38:24;N:50:24	-10.1225
;w:3;N:65:	-10.1226
;w:12;N:49:48	-10.1227
12;w:12;N:71:12	-10.1229
;N:58:28	-10.123
36;w:36;N:75:	-10.1232
;D:54;w:12;D:36;D:42	-10.1235
;N:56:192	-10.1236
;N:65:6;N:69:6;w:6	-10.1237
;w:6;D:38;w:6;D:38;D:42	-10.1239
;w:12;N:39:8	-10.1239
3;w:3;N:56:3;w:3	-10.124
;N:75:33	-10.124
;N:56:60	-10.1242
;w:12;D:36;D:38;D:49	-10.1243
;N:48:6;N:53:6	-10.1243
0;N:70:0	-10.1243
6;w:6;N:64:6;w:6	-10.1244
3;w:3;N:48:3;w:3	-10.1246
;N:60:6;N:65:6;N:69:6	-10.1246
;w:24;N:60:16	-10.1246
;D:49;D:53	-10.1251
;w:24;N:47:9	-10.1257
;N:73:3;N:78:3	-10.1259
36;w:36;N:73:	-10.126
;N:91:24	-10.1263
24;w:24;N:10	-10.1264
;N:70:12;w:12;N:70:12	-10.1264
3;w:6;N:76:3;w:6	-10.1266
;N:79:12;w:12;N:77:12	-10.1266
24;w:24;N:76:	-10.1268
;w:12;D:36;D:42;D:43	-10.1268
24;w:24;N:77:	-10.1271
;N:50:1	-10.1276
;N:71:4;N:75:4	-10.1277
2;N:73:2	-10.1287
;N:66:11	-10.1288
;N:66:44	-10.1289
;N:60:44	-10.1289
;w:6;N:63:4	-10.129
;w:12;N:37:12;N:49:12	-10.1291
;D:53;w:12;D:42	-10.1291
;w:12;N:66:12;w:12;N:71:12	-10.1293
;N:75:12;N:79:12	-10.1294
;N:73:24;N:77:24	-10.1294
24;w:24;N:89:24	-10.1295
96;N:63:96	-10.1297
;N:57:8;N:60:8	-10.1299
;w:24;N:70:3	-10.1299
;w:12;N:50:12;w:12;N:50:12	-10.13
;w:8;N:71:4	-10.1301
;w:12;N:73:12;w:12;N:76:12	-10.1301
;w:24;N:56:48	-10.1302
;N:72:24;N:77:24	-10.1307
;w:24;N:58:48	-10.1307
;N:65:14	-10.1308
;N:34:21	-10.1323
;w:6;N:64:2	-10.1323
;N:76:10	-10.1323
;w:12;N:63:21	-10.1329
;w:24;N:70:4	-10.1332
;N:63:9;N:67:9	-10.1332
;w:3;D:42;w:3	-10.1335
;D:36;D:48	-10.1336
;w:3;N:50:	-10.1337
;w:12;N:53:18	-10.1337
0;N:53:	-10.1339
;D:36;D:50	-10.134
;N:75:24;N:78:24	-10.1343
;N:66:4;N:71:4	-10.1344
;w:24;N:68:18	-10.1346
;N:54:3;w:3	-10.1353
;w:12;N:55:12;w:12;N:60:12	-10.1354
;w:12;N:54:12;w:12;N:59:12	-10.1354
24;w:24;N:77:12	-10.1354
;N:79:96	-10.1355
;N:71:12;w:12;N:73:12	-10.1356
;w:12;N:60:12;w:12;N:58:12	-10.1356
;N:53:24;N:56:24	-10.1356
;N:52:192	-10.1362
;D:54;D:69;w:6	-10.1363
;w:24;N:59:16	-10.1364
;N:48:12;N:53:12	-10.1365
;w:6;D:53	-10.1366
;N:28:6;N:40:6	-10.1366
;N:79:3;w:6	-10.1366
;w:16;N:62:8	-10.1367
12;w:12;N:26:12	-10.1368
;w:12;N:65:12;w:12;N:70:12	-10.1368
;w:3;D:38;w:3;D:38	-10.1369
;N:68:11	-10.1372
;w:24;N:59:48	-10.1378
6;w:6;N:31:6;w:6	-10.1379
;N:73:6;N:78:6	-10.1381
;w:24;N:72:3	-10.1383
;N:71:4;N:74:4	-10.1383
;N:69:6;N:72:6;w:6	-10.1384
;N:60:9;N:64:9	-10.1384
;N:59:192	-10.1386
;w:6;N:79:3;w:6	-10.1387
;N:57:12;w:12;N:57:12	-10.1387
;w:6;N:67:18	-10.1389
24;N:86:24	-10.1389
;w:24;N:61:16	-10.1391
12;w:12;N:32:12	-10.1396
24;w:24;N:79:12	-10.1399
;w:6;N:65:6;w:6;N:67:6	-10.14
;w:12;N:66:12;w:12;N:63:12	-10.1402
;w:12;N:71:6;w:6	-10.1403
96;N:61:96	-10.1404
12;w:12;N:31:12	-10.1404
;N:67:11	-10.1404
;N:55:39	-10.1406
;w:12;N:56:6;w:6	-10.1406
;N:85:18	-10.1406
;w:16;N:44:8	-10.1406
;w:8;N:53:8	-10.1407
;N:65:44	-10.1407
;w:4;N:64:	-10.141
;w:12;N:75:3	-10.141
;w:24;N:63:24;N:66:24	-10.1411
;N:80:2	-10.1412
;w:24;N:51:4	-10.1412
;w:12;N:66:12;N:70:12	-10.1412
;N:72:24;N:76:24	-10.1414
;w:12;N:43:12;w:12;N:43:12	-10.1417
;w:6;N:57:4	-10.1421
;w:9;D:42	-10.1421
;w:16;N:43:	-10.1422
;w:12;N:51:12;N:63:12	-10.1424
;N:50:6;N:53:6	-10.1425
;w:6;D:42;D:50	-10.1428
0;N:65:0	-10.1431
;w:24;N:62:21	-10.1432
0;N:55:0	-10.1432
;w:6;D:36;w:6	-10.1432
;w:6;N:56:3;w:6	-10.1433
;N:52:12;w:12;N:52:12	-10.1434
;N:70:1;w:1	-10.1435
;w:6;N:63:2	-10.1439
;w:16;N:60:8	-10.1439
;D:42;D:53	-10.1439
4;w:4;N:57:4;w:4	-10.1439
;N:53:6;N:58:6	-10.1439
36;N:55:36	-10.144
;N:75:27	-10.144
;w:24;N:69:8	-10.144
;w:16;N:48:	-10.1444
;N:74:33	-10.1444
;w:18;N:69:6;w:6	-10.1445
;w:12;N:78:9	-10.1448
;w:24;N:51:8	-10.145
18;w:18;N:77:6;w:6	-10.1453
;N:73:192	-10.1454
;N:64:6;N:68:6;N:71:6	-10.1454
18;N:77:18	-10.1457
;N:66:14	-10.1457
6;w:6;N:81:6;w:6;N:79:	-10.1458
;w:12;N:53:12;N:58:12	-10.146
;N:54:7	-10.1466
;w:48;N:69:12	-10.1466
;D:36;w:24;D:36	-10.1469
;N:67:14	-10.1477
;w:24;N:79:24	-10.1479
;N:58:32	-10.148
;N:101:6	-10.1483
;w:12;N:70:12;N:74:12	-10.1489
;w:6;N:52:18	-10.1492
;N:82:3;w:6	-10.1495
8;w:8;N:78:	-10.1495
;w:18;N:82:	-10.1497
;w:18;N:54:3	-10.1499
;w:6;N:55:6;w:6;N:57:6	-10.15
;N:72:1;w:1	-10.1502
;N:66:9;N:71:9	-10.1502
;w:6;N:54:2	-10.1502
;w:12;D:36;D:38;D:39;D:42	-10.1507
;w:6;N:64:6;w:6;N:67:6	-10.1509
;N:97:4	-10.151
;N:86:4;w:4	-10.151
;N:39:0	-10.1513
8;w:8;N:61:8	-10.1514
;w:6;N:67:9	-10.1516
0;N:68:0	-10.1517
;D:51;w:24;D:51	-10.1517
;w:6;N:62:6;w:6;N:62:6	-10.1517
;N:53:192	-10.1522
;N:65:8;N:68:8	-10.1523
;N:78:2;w:2	-10.1526
;N:50:6;N:54:6	-10.1532
;N:62:14	-10.1535
;N:52:6;N:57:6;N:61:6	-10.1536
;N:65:192	-10.1541
;N:69:1;w:1	-10.1541
36;w:36;N:55:12	-10.1543
;N:67:9;N:70:9	-10.1544
;w:36;N:67:6	-10.1546
;w:12;N:60:12;w:12;N:64:12	-10.1546
;w:12;N:47:12;w:12;N:47:12	-10.1547
;w:16;N:32:	-10.1548
16;w:16;N:80:	-10.1548
48;N:81:48	-10.1549
;N:58:42	-10.1551
;w:24;N:84:12	-10.1552
;w:16;N:54:8	-10.1553
;w:3;N:58:3	-10.1554
;w:12;N:55:12;w:12;N:55:12	-10.1555
;N:78:12;N:82:12	-10.1558
;N:45:24;N:57:24	-10.1558
;w:6;N:55:6;w:6;N:58:6	-10.1561
;w:6;N:53:2	-10.1565
16;w:8	-10.1565
;w:6;N:52:	-10.1569
;w:24;N:50:4	-10.1574
8;w:8;N:72:	-10.1575
;w:12;N:44:12;w:12;N:44:12	-10.1576
;w:6;N:55:6;N:67:6	-10.1577
;N:75:3;N:79:3	-10.1579
;w:6;N:50:6;w:6;N:50:6	-10.158
;w:12;N:46:36	-10.158
;N:58:3;w:3	-10.1585
;w:3;N:59:3	-10.1586
;N:73:4;N:76:4	-10.159
12;w:12;N:30:12	-10.1592
;w:24;N:56:21	-10.1592
;N:79:2;w:2	-10.1592
2;N:74:2	-10.1596
96;N:66:96	-10.1598
;N:79:72	-10.1598
4;w:4;N:58:4;w:4	-10.1599
6;w:6;N:79:6;w:6;N:81:	-10.1602
;N:35:20	-10.1603
;N:72:12;w:12;N:65:12	-10.1604
;w:36;N:55:6	-10.1607
;w:16;N:47:	-10.1607
;N:75:30	-10.1608
;N:51:33	-10.1609
;w:12;N:88:12	-10.161
;N:87:3;w:3	-10.1612
14;w:1	-10.1613
;w:6;N:61:9	-10.1614
;N:72:12;N:84:12	-10.1615
;N:69:9;N:72:9	-10.1617
;w:21;N:53:	-10.1617
;N:71:96	-10.1619
;N:61:14	-10.1619
0;N:74:0	-10.162
;N:46:12;w:12;N:46:12	-10.1621
;N:59:6;N:64:6	-10.1623
;N:84:16	-10.1627
;N:63:8;N:68:8	-10.1629
9;w:12;N:39:9	-10.1634
;N:76:3;N:80:3	-10.1638
96;N:65:96	-10.1641
;D:54;w:6;D:54;w:6;D:54;w:6;D:54	-10.1642
;w:24;N:46:9	-10.1643
;D:38;w:6;D:38	-10.1643
;w:24;N:64:16	-10.1645
;N:59:44	-10.1645
;w:21;N:74:	-10.1647
;N:58:9;N:61:9	-10.1652
8;w:8;N:75:	-10.1653
;w:3;N:46:	-10.1653
;w:12;N:42:12;w:12;N:42:12	-10.1653
;w:12;N:55:12;w:12;N:59:12	-10.1655
;w:16;N:46:	-10.1658
;w:12;N:57:6;w:6	-10.1661
36;w:36;N:71:	-10.1661
48;N:82:48	-10.1662
;D:73;D:76	-10.1664
;w:6;N:60:6;w:6;N:62:6	-10.1666
;w:12;N:56:12;w:12;N:60:12	-10.1671
;N:30:8	-10.1673
;w:24;N:57:21	-10.1674
12;w:1	-10.1674
;N:71:32	-10.1675
;w:16;N:41:	-10.1676
96;N:62:96	-10.1677
;w:16;N:42:	-10.168
;N:68:6;w:6;N:68:6;w:6	-10.1682
;w:6;N:52:2	-10.1682
;w:24;N:70:8	-10.1688
48;N:59:48	-10.169
;D:45;w:12;D:45	-10.1691
;N:74:3;N:79:3	-10.1691
;N:65:9;N:69:9	-10.1692
;N:97:3;w:3	-10.1694
;N:73:96	-10.1696
;w:24;N:42:9	-10.1696
;w:3;N:66:	-10.1696
;w:8;N:66:4	-10.1699
;w:16;N:74:	-10.1699
;w:12;N:78:12;w:12;N:76:12	-10.1699
;N:73:6;N:85:6	-10.17
;w:24;N:55:48	-10.1706
;N:43:6;N:50:6;N:55:6	-10.1707
;N:61:6;N:66:6;N:70:6	-10.1708
;w:16;N:64:8	-10.171
;D:38;w:24;D:38	-10.171
8;w:8;N:58:8	-10.171
3;w:7	-10.1712
;w:16;N:56:8	-10.1713
24;w:24;N:80:12	-10.1713
;D:36;D:39	-10.1713
;w:6;N:43:6;w:6;N:43:6	-10.1719
;w:6;N:56:4	-10.1721
;w:6;N:84:6;w:6	-10.1722
;w:6;N:48:3;w:6	-10.1723
;N:66:192	-10.1726
;w:24;N:45:9	-10.1727
;w:6;N:59:9	-10.1729
;D:36;D:47	-10.1729
;w:12;N:25:12	-10.1729
;D:76;w:3	-10.173
;w:16;N:31:	-10.1731
24;w:24;N:75:12	-10.1735
12;w:12;N:36:12	-10.1736
;w:36;N:68:6	-10.174
;N:73:12;N:85:12	-10.1741
;N:79:9;w:9	-10.1742
;w:6;N:66:9	-10.1742
;w:48;N:61:24	-10.1743
;w:18;N:76:12	-10.1743
;w:24;N:63:21	-10.1745
;N:83:20	-10.1748
8;w:8;N:46:8	-10.175
;N:70:6;N:73:6;w:6	-10.1753
;N:63:8;N:66:8	-10.1754
;w:24;N:43:9	-10.1757
;w:12;N:69:18	-10.1759
;w:24;N:55:21	-10.1761
;N:38:0	-10.1762
;D:36;D:69	-10.1764
;w:8;N:48:4	-10.1766
;N:97:6	-10.177
36;w:36;N:81:	-10.1771
12;w:12;N:41:12	-10.1771
;w:12;N:71:48	-10.1774
;N:54:6;N:59:6	-10.1775
;w:12;N:57:21	-10.1776
16;N:72:16	-10.1779
;N:55:0	-10.1779
;N:37:24;N:49:24	-10.1783
;N:62:9;N:67:9	-10.1783
;N:75:4;N:78:4	-10.1784
;D:69;w:6;D:69;w:6;D:69;w:6;D:69	-10.1784
;N:57:12;N:69:12	-10.1788
;D:45;D:49	-10.1789
;D:69;w:6;D:69;w:6;D:36	-10.179
;w:48;N:60:24	-10.1794
;w:12;N:49:12;w:12;N:49:12	-10.1796
;N:76:32	-10.1799
;w:6;N:23:	-10.1802
;w:18;N:71:6;w:6	-10.1804
;N:39:96	-10.1804
;N:63:12;w:12;N:61:12	-10.1805
;D:46;D:50	-10.1807
;N:80:12;N:83:12	-10.1807
;N:70:96	-10.1808
;w:24;N:64:48	-10.1809
;N:34:36	-10.1813
;w:12;D:36;D:42;D:45	-10.1813
36;N:78:36	-10.1814
;w:6;N:45:6;w:6;N:45:6	-10.1815
;N:59:12;N:64:12;N:68:12	-10.1815
;w:24;N:95:	-10.182
;w:6;N:58:4	-10.1822
;N:73:4;N:77:4	-10.1823
;w:24;N:40:9	-10.1824
;w:12;N:75:15	-10.1826
;w:12;N:50:12;N:62:12	-10.1828
;w:6;N:33:	-10.183
;w:9;N:66:	-10.1832
;N:32:12;w:12;N:32:12	-10.1835
;w:12;N:63:12;w:12;N:66:12	-10.1835
;w:12;N:72:6;w:6	-10.1835
24;w:24;N:76:12	-10.1842
;w:6;N:70:6;w:6;N:73:6	-10.1847
;w:6;N:53:6;N:65:6	-10.1847
;w:36;N:56:6	-10.1847
;D:42;w:24;D:42	-10.1849
;N:42:6;w:12;N:42:6	-10.1849
;w:48;N:55:12	-10.1851
18;w:18;N:65:18	-10.1852
;w:12;N:63:12;w:12;N:61:12	-10.1853
;w:16;N:45:	-10.1853
;w:48;N:31:	-10.1854
;w:6;N:57:9	-10.1854
;N:47:12;w:12;N:47:12	-10.1859
;w:12;N:70:18	-10.186
;N:31:18	-10.1861
6;w:6;N:41:6;w:6	-10.1862
;N:70:6;N:75:6;w:6	-10.1863
;N:45:12;N:57:12	-10.1865
;N:68:9;N:72:9	-10.1865
;w:18;N:80:6	-10.1865
;w:6;N:58:9	-10.1866
;N:100:6;w:6	-10.1866
;w:12;N:38:8	-10.1866
6;w:6;N:36:6	-10.1868
;D:70;w:6;D:42;D:70	-10.1868
21;N:73:21	-10.187
;w:12;N:57:12;w:12;N:58:12	-10.187
;w:12;N:76:4	-10.1872
;N:68:1;w:1	-10.1873
;N:88:3;w:3	-10.1873
6;w:6;N:81:6;w:6;N:83:	-10.1874
;w:48;N:86:	-10.1874
;N:59:6;N:63:6;N:66:6	-10.1875
;w:12;N:67:12;w:12;N:72:12	-10.1879
;w:12;N:52:12;N:55:12	-10.188
;N:62:8;N:66:8	-10.1883
;w:16;N:63:8	-10.1888
;w:48;N:63:24	-10.1889
;w:21;N:52:	-10.189
12;w:12;N:40:12	-10.1892
;w:12;N:41:12;w:12;N:41:12	-10.1892
9;w:12;N:62:9	-10.1892
;N:88:48	-10.1893
;N:74:1;w:1	-10.1894
;w:6;N:53:18	-10.1895
;N:72:96	-10.1896
;N:71:6;N:74:6;w:6	-10.1897
;w:12;N:36:12;N:48:12	-10.1898
16;w:16;N:75:	-10.1898
;w:8;D:46	-10.1898
;w:18;N:70:3	-10.1901
;N:85:8;w:8	-10.1902
;N:82:5	-10.1903
;w:3;N:63:3	-10.1903
9;w:12;N:79:9	-10.1905
;D:56;w:12;D:42	-10.1906
;D:49;D:50	-10.1906
;D:69;w:3	-10.1906
;w:6;N:57:6;w:6;N:57:6	-10.1907
2;N:72:2	-10.1908
;N:74:12;N:78:12	-10.1909
;D:70;w:12;D:42;D:70	-10.1914
48;w:48;N:79:	-10.1915
;N:73:1	-10.1915
;w:18;N:70:6;w:6	-10.1915
18;w:18;N:78:6;w:6	-10.1917
;w:24;N:65:16	-10.1919
;N:39:12;N:51:12	-10.192
;w:8;N:67:8	-10.1921
;w:6;N:62:6;w:6;N:65:6	-10.1921
;N:52:12;N:56:12	-10.1922
;N:58:12;w:12;N:58:12	-10.1925
;D:43;D:49	-10.1926
;N:76:42	-10.1927
;w:12;N:74:12;w:12;N:77:12	-10.193
;N:26:12;w:12;N:26:	-10.1935
;N:51:4;w:4	-10.1935
;N:43:12;N:55:12	-10.1936
;D:36;D:42;w:6;D:42;w:6;D:46	-10.1938
;w:3;N:60:3	-10.1942
;w:24;N:41:9	-10.1943
;N:62:12;w:12;N:60:12	-10.1944
;w:12;N:74:8	-10.1946
;N:57:28	-10.1947
;w:6;D:38;D:42;D:54	-10.1949
;N:67:192	-10.1952
;N:67:6;N:71:6;w:6	-10.1952
36;w:36;N:79:12	-10.1953
24;w:24;N:74:	-10.1955
;N:54:10	-10.1955
24;w:24;N:72:12	-10.1958
;w:36;D:38	-10.196
;D:42;w:12;D:38	-10.1962
;N:62:12;w:12;N:64:12	-10.1963
;N:36:24;N:48:24	-10.1963
;N:66:8;N:69:8	-10.1963
;w:6;N:54:6;N:66:6	-10.1965
;N:53:32	-10.1968
;N:66:2;w:2	-10.197
6;w:6;N:39:6;w:6	-10.1971
;D:36;D:41;D:42	-10.1974
3;w:6;N:78:3;w:6	-10.1975
48;N:51:48	-10.1976
;w:6;D:38;w:6;D:38;w:6;D:38;w:6;D:38	-10.1979
;N:80:2;w:2	-10.1979
6;w:6;N:35:6	-10.1982
;w:24;N:56:18	-10.1982
;N:60:9;N:65:9	-10.1984
24;w:24;N:72:	-10.1985
;N:74:32	-10.1986
;w:12;N:46:12;w:12;N:48:12	-10.1989
;N:84:21	-10.1991
;N:68:9;N:71:9	-10.1992
;N:55:60	-10.1992
;N:63:12;w:12;N:65:12	-10.1994
3;w:3;N:47:3;w:3	-10.1996
;w:12;N:70:12;w:12;N:69:12	-10.1997
;N:53:24;N:58:24	-10.1999
;D:48;D:56	-10.2001
;N:86:16	-10.2002
;N:61:11	-10.2002
;w:12;D:42;D:47	-10.2004
;w:24;N:61:24;N:64:24	-10.2004
;D:42;w:12;D:36	-10.2006
;N:41:6;N:48:6;N:53:6	-10.2008
96;N:67:96	-10.2011
;w:6;D:36;D:39	-10.2011
;N:70:28	-10.2012
;N:53:6;N:57:6;N:60:6	-10.2014
;N:74:24;N:78:24	-10.2016
;N:77:1;w:1	-10.2018
;N:72:6;w:6;N:70:6	-10.2019
;N:73:1;w:1	-10.202
;N:34:48	-10.2025
;w:12;N:63:12;w:12;N:60:12	-10.2026
;N:77:10	-10.2028
;w:12;N:51:12;w:12;N:54:12	-10.2029
;N:99:12	-10.203
;N:52:24;N:55:24	-10.2031
;w:6;N:75:3	-10.2031
;w:12;D:38;D:42;w:12;D:36;D:42	-10.2032
;N:58:45	-10.2036
;w:6;N:24:	-10.2037
;N:70:11	-10.2038
;N:83:16	-10.2038
;D:45;D:70	-10.2039
3;w:3;N:53:3;w:3	-10.2043
;w:6;N:35:12	-10.2043
;N:61:9;N:65:9	-10.2048
16;w:16;N:76:	-10.2052
;w:12;N:56:12;N:60:12	-10.2054
;N:73:12;w:12;N:66:12	-10.2055
36;w:36;N:56:12	-10.2058
;N:68:14	-10.2059
;w:12;N:32:9	-10.2059
;N:47:6;w:12;N:47:6	-10.2062
;w:12;N:64:21	-10.2065
;w:9;N:57:	-10.2066
;N:71:24;N:76:24	-10.2067
;w:48;N:57:24	-10.207
;w:6;N:53:6;w:6;N:55:6	-10.2071
20;N:54:20	-10.2072
;w:48;N:59:24	-10.2075
;w:6;N:59:6;w:6;N:62:6	-10.2077
;w:12;N:75:12;w:12;N:72:12	-10.2077
;w:6;N:48:6;N:60:6	-10.2078
;N:62:9;N:66:9	-10.2079
;w:48;N:70:12	-10.2081
;D:54;D:69;D:70	-10.2082
;N:79:6;N:83:6	-10.2083
;N:38:12;N:50:12	-10.2089
18;w:18;N:67:6;w:6	-10.209
;N:66:9;N:70:9	-10.2092
;w:8;N:49:4	-10.2093
;N:55:4;N:59:4	-10.2093
6;w:6;N:90:6	-10.2093
;N:56:9;N:59:9	-10.2094
;w:12;N:57:12;w:12;N:55:12	-10.2096
;N:75:6;N:80:6	-10.2097
36;N:52:36	-10.2097
;N:44:12;N:56:12	-10.2107
;D:69;w:8;D:69	-10.2107
;N:61:8;N:66:8	-10.2108
;N:50:12;N:54:12	-10.2108
;N:77:24;N:80:24	-10.211
;N:64:6;N:68:6;w:6	-10.2112
;w:12;N:56:21	-10.2112
;w:12;N:55:6;w:6	-10.2114
;w:18;N:68:6;w:6	-10.2115
;N:80:45	-10.2116
;w:12;N:48:48	-10.2119
;N:72:9;N:75:9	-10.212
;N:59:8;N:64:8	-10.2121
48;N:64:48	-10.2123
;N:80:3;w:6	-10.2124
;N:51:12;N:56:12	-10.2128
;w:3;N:64:3	-10.2128
;N:76:7	-10.2131
;N:50:33	-10.2135
;w:12;N:68:12;w:12;N:73:12	-10.2135
;w:12;N:60:12;w:12;N:57:12	-10.2142
;w:24;N:31:24	-10.2142
;D:69;D:76;w:6	-10.2143
18;w:18;N:69:6;w:6	-10.2147
9;w:12;N:81:9	-10.2147
;w:12;D:36;D:41	-10.2148
;w:24;N:50:8	-10.2148
;N:87:16	-10.2149
;N:50:12;w:12;N:50:12	-10.2151
;w:12;N:83:24	-10.2154
;N:80:20	-10.2156
;N:59:6;w:6;N:59:6;w:6	-10.2159
;N:64:6;w:6;N:64:6	-10.216
;N:58:192	-10.2162
;w:12;N:46:12;N:53:12;N:58:12	-10.2165
;w:6;N:63:6;w:6;N:65:6	-10.2165
;w:6;D:37;D:38	-10.2165
;w:24;N:74:9	-10.2167
12;w:12;N:25:12	-10.2168
9;w:12;N:36:9	-10.2168
8;w:12;N:69:8	-10.2168
6;w:6;N:30:6	-10.2168
;w:8;N:33:	-10.2168
;w:48;N:83:	-10.2172
;N:67:1;w:1	-10.2173
;w:6;N:58:18	-10.2173
;D:51;D:54;D:69	-10.2176
;N:40:12;w:12;N:40:12	-10.2179
;w:12;N:59:12;w:12;N:63:12	-10.2181
;w:16;N:44:	-10.2182
;N:56:9;N:61:9	-10.2189
;w:12;N:48:12;w:12;N:46:12	-10.2192
;w:12;N:45:36	-10.2194
;N:101:3	-10.2195
;N:48:12;w:12;N:48:12	-10.2196
;w:12;N:74:36	-10.2196
;w:12;N:57:12;w:12;N:61:12	-10.2198
;N:76:1;w:1	-10.2198
;w:12;N:74:12;N:86:12	-10.2203
;N:52:3;N:57:3	-10.2203
;N:79:3;N:82:3	-10.2203
0;N:54:0	-10.2204
;w:8;N:46:4	-10.2205
;N:58:12;N:70:12	-10.2205
4;w:6;N:76:3;w:6	-10.2214
;w:12;N:49:15	-10.2215
;w:6;N:59:6;w:6;N:61:6	-10.2215
;N:67:44	-10.2217
;N:50:4;w:4	-10.2217
;N:47:4;w:4	-10.2218
;N:50:12;N:55:12	-10.2218
;w:16;N:65:8	-10.2219
;w:6;N:61:18	-10.2222
;w:16;N:40:	-10.2223
;N:78:4;w:6	-10.2228
;w:12;N:69:12;w:12;N:70:12	-10.2229
;w:6;N:65:2	-10.223
;w:12;N:44:12;w:12;N:46:12	-10.2232
;w:12;N:71:12;w:12;N:72:12	-10.2237
;N:72:6;N:75:6;w:6	-10.2239
;w:24;N:57:16	-10.2241
;w:12;N:59:6;w:12;N:59:6	-10.2241
;D:36;D:39;D:42	-10.2242
;w:16;N:39:	-10.2242
;N:85:16	-10.2246
;w:18;N:32:6	-10.2247
;w:3;N:43:	-10.2249
;N:54:6;N:59:6;N:63:6	-10.2249
;w:24;N:59:24;N:62:24	-10.2251
;N:74:192	-10.2252
;w:6;D:38;D:42;D:48	-10.2253
;N:50:24;N:54:24	-10.2253
;w:12;N:48:15	-10.2253
;w:6;N:34:3	-10.2254
;N:56:4;w:4	-10.2255
;w:12;N:40:12;N:47:12	-10.2256
;w:18;N:90:	-10.2256
;N:51:42	-10.2256
;D:69;w:12;D:36;D:42	-10.2257
;N:44:12;w:12;N:44:12	-10.226
;w:6;N:51:6;N:63:6	-10.2261
;N:21:12	-10.2263
;w:12;N:67:12;w:12;N:68:12	-10.2264
;w:6;D:36;D:38;w:6;D:36;D:38	-10.2264
;w:12;N:45:12;w:12;N:47:12	-10.2266
;N:48:45	-10.2266
;N:73:12;w:12;N:75:12	-10.2268
;w:12;N:74:12;w:12;N:74:12	-10.2269
;N:60:11	-10.2272
48;w:48;N:75:	-10.2273
8;w:8;N:77:8	-10.2275
;w:18;N:81:6	-10.2275
96;N:60:96	-10.2278
;w:12;N:99:	-10.2279
6;w:6;N:88:6;w:6	-10.228
;w:12;N:50:12;w:12;N:53:12	-10.228
;w:48;N:58:24	-10.2283
48;w:48;N:80:	-10.2286
;w:12;N:33:3	-10.2287
36;N:56:36	-10.2288
;N:62:6;w:6;N:62:6;w:6	-10.2288
;w:24;N:54:48	-10.2289
;N:54:4;w:4	-10.229
12;w:12;N:99:12	-10.2292
;D:53;D:70	-10.2294
;w:12;N:71:12;N:75:12	-10.2294
;N:69:4;N:74:4	-10.2295
;N:60:14	-10.2297
;N:63:6;N:67:6;w:6	-10.2301
;w:4;N:62:	-10.2306
;w:12;N:66:12;w:12;N:67:12	-10.2306
;N:64:8;N:68:8	-10.2307
3;w:6;N:77:3;w:6	-10.2308
;N:51:6;N:54:6	-10.2312
48;N:50:48	-10.2312
;N:52:1	-10.2313
;N:80:72	-10.2315
36;w:36;N:82:	-10.2315
;w:12;N:52:12;w:12;N:50:12	-10.2317
;w:12;N:77:12;w:12;N:76:12	-10.2317
;N:53:3;w:6;N:53:3	-10.2318
;w:16;N:52:8	-10.2319
;w:24;N:60:24;N:63:24	-10.2322
28;w:4	-10.2329
;w:6;N:47:6;w:6;N:47:6	-10.2329
48;N:49:48	-10.2331
;w:12;N:65:21	-10.2331
;N:64:9;N:68:9	-10.2338
;w:12;N:61:12;w:12;N:58:12	-10.234
0;N:52:	-10.2345
;N:27:8	-10.2347
;w:18;N:67:6;w:6	-10.2349
;D:36;D:49;w:24;D:38	-10.2354
;N:100:6	-10.2355
;w:8;N:79:	-10.2357
;w:12;N:54:6;w:6	-10.2357
;w:6;D:36;D:47	-10.2357
96;N:68:96	-10.2357
;N:73:24;N:78:24	-10.2358
48;N:52:48	-10.2358
;N:96:4	-10.2359
;D:36;D:42;D:49;w:12;D:42	-10.2361
;N:59:9;N:63:9	-10.2362
;N:99:3	-10.2364
;w:12;N:58:12;w:12;N:62:12	-10.2367
;w:21;N:75:	-10.2369
;w:3;N:49:	-10.237
;w:12;N:73:12;w:12;N:72:12	-10.237
;w:24;N:39:18	-10.2371
;N:29:8	-10.2374
;w:12;N:56:12;w:12;N:53:12	-10.2375
;N:46:12;N:58:12	-10.2375
;N:68:6;N:72:6;w:6	-10.2375
9;w:12;N:38:9	-10.238
;N:52:3;N:55:3	-10.2382
;w:12;N:71:12;w:12;N:70:12	-10.2383
;w:6;N:53:	-10.2385
3;w:6;N:71:3	-10.2388
;N:20:12	-10.2389
;w:6;N:68:6;w:6;N:71:6	-10.2389
;N:75:1;w:1	-10.239
18;w:18;N:64:18	-10.2395
;N:27:6	-10.2399
;w:6;N:60:6;w:6;N:63:6	-10.24
;N:53:3;N:56:3	-10.24
15;w:2	-10.2403
20;w:24;N:66:20	-10.2403
;w:12;N:50:18	-10.2404
;N:49:3;w:3	-10.2406
;N:50:192	-10.2408
;w:6;N:65:6;w:6;N:68:6	-10.2412
24;N:87:24	-10.2412
;w:24;N:64:24;N:67:24	-10.2414
;w:6;N:56:9	-10.2417
;w:6;N:61:6;w:6;N:63:6	-10.2417
;w:12;N:55:21	-10.2417
;w:12;N:40:12;w:12;N:40:12	-10.2418
12;w:12;N:28:12	-10.2419
18;w:18;N:62:18	-10.242
;w:6;N:83:	-10.2422
;N:76:6;w:6;N:76:6;w:6	-10.2425
;N:67:4;N:72:4	-10.2429
18;w:18;N:86:	-10.243
6;w:6;N:32:6	-10.2433
;w:18;N:24:	-10.2435
48;N:77:48	-10.2436
;w:6;N:50:6;N:62:6	-10.2436
;N:42:12;w:12;N:42:12	-10.244
;w:12;D:36;D:38;D:46	-10.2447
;N:76:33	-10.2447
16;w:16;N:78:	-10.2448
;w:12;N:63:20	-10.2449
;w:72;N:70:	-10.2454
;w:12;N:60:20	-10.2456
;w:6;N:82:6	-10.2459
36;N:51:36	-10.246
;w:6;N:49:6;w:6;N:51:6	-10.246
;N:37:12;N:49:12	-10.2462
;w:12;N:50:12;w:12;N:48:12	-10.2464
;w:36;N:31:12	-10.2464
;N:64:12;N:68:12;N:71:12	-10.2465
;N:54:6;N:58:6;N:61:6	-10.2465
;w:48;N:74:12	-10.2466
;w:12;D:38;w:6;D:38;w:6;D:38	-10.247
9;w:12;N:35:9	-10.247
6;w:6;N:86:6;w:6	-10.2478
;w:24;N:65:48	-10.2479
;N:69:6;N:73:6;w:6	-10.2479
;D:36;D:42;w:24;D:42	-10.2481
;w:6;D:36;w:6;D:36;D:38	-10.2481
;N:63:12;N:67:12;N:70:12	-10.2484
;N:57:45	-10.2489
;N:69:9;N:73:9	-10.2496
16;w:16;N:81:	-10.2498
;w:48;N:62:24	-10.2499
;w:6;N:63:18	-10.2499
24;w:24;N:73:	-10.25
;w:24;N:55:18	-10.25
;w:24;N:69:18	-10.2502
;w:3;N:48:	-10.2507
;N:41:12;w:12;N:41:12	-10.2509
8;w:8;N:59:8	-10.251
;N:83:1	-10.2511
12;w:12;N:38:12	-10.2514
;D:47;D:70	-10.2515
;w:6;N:57:18	-10.2517
;w:6;D:36;D:42;D:48	-10.2517
3;w:3;N:90:3;w:3	-10.252
48;w:48;N:74:	-10.2522
;w:6;N:48:6;w:6;N:50:6	-10.2522
;w:8;N:84:	-10.2524
;w:18;N:31:6	-10.2525
;w:12;D:38;w:6;D:38;w:6;D:36;D:38	-10.253
;N:33:36	-10.2537
;N:51:192	-10.2539
;w:12;N:74:12;w:12;N:75:12	-10.2542
;w:24;N:37:21	-10.2543
;N:75:192	-10.2543
;w:72;N:68:	-10.2543
;w:6;N:68:6;w:6;N:70:6	-10.2544
;w:12;N:59:20	-10.2545
;N:81:12;N:84:12	-10.2547
;N:52:6;N:55:6	-10.2548
;w:12;N:36:4	-10.2549
;w:24;N:54:21	-10.2553
;w:12;N:57:12;N:62:12	-10.2553
;D:70;w:6;D:69	-10.2557
;w:4;N:66:	-10.2558
;N:55:9;N:60:9	-10.2561
;w:12;N:53:12;w:12;N:57:12	-10.2564
;w:8;D:42;w:8;D:42	-10.2566
;w:12;N:56:12;w:12;N:57:12	-10.2566
;w:18;N:53:3	-10.2567
;N:56:12;N:68:12	-10.257
;w:12;D:36;D:51	-10.2573
96;N:59:96	-10.2574
48;N:48:48	-10.2575
;w:18;N:37:12	-10.2576
;w:24;N:39:9	-10.2576
;N:50:3;N:55:3	-10.2576
;N:78:24;w:24;N:78:	-10.2577
;w:12;N:82:24	-10.2577
;N:43:12;w:12;N:43:12	-10.2577
;D:47;D:49	-10.2579
;w:12;N:52:12;N:56:12	-10.2579
9;w:12;N:80:9	-10.2579
;N:51:32	-10.2582
;w:36;N:60:24	-10.2582
;N:65:12;N:72:12	-10.2584
;w:48;N:71:12	-10.2588
18;w:18;N:79:6	-10.2591
;w:12;N:64:12;w:12;N:65:12	-10.2591
;w:12;N:31:3	-10.2593
;w:6;N:59:18	-10.2593
;w:6;N:62:18	-10.2595
;w:6;N:54:6;w:6;N:57:6	-10.2596
;w:6;N:53:4	-10.2597
;w:24;N:80:6	-10.2597
;N:57:4;N:61:4	-10.2597
;w:24;N:62:15	-10.2598
;N:56:8;N:59:8	-10.2601
;w:12;N:32:24	-10.2602
;w:6;N:60:6;w:6;N:64:6	-10.2602
;N:72:39	-10.2604
;w:24;N:38:9	-10.2604
18;w:18;N:66:18	-10.2604
;w:24;N:44:9	-10.2605
;w:6;D:42;w:6;D:42;w:6;D:36;D:42	-10.2606
8;w:12;N:73:8	-10.2606
;w:24;N:80:24	-10.2608
;w:24;N:58:16	-10.261
;w:24;N:66:16	-10.261
;w:18;N:77:12	-10.2611
;w:6;N:37:6;N:49:6	-10.2614
;N:76:60	-10.2615
;w:6;N:68:18	-10.2617
;N:69:14	-10.2619
;N:36:12;N:48:12	-10.2621
9;w:12;N:42:9	-10.2622
;w:6;N:83:6	-10.2629
;w:3;N:67:3	-10.2633
;w:6;N:66:2	-10.2634
;N:69:11	-10.2638
18;w:18;N:9	-10.2639
;w:24;N:65:24;N:68:24	-10.2639
;w:18;N:83:	-10.2641
20;w:24;N:65:20	-10.2642
;N:74:12;w:12;N:74:12	-10.2642
;N:52:30	-10.2644
8;w:8;N:70:8	-10.2644
;w:36;N:83:	-10.2645
;N:56:6;N:60:6;N:63:6	-10.2647
;w:6;N:35:6;N:47:6	-10.2649
;N:61:44	-10.2651
;w:12;N:89:12	-10.2653
36;w:36;N:80:12	-10.2654
5;N:62:5	-10.2654
;N:56:4;N:59:4	-10.2655
;N:61:12;w:12;N:63:12	-10.2658
;N:90:48	-10.2659
;N:35:24;N:47:24	-10.2663
;N:34:20	-10.2664
;N:78:12;w:12;N:78:	-10.2665
;N:53:10	-10.267
;N:64:9;N:69:9	-10.267
;w:6;N:95:	-10.267
;w:36;N:79:12	-10.2673
;w:18;N:82:6	-10.2677
;N:51:12;N:55:12	-10.2678
9;w:12;N:61:9	-10.2679
;D:49;w:12;D:38	-10.2683
;D:70;w:12;D:36;D:42	-10.2683
;w:48;N:54:12	-10.2684
;N:33:21	-10.2684
;w:16;N:38:	-10.2684
;w:12;N:71:18	-10.2685
;w:12;N:41:12;N:48:12	-10.2686
;N:71:9;N:74:9	-10.2686
;w:72;N:61:	-10.2686
;w:12;N:73:12;N:76:12	-10.2689
;N:77:3;N:82:3	-10.269
18;N:78:18	-10.2691
;w:6;N:36:3	-10.2692
;w:3;N:57:3	-10.2693
;w:6;N:66:6;w:6;N:66:6	-10.2697
;N:41:72	-10.2697
;w:12;N:64:12;w:12;N:63:12	-10.2698
;w:24;N:48:3	-10.2703
;N:49:12;w:12;N:49:12	-10.2704
;w:24;N:73:3	-10.2704
;N:59:12;N:71:12	-10.2705
;w:15;N:64:9	-10.2711
20;w:24;N:68:20	-10.2713
48;N:83:48	-10.2717
18;w:18;N:66:6	-10.272
;w:12;N:56:12;N:61:12	-10.2721
;w:4;D:42;w:4;D:42	-10.2722
;w:6;N:52:6;N:64:6	-10.2724
;w:24;N:41:18	-10.2724
;w:6;N:52:4	-10.2726
;w:6;D:36;D:38;D:39	-10.2727
;N:77:6;N:81:6	-10.273
;w:9;N:63:	-10.273
;w:8;N:72:4	-10.2731
;w:4;N:61:	-10.2731
;N:74:6;N:86:6	-10.2741
;w:15;N:60:9	-10.2743
;N:75:12;w:12;N:68:12	-10.2744
;w:12;N:70:12;w:12;N:71:12	-10.2745
;w:24;N:36:21	-10.2746
8;w:8;N:44:8	-10.2751
45;N:59:45	-10.2752
;w:12;N:53:12;w:12;N:58:12	-10.2754
;w:24;N:53:48	-10.2755
;w:16;N:49:8	-10.2755
;N:80:3;N:83:3	-10.2756
;w:12;N:61:20	-10.2756
;N:71:11	-10.2756
;N:47:12;N:59:12	-10.2756
;w:8;N:68:4	-10.2758
24;w:24;N:30:24	-10.2761
;N:44:6;w:6;N:44:6	-10.2763
;N:38:6;w:12;N:38:6	-10.2764
12;w:12;N:39:12	-10.2766
24;w:24;N:75:	-10.2767
6;w:6;N:29:6	-10.2768
;N:35:12;N:47:12	-10.2769
;N:61:12;w:12;N:59:12	-10.2769
0;N:69:0	-10.2771
8;w:8;N:60:8	-10.2776
24;w:24;N:90:24	-10.2779
;w:12;N:58:12;N:63:12	-10.278
;w:12;N:39:12;w:12;N:39:12	-10.2782
18;w:18;N:68:18	-10.2785
;w:24;N:52:48	-10.2786
;D:48;w:6;D:42	-10.2786
;D:69;w:6;D:38;D:42	-10.2788
;D:46;w:12;D:36;D:42	-10.279
;N:49:1	-10.279
;N:86:36	-10.2791
;N:79:12;w:12;N:74:12	-10.2792
;N:59:6;N:64:6;N:68:6	-10.2794
;w:12;N:75:12;w:12;N:74:12	-10.2797
;N:67:8;N:71:8	-10.2799
;N:50:42	-10.2799
24;w:24;N:74:12	-10.2799
;N:77:7	-10.2799
;D:53;w:6;D:42	-10.2801
;w:6;N:46:6;N:58:6	-10.2802
;N:74:6;w:6;N:72:6;w:6	-10.2802
;w:12;N:75:12;N:87:12	-10.2803
;N:56:12;w:12;N:56:12	-10.2803
;w:12;N:78:12;w:12;N:80:12	-10.2804
;w:12;N:49:12;w:12;N:52:12	-10.2806
;D:36;D:42;D:70	-10.281
2;N:60:2	-10.2812
3;w:3;N:43:3;w:3	-10.2815
;N:52:4;w:4	-10.2815
;w:48;N:87:	-10.2816
;D:37;D:38	-10.2817
;D:36;D:38;D:46	-10.2818
8;w:8;N:53:8	-10.2819
;N:54:8;w:8	-10.282
;w:24;N:56:16	-10.2823
;w:48;N:65:24	-10.2823
18;w:18;N:61:6	-10.2824
;N:75:24;N:79:24	-10.2825
;D:54;w:12;D:42;D:54	-10.2826
;D:50;w:12;D:50	-10.2828
;N:51:6;N:58:6	-10.2829
;D:36;D:42;D:46	-10.2829
;w:8;N:52:8	-10.283
;w:24;N:54:18	-10.2831
;w:15;N:48:	-10.2831
;w:24;N:73:4	-10.2836
36;N:79:36	-10.2837
;N:58:24;N:62:24;N:65:24	-10.2838
;N:56:6;N:60:6	-10.2839
;N:51:27	-10.2841
16;w:16;N:77:	-10.2842
;w:12;N:69:12;w:12;N:74:12	-10.2846
18;w:18;N:76:6	-10.2852
20;w:24;N:63:20	-10.2853
;w:12;N:62:20	-10.2855
;N:55:12;w:12;N:55:12	-10.2856
;w:18;N:64:6;w:6	-10.2857
96;N:73:96	-10.2859
;w:24;N:66:48	-10.2864
;N:55:9;N:58:9	-10.2864
;D:38;D:53	-10.2864
5;N:63:5	-10.2868
;w:12;N:76:3	-10.2868
;w:12;N:76:12;w:12;N:77:12	-10.2868
;w:24;N:71:8	-10.2869
;w:6;N:49:6;N:61:6	-10.2869
;w:24;N:58:24;N:61:24	-10.2869
;N:53:12;w:12;N:53:12	-10.2869
;w:36;N:54:6	-10.287
;N:80:6;N:84:6	-10.287
;w:6;D:38;D:51	-10.2878
;N:52:32	-10.2878
;N:77:32	-10.2879
;w:6;N:56:18	-10.288
;N:46:24;N:58:24	-10.2881
;N:40:72	-10.2885
;w:12;N:53:12;w:12;N:51:12	-10.2885
;w:15;N:58:9	-10.2886
;N:48:33	-10.2887
6;w:6;N:79:6;w:6;N:80:	-10.2887
18;w:18;N:65:6	-10.2887
6;w:6;N:82:6;w:6;N:84:	-10.2887
;w:36;N:69:6	-10.2889
;N:54:12;N:61:12;N:66:12	-10.289
;w:18;N:85:	-10.2893
;w:24;N:64:21	-10.2893
;w:12;N:55:12;N:59:12	-10.2895
;w:16;N:51:8	-10.2896
;N:39:12;w:12;N:39:12	-10.2897
;w:8;D:36;D:38	-10.2897
;w:12;N:68:12;w:12;N:69:12	-10.2897
;w:24;N:42:18	-10.2901
;N:54:12;N:66:12	-10.2901
;w:9;N:62:	-10.2904
;w:12;N:77:4	-10.2906
;w:12;N:86:6	-10.2908
;N:86:48	-10.291
;w:12;N:67:21	-10.2911
;w:24;N:58:15	-10.2912
;D:73;w:3	-10.2912
;N:65:2;w:2	-10.2915
;D:54;w:6;D:54;w:6;D:36	-10.2917
;N:80:12;w:12;N:78:12	-10.2917
6;w:6;N:40:6;w:6	-10.2917
;N:93:9	-10.2917
;N:24:12	-10.2917
20;w:24;N:62:20	-10.2921
;w:72;N:62:	-10.2922
6;w:6;N:83:6;w:6;N:81:	-10.2924
;w:12;N:51:12;N:54:12	-10.2926
;w:48;N:64:24	-10.2928
;N:37:0	-10.2935
;w:24;N:65:21	-10.2938
;w:8;N:47:4	-10.2939
;w:12;N:61:6;N:64:6	-10.294
0;N:58:0	-10.2941
;w:6;N:55:9	-10.2942
;w:12;N:75:12;w:12;N:78:12	-10.2947
;w:12;N:76:12;w:12;N:79:12	-10.2949
45;N:60:45	-10.2951
6;w:6;N:37:6	-10.2951
8;w:12;N:75:8	-10.2959
;w:72;N:65:	-10.296
;w:12;N:38:12;w:12;N:38:12	-10.2961
;w:12;D:42;D:51	-10.2961
4;w:4;N:50:4;w:4	-10.2962
;w:6;N:50:4	-10.2964
;w:6;N:33:3	-10.2964
;w:6;N:73:6;N:85:6	-10.2969
;w:12;N:66:21	-10.2971
;w:12;N:58:20	-10.2972
;N:62:12;N:67:12;N:71:12	-10.2973
18;w:18;N:63:18	-10.2976
6;w:6;N:39:6	-10.2977
;w:6;N:62:4	-10.2977
;w:16;N:42:8	-10.298
;w:6;D:42;w:6;D:38;D:42;w:6;D:42	-10.298
;N:46:5	-10.2984
;N:49:6;N:52:6	-10.2985
9;w:12;N:44:9	-10.2987
;N:54:12;N:61:12	-10.2988
20;w:24;N:67:20	-10.2988
45;N:66:45	-10.2991
;w:12;N:	-10.2993
;w:24;N:49:8	-10.2994
;w:12;N:73:12;w:12;N:74:12	-10.2994
24;w:24;N:91:	-10.2999
;w:24;N:67:48	-10.3
24;w:24;N:73:12	-10.3
;w:24;N:61:15	-10.3002
;D:43;w:6;D:43	-10.3002
;N:37:12;w:12;N:37:12	-10.3002
;w:48;N:72:12	-10.3003
;w:12;N:60:6;N:63:6	-10.3004
2;N:61:2	-10.3008
6;w:6;N:68:6	-10.3009
;N:58:9;N:62:9	-10.3009
;N:60:6;w:6;N:60:6;w:6	-10.301
;N:48:12;N:60:12	-10.301
;w:12;N:76:12;w:12;N:73:12	-10.3019
;N:28:8	-10.302
;N:81:45	-10.3021
;w:16;N:76:	-10.3021
;N:75:3;N:80:3	-10.3021
;w:16;N:41:8	-10.3023
;w:12;N:73:12;w:12;N:69:12	-10.3029
;w:12;N:77:12;w:12;N:78:12	-10.3029
;N:89:3;w:3	-10.3029
;N:58:12;N:62:12;N:65:12	-10.303
;N:56:9;N:60:9	-10.3032
;w:3;N:44:	-10.3033
;w:6;D:37;D:38;D:42	-10.3033
0;N:40:	-10.3039
;N:67:9;N:72:9	-10.304
;N:92:24	-10.3041
0;N:38:	-10.3042
;N:58:8;N:62:8	-10.3043
;w:6;N:69:3;w:6	-10.3043
;w:12;N:67:12;w:12;N:66:12	-10.3043
;N:47:45	-10.3043
;N:78:1;w:1	-10.3045
7:12	-10.3046
;N:51:3;w:6;N:51:3	-10.3046
4;w:6;N:67:3;w:6	-10.3046
36;N:54:36	-10.3046
;w:8;N:69:4	-10.3048
;N:53:3;w:3	-10.3049
;w:6;N:54:4	-10.305
;w:12;N:55:12;N:60:12	-10.305
;N:50:27	-10.3053
;N:44:6;w:6;N:44:6;w:6;N:44:6;w:6;N:44:6	-10.3053
;w:72;N:69:	-10.3055
;N:76:27	-10.3057
;D:54;D:69;w:6;D:54	-10.3059
;w:6;N:67:6;w:6;N:64:6	-10.3062
;w:16;N:75:	-10.3063
;N:73:6;N:76:6;w:6	-10.3064
;w:6;N:68:9	-10.3066
;w:24;D:36;D:38;D:42	-10.3066
;w:6;N:74:3	-10.3067
;w:6;N:67:2	-10.3067
;N:72:12;w:12;N:74:12	-10.3067
;w:12;N:47:48	-10.3068
;w:12;N:75:36	-10.3071
;N:69:8;N:72:8	-10.3072
3;w:3;N:89:3;w:3	-10.3072
;w:18;N:71:3	-10.3073
;w:9;N:55:	-10.3076
;w:24;N:59:15	-10.3077
;w:12;N:58:12;w:12;N:56:12	-10.3079
0;N:41:	-10.3079
;N:45:5	-10.308
9;N:82:9	-10.3082
20;w:24;N:64:20	-10.3082
4;w:6;N:73:3;w:6	-10.3087
18;w:18;N:87:	-10.3089
;w:36;N:61:24	-10.3092
;w:12;N:60:12;N:65:12	-10.3092
;w:12;N:69:12;w:12;N:73:12	-10.3093
;w:12;N:63:12;N:68:12	-10.3098
;w:12;N:54:12;w:12;N:55:12	-10.3099
;w:16;N:43:8	-10.31
;w:6;N:60:18	-10.31
;w:21;N:51:	-10.31
96;N:58:96	-10.3102
;w:8;N:45:4	-10.3104
8;w:8;N:71:	-10.3105
;N:51:24;N:56:24	-10.3107
;N:67:8;N:70:8	-10.3107
;w:8;D:42;w:4;D:42	-10.3108
48;N:56:48	-10.3108
;N:55:6;N:59:6	-10.3109
;w:6;N:47:4	-10.3113
;w:6;D:69	-10.3114
;w:12;N:70:12;w:12;N:75:12	-10.3114
;D:50;w:6;D:50	-10.3114
;N:39:6;w:12;N:39:	-10.3115
21;N:56:21	-10.3115
16;N:55:16	-10.3115
;N:22:12	-10.3116
;w:12;N:62:12;w:12;N:66:12	-10.3118
;D:49;w:12;D:42	-10.312
;N:58:44	-10.3122
18;w:18;N:85:	-10.3125
;w:12;N:71:12;w:12;N:75:12	-10.3129
;N:66:3;N:78:3	-10.3131
48;N:71:48	-10.3133
;w:12;N:72:12;w:12;N:71:12	-10.3134
;N:46:6;w:6;N:46:6	-10.3136
48;w:48;N:81:	-10.3136
;N:79:33	-10.3136
;w:3;N:76:	-10.3138
;w:12;N:75:12;w:12;N:71:12	-10.3141
;w:3;D:38;w:1;D:38;w:2;D:38;w:2;D:38;w:1;D:38;w:3;D:38	-10.3141
;N:55:6;N:59:6;N:62:6	-10.3143
2;N:75:2	-10.3143
0;N:75:0	-10.3144
;w:12;N:54:21	-10.3149
;N:80:12;N:84:12	-10.3151
;w:24;N:53:21	-10.3152
24;w:24;N:71:12	-10.3156
;w:24;N:33:6	-10.3157
;w:48;N:75:12	-10.3157
;w:72;N:67:	-10.3159
;N:77:3;N:81:3	-10.316
;N:75:6;N:87:6	-10.3162
;N:79:12;N:83:12	-10.3162
;N:52:12;N:64:12	-10.3164
;N:56:4;N:61:4	-10.3167
12;w:12;N:24:12	-10.3167
;N:89:48	-10.3169
;w:6;N:80:3;w:6	-10.317
;w:12;N:68:12;w:12;N:67:12	-10.3171
;N:74:12;w:12;N:76:12	-10.3171
;D:51;w:6;D:42;D:51	-10.3173
6;w:6;N:83:6;w:6;N:85:	-10.3174
;N:49:192	-10.3177
;N:49:33	-10.3177
;w:12;N:68:12;w:12;N:72:12	-10.3179
;N:56:28	-10.3179
;D:42;w:6;D:42	-10.3183
;N:60:12;w:12;N:62:12	-10.3184
9;w:12;N:34:9	-10.3186
;w:12;N:76:15	-10.3188
;w:72;N:64:	-10.3189
;w:12;N:76:12;w:12;N:75:12	-10.3192
96;N:57:96	-10.3197
;w:24;D:45	-10.3198
;N:35:9;w:12;N:35:	-10.3199
8;w:8;N:30:	-10.3201
;w:6;N:50:18	-10.3205
;D:42;w:9;D:42	-10.3213
5;N:61:5	-10.3213
;N:51:8;w:8	-10.3213
8;w:12;N:72:8	-10.3216
;w:12;N:34:12;N:46:12	-10.3218
;N:24:12;w:12;N:24:	-10.3223
;w:18;N:73:6;w:6	-10.3224
;w:12;N:52:12;w:12;N:57:12	-10.3225
;N:76:30	-10.3226
;w:8;N:42:4	-10.3226
;w:72;N:63:	-10.3227
;w:12;N:45:12;w:12;N:43:12	-10.3231
;w:6;D:38;D:43	-10.3232
;N:31:16	-10.3235
;N:30:15	-10.3241
;N:74:96	-10.3241
;N:78:10	-10.3242
;w:12;N:72:48	-10.3243
;w:12;N:60:12;w:12;N:61:12	-10.3243
;D:76;w:6;D:76	-10.3243
45;N:61:45	-10.3244
;w:12;N:32:3	-10.3248
;N:56:12;N:60:12;N:63:12	-10.3249
;w:15;N:76:	-10.3249
;N:53:12;N:60:12	-10.3251
;w:18;N:59:6;w:6	-10.3251
;D:42;w:12;D:36;D:42	-10.3253
;N:38:12;w:12;N:38:12	-10.3257
;w:36;N:59:24	-10.3258
;w:12;N:59:12;w:12;N:60:12	-10.3259
6;w:12;N:90:6	-10.3262
;N:69:6;N:74:6;w:6	-10.3262
;w:24;N:68:16	-10.3262
;N:54:4;N:57:4	-10.3263
48;N:78:48	-10.3264
;w:12;N:56:12;w:12;N:54:12	-10.3267
;N:78:3;N:82:3	-10.3267
;w:8;N:43:4	-10.3268
;w:24;N:70:18	-10.3269
;w:4;N:63:	-10.3269
;N:84:20	-10.3271
;N:66:24;w:24;N:66:12	-10.3272
;w:6;D:51;w:6	-10.3273
;N:59:14	-10.3273
;N:64:192	-10.3275
;w:12;N:57:20	-10.3277
;N:85:21	-10.328
18;w:18;N:81:6	-10.328
;w:24;N:57:24;N:60:24	-10.3281
9;w:8	-10.3283
;w:36;N:89:	-10.3283
18;N:79:18	-10.3286
;w:12;N:43:12;w:12;N:45:12	-10.3287
;N:66:8;N:70:8	-10.3289
;N:77:60	-10.329
;N:66:12;N:73:12	-10.3292
;w:12;D:42;w:12;D:42;w:12;D:42	-10.3295
;w:9;N:71:	-10.3296
;N:71:28	-10.3297
;w:12;N:61:12;w:12;N:62:12	-10.3297
;w:12;N:40:6;w:12;N:40:6	-10.3297
;w:24;N:35:21	-10.3297
2;N:58:2	-10.3301
;w:24;N:53:18	-10.3302
;w:48;N:53:12	-10.3305
;w:24;N:71:4	-10.3305
;D:53;w:12;D:38	-10.3305
;w:4;N:60:	-10.3305
;N:68:44	-10.3306
;w:24;N:67:16	-10.3307
;N:69:6;w:6;N:67:6	-10.3308
;w:12;D:42;w:12;D:38;D:42;w:12;D:42	-10.331
;N:61:6;N:65:6;N:68:6	-10.3311
48;N:67:48	-10.3312
;w:6;N:81:3;w:6	-10.3313
;w:8;N:68:8	-10.3313
;w:6;N:54:6;w:6;N:56:6	-10.3316
;w:6;N:65:4	-10.3316
;N:63:12;N:68:12;N:72:12	-10.3316
;w:18;N:74:6;w:6	-10.3317
;w:12;N:31:24	-10.332
0;N:51:	-10.3323
;N:70:14	-10.3324
2;N:59:2	-10.3325
;N:70:8;N:73:8	-10.3326
8;w:8;N:52:8	-10.3328
;N:59:11	-10.3331
;N:32:6;w:6;N:32:	-10.3333
8;w:12;N:67:8	-10.3334
;N:102:3	-10.3337
;w:12;N:78:12;w:12;N:79:12	-10.3337
;w:12;N:49:12;w:12;N:47:12	-10.334
6;w:6;N:34:6	-10.3342
;D:56;w:6;D:42	-10.3342
;N:24:9	-10.3343
;N:25:24	-10.3344
3;w:3;N:50:3;w:3	-10.3349
6;w:6;N:31:6	-10.3351
;w:12;N:64:12;w:12;N:68:12	-10.3351
;w:12;N:55:12;w:12;N:53:12	-10.3351
;w:6;N:68:2	-10.3351
;N:61:8;N:65:8	-10.3352
3;w:3;N:44:3;w:3	-10.3358
;N:66:6;N:70:6;N:73:6	-10.3358
;w:24;N:47:3	-10.3358
3;w:3;N:46:3;w:3	-10.3359
;N:55:12;N:67:12	-10.3361
45;N:64:45	-10.3361
;N:47:24;N:59:24	-10.3362
;N:61:6;w:6;N:61:6;w:6	-10.3362
;N:81:2;w:2	-10.3366
;D:53;w:4	-10.3373
;N:74:12;N:86:12	-10.3374
;w:24;N:37:20	-10.3375
;N:58:6;N:63:6;N:67:6	-10.3376
;w:6;N:64:6;w:6;N:62:6	-10.3377
;w:6;D:42;w:6;D:36;D:42;w:6;D:42;w:6;D:38;D:42	-10.3379
;w:6;D:45;D:46	-10.3379
;w:6;N:47:6;w:6;N:49:6	-10.338
;N:67:24;w:24;N:67:12	-10.3383
;N:71:6;w:6;N:69:6;w:6	-10.3387
;w:12;N:71:12;w:12;N:76:12	-10.3388
;w:6;N:62:6;w:6;N:67:6	-10.3388
;w:24;N:75:9	-10.3388
;w:6;D:45;w:6;D:45	-10.3389
;N:81:12;w:12;N:79:12	-10.3391
;w:6;N:64:6;w:6;N:66:6	-10.3391
;N:59:24;N:63:24;N:66:24	-10.3393
;N:73:9;N:76:9	-10.3398
;N:63:6;N:70:6	-10.3399
;N:63:6;w:6;N:63:6	-10.3401
;w:72;N:66:	-10.3402
;N:55:6;N:62:6	-10.3407
;w:8;N:50:8	-10.3407
;N:74:6;N:77:6;w:6	-10.3408
;w:16;N:67:8	-10.3409
8;w:8;N:9	-10.3409
8;w:8;N:81:	-10.3409
;w:72;N:60:	-10.341
;w:24;N:57:15	-10.341
;N:34:12;N:46:12	-10.3411
;D:50;w:6;D:50;w:6	-10.3411
;N:54:39	-10.3413
;w:24;D:37;D:42	-10.3413
;N:83:36	-10.3413
;w:18;N:36:12	-10.3413
;w:6;N:66:4	-10.3414
;w:3;N:66:3	-10.3415
45;N:63:45	-10.3418
;N:32:16	-10.342
;w:12;N:47:15	-10.3424
;w:8;N:44:4	-10.3427
;N:22:6	-10.3427
6;w:6;N:81:6;w:6;N:80:	-10.343
;N:91:3;w:3	-10.3432
;N:49:27	-10.3432
;N:46:45	-10.3433
48;N:84:48	-10.3435
;w:6;N:28:6	-10.3437
28;w:2	-10.344
;w:12;N:77:12;w:12;N:74:12	-10.3443
;w:12;N:66:12;w:12;N:62:12	-10.3445
;w:18;N:52:3	-10.3445
;w:6;N:37:3	-10.3446
;N:73:6;w:6;N:71:6;w:6	-10.345
;w:12;N:47:12;w:12;N:45:12	-10.3453
8;w:5	-10.3457
;w:12;N:68:21	-10.346
;N:66:1;w:1	-10.346
;w:12;N:68:12;N:73:12	-10.346
;w:72;N:71:	-10.3461
;N:63:84	-10.3461
;w:12;N:70:12;w:12;N:66:12	-10.3461
48;N:66:48	-10.3465
;N:50:12;N:62:12	-10.3466
20;N:75:20	-10.3467
36;w:36;N:53:12	-10.3469
;N:55:12;N:59:12;N:62:12	-10.347
;w:24;N:48:8	-10.3471
2;N:57:2	-10.3473
;N:68:9;N:73:9	-10.3473
;N:51:12;N:63:12	-10.3474
;N:54:6;N:57:6	-10.3475
;w:12;N:79:12;w:12;N:76:12	-10.3476
;D:54;w:6;D:36;D:54	-10.3478
;w:48;N:55:24	-10.348
;w:24;N:64:15	-10.3482
;N:86:18	-10.3482
;w:12;D:36;D:42;w:12;D:36;D:42;w:12;D:42	-10.3482
;N:25:4	-10.3483
;N:56:6;N:59:6;N:64:6	-10.3485
;w:6;N:46:4	-10.3488
18;w:3	-10.3488
;N:61:12;N:64:12;N:69:12	-10.3489
;D:76;w:6;D:36	-10.3493
;D:70;w:6;D:36;D:42	-10.3494
;N:53:12;N:65:12	-10.3494
;w:6;N:51:18	-10.3494
45;N:65:45	-10.3494
96;N:72:96	-10.3495
;w:24;N:40:18	-10.3497
;N:27:6;w:12;N:27:	-10.3497
;w:9;N:74:	-10.3503
;N:61:84	-10.3503
;N:62:12;N:65:12;N:70:12	-10.3504
;w:12;N:49:18	-10.3509
;w:24;N:49:4	-10.351
6;w:6;N:82:6;w:6;N:81:	-10.3511
;w:12;N:65:12;w:12;N:69:12	-10.3511
;N:50:32	-10.3517
;w:24;N:52:18	-10.3517
;w:48;N:56:24	-10.3517
;N:85:1	-10.3519
;w:6;N:74:6;N:86:6	-10.3521
;N:29:18	-10.3521
8;w:8;N:78:8	-10.3521
;N:34:24;N:46:24	-10.3522
;N:58:14	-10.3523
9;N:80:9	-10.3524
36;N:50:36	-10.3525
48;N:70:48	-10.3525
0;N:64:0	-10.3529
96;N:69:96	-10.3531
;w:12;N:72:12;w:12;N:77:12	-10.3532
;w:12;N:51:12;w:12;N:49:12	-10.3533
;w:6;N:41:6;w:6;N:41:6	-10.3534
6;w:6;N:63:6;w:6	-10.3535
18;w:18;N:62:6;w:6	-10.3536
0;N:39:	-10.3537
8;w:8;N:79:8	-10.3539
;N:51:3;N:56:3	-10.354
;N:36:9;w:12;N:36:	-10.354
;w:12;N:66:12;w:12;N:70:12	-10.3541
;N:48:4;w:4	-10.3542
16;N:75:16	-10.3542
;w:9;N:60:	-10.3543
20;w:24;N:60:20	-10.3543
9;w:12;N:82:9	-10.3543
;w:24;N:38:18	-10.3545
3;w:6;N:72:3;w:6	-10.3548
;w:12;N:53:21	-10.3552
;w:12;N:46:12;w:12;N:51:12	-10.3553
3;w:3;N:94:3;w:3	-10.3557
;w:4;D:46	-10.3557
;w:12;N:42:12;w:12;N:44:12	-10.3562
;w:16;N:50:8	-10.3563
;N:68:24;w:24;N:68:12	-10.3563
;N:76:12;w:12;N:71:12	-10.3564
;w:12;N:58:12;w:12;N:57:12	-10.3567
;w:4;N:67:	-10.3567
;w:6;N:51:2	-10.3568
;N:59:12;w:12;N:61:12	-10.357
;N:78:24;N:81:24	-10.3572
;w:24;N:55:16	-10.3574
8;w:8;N:80:	-10.3577
20;w:24;N:69:20	-10.3581
;N:79:6;N:91:6	-10.3585
16;N:74:16	-10.3588
0;N:63:0	-10.3588
;N:78:60	-10.3589
45;N:62:45	-10.3589
;w:24;N:61:12;N:64:12	-10.3589
;w:12;N:51:12;N:55:12	-10.3589
;N:42:12;N:47:12	-10.3591
;N:35:6;w:6;N:35:	-10.3592
;w:24;D:51	-10.3592
;N:49:12;N:61:12	-10.3593
3;w:6;N:80:3;w:6	-10.3595
;N:50:8;w:8	-10.3595
48;N:55:48	-10.3596
36;w:36;N:83:	-10.3597
;N:88:18	-10.3597
;w:6;D:36;D:48	-10.3599
;w:18;N:72:3	-10.3603
;w:24;N:22:	-10.3604
9;w:12;N:37:9	-10.3606
45;N:68:45	-10.3608
;w:12;N:69:12;w:12;N:65:12	-10.3611
;D:36;D:42;D:47	-10.3612
;N:77:42	-10.3613
36;w:36;N:54:12	-10.3613
;w:24;N:37:18	-10.3614
;N:82:12;N:85:12	-10.3615
;N:77:4;N:80:4	-10.3617
;w:24;N:63:15	-10.3618
;w:24;N:44:4	-10.3618
;N:102:6	-10.3621
;w:24;N:47:8	-10.3623
;w:6;N:68:6;w:6;N:65:6	-10.3626
;w:12;N:61:16	-10.3626
;N:63:8;N:67:8	-10.3628
;w:3;N:70:3	-10.3628
;w:12;N:67:12;w:12;N:71:12	-10.3629
;w:12;D:36;D:42;w:12;D:38;D:42	-10.363
;w:21;N:50:	-10.363
18;w:18;N:63:6	-10.3633
;w:24;N:59:20	-10.3634
;N:77:33	-10.3636
0;N:50:	-10.364
72;N:59:72	-10.3641
;N:60:6;N:63:6;N:68:6	-10.3642
;w:6;N:49:3;w:6	-10.3645
;N:54:4;N:59:4	-10.3648
;N:73:39	-10.365
;N:69:24;w:24;N:69:12	-10.3651
;N:46:12;N:53:12;N:58:12	-10.3652
;N:62:40	-10.3652
;w:9;N:56:	-10.3654
;w:18;N:79:12	-10.3654
11;w:2	-10.3656
;N:56:6;N:61:6;N:65:6	-10.3656
;w:12;N:54:12;w:12;N:58:12	-10.366
;N:82:2;w:2	-10.3662
;N:60:12;w:12;N:58:12	-10.3662
3;w:3;N:40:3;w:3	-10.3663
;w:12;N:59:12;w:12;N:56:12	-10.3663
;w:24;N:37:9	-10.3665
;N:53:4;N:58:4	-10.3667
48;N:58:48	-10.3669
;w:12;N:58:12;w:12;N:55:12	-10.367
4;w:4;N:89:4;w:4	-10.3671
;w:12;N:60:16	-10.3672
;w:6;N:51:4	-10.3674
20;N:57:20	-10.3675
;N:68:6;w:12;N:68:6	-10.3675
;w:4;N:69:	-10.3678
;N:72:8;N:75:8	-10.3679
;D:46;w:12;D:38;D:42	-10.368
;N:47:3;w:3	-10.3682
;N:81:72	-10.3682
18;w:18;N:61:18	-10.3684
;w:36;N:51:6	-10.3687
20;w:24;N:71:20	-10.3687
6;w:6;N:85:6;w:6;N:85:	-10.3688
;w:6;D:42;D:46	-10.369
;N:65:12;N:69:12;N:72:12	-10.3691
;N:63:6;N:68:6;w:6	-10.3692
;N:72:6;N:77:6;w:6	-10.3694
;N:83:5	-10.3695
;N:84:1	-10.3695
2;N:71:2	-10.3698
;w:8;N:37:	-10.3705
;N:24:4	-10.3705
15;N:55:15	-10.3706
;N:77:12;w:12;N:72:12	-10.3708
;w:12;N:35:4	-10.3709
;w:6;D:38;D:42;D:45	-10.371
;w:21;N:49:	-10.3714
2;N:69:2	-10.3717
;w:8;N:41:4	-10.3718
96;N:56:96	-10.372
;w:24;N:55:24;N:58:24	-10.3722
;w:12;N:37:8	-10.3724
;w:36;N:53:6	-10.3729
;D:51;w:12;D:42;D:51	-10.373
;N:63:6;N:66:6;N:71:6	-10.3733
16;N:73:16	-10.3738
;w:6;N:63:6;w:6;N:66:6	-10.3738
;w:12;N:49:12;N:54:12	-10.3738
96;N:70:96	-10.3739
;w:3;N:72:3	-10.3742
;D:51;D:76	-10.3743
20;N:74:20	-10.3746
;w:36;N:70:6	-10.3748
;N:78:3;N:83:3	-10.3749
;w:12;N:48:12;N:53:12	-10.3751
;w:6;N:42:3;w:6	-10.3752
;w:36;N:58:24	-10.3752
;N:53:7	-10.3752
;N:31:6;w:6;N:31:6	-10.3754
;N:74:24;N:79:24	-10.3754
;N:36:12;w:12;N:36:12	-10.3754
;D:50;w:8	-10.3757
;w:6;N:50:2	-10.3759
;w:24;N:46:18	-10.3759
;w:12;N:62:12;N:67:12	-10.3759
96;N:74:96	-10.3759
;N:52:7	-10.376
;w:3;N:55:3	-10.376
;w:6;N:64:4	-10.376
;w:15;N:57:9	-10.376
;N:78:32	-10.3761
;N:64:6;N:71:6	-10.3765
6;w:6;N:78:6;w:6;N:75:6;w:6	-10.3766
8;w:8;N:79:	-10.3766
;w:12;N:59:6;N:62:6	-10.3772
20;w:24;N:72:20	-10.3773
21;N:52:21	-10.3773
;N:81:9;w:9	-10.3775
;N:52:10	-10.3775
;D:38;D:41	-10.3777
;w:6;N:49:18	-10.3778
12;w:12;N:42:12	-10.3779
36;w:36;N:69:	-10.378
16;N:54:16	-10.3781
6;w:12;N:91:6	-10.3783
;N:72:11	-10.3784
;w:6;N:69:18	-10.3784
;N:86:0	-10.3784
6:12	-10.3785
;D:36;D:42;D:50	-10.3785
;w:12;N:47:12;w:12;N:52:12	-10.3785
36;w:36;N:85:	-10.3787
4;w:6;N:77:3;w:6	-10.3787
48;w:48;N:82:	-10.3788
;w:12;N:65:20	-10.379
;w:4;N:65:	-10.379
;N:66:12;w:12;N:59:12	-10.3792
21;N:55:21	-10.3792
;w:3;N:55:	-10.3793
;w:12;N:78:12;w:12;N:75:12	-10.3794
;w:6;N:69:6;w:6;N:66:6	-10.3794
;w:24;N:51:48	-10.3795
;w:24;N:60:20	-10.3797
;N:75:12;N:87:12	-10.3797
;N:80:12;w:12;N:80:	-10.3798
;N:52:12;N:59:12	-10.3799
;w:21;N:76:	-10.3801
;w:6;N:57:6;w:6;N:54:6	-10.3802
6;w:6;N:77:6;w:6;N:79:	-10.3805
;w:12;N:63:16	-10.3807
;w:12;N:68:12;w:12;N:64:12	-10.3808
;N:59:12;N:66:12	-10.3812
;N:74:4;N:77:4	-10.3813
;w:24;N:60:15	-10.3814
6;w:6;N:94:6	-10.3814
8;w:12;N:70:8	-10.3814
4;N:84:4	-10.3814
3;w:3;N:88:3;w:3	-10.3815
;N:46:33	-10.3816
;N:66:6;w:12;N:66:6	-10.3816
;w:6;N:66:6;w:6;N:63:6	-10.382
;w:12;N:71:12;w:12;N:67:12	-10.3821
;N:68:6;w:6;N:66:6;w:6	-10.3826
9;w:12;N:33:9	-10.3826
;w:8;N:80:	-10.3826
;w:8;N:69:8	-10.3831
;w:6;N:61:6;w:6;N:59:6	-10.3832
;w:15;N:62:9	-10.3832
0;N:37:	-10.3833
;w:24;N:66:24;N:69:24	-10.3835
;N:71:8;N:74:8	-10.3835
8;w:12;N:71:8	-10.3835
;w:6;D:38;D:41	-10.384
;w:4;N:71:	-10.384
;N:70:24;w:24;N:70:12	-10.3841
;N:78:6;N:82:6	-10.3841
;N:64:24;N:76:24	-10.3842
;w:48;N:48:24	-10.3844
;w:24;N:66:21	-10.3848
;N:52:6;N:56:6;N:59:6	-10.3849
;w:12;N:38:6;w:6	-10.3849
72;N:65:72	-10.3851
;N:75:96	-10.3853
;N:65:6;N:72:6	-10.3853
;w:12;N:53:12;w:12;N:54:12	-10.3854
;N:26:8	-10.3857
;w:4;N:55:	-10.3857
;N:47:33	-10.3859
;w:24;N:69:16	-10.386
;D:36;D:42;D:56	-10.386
;w:12;N:48:18	-10.3861
;w:12;N:54:12;N:59:12	-10.3863
;N:62:84	-10.3863
;N:60:8;N:64:8	-10.3864
;w:6;D:42;w:6;D:37;D:42	-10.3864
;w:24;N:48:4	-10.3867
36;N:80:36	-10.3868
;N:70:6;w:12;N:70:6	-10.3869
;N:64:84	-10.3873
36;w:36;N:52:12	-10.3874
9;w:12;N:43:9	-10.3876
20;w:24;N:61:20	-10.3878
;N:49:42	-10.3878
;w:6;N:55:6;N:60:6	-10.3878
;w:12;N:64:20	-10.3879
;w:6;N:57:6;w:6;N:60:6	-10.3882
;N:80:1;w:1	-10.3883
6;w:6;N:95:6	-10.3885
;w:48;N:54:24	-10.389
;N:77:27	-10.3892
;N:54:60	-10.3892
;N:34:6;w:12;N:34:6	-10.3893
;N:70:12;w:12;N:69:12	-10.3894
;w:12;N:24:12	-10.3897
;N:65:6;N:69:6;N:72:6	-10.3897
72;N:61:72	-10.39
;w:12;N:73:48	-10.39
;D:36;D:42;w:12;D:46	-10.3902
;N:51:6;w:6;N:51:6	-10.3903
;w:6;N:56:6;w:6;N:59:6	-10.3906
18;w:18;N:60:18	-10.3908
;w:12;N:63:12;w:12;N:67:12	-10.3908
;w:18;N:88:	-10.3909
48;N:47:48	-10.3909
;w:12;N:69:12;w:12;N:68:12	-10.391
;w:24;N:81:6	-10.3913
;w:6;N:53:9	-10.3914
;N:68:8;N:72:8	-10.3914
18;w:18;N:78:	-10.3914
;w:12;N:70:21	-10.3916
48;N:85:48	-10.3918
;w:12;N:52:21	-10.392
;w:6;D:42;D:53	-10.3921
;D:54;w:6;D:54;w:6;D:42	-10.3922
;N:83:6;N:86:6	-10.3922
;N:71:6;w:12;N:71:6	-10.3924
;N:62:6;N:65:6;w:6	-10.3924
;w:6;N:48:4	-10.3925
;w:48;N:66:24	-10.3925
;w:12;N:79:12;w:12;N:78:12	-10.3925
;w:12;N:37:12;w:12;N:37:12	-10.3928
;w:6;D:38;D:49	-10.3933
;N:63:40	-10.3933
;w:16;N:30:	-10.3933
;w:24;N:61:20	-10.3934
20;w:24;N:70:20	-10.3935
;N:72:28	-10.3936
;w:24;N:58:20	-10.3936
;w:12;N:76:12;w:12;N:76:12	-10.3937
;w:12;N:74:12;w:12;N:73:12	-10.3939
18;w:18;N:69:18	-10.3941
;w:12;N:62:16	-10.3942
;N:85:20	-10.3943
;N:58:6;N:61:6;N:66:6	-10.3944
;N:48:24;N:55:24	-10.3945
;N:68:24;N:80:24	-10.3948
48;N:76:48	-10.3949
;w:6;N:30:6	-10.395
;w:48;N:47:24	-10.3952
;N:80:33	-10.3952
;N:82:12;w:12;N:80:12	-10.3952
;w:9;N:69:	-10.3953
24;w:24;N:81:12	-10.3953
48;N:53:48	-10.3954
16;w:16;N:79:	-10.3956
;N:79:24;w:24;N:79:	-10.3957
6;w:6;N:36:6;w:6	-10.3958
6;w:6;N:82:6;w:6;N:83:	-10.3959
;N:56:4;N:60:4	-10.3959
;N:55:6;N:60:6;N:64:6	-10.3959
45;N:67:45	-10.3959
45;N:69:45	-10.396
;N:93:8	-10.396
;w:15;N:59:9	-10.3963
;N:60:24;N:64:24;N:67:24	-10.3963
;w:12;D:36;w:6;D:36	-10.3964
;w:48;N:30:	-10.3965
;w:12;N:44:36	-10.3967
;w:24;N:54:16	-10.397
;w:36;N:69:24	-10.3971
;N:33:48	-10.3972
;D:36;D:49;w:12;D:42	-10.3976
24;w:24;N:92:	-10.3979
;w:12;N:58:16	-10.398
;N:42:6;N:47:6	-10.398
;w:3;N:78:	-10.398
;w:24;N:62:20	-10.398
;N:86:3;w:6	-10.3983
;N:59:6;N:62:6;N:66:6	-10.3984
;N:62:6;N:69:6	-10.3988
;w:24;N:68:48	-10.3988
;w:12;N:33:12;N:45:12	-10.3989
;N:64:24;w:24;N:64:12	-10.3989
;w:6;N:31:3	-10.399
;N:49:6;N:54:6	-10.3991
;w:12;N:64:16	-10.3992
;N:76:3;N:81:3	-10.3992
5;N:60:5	-10.3994
;N:62:12;N:69:12	-10.3994
8;w:12;N:68:8	-10.3995
;w:48;N:52:12	-10.3999
;N:91:4;w:4	-10.3999
;w:4;N:57:	-10.4
;w:3;N:65:3	-10.4004
;N:76:24;N:80:24	-10.4004
;D:53;w:2	-10.4005
;N:64:40	-10.4009
;w:24;D:43	-10.4011
;w:24;N:41:4	-10.4012
;N:73:11	-10.4013
;w:24;N:60:12;N:63:12	-10.4013
;N:58:11	-10.4018
;w:8;N:54:8	-10.402
;N:65:24;w:24;N:65:12	-10.4021
21;N:75:21	-10.4025
;w:8;N:73:4	-10.4026
48;N:68:48	-10.4026
;N:32:6;w:12;N:32:	-10.4028
;w:6;N:70:9	-10.4029
6;w:6;N:79:6;w:6;N:78:	-10.4029
;w:12;N:55:20	-10.4031
;w:12;N:46:48	-10.4031
;N:48:192	-10.4035
;N:48:24;N:60:24	-10.4035
;D:54;w:6;D:36;D:42	-10.4036
;w:12;N:53:12;N:58:12;N:62:12	-10.4037
3;w:6;N:81:3;w:6	-10.4037
;w:12;N:83:4	-10.4038
;w:24;N:47:18	-10.4041
;w:12;D:53	-10.4045
;N:54:9;N:57:9	-10.4046
;N:54:9;N:59:9	-10.4047
8;w:8;N:50:8	-10.4048
4;w:4;N:52:4;w:4	-10.4049
9;w:12;N:40:9	-10.405
;w:15;D:38	-10.4051
;N:54:3;N:58:3	-10.4052
;w:8;N:40:4	-10.4053
;w:12;N:55:12;N:59:12;N:62:12	-10.4053
;N:75:6;w:6;N:75:	-10.4055
;N:51:12;N:55:12;N:58:12	-10.4055
;N:79:12;w:12;N:79:	-10.4055
;N:63:6;N:68:6;N:72:6	-10.4055
;w:24;N:56:24;N:59:24	-10.4057
;w:12;N:63:6;w:12;N:63:6	-10.406
;w:12;N:36:8	-10.406
3;w:3;N:41:3;w:3	-10.406
;w:24;N:52:21	-10.406
15;N:71:15	-10.4061
96;N:75:96	-10.4065
;N:68:12;N:72:12;N:75:12	-10.4067
;w:12;N:77:15	-10.4067
;w:36;N:52:6	-10.4067
;w:12;N:67:12;w:12;N:63:12	-10.4067
;N:51:24;N:54:24	-10.4068
36;N:53:36	-10.4068
18;w:18;N:33:	-10.4069
;w:12;N:55:12;w:12;N:52:12	-10.4069
4;N:87:4	-10.4069
9;w:12;N:41:9	-10.4069
;N:76:24;N:79:24	-10.407
;w:12;N:72:18	-10.4071
96;N:71:96	-10.4072
4;N:57:4	-10.4073
;N:61:40	-10.4073
;N:57:8;N:61:8	-10.4076
;D:36;D:38;D:42;D:49	-10.4076
;N:62:6;N:67:6;N:71:6	-10.4076
;w:12;N:48:12;w:12;N:51:12	-10.4077
;N:47:6;N:52:6	-10.4081
;N:48:1	-10.4081
;D:69;w:8	-10.4083
;w:6;N:61:6;w:6;N:64:6	-10.4084
;w:6;N:65:18	-10.4086
;w:12;N:70:12;w:12;N:74:12	-10.409
;w:12;N:77:12;w:12;N:80:12	-10.409
16;N:56:16	-10.4092
;N:43:5	-10.4094
;w:12;N:72:12;w:12;N:73:12	-10.4097
;w:15;N:53:9	-10.4099
20;N:53:20	-10.4102
3;w:3;N:93:3;w:3	-10.4102
;w:12;N:55:12;w:12;N:56:12	-10.4103
48;N:72:48	-10.4105
;w:12;N:56:12;N:60:12;N:63:12	-10.4106
;N:50:24;N:57:24	-10.4106
;w:24;N:58:12;N:61:12	-10.4108
;N:55:4;N:60:4	-10.4109
;N:88:16	-10.411
;D:51;w:2	-10.411
;w:6;N:45:6;w:6;N:47:6	-10.4111
;N:72:6;w:6;N:74:6;w:6	-10.4114
6;w:6;N:85:6;w:6;N:83:	-10.4116
;N:60:12;N:67:12	-10.4117
;w:12;N:59:16	-10.412
;w:6;N:51:6;w:6;N:53:6	-10.4122
;w:12;N:57:12;w:12;N:54:12	-10.4122
8;N:82:8	-10.4123
;N:66:6;N:71:6;w:6	-10.4124
;w:24;N:36:20	-10.4126
;w:24;N:36:18	-10.4126
;N:47:6;w:6;N:47:6	-10.4128
;w:6;N:34:12	-10.4129
;w:24;N:67:24;N:70:24	-10.4132
;D:53;w:6;D:38	-10.4132
;w:12;N:76:12;w:12;N:72:12	-10.4134
;w:6;D:43;D:46	-10.4135
;w:3;N:42:	-10.4136
;w:6;N:66:6;w:6;N:71:6	-10.4138
;w:6;N:	-10.4139
;N:50:24;N:55:24	-10.4142
;w:6;N:62:6;w:6;N:60:6	-10.4143
;w:3;N:80:	-10.4143
21;w:3	-10.4148
;N:80:12;w:12;N:79:12	-10.4148
;w:12;N:72:12;w:12;N:76:12	-10.4148
;w:12;N:71:6;w:12;N:71:6	-10.415
0;N:36:	-10.4151
;w:3;N:40:	-10.4152
;N:61:6;N:66:6;w:6	-10.4153
;N:48:42	-10.4154
;w:12;N:27:6	-10.4156
6;w:6;N:38:6	-10.4159
48;N:73:48	-10.416
;N:65:24;N:77:24	-10.4161
;w:24;N:43:4	-10.4163
;D:42;D:50	-10.4164
;w:12;N:45:48	-10.4165
;w:12;N:45:12;w:12;N:50:12	-10.4166
;w:12;N:59:12;w:12;N:55:12	-10.4168
;N:48:27	-10.4168
12;w:12;N:70:12	-10.417
;w:12;N:73:18	-10.4171
;w:9;D:38	-10.4171
;w:24;N:45:18	-10.4174
;w:12;N:68:6;w:12;N:68:6	-10.4174
8;N:81:8	-10.4176
;w:24;N:43:18	-10.4177
;w:18;N:73:3	-10.4179
;D:48;D:50;D:69	-10.4179
;N:67:12;N:71:12;N:74:12	-10.4181
;N:72:4;N:77:4	-10.4182
;N:57:24;N:61:24;N:64:24	-10.4183
96;N:55:96	-10.4184
;w:4;N:58:	-10.4185
;w:12;N:62:6;N:65:6	-10.4189
;N:71:14	-10.4189
18;w:18;N:35:	-10.4189
;w:6;N:58:6;w:6;N:55:6	-10.419
;w:12;N:54:20	-10.4191
;w:16;D:38;w:8;D:38	-10.4191
45;N:57:45	-10.4192
;N:56:24;N:60:24;N:63:24	-10.4193
;w:15;N:47:	-10.4194
;D:54;D:70;w:6	-10.4195
;N:87:36	-10.4195
;N:82:9;w:9	-10.4195
;w:12;N:47:12;w:12;N:50:12	-10.4197
;N:51:30	-10.4198
18;N:76:18	-10.4199
;w:4;N:73:	-10.42
;N:75:12;w:12;N:75:12	-10.42
;w:12;N:50:12;w:12;N:54:12	-10.4201
;w:24;N:51:18	-10.4204
;N:65:40	-10.4206
;w:6;N:61:6;N:64:6	-10.421
;w:6;N:54:6;w:6;N:59:6	-10.4213
;w:12;N:62:12;w:12;N:61:12	-10.4214
36;w:36;N:81:12	-10.4214
;w:24;N:46:3	-10.4215
;w:21;N:48:	-10.4216
18;N:52:18	-10.4217
16;N:77:16	-10.4219
;N:92:4;w:4	-10.4219
;w:12;N:79:12;w:12;N:77:12	-10.4219
;w:72;N:59:	-10.4221
6;w:6;N:80:6;w:6;N:81:	-10.4222
;w:12;D:36;D:39	-10.4222
;w:24;N:58:24;N:62:24	-10.4223
;N:44:5	-10.4224
;N:33:9;w:12;N:33:	-10.4226
3;w:3;N:45:3;w:3	-10.4229
;N:28:6;w:12;N:28:	-10.4229
;w:6;N:59:6;w:6;N:64:6	-10.4232
;w:36;N:43:6	-10.4232
;w:24;N:59:12;N:62:12	-10.4234
;w:72;N:72:	-10.4234
24;N:88:24	-10.4235
;w:5;D:38	-10.4235
;w:12;N:31:9	-10.4235
;N:64:12;N:67:12;N:72:12	-10.4239
48;N:75:48	-10.4239
3;w:6;N:67:3;w:6	-10.4239
;w:12;D:42;w:12;D:36	-10.4243
20;w:24;N:80:	-10.4243
;D:69;w:4	-10.4244
;w:12;D:36;D:39;D:42	-10.4244
;w:12;N:51:12;w:12;N:56:12	-10.4245
;w:12;N:66:12;w:12;N:65:12	-10.4248
;w:12;N:74:12;N:77:12	-10.4249
;N:32:21	-10.4249
;w:12;N:50:6;w:12;N:50:6	-10.425
;w:6;N:54:9	-10.4251
;w:6;N:60:6;N:63:6	-10.4251
;N:69:12;w:12;N:68:12	-10.4251
;w:12;D:36;D:41;D:42	-10.4252
1:12	-10.4253
;w:6;N:68:6;w:6;N:66:6	-10.4254
;w:24;N:57:20	-10.4257
;N:45:6;N:50:6	-10.4257
45;N:58:45	-10.4258
;w:12;N:36:12;w:12;N:36:12	-10.426
;D:54;w:6;D:54;w:6;D:38	-10.426
;N:21:6	-10.4261
8;w:8;N:73:	-10.4262
;w:6;N:53:6;w:6;N:56:6	-10.4263
;w:12;N:54:12;w:12;N:52:12	-10.4263
;N:48:24;N:53:24	-10.4264
;w:15;N:67:9	-10.4269
;w:8;N:85:	-10.4272
;N:47:6;w:6;N:47:6;w:6;N:47:6;w:6;N:47:6	-10.4275
;w:18;N:50:3	-10.4277
2;N:70:2	-10.4278
;w:12;N:51:12;w:12;N:55:12	-10.4279
;w:3;N:56:3	-10.4281
16;N:57:16	-10.4283
;N:63:192	-10.4285
;w:15;N:55:9	-10.4287
20;w:24;N:79:	-10.4288
;N:54:8;N:57:8	-10.4288
;w:12;N:70:6;w:12;N:70:6	-10.4289
;w:24;N:44:18	-10.4289
;w:18;N:30:6	-10.4291
;w:12;N:65:12;w:12;N:64:12	-10.4291
18;w:18;N:67:18	-10.4291
;w:24;N:74:4	-10.4292
;N:80:12;w:12;N:75:12	-10.4292
;N:70:9;N:74:9	-10.4292
5;N:64:5	-10.4292
;D:69;w:1	-10.4293
;N:73:12;w:12;N:72:12	-10.4293
;N:80:6;N:92:6	-10.4294
;w:12;D:42;w:6;D:36	-10.4294
4;N:86:4	-10.4296
;N:44:27	-10.4296
;w:6;N:61:6;w:6;N:66:6	-10.4296
;w:12;D:37;D:38	-10.4297
;N:45:45	-10.4299
18;w:18;N:80:6;w:6	-10.43
;N:51:3;w:3	-10.43
;N:74:12;w:12;N:67:12	-10.4301
18;w:18;N:88:	-10.4304
;w:16;N:68:8	-10.4305
;w:24;N:50:48	-10.4306
;w:12;N:60:12;w:12;N:56:12	-10.4309
;N:78:30	-10.4309
;N:70:3;N:82:3	-10.431
48;w:48;N:73:	-10.431
12;w:12;N:69:12	-10.431
;N:72:6;w:6;N:67:6	-10.4311
16;w:16;N:82:	-10.4313
18;N:54:18	-10.4314
;w:24;N:56:15	-10.4317
;N:43:27	-10.4317
;w:12;D:38;w:12;D:36;D:38	-10.4318
;w:48;N:67:24	-10.4321
;w:12;D:37;D:38;D:42	-10.4322
;N:78:12;N:83:12	-10.4324
;w:24;N:65:15	-10.433
72;N:68:72	-10.433
9;w:12;N:32:9	-10.4332
;w:12;N:58:6;N:61:6	-10.4332
;w:36;N:25:	-10.4333
;w:36;N:47:6	-10.4338
;w:6;N:65:6;w:6;N:62:6	-10.4339
;w:12;N:50:12;w:12;N:55:12	-10.4339
;w:24;N:36:9	-10.4341
;w:12;N:52:12;w:12;N:53:12	-10.4341
;w:6;N:52:9	-10.4343
9;N:81:9	-10.4345
;w:12;N:48:12;N:55:12	-10.4347
;w:36;N:57:24	-10.4348
;w:36;N:84:	-10.4351
;N:42:3;N:54:3	-10.4351
;w:12;N:57:16	-10.4353
;N:62:3;N:74:3	-10.4357
6;w:6;N:26:6;w:6	-10.4359
20;N:77:20	-10.4359
12;w:3	-10.436
;N:46:27	-10.4361
;w:24;N:85:12	-10.4361
18;w:18;N:34:	-10.4362
;N:64:8;N:69:8	-10.4363
;w:12;N:43:36	-10.4363
;w:12;N:59:12;N:63:12;N:66:12	-10.4368
;N:48:6;w:6;N:48:6;w:6;N:48:6;w:6;N:48:6	-10.4369
2;N:76:2	-10.437
48;w:48;N:72:	-10.437
48;N:69:48	-10.4371
72;N:60:72	-10.4373
;N:60:6;N:63:6;N:67:6	-10.4374
;w:12;N:75:12;w:12;N:76:12	-10.4375
18;N:80:18	-10.4376
;w:12;N:66:20	-10.4376
;N:51:4;N:56:4	-10.4379
;D:38;D:41;D:42	-10.4379
18;w:18;N:59:18	-10.4379
;N:71:24;w:24;N:71:12	-10.438
;N:65:1;w:1	-10.438
;N:57:12;N:60:12;N:64:12	-10.4382
;N:49:24;N:56:24	-10.4385
;N:69:8;N:73:8	-10.4386
8;w:8;N:49:8	-10.4387
;w:12;N:28:6	-10.4389
;w:12;N:58:12;w:12;N:59:12	-10.439
;w:12;N:74:48	-10.4391
;w:6;N:45:3;w:6	-10.4392
;w:12;N:53:12;w:12;N:50:12	-10.4392
72;N:69:72	-10.4395
;N:49:24;N:54:24	-10.4399
;w:12;N:45:15	-10.4399
;w:36;N:56:24	-10.4399
15;N:74:15	-10.44
;N:57:6;w:6;N:57:6	-10.4402
;N:77:30	-10.4403
;w:24;N:62:12;N:65:12	-10.4404
4;w:4;N:54:4;w:4	-10.4404
;w:6;N:39:6;w:6;N:39:6	-10.4407
48;N:57:48	-10.4408
;N:69:12;w:12;N:62:12	-10.4409
;w:6;N:63:6;w:6;N:60:6	-10.441
;w:9;N:54:	-10.4413
;w:3;N:36:	-10.4414
;w:24;N:74:3	-10.4415
;N:40:12;N:45:12	-10.4417
;N:52:12;N:56:12;N:59:12	-10.4418
;w:72;N:58:	-10.4418
;D:38;D:42;D:54	-10.4419
;N:67:24;N:79:24	-10.4419
;D:46;D:70	-10.4422
72;N:70:72	-10.4423
;D:46;w:12;D:46	-10.4424
;w:6;N:69:9	-10.4424
;w:8;N:39:4	-10.4426
;w:24;N:50:18	-10.4427
;N:40:27	-10.4427
;N:78:42	-10.4428
;w:36;N:50:6	-10.4428
6;w:6;N:24:6	-10.4429
8;w:8;N:43:8	-10.443
8;w:12;N:74:8	-10.4431
:3;w:3;N:1	-10.4432
;w:36;N:45:6	-10.4432
0;N:45:	-10.4433
;D:36;D:51;w:12;D:51	-10.4437
;w:24;N:64:24;N:68:24	-10.4437
48;N:63:48	-10.4438
;N:94:3;w:6	-10.4438
;D:45;D:53	-10.444
;w:8;N:49:8	-10.4441
;N:65:3;N:77:3	-10.4441
;N:79:12;N:84:12	-10.4446
;N:61:6;N:68:6	-10.4447
;N:61:12;N:68:12	-10.4448
;N:87:48	-10.4449
;N:57:8;N:62:8	-10.4449
;w:24;N:32:6	-10.4449
;w:3;D:38;w:3;D:38;w:3;D:38;w:3;D:38	-10.445
;N:68:6;w:6;N:69:6	-10.4452
;w:16;N:40:8	-10.4454
;N:62:24;w:24;N:62:24	-10.4455
;D:38;w:12;D:36	-10.4456
;w:24;N:57:12;N:60:12	-10.4458
;w:6;N:70:6;w:6;N:72:6	-10.4458
;w:6;N:75:6;N:87:6	-10.4459
;N:34:9;w:12;N:34:	-10.4459
;N:73:12;w:12;N:73:	-10.446
2;N:56:2	-10.4461
;N:32:9;w:12;N:32:	-10.4461
20;N:56:20	-10.4461
;w:24;N:40:4	-10.4462
;w:24;N:48:18	-10.4462
20;N:55:20	-10.4465
;w:24;N:72:8	-10.4465
;N:36:6;w:12;N:36:6	-10.4465
;N:72:12;w:12;N:71:12	-10.4466
;w:12;N:46:12;N:53:12	-10.4467
;N:62:6;N:67:6;w:6	-10.4469
;D:36;D:42;w:12;D:38;D:42	-10.4469
72;N:63:72	-10.447
100	-10.4471
;D:51;w:9	-10.4472
;N:59:12;w:12;N:57:12	-10.4476
0;N:43:	-10.4477
11;w:3	-10.4478
;D:36;D:49;D:51	-10.4478
20;w:24;N:73:20	-10.4478
;w:36;N:49:6	-10.4484
;w:16;D:36;D:42	-10.4486
;w:72;N:73:	-10.4487
;w:4;N:72:	-10.4488
;N:29:15	-10.4488
;w:6;N:32:3	-10.449
;N:76:6;w:6;N:71:6	-10.449
;w:24;N:30:24	-10.449
;N:68:6;N:73:6;w:6	-10.4491
;N:56:12;N:63:12	-10.4493
;D:38;D:43	-10.4493
;N:69:44	-10.4494
;w:6;N:58:6;N:61:6	-10.4494
24;w:24;N:91:24	-10.4495
;w:15;N:56:9	-10.4497
16;w:16;N:73:	-10.4498
8;w:8;N:48:8	-10.4499
;w:15;N:46:	-10.45
;D:51;w:6;D:51;w:6	-10.4502
;N:80:12;w:12;N:78:	-10.4502
;D:36;D:38;w:12;D:38	-10.4503
;N:51:24;N:58:24	-10.4504
18;w:18;N:58:18	-10.4506
;N:55:9;N:59:9	-10.4507
20;w:24;N:58:20	-10.4507
;N:75:24;N:80:24	-10.4508
;N:75:12;w:12;N:77:12	-10.4508
;N:75:4;N:79:4	-10.451
;w:12;N:72:12;w:12;N:68:12	-10.4514
;w:48;N:73:12	-10.4516
51;w:	-10.4516
;w:24;N:59:24;N:63:24	-10.4516
;N:71:9;N:75:9	-10.4517
96;N:54:96	-10.452
;w:8;D:36;D:38;D:42	-10.452
;w:36;N:48:6	-10.452
;N:74:6;N:79:6;w:6	-10.4521
;w:12;N:50:12;N:54:12	-10.4522
;N:49:24;N:61:24	-10.4522
;D:54;w:6;D:54;w:6;D:42;D:54;w:6;D:54	-10.4522
;w:36;N:55:24	-10.4522
;w:24;N:72:4	-10.4526
24;N:85:24	-10.453
;N:48:3;N:55:3	-10.4531
;N:82:1;w:1	-10.4531
;w:6;D:38;D:42;w:6;D:36;D:42	-10.4531
;w:24;N:89:12	-10.4532
;w:72;N:57:	-10.4532
16;N:76:16	-10.4536
;D:38;D:42;w:12;D:42	-10.4536
;N:65:6;N:68:6;w:6	-10.4536
;N:72:6;w:12;N:72:6	-10.4538
;N:55:12;N:62:12	-10.454
6;w:12;N:92:6	-10.4541
;w:24;N:71:16	-10.4542
;w:12;N:42:12;w:12;N:40:12	-10.4542
;w:12;N:79:9	-10.4543
;w:24;N:68:24;N:71:24	-10.4543
;w:16;N:78:	-10.4545
;w:24;N:49:18	-10.4549
;w:9;N:59:	-10.4549
;w:12;N:76:8	-10.455
;w:18;N:62:6;w:6	-10.4551
;w:36;N:46:6	-10.4552
;N:45:24;N:52:24	-10.4553
;w:24;N:70:48	-10.4553
;w:12;N:76:12;N:88:12	-10.4554
;w:12;N:46:15	-10.4555
4;w:6;N:69:3;w:6	-10.4557
;N:50:6;w:6;N:50:6;w:6;N:50:6;w:6;N:50:6	-10.4557
;w:18;N:78:12	-10.4557
;N:62:6;N:65:6;N:69:6	-10.4557
18;w:18;N:64:6;w:6	-10.456
;w:12;N:52:20	-10.4561
;N:59:40	-10.4561
;N:68:12;N:75:12	-10.4564
;w:12;N:56:20	-10.4565
;N:64:6;w:6;N:62:6	-10.4565
;N:72:6;w:6;N:72:6	-10.4566
6;w:5	-10.4566
;w:6;N:59:6;N:62:6	-10.4566
;w:8;N:36:	-10.4568
;w:48;N:53:24	-10.4568
;w:12;N:52:12;w:12;N:56:12	-10.4569
9;w:12;N:83:9	-10.457
;w:18;N:35:12	-10.457
8;w:8;N:47:8	-10.4572
;w:12;N:41:12;w:12;N:43:12	-10.4572
;w:12;N:73:12;w:12;N:77:12	-10.4573
;N:55:8;N:58:8	-10.4575
;N:47:27	-10.4576
;w:6;D:42;D:54	-10.4577
51;w:3	-10.4577
;w:8;N:61:16	-10.4578
;N:66:6;w:6;N:64:6	-10.458
;N:33:12;N:45:12	-10.458
;w:36;N:30:12	-10.458
;N:87:0	-10.4584
;N:57:12;N:64:12	-10.4586
;w:12;N:76:36	-10.4587
;N:52:4;N:57:4	-10.459
;w:16;N:77:	-10.4591
;N:64:3;N:76:3	-10.4592
;D:70;w:12;D:38	-10.4593
;N:78:6;N:83:6	-10.4593
3;w:6;N:79:3;w:6	-10.4593
;w:24;N:61:24;N:65:24	-10.4596
6;w:6;N:80:6;w:6;N:79:	-10.4599
2:12	-10.4599
16;w:16;N:74:	-10.46
;N:63:6;w:6;N:65:6	-10.46
;w:24;N:35:9	-10.4602
;N:93:24	-10.4602
;w:6;N:63:6;w:6;N:61:6	-10.4603
;w:24;N:34:21	-10.4603
;N:66:24;N:78:24	-10.4604
;w:12;N:62:12;w:12;N:63:12	-10.4605
;N:81:6;N:85:6	-10.4606
;w:6;D:38;D:47	-10.461
;N:59:12;N:63:12;N:66:12	-10.4611
;N:50:6;w:6;N:50:6	-10.4612
21;N:74:21	-10.4614
;w:12;N:29:12;N:41:12	-10.4618
;N:60:40	-10.4618
8;w:8;N:41:8	-10.4619
;N:57:6;N:64:6	-10.4619
;N:50:12;N:57:12	-10.462
72;N:64:72	-10.4621
;w:6;N:84:3;w:6	-10.4623
;w:6;N:60:6;w:6;N:58:6	-10.4627
15;N:72:15	-10.4627
0;N:46:	-10.4628
4;N:85:4	-10.4632
;D:53;D:69;w:6	-10.4632
;w:48;N:52:24	-10.4633
;w:12;N:19:	-10.4639
;N:53:39	-10.4639
24;w:24;N:29:24	-10.4645
6;w:6;N:84:6;w:6;N:86:	-10.4645
;N:92:3;w:3	-10.4645
;N:76:6;N:88:6	-10.4647
;N:57:14	-10.4647
;w:24;N:52:16	-10.4647
;N:84:36	-10.465
;N:54:6;N:57:6;N:62:6	-10.465
;D:38;w:1;D:38	-10.4652
;N:63:24;w:24;N:63:12	-10.4653
;N:77:24;w:24;N:77:	-10.4656
;w:6;N:56:6;w:6;N:60:6	-10.4656
;N:67:6;w:6;N:65:6;w:6	-10.4657
;N:55:24;N:59:24;N:62:24	-10.4658
;w:12;N:65:12;N:70:12	-10.4659
;w:18;D:38;w:6;D:38	-10.466
;N:33:20	-10.466
0;N:49:	-10.4661
;w:24;N:73:8	-10.4662
;N:48:12;N:55:12	-10.4663
;w:1;D:36	-10.4664
;N:79:1;w:1	-10.4666
;N:58:24;N:63:24;N:67:24	-10.467
;w:15;N:63:9	-10.467
;D:36;w:12;D:42	-10.467
;w:24;N:63:20	-10.4673
;N:65:12;N:70:12;N:74:12	-10.4674
;w:8;N:34:	-10.4674
;w:21;N:77:	-10.4675
;N:73:6;N:78:6;w:6	-10.4675
4;w:6;N:75:3	-10.4675
;w:24;N:56:20	-10.4676
;w:3;N:69:3	-10.4676
72;N:58:72	-10.4677
;N:63:12;N:70:12	-10.4678
;w:15;N:66:9	-10.4681
;N:67:8;N:72:8	-10.4682
8;w:8;N:29:	-10.4685
;N:38:6;w:6;N:38:6;w:6;N:38:6;w:6;N:38:6	-10.4687
;N:68:12;w:12;N:56:12	-10.4689
;w:24;N:66:15	-10.4689
45;N:70:45	-10.4689
;w:8;N:70:8	-10.4689
;w:12;N:69:21	-10.4693
12;w:12;N:43:12	-10.4694
;N:58:12;w:12;N:60:12	-10.4695
16;w:16;N:71:	-10.47
;N:61:12;N:64:12;N:68:12	-10.4704
;N:81:12;N:85:12	-10.4704
72;N:67:72	-10.4706
;N:51:12;N:58:12	-10.4707
;D:48;w:12;D:48	-10.4708
;w:12;D:38;D:43	-10.4708
;N:66:12;w:12;N:54:12	-10.4709
;w:24;N:60:24;N:64:24	-10.4711
;w:12;N:65:16	-10.4711
;w:12;N:52:12;N:57:12	-10.4711
;N:71:12;w:12;N:70:12	-10.4712
;N:75:6;w:6;N:73:6	-10.4714
;N:50:30	-10.4715
6;w:6;N:80:6;w:6;N:83:	-10.4715
;w:3;N:41:	-10.4716
;w:12;N:67:20	-10.4716
;w:12;D:38;D:41	-10.4718
;w:24;N:70:16	-10.472
;w:4;N:74:	-10.4722
;D:38;D:45	-10.4723
;N:66:12;N:70:12;N:73:12	-10.4725
;N:62:6;w:6;N:64:6	-10.4726
20;w:24;N:59:20	-10.4727
;N:70:12;w:12;N:58:12	-10.4728
;w:3;N:51:3	-10.4729
;N:65:6;w:6;N:67:6;w:6	-10.473
;N:75:6;N:78:6;w:6	-10.473
;w:24;N:46:8	-10.4731
;D:36;D:49;w:12;D:38	-10.4732
;D:36;D:42;w:24;D:38;D:42	-10.4735
;D:54;D:70;w:6;D:54;D:70	-10.4735
;N:66:40	-10.474
;N:46:12;N:53:12	-10.4743
;D:70;w:8;D:70	-10.4745
0;N:42:	-10.4748
6;w:6;N:61:6;w:6	-10.4751
;N:53:24;N:60:24	-10.4751
;w:12;D:41;D:42	-10.4757
;w:24;N:69:48	-10.4758
;w:12;N:44:12;w:12;N:42:12	-10.4764
48;N:74:48	-10.4765
;w:12;N:68:20	-10.4766
;N:73:8;N:76:8	-10.4767
;N:39:6;w:6;N:39:	-10.4768
;w:36;N:80:12	-10.4768
;w:36;N:44:6	-10.477
;w:12;N:63:12;w:12;N:59:12	-10.477
18;w:18;N:30:	-10.477
;w:6;N:60:6;w:6;N:65:6	-10.4772
6;w:6;N:28:6;w:6	-10.4774
;N:67:12;w:12;N:66:12	-10.4774
;D:39;D:51	-10.4777
;N:61:24;N:65:24;N:68:24	-10.4777
;D:36;D:42;w:12;D:42;w:12;D:42	-10.4779
;w:6;N:70:18	-10.478
;w:6;N:56:6;N:59:6	-10.4782
;w:48;N:51:12	-10.4784
;w:12;N:63:6;N:66:6	-10.4787
;D:38;D:42;D:51	-10.4788
;N:62:24;w:24;N:62:12	-10.479
;w:21;N:78:	-10.4792
;D:48;D:76	-10.4793
;N:56:12;N:59:12;N:63:12	-10.4793
;N:81:1;w:1	-10.4793
;w:6;N:27:6	-10.4794
;N:64:6;N:69:6;w:6	-10.4795
24;w:24;N:82:12	-10.4798
;N:81:3;w:6	-10.4798
21;N:54:21	-10.4799
;N:52:9;N:57:9	-10.4803
;D:69;D:70;w:6	-10.4805
;N:67:6;w:12;N:67:6	-10.4805
;N:63:3;N:75:3	-10.4805
;N:47:12;N:54:12	-10.4806
;w:6;D:49	-10.4806
;N:54:24;N:61:24	-10.481
9;w:12;N:47:9	-10.481
;w:18;N:75:6;w:6	-10.481
;w:24;N:53:16	-10.4811
;w:24;N:55:15	-10.4813
16;w:16;N:69:	-10.4813
;N:64:24;w:24;N:64:24	-10.4816
;N:62:24;N:74:24	-10.4817
104	-10.4818
20;N:73:20	-10.4819
;w:12;N:51:12;w:12;N:52:12	-10.482
;N:66:6;w:6;N:68:6	-10.482
;N:50:3;w:6;N:50:3	-10.4821
;N:79:3;N:84:3	-10.4822
;N:46:12;N:51:12	-10.4825
;N:57:12;w:12;N:59:12	-10.4826
;D:53;w:3	-10.4826
;N:65:6;N:70:6;w:6	-10.4829
;w:24;N:57:24;N:61:24	-10.4829
;w:6;N:69:6;w:6;N:71:6	-10.483
;w:12;N:61:6;w:12;N:61:6	-10.4833
20;w:24;N:57:20	-10.4837
;D:42;w:6;D:42;w:6;D:46	-10.4839
;w:12;N:65:12;w:12;N:61:12	-10.4839
;w:6;N:51:6;w:6;N:50:6	-10.484
;N:81:12;w:12;N:76:12	-10.484
;w:6;D:38;D:42;D:43	-10.484
72;N:66:72	-10.4845
;N:63:24;N:67:24;N:70:24	-10.4845
;w:6;N:46:6;w:6;N:48:6	-10.4848
;N:78:33	-10.4849
;N:28:18	-10.4852
;w:48;N:50:12	-10.4853
;w:24;N:63:12;N:66:12	-10.4855
;w:24;N:49:48	-10.4858
42;N:63:42	-10.4859
;w:12;N:40:12;w:12;N:42:12	-10.4862
;N:80:24;w:24;N:80:	-10.4865
;N:24:6	-10.4865
4;w:12;N:78:4	-10.4867
;N:32:36	-10.4867
18;w:18;N:72:	-10.4868
;N:69:3;N:81:3	-10.4868
8;N:84:8	-10.4872
;w:6;D:38;w:6;D:38;w:6;D:38;w:6;D:36;D:38	-10.4872
;D:43;D:70	-10.4874
;D:47;D:53	-10.4875
;N:81:6;N:86:6	-10.4876
24;w:24;N:27:24	-10.4877
8;w:8;N:42:8	-10.4877
;w:12;N:63:12;w:12;N:62:12	-10.4877
;N:100:12	-10.4878
;D:53;w:12;D:53	-10.4879
6;w:6;N:62:6;w:6	-10.4881
;w:12;D:36;D:38;w:12;D:36;D:38	-10.4881
;w:4;N:53:	-10.4882
;N:72:6;N:76:6;w:6	-10.4882
;D:54;w:4	-10.4884
;N:66:6;N:78:6	-10.4886
;w:12;N:74:18	-10.4891
;w:48;N:88:	-10.4891
36;w:36;N:51:12	-10.4892
;w:12;N:73:12;N:77:12	-10.4893
;w:12;D:36;D:42;w:6;D:42	-10.4893
;w:12;N:59:6;N:63:6	-10.4894
;N:33:24;N:45:24	-10.4895
;N:50:4;N:55:4	-10.4895
;w:6;N:96:	-10.4895
;D:46;w:6;D:36	-10.4897
;N:65:21;N:68:21	-10.4897
;w:6;N:63:6;w:6;N:68:6	-10.4898
6;w:6;N:29:6;w:6	-10.4899
;N:61:6;N:64:6;N:68:6	-10.4901
;N:51:3;N:58:3	-10.4901
;w:12;D:49	-10.4901
;N:52:8;N:57:8	-10.4902
;N:65:6;w:6;N:63:6	-10.4903
;w:9;N:52:	-10.4903
;w:24;N:65:24;N:69:24	-10.4903
20;N:76:20	-10.4904
;w:15;N:54:9	-10.4904
;N:74:4;N:78:4	-10.4905
;N:53:3;N:57:3	-10.4905
36;w:36;N:84:	-10.4906
44;w:4	-10.4907
;N:52:24;N:59:24	-10.4908
;w:6;D:38;D:42;w:6;D:38;D:42	-10.4912
;w:12;N:67:16	-10.4914
;N:68:8;N:73:8	-10.4916
;w:18;N:51:3	-10.4917
;N:71:12;w:12;N:64:12	-10.4919
;w:12;N:64:12;w:12;N:60:12	-10.492
;w:12;N:75:12;N:78:12	-10.492
;N:70:9;N:75:9	-10.492
;D:38;w:12;D:42	-10.4921
;w:6;N:49:6;w:6;N:47:6	-10.4921
;w:12;N:77:12;w:12;N:73:12	-10.4924
48;N:65:48	-10.4925
8;w:12;N:66:8	-10.4925
;N:58:6;N:65:6	-10.4927
;w:12;N:53:20	-10.4927
;w:6;N:29:6;w:6	-10.4928
;N:59:8;N:63:8	-10.4929
;D:76;w:12;D:36	-10.493
;w:24;N:62:36	-10.493
;w:12;N:45:18	-10.493
;w:6;N:61:24	-10.4931
;w:8;N:38:4	-10.4931
;w:18;N:80:12	-10.4936
;w:6;N:69:6;w:6;N:69:6	-10.4937
;w:12;N:49:12;N:56:12	-10.4938
;N:63:12;N:66:12;N:71:12	-10.4939
;N:67:3;N:79:3	-10.4939
;N:71:6;w:6;N:70:6	-10.4939
;N:99:4	-10.4939
;w:6;N:48:18	-10.494
36;w:36;N:35:	-10.4942
15;N:73:15	-10.4943
;w:24;N:64:36	-10.4947
;N:59:3;N:63:3;N:66:3	-10.4949
;w:12;N:77:12;w:12;N:82:12	-10.495
;N:68:3;N:80:3	-10.4952
5;N:65:5	-10.4954
3;w:6;N:74:3;w:6	-10.4956
;w:12;N:46:18	-10.4956
;w:24;N:35:20	-10.4958
12;w:12;N:73:6;w:6	-10.4958
;N:73:6;w:6;N:75:6	-10.4958
;N:62:12;N:65:12;N:69:12	-10.4959
;N:40:5	-10.4963
;N:65:12;N:68:12;N:73:12	-10.4964
;N:68:6;w:6;N:68:6	-10.4968
;N:77:6;N:89:6	-10.4969
;N:44:3;N:56:3	-10.497
;N:72:6;w:6;N:69:6	-10.497
;N:58:12;N:65:12	-10.4971
;w:12;N:39:12;w:12;N:41:12	-10.4971
;N:62:3;N:66:3;N:69:3	-10.4972
;w:24;N:45:3	-10.4973
;N:69:24;N:81:24	-10.4976
;N:84:12;N:87:12	-10.4978
;w:15;N:45:	-10.4978
;w:6;N:44:4	-10.4978
;w:24;N:53:24;N:56:24	-10.498
;N:43:6;w:12;N:43:6	-10.4981
;N:23:12	-10.4981
;w:48;N:68:24	-10.4983
;N:78:24;N:82:24	-10.4984
;N:77:6;w:6;N:77:6;w:6	-10.4986
;N:55:12;N:60:12;N:64:12	-10.4988
;w:36;N:41:6	-10.4992
;w:12;N:43:12;w:12;N:41:12	-10.4992
;w:6;N:52:6;w:6;N:54:6	-10.4994
18;w:18;N:71:6	-10.4994
;w:12;N:45:6;w:6;N:45:6	-10.4998
;w:6;D:36;w:6;D:36;w:6;D:36;w:6;D:36	-10.5002
;N:64:6;w:6;N:66:6	-10.5005
9;w:12;N:49:9	-10.5005
16;w:16;N:68:	-10.5008
;w:6;N:74:12	-10.5008
32;w:4	-10.501
;N:82:12;w:12;N:82:	-10.5012
;N:54:12;N:57:12;N:62:12	-10.5013
;N:65:24;w:24;N:65:24	-10.5014
6;w:6;N:80:6;w:6;N:78:	-10.5015
;w:6;N:60:12;w:6	-10.5016
;w:6;N:57:24	-10.5016
;N:49:32	-10.5016
;w:9;N:58:	-10.5018
;N:40:6;w:12;N:40:6	-10.502
;N:63:3;N:67:3;N:70:3	-10.5021
;N:81:3;N:84:3	-10.5023
;w:12;N:56:16	-10.503
;D:36;D:49;w:12;D:36	-10.5034
42;N:62:42	-10.5036
36;N:74:36	-10.5037
;w:6;N:45:4	-10.504
;N:83:2;w:2	-10.5046
;N:79:12;w:12;N:77:	-10.5046
;N:58:12;N:61:12;N:65:12	-10.5046
8;w:8;N:80:8	-10.5048
;D:76;w:12;D:76	-10.505
18;w:18;N:71:18	-10.505
;w:24;N:42:16	-10.5051
;N:77:24;N:81:24	-10.5053
;w:12;N:64:6;N:67:6	-10.5054
;w:18;N:34:12	-10.5055
;w:24;N:64:20	-10.5056
;N:85:36	-10.5057
;w:12;N:47:12;N:54:12	-10.5058
;w:12;N:75:48	-10.506
;N:70:24;N:82:24	-10.506
;w:6;N:31:6;N:43:6	-10.5063
;N:49:3;N:54:3	-10.5063
;N:69:12;w:12;N:57:12	-10.5063
;w:15;N:51:9	-10.5065
;N:78:7	-10.5068
;w:12;N:54:12;N:58:12;N:61:12	-10.5069
6;w:6;N:96:6	-10.5072
;w:6;N:86:3;w:6	-10.5075
;w:6;N:69:6;w:6;N:67:6	-10.5079
;w:12;N:62:12;w:12;N:58:12	-10.5082
;w:8;N:81:4	-10.5082
;N:76:4;N:80:4	-10.5082
;N:76:12;w:12;N:76:12	-10.5082
;N:40:3;N:52:3	-10.5084
12;w:12;N:76:6;w:6	-10.5084
72;N:71:72	-10.5085
;N:63:24;N:75:24	-10.5085
;w:36;N:42:6	-10.5088
;w:16;N:79:	-10.5088
;N:68:6;w:6;N:70:6;w:6	-10.5089
;N:62:36;N:65:36	-10.5091
;N:72:12;w:12;N:72:	-10.5092
8;w:12;N:76:8	-10.5093
;N:57:24;N:64:24	-10.5094
;w:16;N:69:8	-10.5096
;N:60:12;N:63:12;N:67:12	-10.5096
2;N:63:2	-10.5097
;w:6;N:56:6;w:6;N:53:6	-10.5097
;w:24;N:71:18	-10.5098
;w:12;N:73:12;w:12;N:78:12	-10.5099
;N:67:6;w:6;N:69:6;w:6	-10.5099
;D:69;w:6;D:69;w:6;D:38	-10.51
;N:66:8;N:71:8	-10.5101
;w:12;N:51:12;w:12;N:50:12	-10.5101
;w:48;N:46:24	-10.5102
;w:6;N:65:6;w:6;N:66:6	-10.5102
;w:12;N:67:6;N:70:6	-10.5103
;w:12;N:54:12;w:12;N:51:12	-10.5103
8;N:83:8	-10.5104
;N:47:24;N:54:24	-10.5105
;w:6;N:57:6;w:6;N:62:6	-10.5105
;N:98:4	-10.5108
;N:80:24;w:24;N:78:	-10.5108
;w:24;N:55:20	-10.5109
;N:68:12;w:12;N:67:12	-10.5111
;w:12;N:77:12;w:12;N:77:12	-10.5112
;w:12;N:72:12;N:76:12	-10.5114
;w:12;N:53:12;w:12;N:52:12	-10.5115
;D:69;w:12;D:38	-10.5116
;w:24;N:63:24;N:67:24	-10.5116
3:6	-10.5116
;D:42;D:46	-10.5116
;w:6;N:49:2	-10.5118
;w:12;N:46:12;w:12;N:44:12	-10.5118
18;w:18;N:70:18	-10.5118
;w:3;N:54:3	-10.5118
;N:55:24;N:60:24;N:64:24	-10.5119
;N:72:14	-10.5119
;w:24;N:67:15	-10.5119
;w:6;N:64:6;w:6;N:61:6	-10.5119
;w:12;N:32:12;N:44:12	-10.5121
;N:77:6;w:6;N:75:6	-10.5125
;N:60:3;N:64:3;N:67:3	-10.5125
;w:6;N:45:6;N:52:6	-10.5128
;w:24;N:69:12;w:12;N:67:12	-10.513
0;N:44:	-10.5131
8;w:12;N:42:8	-10.5132
;w:12;N:47:18	-10.5132
;N:60:24;w:24;N:60:24	-10.5138
;N:31:21	-10.514
;N:79:24;N:82:24	-10.5143
;w:3;N:53:3	-10.5144
;w:72;N:74:	-10.5145
;N:65:6;w:12;N:65:6	-10.5146
;N:82:4;w:6	-10.5148
;N:93:3;w:3	-10.5148
;N:75:4;N:80:4	-10.5153
12;w:12;N:45:12	-10.5154
;w:36;N:70:24	-10.5154
;D:51;w:8;D:51	-10.5155
;D:54;D:69;w:6;D:69	-10.5158
;N:59:24;N:64:24;N:68:24	-10.516
18;w:18;N:60:6	-10.5161
;w:12;N:58:6;N:62:6	-10.5162
;w:24;N:35:18	-10.5162
;N:72:24;w:24;N:72:12	-10.5164
;N:61:3;N:65:3;N:68:3	-10.5167
;w:12;N:71:21	-10.5169
;w:36;N:40:6	-10.517
;w:24;N:48:48	-10.5174
;N:57:6;N:62:6;N:66:6	-10.5175
;w:15;N:70:9	-10.5176
;N:46:24;N:53:24	-10.5176
;w:6;N:38:6;w:6;N:38:6	-10.518
;N:48:32	-10.5182
9;N:63:9	-10.5183
;N:58:24;N:65:24	-10.5187
;w:12;N:64:12;N:69:12	-10.5188
;w:24;N:55:24;N:59:24	-10.5189
;D:54;w:12;D:36;D:42;D:54	-10.519
;N:50:24;N:62:24	-10.5191
;N:67:12;w:12;N:55:12	-10.5192
;N:54:12;N:57:12;N:61:12	-10.5197
;N:74:8;N:77:8	-10.5197
;w:12;N:35:8	-10.5198
6;w:6;N:42:6;w:6	-10.5201
;N:57:24;N:62:24;N:66:24	-10.5202
;w:6;N:59:6;w:6;N:57:6	-10.5202
;w:24;N:45:8	-10.5207
;D:38;D:69	-10.5207
;w:24;N:41:16	-10.5211
18;w:18;N:89:	-10.5212
;w:12;N:77:8	-10.5215
;w:3;D:36;w:3;D:36;w:3;D:36;w:3;D:36	-10.5215
;N:69:9;N:74:9	-10.522
;w:12;N:77:12;N:89:12	-10.5223
;N:70:6;N:82:6	-10.5224
5;N:66:5	-10.5224
;N:67:6;w:6;N:67:6	-10.5225
;D:41;D:46	-10.5225
;w:12;N:83:3	-10.5227
;w:8;N:59:16	-10.5228
;w:6;N:67:6;w:6;N:67:6	-10.5228
;w:12;N:74:12;w:12;N:78:12	-10.523
;N:56:14	-10.523
;w:6;N:58:6;w:6;N:61:6	-10.5233
;N:64:12;w:12;N:52:12	-10.5233
72;N:62:72	-10.5234
;w:8;N:60:16	-10.5234
36;w:36;N:50:12	-10.5237
;w:6;N:30:3	-10.5241
;N:60:3;N:72:3	-10.5244
;w:12;N:79:12;w:12;N:82:12	-10.5247
;w:12;D:42;D:54	-10.5248
;w:6;N:58:6;w:6;N:63:6	-10.5248
;N:77:4;N:81:4	-10.5249
48;N:46:48	-10.5249
;w:12;N:75:12;w:12;N:77:	-10.5251
;N:26:6;N:38:6	-10.5254
;N:101:12	-10.5255
;w:12;D:38;w:12;D:38;w:12;D:38	-10.5255
;D:70;w:6;D:70;w:6;D:36	-10.5258
;w:6;N:62:6;w:6;N:59:6	-10.5258
:24;w:24;N:10	-10.5259
;N:34:12;w:12;N:34:	-10.526
;w:12;N:35:12;w:12;N:35:12	-10.5262
;N:45:3;N:57:3	-10.5263
;w:6;N:67:6;w:6;N:72:6	-10.5263
;w:24;N:68:15	-10.5266
9;N:66:9	-10.5266
21;N:53:21	-10.5267
;N:73:12;w:12;N:61:12	-10.5268
;N:67:12;N:74:12	-10.5268
;N:51:24;N:63:24	-10.5269
;N:59:6;w:12;N:59:6	-10.527
;w:12;N:84:4	-10.5271
6;w:6;N:92:6	-10.5273
;N:65:12;w:12;N:64:12	-10.5274
6;w:6;N:31:12	-10.5275
;w:8;N:48:8	-10.5275
32;N:65:32	-10.5276
;N:58:6;N:61:6;N:65:6	-10.5276
;w:12;N:44:15	-10.5277
;N:62:21;N:65:21	-10.5279
;w:12;N:57:6;N:60:6	-10.5279
8;w:12;N:78:8	-10.5283
;w:24;N:40:16	-10.5283
48;N:60:48	-10.5285
;w:12;N:39:12;N:46:12;N:51:12	-10.5286
;D:51;w:4	-10.5292
;N:76:24;N:81:24	-10.5292
;w:6;D:42;w:6;D:42;w:6;D:42;w:6;D:36;D:42	-10.5293
;w:12;N:78:12;w:12;N:77:12	-10.5294
;N:34:6;w:12;N:34:	-10.5295
;N:78:6;w:6;N:78:6;w:6	-10.5297
;N:63:24;w:24;N:63:24	-10.5297
;w:6;N:42:4	-10.5297
;w:12;N:68:16	-10.5297
;w:6;D:36;w:6;D:38;D:46	-10.5299
;w:6;N:64:6;w:6;N:60:6	-10.5299
;N:82:12;w:12;N:80:	-10.5304
21;w:24;N:66:21	-10.5307
;w:12;N:43:12;w:12;N:46:12	-10.5308
;N:41:5	-10.5308
;w:24;N:68:21	-10.5309
;w:4;N:68:	-10.5311
;N:53:60	-10.5312
;w:24;N:60:36	-10.5313
;N:76:12;w:12;N:69:12	-10.5315
;w:6;N:43:3;w:6;N:43:	-10.5315
16;w:16;N:48:	-10.5315
;N:79:60	-10.5316
;N:26:6;w:12;N:26:	-10.5318
;N:53:9;N:58:9	-10.5319
;N:60:21;N:63:21	-10.5319
;N:66:12;w:12;N:65:12	-10.5319
0;N:35:	-10.5319
;w:6;D:36;D:42;D:51	-10.532
;N:76:4;N:79:4	-10.5322
;N:62:24;N:66:24;N:69:24	-10.5322
;w:16;N:47:8	-10.5325
;N:71:12;w:12;N:59:12	-10.5325
;D:51;w:1	-10.5325
;w:24;D:38;D:46	-10.5326
18;w:18;N:75:	-10.5326
16;w:16;N:72:	-10.5327
;N:79:3;N:83:3	-10.5328
;N:62:8;N:67:8	-10.5329
;N:46:3;N:53:3	-10.5329
;w:6;N:56:24	-10.5331
;N:62:36;N:66:36	-10.5332
;N:64:36;N:67:36	-10.5333
;w:6;N:51:6;w:6;N:52:6	-10.5335
;N:68:6;N:80:6	-10.5335
;N:23:12;w:12;N:23:	-10.5339
;w:3;D:36;D:42	-10.534
3;w:6;N:75:3	-10.534
;N:48:24;N:51:24	-10.5341
;N:66:24;w:24;N:66:24	-10.5341
;w:24;N:42:4	-10.5343
;w:72;N:55:	-10.5345
;w:6;N:64:18	-10.5349
;w:24;N:100:	-10.5349
;w:24;N:63:36	-10.5353
;N:53:6;N:56:6	-10.5356
;w:12;N:81:12;w:12;N:78:12	-10.5358
;N:25:9	-10.5359
;w:24;N:38:16	-10.5359
12;w:12;N:44:12	-10.536
;w:12;N:55:6;N:60:6	-10.5361
;w:8;D:37;D:42	-10.5361
;D:56;D:73	-10.5361
18;w:18;N:37:	-10.5361
;N:81:6;N:84:6	-10.5363
;w:6;N:59:6;N:63:6	-10.5365
20;w:24;N:56:20	-10.5365
;w:24;N:62:24;N:66:24	-10.5367
15;N:75:15	-10.5367
;N:89:4;w:4	-10.5367
;w:24;N:75:3	-10.5368
;w:8;N:79:4	-10.5369
;N:74:6;w:6;N:76:6;w:6	-10.5371
;w:12;N:77:3	-10.5372
;w:12;N:44:12;w:12;N:49:12	-10.5372
;w:12;N:49:12;w:12;N:50:12	-10.5372
;N:55:24;N:62:24	-10.5373
;N:35:12;w:12;N:35:12	-10.5374
;D:48;D:54;D:69	-10.5376
;N:73:24;w:24;N:73:12	-10.5378
;N:65:12;w:12;N:58:12	-10.5379
;N:35:12;w:12;N:35:	-10.538
;w:6;N:59:12;w:6	-10.5381
;w:6;N:55:6;w:6;N:59:6	-10.5381
;w:4;N:54:	-10.5382
;N:73:6;N:77:6;w:6	-10.5382
;w:12;N:34:4	-10.5383
;N:62:192	-10.5383
;N:71:6;w:6;N:64:6	-10.5385
2;w:2;N:61:	-10.5391
9;w:12;N:84:9	-10.5392
;w:12;N:69:12;N:74:12	-10.5393
;w:24;N:56:24;N:60:24	-10.5394
;N:68:12;w:12;N:61:12	-10.5399
;w:15;D:36	-10.5399
;w:12;N:54:16	-10.54
;D:38;D:42;D:49	-10.54
;w:12;N:79:12;w:12;N:75:12	-10.5401
;w:21;N:47:	-10.5401
;w:12;N:50:12;N:57:12	-10.5401
;w:48;N:76:12	-10.5401
;N:89:18	-10.5402
;w:12;N:56:12;w:12;N:55:12	-10.5402
;w:12;N:78:15	-10.5402
21;N:76:21	-10.5407
;N:64:48;N:67:48	-10.5407
18;N:55:18	-10.5407
;N:72:9;N:76:9	-10.5409
;w:24;N:66:24;N:70:24	-10.5411
;w:15;N:50:9	-10.5412
48;N:61:48	-10.5413
;N:76:12;N:88:12	-10.5413
;w:12;N:45:12;N:52:12	-10.5414
;w:24;N:54:15	-10.5414
6;w:6;N:79:6;w:6;N:77:	-10.5415
;w:12;N:51:21	-10.5416
;N:49:6;N:53:6	-10.5417
6;w:6;N:35:6;w:6	-10.5418
;w:12;N:37:12;w:12;N:39:12	-10.5421
45;N:71:45	-10.5421
;N:42:5	-10.5422
;w:6;N:66:6;w:6;N:70:6	-10.5425
;N:73:9;N:77:9	-10.5425
;w:12;N:76:12;w:12;N:78:	-10.5425
;D:69;w:6;D:36;D:69	-10.5426
;N:38:6;w:6;N:38:6	-10.5427
;w:12;N:62:6;N:66:6	-10.5427
;w:12;N:84:3	-10.5428
21;w:24;N:64:21	-10.5429
21;w:24;N:68:21	-10.543
;w:6;N:55:6;w:6;N:60:6	-10.5431
16;N:58:16	-10.5431
20;N:52:20	-10.5432
42;N:65:42	-10.5433
;D:53;D:56	-10.5434
;N:64:12;w:12;N:57:12	-10.5437
;w:12;N:78:12;w:12;N:81:12	-10.5437
;w:6;D:36;D:42;D:47	-10.5437
;N:56:24;N:61:24;N:65:24	-10.5441
16;w:16;N:83:	-10.5443
;N:53:12;N:58:12;N:62:12	-10.5444
4;w:12;N:71:4	-10.5445
18;w:18;N:70:6	-10.5447
;w:12;N:51:12;N:58:12	-10.5447
;w:6;N:58:6;w:6;N:62:6	-10.5448
;N:50:24;N:53:24	-10.5451
;w:9;N:61:	-10.5451
;D:48;w:6;D:36	-10.5452
16;w:16;N:46:	-10.5452
;w:12;N:78:12;w:12;N:78:12	-10.5453
;w:18;N:86:	-10.5453
;N:76:6;N:79:6;w:6	-10.5455
;w:12;N:66:12;N:71:12	-10.5455
;D:38;D:47	-10.5456
;N:74:6;w:6;N:74:6	-10.5458
48;w:48;N:71:	-10.5459
;w:16;N:39:8	-10.546
;N:69:6;N:81:6	-10.546
18;w:18;N:32:	-10.5461
36;w:36;N:86:	-10.5462
36;w:36;N:70:	-10.5464
4;N:89:4	-10.5464
4;N:88:4	-10.5466
;w:24;N:65:12;N:68:12	-10.5466
4;N:75:4	-10.5466
;N:32:12;N:44:12	-10.5466
;w:24;N:47:4	-10.5467
;w:24;N:82:6	-10.547
;D:49;w:6;D:36	-10.5471
;w:36;N:29:12	-10.5473
6;w:6;N:84:6;w:6;N:82:	-10.5475
;N:25:8	-10.5476
;w:24;N:47:48	-10.5477
16;w:16;N:70:	-10.5477
18;w:18;N:76:	-10.5479
;w:6;N:56:6;w:6;N:61:6	-10.548
;N:69:6;w:6;N:68:6;w:6	-10.548
42;N:64:42	-10.548
6;w:6;N:86:6;w:6;N:88:	-10.5482
;w:6;N:49:4	-10.5482
9;w:12;N:45:9	-10.5482
36;N:81:36	-10.5484
;N:50:6;w:12;N:50:6	-10.5485
;D:36;D:38;D:43	-10.5486
;N:61:24;N:73:24	-10.5488
;w:24;N:56:12;N:59:12	-10.5488
;N:61:24;w:24;N:61:24	-10.5489
;N:81:12;w:12;N:79:	-10.5489
;w:12;N:57:6;N:61:6	-10.5489
;N:61:6;w:12;N:61:6	-10.549
;w:16;N:38:8	-10.5492
;w:6;N:58:24	-10.5494
6;w:6;N:99:6	-10.5494
;D:41;w:12;D:41	-10.5495
;N:42:30	-10.5495
;w:24;N:40:15	-10.5496
;N:50:12;N:55:12;N:59:12	-10.5496
6;w:6;N:32:12	-10.5498
;w:6;N:59:6;w:6;N:60:6	-10.5498
;N:58:3;N:70:3	-10.55
;N:73:6;w:12;N:73:6	-10.5501
;N:66:36;N:69:36	-10.5503
;w:6;N:41:4	-10.5503
;N:53:12;N:60:12;N:65:12	-10.5504
;N:71:8;N:75:8	-10.5505
;N:35:6;w:12;N:35:	-10.5507
;N:80:12;N:85:12	-10.5509
;N:47:32	-10.551
;w:6;N:86:6;w:6	-10.5511
;w:6;N:51:6;w:6;N:39:6	-10.5515
;N:61:192	-10.5515
;w:12;N:58:12;w:12;N:54:12	-10.5519
;w:8;N:74:4	-10.552
;w:15;N:63:	-10.5522
;D:46;w:12;D:36;D:46	-10.5523
;w:24;D:48	-10.5523
;N:50:12;N:53:12	-10.5525
;N:74:6;w:6;N:71:6	-10.5525
9;w:12;N:31:9	-10.5526
;N:45:12;N:50:12	-10.5526
;w:4;N:56:	-10.5527
;N:75:6;N:80:6;w:6	-10.5527
;w:24;N:59:36	-10.5528
;N:60:24;N:72:24	-10.5529
;N:68:24;w:24;N:68:24	-10.553
48;w:48;N:83:	-10.5531
;N:75:12;w:12;N:74:12	-10.5533
;w:6;N:47:6;N:59:6	-10.5533
;w:24;N:44:8	-10.5534
;N:66:12;N:71:12;N:75:12	-10.5534
18;w:18;N:58:6;w:6	-10.5534
;D:53;w:8	-10.5535
;N:49:3;N:56:3	-10.5536
;w:6;N:60:24	-10.5537
;N:50:3;w:3	-10.5538
;N:65:6;N:77:6	-10.5539
;w:12;N:74:12;w:12;N:76:	-10.5543
;w:12;N:61:12;w:12;N:57:12	-10.5545
;w:18;N:89:	-10.5545
;N:80:4;w:6	-10.5546
;w:12;N:66:6;N:69:6	-10.5546
;w:12;N:43:12;N:50:12	-10.5547
21;w:24;N:67:21	-10.5548
48;N:62:48	-10.5549
;w:24;N:39:16	-10.5549
48;N:54:48	-10.555
;w:24;N:43:24;N:55:24	-10.555
;w:16;N:29:	-10.5551
;w:15;N:52:9	-10.5553
;w:6;N:51:6;w:6;N:54:6	-10.5555
;w:24;N:34:9	-10.5555
;w:6;D:43;w:6;D:43	-10.5558
;w:72;N:75:	-10.5559
;N:83:12;N:86:12	-10.5559
;w:6;N:56:6;N:63:6	-10.5559
5;N:67:5	-10.5559
;N:88:36	-10.5561
18;w:18;N:67:6	-10.5562
;w:24;N:72:18	-10.5563
;N:60:36;N:64:36	-10.5565
;w:12;N:70:20	-10.5565
18;w:18;N:59:6	-10.5567
;D:46;w:6;D:46	-10.5573
18;N:53:18	-10.5573
;w:24;N:25:12	-10.5573
;N:51:6;N:55:6;N:58:6	-10.5574
;N:74:9;N:77:9	-10.5575
;w:6;N:65:6;w:6;N:63:6	-10.5579
;w:12;N:55:12;w:12;N:54:12	-10.5579
;N:79:10	-10.558
;w:12;N:66:16	-10.558
;D:36;D:52	-10.558
;w:16;N:66:8	-10.558
;N:38:12;w:12;N:45:12	-10.5581
21;N:77:21	-10.5581
;N:49:24;N:53:24	-10.5585
36;N:82:36	-10.5586
;w:12;N:33:12;w:12;N:33:12	-10.5587
;N:66:12;N:69:12;N:74:12	-10.5588
;D:38;D:52	-10.5589
;N:56:24;N:63:24	-10.5589
;w:12;N:44:48	-10.5589
;N:54:24;N:58:24;N:61:24	-10.5591
;D:38;D:39;D:42	-10.5591
;w:18;N:74:3	-10.5593
;D:48;w:6;D:45	-10.5593
;w:12;N:49:12;w:12;N:53:12	-10.5594
;N:67:6;N:79:6	-10.5597
12;w:12;N:82:12;w:12;N:84:12	-10.5597
4;w:12;N:75:4	-10.5599
;N:47:6;N:54:6	-10.5601
;N:73:6;w:6;N:71:6	-10.5601
;w:6;N:66:6;w:6;N:69:6	-10.5601
;N:83:12;w:12;N:83:	-10.5602
;N:96:24	-10.5602
;w:24;N:67:21	-10.5603
;N:31:36	-10.5603
;w:12;N:73:12;w:12;N:75:	-10.5603
32;N:64:32	-10.5604
18;w:18;N:57:18	-10.5605
36;w:36;N:82:12	-10.5605
;N:42:6;N:49:6;N:54:6	-10.5606
;w:24;N:41:8	-10.5608
12;w:12;N:74:6;w:6	-10.5609
;w:24;N:65:12;w:12;N:67:12	-10.5609
;N:90:18	-10.5609
18;w:18;N:77:	-10.5611
;w:24;N:90:12	-10.5611
;w:6;N:61:6;w:6;N:58:6	-10.5613
;w:24;N:66:12;w:12;N:64:12	-10.5613
;w:6;N:62:12;w:6	-10.5613
;D:76;w:6;D:38	-10.5615
;w:36;N:71:6	-10.5617
;w:6;N:63:24	-10.5618
;N:70:6;w:6;N:68:6	-10.5621
;w:8;N:47:8	-10.5621
;N:39:3;N:51:3	-10.5621
;w:12;N:49:12;w:12;N:54:12	-10.5622
;w:6;N:70:6;w:6;N:70:6	-10.5622
;N:63:48;N:66:48	-10.5623
;N:63:2;N:66:2	-10.5625
;N:62:48;N:65:48	-10.5625
;w:12;N:63:6;N:67:6	-10.5626
;N:64:3;N:68:3;N:71:3	-10.5626
;w:24;N:43:8	-10.5628
;N:60:24;N:65:24;N:69:24	-10.563
4;N:71:4	-10.5632
;w:6;N:60:6;w:6;N:61:6	-10.5633
;w:24;N:34:18	-10.5633
;N:39:12;w:12;N:46:12	-10.5633
;N:52:3;N:59:3	-10.5636
;w:24;N:39:4	-10.5636
;w:12;N:80:4	-10.5638
;N:94:8	-10.5638
0;N:59:0	-10.5639
;N:61:24;w:24;N:61:12	-10.5641
;N:49:30	-10.5641
;D:54;w:8;D:38	-10.5642
4;N:61:4	-10.5642
;N:47:6;N:50:6	-10.5643
;w:24;N:54:24;N:57:24	-10.5645
;w:6;N:36:6;w:6;N:36:6	-10.5647
;N:78:12;w:12;N:71:12	-10.5647
;D:70;w:6;D:38;D:42	-10.5648
;w:24;N:66:36	-10.5648
42;N:66:42	-10.565
;w:24;N:61:36	-10.565
;N:87:18	-10.5651
;N:73:4;N:78:4	-10.5652
21;w:24;N:78:	-10.5652
;w:3;N:39:	-10.5653
;w:12;N:32:4	-10.5653
;N:55:6;N:58:6;N:62:6	-10.5654
;N:53:6;N:58:6;N:62:6	-10.5655
2;w:2;N:63:	-10.5655
;w:24;N:67:12;w:12;N:69:12	-10.5657
24;w:24;N:83:12	-10.5658
;N:80:10	-10.5658
;w:15;N:49:	-10.566
;w:12;N:69:20	-10.5662
;N:72:4;N:76:4	-10.5662
0;N:47:	-10.5665
;N:72:3;N:84:3	-10.5666
;D:37;D:39	-10.5666
;N:46:12;N:50:12	-10.5668
;N:70:24;w:24;N:70:	-10.5669
;w:24;N:41:15	-10.567
[...]
